2AD48
2AA10
4231E
233D4
1F072
1B79B
4A8CD
20442
3D807
346CD
23E29
1BDD7
14F8D
28E71
35AC3
53B6C
232D8
1E31E
5002E
19220
4B8DC
1C1FB
5C8DE
25F22
2A42A
2F3A1
2991B
293DE
3EA09
2A320
4E039
6631B
287D1
246DF
366BB
22E30
53278
67C38
31646
1F9B6
4ED08
2D4E6
2B6E3
37579
4010D
2B899
66D9B
20278
26B01
21876
258E6
208AE
447A5
39195
2300E
2997E
23F43
5A71F
1E3CF
5B291
3616A
47490
5ED01
64863
49D78
38FF1
23966
1C579
5995A
0FF3F
1FA6A
3FE4C
1C944
4F5BF
268B5
2CBC1
1DF90
36A3B
1BBE9
5D9C8
360D0
463BF
2F9FA
30DF9
22B21
229E1
22DCC
4A89B
351D7
248B1
41131
52755
262DD
276EC
2DAED
3F56B
4A358
2704F
6056A
18CF2
32D3C
41AE6
4FADD
2DC09
20CEC
2175C
359D1
23528
1BA3F
1DDCA
3D941
23F65
204E8
661C1
2DD8A
7D944
26C80
233CF
6DDA4
4B730
5B4D6
63C40
2C6F9
5AD27
2B387
34AB6
521A0
14991
298D9
47F5E
1A803
1F986
29632
25A33
5104C
2B02E
27AC0
23ADC
30D0A
3363B
2048C
279A7
601E8
2B264
2117A
69BBE
42218
5A7F6
3AC4D
413DC
394E6
5F081
1FFCE
2166B
56734
3314F
2A96A
24D43
27850
2A215
6387D
3D214
5EEEF
1C511
2B0D0
2A864
2E320
29017
1976A
29BCC
3925D
215FE
33ABE
5B45D
4C50C
2602D
2EAE2
48F84
1ED9C
427F3
3D4A2
5391B
662D6
21E90
32255
204DF
40F5F
59336
5FB49
3727B
24441
2696F
4095A
2DE90
313FD
2292B
31108
1D24B
2275F
24C7D

