6C989
7B5BE
1667E
72D1C
723D1
77644
13A52
795E5
16C3B
0FDC4
09B46
79BAA
757FC
72A48
0FDCB
18549
06CF4
74531
1BC19
7A9A4
186C8
7A5B7
1A13B
797EC
0CBAE
0E201
03F86
73E23
12C45
06C97
15D60
1F599
7897F
075AB
113CA
0A72B
1A4FE
1F66C
7361C
779A4
1723A
76CBD
7AB80
13443
12F16
76185
20219
7F4BE
089BF
74D88
724D8
77090
1537B
6F659
79338
7B6A0
763CB
1B99B
77170
1B179
69FF6
18F73
1F926
2461F
18C02
113C6
7F01B
79863
1C050
7B6E6
79926
1161A
7B79C
1533E
736B2
73987
7164A
131C1
76B43
1D172
113C6
15681
0E446
0FF97
05459
74E97
03812
14863
11158
737CC
147E9
1B58E
76E39
72C51
70557
14A84
14772
7CA71
207CB
79D52
734B1
1675E
14FA8
6EED5
77623
75E97
11B5E
0665D
7F923
77294
127F6
080B2
72F9A
1CD7B
0D4D1
2C4E2
0AFE5
78F3D
2104C
1671E
1B722
2237D
71AC3
1ABAF
6F34A
0E543
1B406
7BE8F
72422
19045
7CD8C
7DE2D
0FFC2
6EE91
1D328
663EF
6C07D
00200
0F76B
00E04
6F020
752FD
1B6CC
72359
78681
1EC04
137F9
20206
123E8
11765
115E3
1BD07
6FFB5
75469
1A44C
0F64F
7204B
058DD
6F58B
6F552
1F230
13CE6
1AA02
738BB
79F4E
6BED8
0DD84
06669
76B0B
0C53B
7A232
70818
7412E
1ABF6
17534
74D96
702DF
139F0
74B16
14644
12FE9
1BCC4
1EA48
70AB5
0F915
794F8
14877
1999B
1C6B4
11FFC
79E5D
79019
15688
6B315
732AC
71BE7
7077C
7D722
76C8B
742B7

