4FD04
47221
5BB39
3FE43
39B9A
306F6
6A8FD
371D1
54047
49CE8
32BB0
30280
27A85
48FA7
4B44C
7650F
33F50
36ED0
6E678
2B64B
6947A
2FEEE
8343E
40167
3C15B
426B5
3FC31
48FEA
58314
3D2F6
6EB4E
8F6E8
4536A
35A99
4C029
31261
73CD1
9199D
560EC
374C0
6F2B6
4D824
4847B
4C849
5A457
4B0B5
908D1
336F4
386D6
3C00F
43DF1
390A2
601DC
64BBF
3B95F
44ECF
3E8BD
7EF6C
355C2
8064D
632FF
62DCE
839BC
8A010
664C3
508EC
35971
30F68
7D96F
1C390
35F33
5B38A
30108
713AB
44B41
4E81C
38550
4B5B8
31AFB
83621
4C303
628FE
43761
44C86
36BBF
3D902
35278
6A035
4A1DC
4199B
5AE28
7285C
42150
467DA
51EFA
580D7
69982
40EEB
856E6
2B10F
5846C
5ABA3
71FD6
52F6C
395BC
3B3B0
4A260
34668
2C1D5
34B7B
56669
34554
3B12B
90C22
40C26
ACC25
37C30
3BE19
9A8F5
6A44D
80700
89E0C
4F2BE
8015C
4EAD2
4AF13
71F7D
235FF
4A3F5
6336F
2C2B7
336DB
3A270
4617F
6F3B8
53BB8
4B00A
3A145
44A76
513D2
3D6AA
4555B
88192
4CDFB
38F95
9550E
5D6DC
7CB0F
51EB6
5D1EB
50D91
86217
3CA3D
3B7E3
79ADF
47E81
4C091
37162
48A9D
4CE59
8B15D
54A15
86A52
347CA
48035
4F9E7
40CD8
3A178
2F61D
3A4CF
5E2AF
3E4DF
59457
80CFB
6B43B
431BB
53A80
6832A
37DCB
5D52C
5616B
73CD7
8FDB6
3EF81
45E02
36F82
5AD88
7E43C
86E67
4D0C7
3CBD7
417BF
59B67
55A08
55BCC
3F8B2
57393
2FF59
3C4B1
418F6

