678C9
596D5
6C124
5247B
4ADC0
3DE30
7F1B5
45C6E
6277C
57877
3C421
3D2DD
33A64
5D907
5920F
8C860
3EB9D
46CC5
81E91
371CF
7C5B9
3CA58
9C1C1
50DD8
47863
4EBCA
4E016
5D5F9
6899A
495F5
83B03
A9E5D
57A61
40B8E
59DDB
3A4D5
88C0E
AC739
6D96E
46804
83EF3
622D2
5ACBB
5A1BC
6B16F
5F43E
AB507
3FCEF
43D00
4CFEB
5753D
48C2F
71DAB
80BD2
4B5CC
56779
4F9CD
9666C
44330
984A3
80219
748FE
9B394
A20ED
788F7
5FADD
4124F
3E327
94B29
2418E
4442E
6CC28
3C91F
86F79
580F2
642E8
493FD
58A78
3FC4B
9B9FF
5A655
74BE2
50316
518F8
43985
4EDB3
40E4D
7E36A
57983
543FB
6B731
8719E
53FD7
5A6C7
69340
67E9E
7DBCA
51903
9D3CB
36C8A
704F9
6ACD3
8802A
6AD89
491D7
4BC51
5753E
3F5C7
36B00
4362E
6654E
3ED6F
4C406
AC214
4CE5C
CB09F
42A8D
4BB26
B740B
7E0C7
98454
A2568
6576E
97FFF
656E7
593C8
866B6
2CDBD
5F3AF
74B4D
37827
40284
44E98
5AEC7
829FA
6DDDF
61AD6
4874B
5162E
64655
501CF
586A9
A1C1A
62849
484D0
B1496
6EF2C
92A2E
60C70
6F032
5FF4E
9F396
4F075
4C3D0
904A1
55458
61806
42CDC
5DEF5
6335A
A478A
63B65
A021B
43FFD
5A99C
676D1
4CBEB
450EB
3D730
44EE4
75ED3
50DF1
71671
98E74
7F209
55C85
6B633
7C3D6
47EA0
6E8A5
66012
887D6
AA9B4
519E7
5289B
4583E
6B755
960D6
A00E1
5B199
4C729
52BEA
69D6F
6F1DE
6D27B
5222F
6FB6A
3C090
4CDF6
5407E

