6BE74
7A210
16CBB
727CF
719A4
77D01
14150
79644
17311
100B7
0AA04
7956F
752DD
72537
10ED7
18D6A
06A0C
741D8
1C4C2
7A0FF
18F99
7A6B1
1AB01
79774
0BEEA
0E923
03CEC
7336F
1320C
09E28
16635
20075
779D0
071B9
11AFC
0A9EC
1B9B3
2093F
73019
774C6
17C35
76838
7A57D
134FC
137A4
75EDC
1FE5A
7F597
08810
747B6
71F9A
76DC7
15737
6EDA9
792D4
7B168
76B53
1C4F1
76E58
1BCED
695A7
185CA
20348
24C0B
196CA
10E83
04F4A
79419
1C527
7B138
79B58
11656
7B6CD
15BAC
733AA
73458
711F6
13633
76690
1D57D
10625
1608D
0DDEC
0EFF5
00998
74C51
03BD3
14FBA
1161B
731A5
1528B
1BE6B
76B3B
72965
6FFF8
1549C
14CEB
7AEDC
2139A
79BEA
731B9
1710C
154CB
6E6FE
7708E
759C9
12AC6
0643A
7F9C1
76F90
1357D
081B7
72C38
1D8B1
0DAA7
2D4D7
09E39
794ED
21C88
17029
1C1DF
22EB1
71556
1B6B7
6EE49
0EC5C
1BE1A
7B747
71EC8
19967
7C6FF
7DD97
0CDC9
6E69E
1D9C0
65B97
6B8EA
7D906
0F0F2
0099E
6EB76
7503E
1C186
71C47
78755
1F945
13AF0
20515
1360C
11CE5
11401
1C813
6F3C9
7501A
1A821
0FA63
71ADA
05C3A
6F201
6EF9A
203A7
15250
1B5D4
7330E
79C5B
6B688
0E88F
0BEF0
742B4
0D8E1
7A28A
70268
73B20
1B66B
17A7F
7480A
6FC3E
13D5F
744B4
14DA1
13183
1CB95
1F428
70778
10935
79BD9
14EB0
1A22F
1D041
11E74
7A9F8
78D43
15D45
6A552
732A4
7147A
70232
7D20C
7681B
73CFE

