FB5BF
060A9
21748
FE765
FCC27
00927
2175D
02F09
2099E
18FAF
10D47
01D1D
FCFCE
FFBB1
19F3E
274C9
0DA3E
FE735
28FFC
01B19
2565D
02B26
2ADD9
04641
1361A
16978
0D151
007C0
1DCFD
11D22
240CF
31432
039E2
0E4F3
1AB58
10949
293FE
320FF
02543
0132E
2548D
03F8B
06665
1C294
1E6DD
03188
31530
07682
0FEAE
FF8BD
FEA4E
01194
21006
0116E
03733
0682A
01D22
2B920
008F3
2B5E4
FC335
23E30
2F952
346A7
25510
1AC0E
0C7AB
01DFA
2B5E7
00343
03073
1CD10
03917
23E25
FFD53
0162A
FC237
1C0BC
FF948
2D20D
19A2B
21DF7
16291
17516
08F96
0007D
0B622
22230
1A288
FF3F0
1FF1F
294D2
025CE
FF912
FF261
1F9DC
21EC7
05C20
30BA0
015FE
02C21
21885
23A37
FDFCF
014B7
0061A
1B415
0D66B
067E9
00864
1DB78
0EF2E
FDF32
2F5DE
1591E
41050
10FC4
039B4
34779
23E3D
2BA2E
32D88
FFD99
2AFE0
FDB5D
1814A
2932D
01A16
FF965
24FA3
03D24
06234
13DE3
FBFA3
2A3C8
F6BE0
FA528
06ECF
1759A
0D135
FAE41
0170B
2CCD9
FFDC7
02704
31CAF
1F178
2E9B8
1D0D9
1D74E
1B16B
2CD84
FB35F
FFE91
293B1
185A1
FFA80
0D64E
FCFA0
FD812
30C23
1EF73
2BF5D
FD4AC
05E03
FAE91
164FA
13130
FD543
147A1
09A13
FC3DA
0368A
2B16C
24970
00A99
FF37D
20E2E
FEBF1
20101
1D755
2A31D
30ADA
FC9C6
18D22
03365
1FBC4
29A04
2D655
1B0D9
04D9E
04118
2054A
FAEE4
0269F
FD630
00159
04FDD
014D6
FFD6E

