152BE
17FE2
32694
12AFD
0EB11
0EA3E
36D81
118E3
2F5E2
277BB
1976C
0F53E
0A15D
15141
2659D
3E41B
17A27
0F79F
3D335
0E41C
38809
101F4
4462E
15D88
2183E
23030
1BDFE
15FA8
2E751
191AD
399AF
4CB16
14B8A
1AE7F
2878B
19E2D
3C654
4C804
1B68E
1187D
3A967
19F24
19AC0
2AA4C
2EEE8
1894B
4F446
1459C
1C2AD
10C00
1389B
11CA5
33920
1E0F4
13D92
1A4A0
14736
4354C
10314
43C03
1B4FD
388F9
4814A
4DCF2
37690
2BA5A
1832A
0FAD4
43F6B
09201
1275D
2FDFF
1075D
39F88
14949
18A87
0EF4A
2A19E
0E814
46540
2AF04
34160
24C8A
27A38
1AA1C
129A5
17B7C
36DDA
27F63
13334
306FA
3EB92
152FE
14AA5
182FF
2F624
36DD6
164FC
48A7C
0D83C
1BFEE
315F0
3A608
179CC
1220E
11B93
27DEB
19426
120C8
0F70E
2CACB
1A39E
10805
4B3F3
21C95
5FE62
1E5AA
15DD0
51733
38067
43D59
4C5B1
17C1D
42F58
16006
2680B
3E0C8
0B82A
1611F
36976
0FA84
13AFE
26B9E
12457
3E8B8
12EB5
131C4
1676B
261C3
20FE6
0ECD8
15E2D
47377
176B0
126DE
4DBD5
31ED0
4646F
2AF8D
30202
2BB8C
466FE
0E7BE
11D46
415DF
25EC6
161F2
195C9
13601
15052
4A154
2C587
45B4B
0D84B
19792
14114
21EE8
1C839
0A579
1DF91
2335F
0FCC8
1CB6A
4391E
398E1
147B6
189BA
35E40
0FEDA
31702
2E811
3E6D4
4C062
108A5
24A0F
1288D
30D08
421EC
47153
2A679
1586F
163E1
307D2
15E77
1BDC3
1116F
1A1B1
11E90
126B1
12D86

