2A8E4
27155
412BC
237B5
1DAFF
1AE49
49651
1E4D7
3C559
33EEE
21C4F
1AB5E
14EF5
273A1
3233F
523EA
20807
1DC94
4ED3A
189D7
49689
1B97C
5AAF4
24C99
2C783
2E050
28790
27F29
3D0D1
22C23
4C74F
64970
238B9
2535D
34B77
2205B
4E5BC
64450
30817
1F320
4D452
2C78B
29FC3
36F6D
3DAEB
2AC17
681BE
1F725
2679A
1F74D
250DC
1FE41
43912
36A6F
21E45
2A8F9
245FD
58452
1D6C0
592DC
354D4
49366
5D6E1
63A46
47919
39911
25796
1B5A1
5903F
1057B
1F93C
3FF22
1B850
4D594
260EB
2C30E
1E893
3637E
1B0C7
5C0FC
387C0
44414
30A68
341C4
25E3A
22403
225EF
48F70
3404E
23E9F
3F298
515E1
2527B
26878
2D30F
3D782
48FE8
23D5A
5DD33
17E34
31726
3F8DC
4E163
2D0E0
20394
20617
338C7
23332
1BC98
1C3CB
3A787
23CF1
200FF
63B40
2C953
7B171
288EC
25199
6AF98
49B92
591EB
62904
2BD43
58292
2A72A
333E4
50635
13BB6
28F1A
462D8
19923
1F2D5
32B61
24E85
501EB
2A769
27B4D
223CA
320BA
31EBB
1F8F3
271E9
5E4BD
2B073
2024E
6680E
41F64
5A623
38011
40492
399C5
5CE68
1E8F3
20E0D
55F91
31CC0
29263
23CCF
265D0
28E1E
60B79
39474
5C691
1B34E
2A155
2938D
2C84A
282B1
14B30
2745E
38DB8
204A8
3221B
59159
4B985
25274
2DEA3
47F3A
1E483
40BF0
3D00A
50AD5
63F0F
21565
2FBA8
1FD3F
3FB8C
5779A
5D915
37446
2416A
25A69
3EC2D
2C6A1
314E8
219C2
300CD
1CB21
20FB7
23031

