58A53
4DF0B
61CAE
46BBD
4019C
3570B
7234D
3C91D
5964F
4EE9A
36469
35008
2C1EA
50A36
506D0
7E945
37F6C
3CD4F
75A99
2FC11
7060E
34A9E
8C828
4654A
40576
4700A
450FE
5093D
5E4C3
41B85
76838
99479
4C12B
39C71
512A7
348DF
7B98E
9B978
5ED05
3CF45
76E55
5532F
4F2B7
51933
60877
52918
9A827
3809E
3CA9E
42537
4B1C6
3EE3C
66B76
6F279
4174C
4B73E
44E58
87AF5
3AE1B
89491
6DF50
6972E
8C654
92F44
6D17D
562F2
39E3B
35E32
86302
1F271
3B467
61BF4
34B7C
79516
4BE7D
56926
3EA07
504E2
36ED1
8C674
51798
6953B
4832D
49899
3B850
43FF6
3985C
71878
4F21A
488A1
610C6
7A2E0
48BED
4DE86
5A980
5DF45
7116D
471EE
8E4A1
2F6D2
61383
60B56
7A2EF
5BD9A
3F38B
41628
4F0D6
387A9
300C7
3A2D0
5C541
383E1
41770
9AF17
4546A
B806A
3BD11
41C42
A53C8
71A10
894E3
92FAB
57776
88FBC
5724B
5042D
7993F
26E75
520E1
69B92
3063A
382A3
3E27F
4DD82
7672A
5D750
53709
3F6DC
49644
585DF
445F9
4C6F5
91A54
54ED7
3EAD5
9FB94
63F29
84DB5
5772B
63C71
56784
8F77C
437B7
41B94
8217A
4CE12
5405D
3B724
50941
5532F
9487F
5A3DF
9020E
3A425
4EEDE
587A3
453F1
3E2C1
349DC
3E418
67021
45369
62402
89C69
72A7C
4A0E8
5C7C9
6FA7C
3DD5B
63BAD
5C02C
7B801
99CF7
45E89
4A965
3C61B
6106F
871DB
90429
5246E
4295B
47E81
5FB6A
5F1C9
5E737
46763
60560
3473E
42765
486ED

