0E0B1
12F66
2D7DD
0D16A
09B17
0A8E5
30A91
0D4E7
2B0BA
23555
16B20
0B888
06780
0F076
22667
37981
14ADD
0AB4E
37534
0ACDD
32DDF
0C4C7
3CF42
10DD8
1DDD2
1F57B
17ACD
0FFD2
2997C
15E30
33525
44BA3
0FC7A
1778A
2463C
172C9
36687
44940
1460C
0CF9D
345C4
13C57
143C0
26897
2A03C
1285C
46FC8
10A6E
18BB4
0BD91
0DB30
0D171
2E3CF
15DCB
0F2AC
14DD7
0F24A
3C59F
0BC85
3C9BA
12A60
3302A
40F6D
46881
32062
2701E
13C5B
0BC90
3CF25
06B83
0E168
2A849
0CC61
3382F
0EC13
1225A
09C32
260FE
0A52E
3F157
266C5
2EB24
20D3F
237B4
16E12
0D630
142AB
30D53
23F15
0DA11
2B870
38823
0FDD5
0EB5F
112FA
2AB04
30D25
11CDD
41994
0A0E9
14D86
2CA4C
33CE9
10770
0D6E1
0CD66
23FA2
15F22
0ECD8
0B2CF
28137
17082
0B507
43184
1E301
56D5D
1AF3F
10C8C
48F11
32204
3CBD3
44F40
11111
3BE44
0F2FA
22419
37EF9
08C50
0FC76
31655
0C5A5
0FDB7
22BB2
0C0F3
38AFC
0B123
0C3EB
128A1
2221B
1B59F
09379
10244
3F860
10E1A
0DDB9
457C1
2C94A
3F934
26A0C
2ABD1
27178
3EF30
09202
0CD04
3A7F9
21F73
0FC77
15E1C
0D0BC
0E663
4289E
2808D
3E234
08F4A
13EFC
0D041
1E672
18A11
06E3C
1ADF7
1BFEC
0A4D3
1592F
3C660
338AA
0EECC
11817
2FDED
0B24C
2C55D
29ABE
3857E
440D4
0AF10
20EDC
0E1A6
2BD87
3B007
3F968
261E0
10AC6
111B3
2BBB4
0E669
14B62
0B954
12CA8
0E50B
0D904
0D74D

