0AD09
11F41
2C1D5
0A6FA
07EAB
0954D
2ED69
0C7CF
2A02B
21EA7
1708B
0A4CA
04CBF
0D22B
22FA5
35C27
14A70
08C93
35B36
09533
31D21
0AF9B
3B0B1
0F50D
1AD49
1E9CC
165B7
0DC11
287EF
19C1B
31B68
427EF
0F9F4
1582E
23BB4
168A6
36E4A
438BE
11A6E
0B196
32CE5
116DE
1274C
2502C
29617
10435
42C06
0F76D
1754C
0A9C3
0B503
0B561
2C8D4
13533
0DB92
11EEC
0CEF2
3AD50
0A38E
3AEDA
0F0C3
2F697
3EF5B
44144
31355
24999
1400C
0A7DC
3A6A7
0554D
0C58D
283CA
0BB61
3209F
0C6FC
0F7FC
07278
24B44
08BFF
3CE9E
22E31
2DB62
1E736
1FA36
11593
0B4A9
13071
2F4A6
22EF5
0B63B
2ABB4
36B38
0E062
0C8BE
0E4CA
29F1C
2F0A3
10965
403A6
09012
12689
2BFFE
31FA2
0D8A1
0B8E0
0B26B
23D64
1489D
0D611
0A138
28172
15CA5
0922C
4130A
1D794
54BC9
1814E
0DE7B
47269
30C51
3B27C
42C5F
0E5DC
3A909
0C871
21637
36841
07CE4
0D402
305E0
0B349
0E6D2
1ADFC
098A8
36DCF
07C29
09165
10498
1FA41
198CC
0710C
0DDD9
3D82B
0DF48
0C6B4
44019
2A7FF
3CE5B
26BA5
291B8
24ED5
3D2F4
072F4
0AD08
37F41
210E0
0DA25
15062
0AD3E
0C08A
414A0
28C95
3C8E6
0764A
11FAB
0A69A
1E166
1A36F
067D3
1B662
1919D
0854B
131F4
3AC6D
31861
0CD29
0EABC
2DEFD
0932F
2B462
27D26
37AA5
4218B
08C14
2110F
0CAF2
2A8D9
391D9
3DC69
2433D
0F144
0F4ED
2AD4F
0B875
11A9A
097E7
10080
0CDAD
0C191
0BDDE

