74BC3
00EFA
1CE30
79549
77FA6
7CD17
1BBA1
7ED90
1C918
15269
0E2BD
7E2F7
79A42
79FC6
1615B
211A0
0AA29
7A056
238E3
7E6C5
2012E
7F262
23EEA
7FB57
10305
13278
091B8
7ACC2
193BA
0E6B7
1E31F
29E06
7E791
0B391
16D7A
0E06B
23670
2A91A
7BC31
7CF4B
1F7D5
7E343
013B8
185E5
19BC5
7D73F
29DB0
03F42
0CBD8
7ACDE
7936F
7CB61
1C0D2
79463
7F0C1
019D7
7D0EE
2507A
7C6B1
24B31
741F8
1EF29
28FE0
2DB40
20384
16889
09414
7E2E3
24EB9
7E01A
7F08C
17EC0
00140
1DD16
7A6E6
7B562
776AD
1855D
7BA67
265D0
15ABA
1CCCA
129B8
13C08
05629
7B345
081B7
1C7FE
16659
7A0AB
1B529
238EF
7D5D8
7A011
78A7D
1B30A
1C4D6
011DE
2A154
7E1AC
7C0D0
1D0BF
1D7E4
7752C
7CE5C
7BC40
1793C
0A57B
038B3
7C6E5
19456
0C044
7927E
27BA6
122EB
3891C
0DF1B
7F316
2C75B
1E5EB
24FC3
2C051
79A0F
24518
775C2
14176
237DC
7EFBD
79BB4
20189
00A82
0295E
10DD7
762A1
24D32
6F72F
73FE9
02E9E
13CC0
07BAB
75AC5
7C1D8
25A48
79D23
7E295
29FCB
1A33E
287BC
18E81
1876A
16DF5
25D78
76143
7B3CC
22EBC
149F4
79AA7
0A1FC
770A5
77471
29ACA
1AC1B
24D90
78F68
00B04
74444
12FA8
10039
79673
1182A
02FFD
770F2
7CACA
245DA
1F0C0
7B737
78987
1B4B1
7A445
1B421
19044
246BE
29369
77680
15498
7F272
1B197
22FCD
26603
1721B
0077B
7F406
1BD48
73D13
7BE0F
7832B
793FF
019F1
7CACF
7AAF5

