13183
1855C
31D33
10D9C
0DE4D
0E061
36015
119A6
2F0D3
26B3E
1A5B8
0ED7A
08FAE
14511
27D00
3D81A
1868B
0E52A
3C815
0D69D
3879C
0F691
43B5C
152B2
1ED22
22E8C
1B536
14DCF
2E383
1E021
39084
4BBA7
160D9
195E9
2890A
19BBD
3E33B
4CE9B
19DC5
10672
3A0CB
18A39
18EA4
29C07
2F3F5
17511
4C166
13C7D
1B4D7
10899
1219A
10D21
32BD5
1D182
133A0
180D4
12E33
43020
0F661
4343A
19250
35960
47329
4C785
37944
29DFF
18088
0F1BA
427A1
08141
1156E
2E5AE
1012E
399F2
13304
170F5
0D0E4
2957B
0DA98
455EB
27D7D
340DB
22E46
24187
15D5B
1152F
171F7
36565
27A2F
11E50
30828
3DE13
14455
137FF
166A7
2F7A3
36110
16638
48885
0D178
1ACAE
319B5
39A8A
15DEC
110D2
10EBB
286F3
185CA
11114
0F317
2DA5C
19749
0F20D
4ABCF
21B54
5F4CA
1BE22
136C1
5128E
37AB7
43782
4B4E4
16249
42E84
14772
26600
3DA67
0B1D3
1491F
36781
0F294
12DDD
1EA0A
10CEB
3DA0A
10E07
10FF4
154D5
24152
203B8
0D967
14859
46761
15816
11C3F
4DC37
309C8
448D7
2BE93
2F595
2A329
45F02
0D996
10A7E
3FD72
25B78
151F5
191C9
123F8
13D13
4A250
2E0C3
45726
0CCDE
1876A
12B7A
2240D
1E0A3
0B656
1F1B6
21638
0ECEC
1B8A4
432E5
3873E
13563
16F2F
34ED9
0ECC7
3147A
2D5FB
3EE1C
4B6D8
0F42B
257BB
11C22
30592
4169D
468CF
291AA
148EF
15544
30752
146BA
19D4E
0FFAE
18930
11114
11E1A
124F5

