543A3
447DB
5DEEF
4435E
3AE8D
32C51
6D8B8
3724B
559A4
4C31C
31F46
30E49
2A13D
4A97F
494CA
79323
31C81
39AC0
712CC
2CCCF
6A5AA
31F22
86233
41E78
41D10
43786
4105E
4AF6C
597D7
35925
71316
93289
406EE
394A6
4C944
31E0A
715D0
92969
599D8
39D30
71AD4
50925
49C66
4EF93
5A6D7
4E2C7
9884D
3511D
3A8FD
3C1D6
472FE
3B5E7
62BD7
66937
3D425
4A453
43679
81131
3733E
82EFA
67F2F
69A95
8708A
8E303
670E9
54B11
3F58B
321A7
820A1
1E682
39236
5F437
31124
731C4
481DA
52415
3CE5D
4DD4D
337E3
8669F
52E1A
63C37
47C69
4C6A0
3BD39
40BE8
37216
6C3C1
4B83E
447BD
5BDBE
75B31
4445A
49575
561F2
58EB1
6C52C
3E2FE
87143
2C1A1
5B3FC
5B311
747EF
56D6F
3BB10
3CF19
4A4EA
36923
2EC3B
352C5
555AD
367B9
3E62F
935C9
419F3
B0140
3C710
42CAC
9CB70
6C361
82998
8DD72
52F15
817A0
524AC
4C120
74203
23C10
4DB95
648D3
2CE3E
35914
4A112
49395
725E7
5857F
4FD7A
392DE
494DD
52E81
4036A
48B3D
8B458
513E1
3ADEC
96C31
61364
8190C
51668
5FC71
54AD4
88ACD
3DE2D
3E343
7E20D
48EF5
4E3A7
3824C
4B5DA
4F96B
8CD30
527B1
88A7C
35E18
4A73A
52725
4125D
3EE10
28E1D
39655
630A8
406DF
5BDEA
83029
6EBFF
45A42
576F9
6B25C
3A40D
5E93E
59417
743DF
928C9
4211C
455BD
39BBD
5CC58
81170
89627
50550
4076E
43AD5
5A92D
5847C
5B198
41CD8
5AD04
31B69
3D5D0
42844

