6D11A
5DAE7
6FE0D
568E7
4ED81
4103D
83E27
492FD
65D40
5AB87
3E795
40352
36703
625A1
5C5A1
91B02
413AF
4A7D4
86725
39D6A
80CB6
3F9A7
A1E33
54C45
4A2F4
5199F
51516
621CD
6C6A7
4C34E
88915
B00D7
5BEFA
434B6
5D16A
3C6E4
8DA04
B2B22
730FD
4A097
88C37
66FB8
5F1A0
5D44E
6F003
63F7B
B189C
42AF9
4675D
50F25
5BDA2
4C6AF
75FAC
87407
4F080
5A8BE
5394E
9BDA1
47A68
9DD8E
86DCC
78ADA
A0B73
A7A6E
7CCEB
63321
43D4D
41466
9A124
25EDB
4796F
70D6A
3F7A7
8C05B
5C8F7
6938E
4D2EF
5BBF2
430B2
A1432
5DB33
78F88
53275
54884
4695F
52E0C
439FC
82E94
5ABAA
5895F
6F4D3
8BE30
58279
5F0F2
6E9D4
6B9A3
826BD
556E4
A2C60
39823
75E67
6E8A3
8D219
70666
4CC78
4F9DC
5A648
41E8F
39257
46CC3
6A095
41487
503F1
B27ED
4FB87
D214A
4531A
4F600
BDECF
82A60
9DD02
A806B
6AA61
9D8FC
6AB93
5C8F9
8B2CF
2F106
641C2
78C62
3A259
431E1
476A2
5FC49
87222
73F1E
66F35
4BCC9
5458F
68D9D
54761
5CDA9
A7B93
678D2
4BDD8
B7CA9
7305C
97BD5
643B9
732C5
63786
A50F5
534E1
5021F
958C2
58612
667E6
45876
62E1C
68660
AA5FF
67384
A60F0
479B5
5EEC6
6CF66
4F85B
479B9
40B88
47672
7B73B
55307
7703C
9E819
83BF1
5A201
70E80
80E69
4BA5A
728B5
69B4A
8D4D0
B0D3D
55F4C
557B9
48E5E
6F526
9B958
A5E7B
5E5E1
5019B
56C24
6D971
750B6
7299E
5675E
7568B
3ED7F
50BA6
58538

