53AD7
4A1C7
5E5DC
42E28
3C83B
329FF
6DE80
39802
565EA
4C0A6
34481
3246B
299C1
4C546
4D866
79EE6
35B5C
39828
71946
2D4D2
6C62B
3200B
874F4
42D1A
3DF26
446CB
4214B
4C4FE
5ADD1
3F2B4
721F4
93BD8
4836E
37767
4E440
32A38
77364
95F8C
59E37
39C5A
728CB
50DF9
4B4B5
4EBB0
5D025
4E560
94E87
3572E
3A47E
3EC50
4709E
3B995
6300F
694B0
3E276
47C7F
41530
82C78
37C69
8448A
67E62
65BE8
8773F
8DEB7
69454
5304E
3778A
331E0
8159F
1D812
3847A
5E138
3219B
74C4A
47DAB
52091
3B160
4D85A
33FA9
87546
4E804
65858
4588B
46DCF
38D3F
4060D
3710C
6D4D3
4C4F7
44A2D
5D94D
75DF6
44FF5
49BC5
55B95
5AA27
6CDF9
43A3C
894E8
2CF94
5C306
5D581
75931
56DA0
3BEC6
3DEC5
4C4B4
362F5
2DD5F
371B0
58FE8
360B1
3DDE9
9536D
42BC4
B1B03
39892
3E74B
9F3B1
6D7D2
84513
8DDC1
52CCF
83FA6
52617
4D44E
754C2
24EB3
4DA9C
660FF
2E041
35802
3BE77
497C1
7263A
57FCA
4EB19
3C6B7
46BA0
545B8
4075C
4870F
8C467
5065B
3B781
99DE9
6047E
80437
54569
60086
534EB
8A373
3FA22
3E380
7D5C3
4A150
4F87A
38FE7
4C205
50876
8F37C
5715D
8ACB4
37032
4B09F
537EA
42BF3
3BE08
31AC0
3C07F
62091
4153B
5D332
84BBB
6E7F7
4625F
57850
6B75E
3A79A
60204
58ADF
772B9
94362
42015
47EFD
39565
5D8CD
82232
8AFEC
4F560
3F4C1
444B4
5C568
59C6C
598CB
4291F
5B35D
31ECD
3EFE0
44912

