4C8D1
3F12E
58A29
3E2E7
3586D
2E5F1
66E2C
32914
50F2A
47B9A
2EF91
2CCE8
262EC
44142
450B7
72055
2E993
34890
6AD8F
29150
64490
2DD40
7E220
3C8A6
3DE26
3F84D
3C802
44838
54405
321B2
6A6CF
8A948
3B1C9
35977
482EF
2EF4F
6AEA4
8A0E4
520AE
34EB4
6AF87
49EBF
43EB4
4A8CF
5521E
47A63
8F99E
31162
36DC9
36D5F
40E64
364EA
5CFF6
5DBF7
3837C
446DD
3DB04
798ED
32742
7B3E7
5E9E8
63AF1
7F5EB
8659D
6141A
4FB1F
3A949
2DE99
7A7B7
1BD0E
346E0
597E9
2D19F
6C278
41D78
4B3E5
374E0
497B4
2EFD7
7E9CB
4E04D
5DF59
43840
47EFE
37C91
3B208
334E7
65BCD
472FD
3E7BE
56929
6F01B
3E8A4
42EDA
4E94F
53DCA
65D0C
39552
7F7AC
2860D
538C7
5619C
6D6BB
4F247
36A1B
37AE9
461D6
3300B
2B44C
30946
50670
330AF
38CCE
8A952
3DBF1
A6513
38C75
3D529
938D5
65DBB
7AF56
85DE4
4BBCD
79DDA
4AF3D
477F3
6D8AE
20CD7
46F2D
5EF4D
2954D
31715
45C3C
4288C
6C0F5
4FE45
4872E
34F3F
45050
4CD48
3A32C
42841
82FC9
4A33F
35F26
8DDF4
5B749
7A590
4CB8E
59FA0
4FB0E
809C8
381D8
38CD4
76BB2
44AC3
4765E
34656
448CB
48756
84B30
4DD69
80814
30F7A
447D3
4ADA4
3D590
3AB20
252A1
360EB
5B454
3A826
542E5
7B497
68462
3FA81
4FC99
64AA0
3519C
59151
540D2
6DB0C
89F6A
3C0A3
415FD
34F62
576BA
796C9
81502
4BB70
3B3CC
3E256
55734
50332
5366A
3BDF6
52EF9
2DD77
3822A
3CB69

