6F372
7CAE8
19147
750DD
73FE5
79B09
16F2F
7B701
19354
11F5A
0BF49
7B282
76DA3
7532C
12DC8
1BEFE
08217
76547
1F04F
7BB29
1BA31
7C314
1E279
7BCE9
0D875
104A3
05CB9
760EE
156AD
0B95D
1950D
23B8C
7A2F8
08A6A
139EB
0BE5C
1E87A
24531
764A2
796B8
1AA91
7965C
7CED3
15353
15D30
78C01
23A1A
01137
0A17B
76DA5
74B0A
790E1
17ED1
72C2F
7B60D
7D892
7916D
1F944
78F79
1F246
6D645
1AD4D
23801
281BF
1BF90
13045
06916
7B1A4
1F8BE
7C2CD
7BB4B
13D7E
7D2B8
18C33
75EE1
764BC
737BB
153E3
78601
20B9C
125DD
18924
0FA58
10C7C
0264F
772EC
05608
17CD4
13432
75B47
17786
1EC5D
79336
755E6
733EA
17805
179E3
7D3FD
248C0
7B612
76761
194EF
185F4
71C4F
793BB
77EB6
14833
07CB2
0115C
79050
1590E
0992C
75292
215CD
0F5C1
31871
0B68E
7B83C
25C97
19C52
1F715
2654D
7471C
1EC1B
72116
10C46
1EBC2
7CC73
74DA0
1C074
7E050
7FA02
0E5CE
7151F
2050B
695F0
6EB8A
7F91F
10D5F
03463
71534
77AD8
1FACF
74C9A
7A98D
237B8
1620D
23614
15738
144D7
135BD
20019
71CD7
7757D
1DA9B
11839
74AC7
07663
7217E
7216A
23C54
173FC
1EEBA
755B0
7C5DA
6EBAE
10338
0D76C
7621C
0F09C
7D795
72BDC
77100
1EC35
1A6D7
771BB
7313A
16A1E
7688A
17411
1550B
1F9C4
22FE1
7311B
1257A
7BC52
173C6
1D74A
2086A
13DD3
7CD09
7B3CC
18146
6DE3B
766EC
73DFC
738DF
7ED02
78D1E
7663B

