78996
03EA0
1F8D3
7C52E
7AC47
7F020
1F124
013C2
1EEBC
17627
0FB8E
004E2
7B97F
7D564
18574
24B78
0C635
7C9AE
26BB2
0054C
232DF
0137F
27FA0
0270A
120D1
1528D
0B6D2
7E1D6
1BE77
10675
219C5
2E2F5
01796
0D060
19191
0F842
26D03
2EF0A
7F97C
7F6E5
22DEB
01918
043F2
1A94B
1C793
00BEA
2E365
05F7C
0E97F
7D920
7C61C
7F454
1EF05
7DD54
019D9
04788
7FD62
28D85
7ED57
2896E
78D5C
21D42
2CD62
319E7
23316
18FEC
0B22C
0055B
28AE9
7F49C
015D2
1AC6F
021D3
215B4
7D950
7EDD7
7A2BD
1A7FF
7DF15
2A4F4
17FBC
1FC24
14AE1
15D50
077A9
7E050
0A04B
1FC9B
18975
7D13E
1E04E
26E88
0047D
7D3FC
7C717
1DC5A
1F94D
03D30
2DF56
00031
7FF6A
1FA9D
2113F
7B361
7F767
7E755
19B90
0C207
0543D
7ED19
1BDD4
0DBA2
7BF3C
2C2F1
14289
3D7FB
0FB7D
01C48
31217
21970
28DD7
30006
7D420
28362
7B107
166B2
26D21
00871
7D25B
22F19
0280B
04A86
129DE
798E2
27FB4
73B41
77AF8
05410
15DEA
0AD91
78B78
7F38B
29D1C
7D583
00A81
2E8A6
1D0DF
2C0E4
1B534
1B605
1954F
29ED4
79129
7DF69
269A0
16CC4
7D290
0C081
7A80C
7AE8F
2DCE9
1D363
28FF2
7B7D0
03B6E
78246
14EC3
11CC9
7BB17
133DA
06DDF
7A14E
009A5
2849A
2247C
7E7DB
7C756
1E8E4
7CE14
1E0F9
1B9B8
27CA0
2D915
7A713
17593
01855
1DCDC
26DC2
2A788
196B4
03065
020FB
1E749
77F78
7FB0E
7B399
7D3C9
03965
7F5FE
7DB11

