366C0
33902
4A308
2C384
27655
220B7
54956
276D6
448F1
3B207
2889C
22399
1AD42
32F4D
3C711
5E8F3
286FD
25F24
59899
1EDB3
54DEF
22553
68B00
2E23C
2FD8D
353E1
30866
3331B
46A3E
3025C
5842C
731E9
317DE
29D4B
3D300
275B6
5D630
74E07
3CE26
27084
58F4A
37665
34791
3DFAB
48478
3569A
73EBC
26328
2C3F7
29D3B
2F0ED
28388
4D23F
46C69
2AB55
32290
2C49F
65E43
257C4
66D4A
44395
4FEDD
6A588
70458
52C2C
40619
293AE
22CE3
64DEA
13CC7
26A3E
48758
22AFC
59F9B
2FFF4
3751F
263C1
3D221
229F2
69735
3CFD4
4F1CF
35D76
371D1
28F9F
2B102
28988
54673
3BB28
2DA69
492A1
5C822
2EECB
312AD
390BC
4715B
540BD
2F243
6BF6E
1E881
3E90A
49881
5A6EE
396A6
2880B
29899
3C0CC
28ACE
20CDC
25069
455BC
2917E
28B23
737A2
33C63
8C5DE
2C1A7
2AF64
7BDD8
551BF
66F11
6FB62
3752B
66806
36556
3BA68
5C16F
193AC
33CCF
5080C
2009F
25CFC
2EA46
2FCF7
5A7D1
37C65
32BEE
2AB32
37088
3CBED
296A5
30EC1
6CA66
35B84
2893E
7764E
4AAFD
65370
42066
49FAB
40AF5
6B496
28F7E
29944
617E0
399BE
35126
2A8D3
31E87
3506F
6FEDA
447EE
6B615
23E47
3420F
3626B
34071
2E5C6
20555
2EEDC
44C04
2A713
3F74D
6709E
56041
2F219
3A451
52C20
26B0A
4AE7B
45100
5DAC1
733DB
2B04B
38546
27688
4912F
64D16
6BFD8
3E047
2BEFD
2F04F
4875E
3A5BD
3CAF9
2BA74
3D065
230A7
2A8EB
2DCD1

