30E6F
2F4F0
4661F
27F18
23693
1EEAA
4FCE4
24047
4132C
37EF8
26529
1F324
180A3
2E2B3
3937E
59651
25EEC
22415
55004
1C218
506F2
1F604
62E8F
2A3CE
2D2FD
3260B
2D367
2E747
42D31
2D503
5361A
6CF6F
2D345
27423
39F72
253A7
5883A
6EA1E
37697
237F1
54206
3297E
302AC
3AD19
445E4
30B5D
6DB26
2351E
2999A
25E01
2A888
24908
4903F
40435
270A1
2E14B
2851E
6070D
2208C
6145F
3D7E2
4BD01
64DA9
6AAD7
4E838
3CDD5
268B0
1FBA4
5F7EF
11F7A
234FD
44615
1FC74
54EB8
2B7EF
32478
224CE
3A0A7
1F58C
63D01
39AF7
4AE29
32E17
34246
25FC4
270A9
25DD9
4FB49
38902
29505
454FE
57B90
2AC29
2C882
33A28
43656
4F5CA
2B461
666DA
1BCE7
38F9C
45CB1
554FF
33DC9
24D6A
25B0E
38FC2
26205
1E585
219D4
41A75
26A66
24B37
6D1C9
30F39
85533
2991B
2748B
75315
50826
61663
6A05E
32238
60F0A
310AB
38538
57556
17062
2EEBB
4C6F6
1D66D
22D9F
2C23C
2AF75
55FAA
31B26
2D78F
275B4
34127
384A4
25113
2C7C1
66AED
30AFB
25036
70E3A
469CD
601C9
3E91D
45D18
3D2BD
65737
24B12
25AF5
5C3BF
36803
30146
27D39
2CF60
2FD68
6A064
40FCF
65740
2048F
2FCE5
309D5
31401
2BCF9
1D0FD
2C74E
3F39C
261FD
39D83
616F9
51658
2AC9C
34C03
4E18D
22F50
46E6B
415C7
58DC7
6D053
26AE6
35629
24068
4535E
5F493
6623F
3ABFE
2848B
2B015
44B5C
346E5
373D6
27545
37545
203B8
26B3B
29817

