433AD
387EF
52338
36DC5
2EFD7
2907D
5ECCB
2D02C
4B4BB
424C5
2B5A4
27D84
21741
3C2AE
3FE0E
694EE
2ABBB
2E4C3
632A1
24912
5CEA7
28D40
7469C
36071
391BF
3AB88
37025
3CAE5
4DE3D
2DE5E
62355
8029D
34A66
31199
42D88
2B690
6315C
7FB1F
48D8C
2EF66
62D3A
41D8B
3CCEE
452E2
4EB3D
3FBA1
84C5C
2C3FF
325E5
306CD
3943A
30293
56065
53073
3218A
3D561
36BF6
706E4
2CAFD
71E75
534A5
5C6CF
76105
7CD57
5A368
49A0A
34CB1
28D2C
714E5
18AB8
2EB64
527D3
2847D
63B52
3A393
42BAA
30836
44332
2985B
75238
481D4
56E94
3E57D
42803
32E0E
344E5
2EA9A
5DD93
41EE6
3732D
50275
66E14
37946
3B243
456D2
4DB8D
5DE9B
33702
76406
23DB5
4A32C
4FEB1
64D44
45CBB
307CD
314B0
41063
2EAB7
27061
2B007
4A639
2EDDA
32047
7FEC1
390A4
9A76F
3454B
36AE4
886D1
5E24C
71AE2
7C302
42FD0
709FC
420A3
41F18
658C7
1D37F
3EB8B
58299
25029
2C6F3
408A5
3A692
64662
45A11
3F789
2FD23
3FD12
4573A
32E4E
3B010
78ED2
41A7B
2FF7F
8313E
54771
71955
470A9
52EEA
49A30
76D1D
311BB
323E0
6DBFC
3F7F3
3F1AA
2FD88
3C45D
3FCCF
7AD54
48337
769BB
2B002
3D3FB
41A1A
38BBA
359D8
20A65
3200F
51D5B
33520
4AD84
71E8A
60691
3863B
467FF
5CCA9
2ED81
5268D
4DBB4
65BC3
7F89C
34B7D
3C893
2F2AB
50EC2
701D9
77831
461BB
34E3E
376DF
4F3AA
46633
4A0D7
34ABE
495ED
2923E
31C97
35AA8

