2F3F0
2E084
453D9
26A91
22373
1DFA6
4E5F5
22FE8
4030B
36FA7
25A86
1E49B
17340
2CBB8
38405
57D87
252E6
2125D
53A3E
1B503
4F1A6
1E7D3
612D3
29114
2C637
3184C
2C381
2D088
41AE0
2C768
51EAE
6B1E3
2BEB1
267CB
38FFA
2496F
570D7
6CC25
35C52
226F8
52AD8
3126C
2EE01
39DEE
4331E
2F4CA
6BD46
2274E
28CE5
24B0A
292D0
2377B
47C72
3E4F2
25F04
2CDB6
27211
5ECE4
20FFC
5F9B2
3B793
4A93F
6334D
68FFD
4D3D5
3BCF4
25BCB
1ECDE
5DE23
116B0
22504
43281
1EE7E
53674
2A253
30C46
211EC
391CF
1E5D4
621F2
38B1A
499DD
31FE0
33402
25169
25D5B
250BF
4E4BC
379F6
28034
44280
56497
2982B
2B242
3202F
424A2
4DF4E
2A1D1
64C47
1AFD3
374C7
44ABF
53C6A
32321
23BD3
24898
3810C
255C9
1D9B8
20974
408AD
25EAB
2380A
6B33C
301AC
83366
28CF0
262E3
7330D
4F212
5FBC8
68510
30955
5F458
2F744
37543
55E81
165CC
2D74F
4B36F
1C9C5
21F6A
2B63A
29835
54A05
2FDFA
2BE3F
265A7
332F1
36F42
23C34
2B274
64E49
2F2D1
23F1A
6EF01
4563E
5E949
3D887
4491F
3C1E0
63B34
2368B
24844
5AA82
35918
2E950
27025
2B7A2
2E480
6840E
3FEF9
63ACD
1F33E
2E825
2EF42
306AD
2B0BB
1C14A
2BB70
3D917
24D43
38293
5FC14
5002C
297C4
33186
4CB2D
21D64
45B33
40403
576AF
6B277
25614
34806
2302B
440D3
5DA05
6462A
39C4F
27302
29CD0
4395C
32A71
359B2
26083
359EE
1F63D
258B9
28378

