12FA6
1671E
30E5C
10F6D
0D276
0D623
34F10
103F8
2E09B
2634D
189CB
0E290
08F8F
13379
25229
3C34E
16B9A
0E024
3B648
0D31C
36C4B
0EF21
42197
14503
20644
21E20
1A951
1422B
2CF5F
181D5
37AC0
4A3DF
13336
19D96
27372
190D3
3A8DA
4A103
193F0
10211
38ABF
180BE
17FFB
29614
2D6B3
16B77
4CB82
13366
1B1C3
0F3DE
11BDC
10581
31EE0
1B898
12687
189EC
12D15
412EF
0ED5E
418D9
18A57
36DA6
45E41
4B91E
35C0B
2A383
16D61
0E7AC
41CE0
08629
111D6
2E3A0
0F536
37FBC
12C9B
16A79
0D5B9
28DBC
0D37E
44196
298C9
326D7
23910
265C0
197A3
10FF7
16A01
35027
26B9A
117C7
2EED0
3CCFA
138CA
12D55
16087
2DF06
35016
14ECB
467BE
0C736
19CBA
2FEAA
385AF
1569C
10AEC
10385
26AC1
183D6
110CD
0E20E
2B427
193E4
0EE7C
48BD1
20ADE
5D1C3
1D4EB
144CF
4ED50
3635C
41A6A
4A140
15B2D
40C8D
13E78
25323
3C2B0
0AAAC
14226
34FE2
0EA40
12824
257F3
105C2
3CBE0
10812
10FF7
15419
24E2D
1F41F
0D158
141E5
44D98
15682
1105D
4B331
30480
44371
29A2A
2E77D
2A4C1
44221
0CD5D
10494
3F40E
24B4A
142B9
184A7
116D8
12FBA
47C30
2B04E
43609
0C1D4
17C50
11E5D
20D89
1B519
0947A
1D04E
20FD9
0E1B7
1A844
415D0
37B46
12C5A
166C3
3409D
0E74C
2FDE3
2D046
3C8E1
49923
0ED14
237D8
112BC
2F492
3FEE0
44C6D
2915E
1408A
14A98
2F066
13987
19A91
0F653
17DAE
10CDD
10ECB
112FE

