6A672
79CFA
14E45
7118C
70B35
76229
11BE1
780FA
156F4
0E956
08DA5
788FC
7462E
70C7F
0EA58
1647C
05E67
72DB5
19F2C
798A5
16B0A
792E4
17CA4
77F67
0B9B4
0CFF1
02ADA
720A6
11452
05CBF
13E70
1CE62
7712C
064C2
0FFB1
099D1
18783
1CF6B
7137E
76338
15391
74E57
790BB
1200B
116E1
743B1
1D955
7E289
078D5
73566
70819
7596C
1393B
6CDFE
77C2D
79BED
749A9
1973F
75BBA
18E4F
6754F
17420
1D61D
2224B
1717D
0FCEE
7DA51
7853A
19DC4
7AB0E
7839F
0FBBA
7A576
13372
71A04
71979
6FCB8
11DDF
756AE
1ADC8
0FD8C
13BF8
0D0CC
0EB1F
041E0
734E9
02697
12AAF
0FD8E
71C5F
12FBF
196F6
75405
70F00
6E2E0
13366
129B2
7B440
1E50D
78C4C
7117D
15018
12F50
6CBA5
75F01
7468A
10834
0560D
7E928
75D94
11153
070F8
71611
1A558
0C31A
29843
09F26
7763C
1E669
14A13
19434
1FF0B
6F9D3
188E4
6D1BD
0D05B
195EE
7B111
70529
176B1
7BD47
7CB52
0EC17
6CFFC
1B650
63D4C
69EB0
7EEAE
0E3D4
7F23D
6D4A1
736B6
190EC
7032B
76FFF
1C361
11DA9
1E108
10E85
0FCE0
0FF18
1982A
6E554
73BB7
1827B
0E2D3
70111
047BC
6D662
6D4BA
1CD0B
127AD
184C0
72245
7840C
69C21
0CC25
05349
75A0C
0B5F8
77EAC
6ED08
71E08
188A8
15799
7323A
6DFE8
11C4D
73388
12D25
1181E
19ED1
1C309
6EF25
0E6DE
77F27
13001
1768F
1A1CE
10AE1
78678
776D0
13F1C
68E24
70F7A
700CB
6E379
7C56F
754A5
7282F

