680A1
7726A
14218
6F7EA
6ED03
759F8
10BCD
77013
14D6D
0DCF9
09133
77383
733A1
6EF98
0EABD
15392
04DFF
71880
191F4
78279
15DE8
78594
16A4B
76BC1
0A11F
0C90D
017D3
6FE5A
1074F
07E6A
12F8E
1BB86
749CB
054EA
0F6E5
09215
18320
1C34F
6F2CE
74D2C
1461F
73263
77543
11196
10BD6
72A31
1B8A5
7D55C
06A68
71B74
6ECED
744D4
12904
6A4B8
769BC
783B8
73EDF
187E5
747B1
17EAF
64A43
157B0
1C5C6
20D64
16739
0E720
03132
771A0
188F7
79CB5
77611
0E8A7
7963A
1230D
70140
6FBE3
6E5E6
11391
741E2
19659
0E123
13132
0BCC3
0CEAD
7E819
71F45
01D3F
11B1D
0F300
70112
12766
188D2
73C96
6F57A
6C35E
12B4C
11874
7838A
1D598
77D65
6F31F
1472E
11B70
6A8CA
74784
72EB5
10872
047AD
7DE37
7495B
10BFF
06659
6FF7A
19166
0BB0A
285F9
081D7
76BBB
1D1CC
13CA4
183CC
1EEFC
6DB46
1786D
6B304
0C721
188D5
79E93
6E821
16BD7
7A976
7BC6F
0B1C2
6B05D
1A73F
61785
67DDB
7B394
0CFC9
7D7B9
6BAC3
71E8B
17EB2
6E3E7
75F69
1B06B
10D4E
1CBEC
10F59
0EE4A
0ECA7
186B7
6C3E4
7247C
16D3D
0D793
6E2F1
03DB5
6BA99
6B57C
1C188
12B07
17372
70AA7
76BF1
67886
0C974
0A260
71E10
0BD31
764A8
6D20C
6FC45
177AB
146C3
71766
6BE6F
1092B
71AE4
120C8
1080E
195B3
1AE7C
6D6E4
0E83A
775F5
1236A
1643A
18EBC
0F9DB
7810E
7604E
13344
662EE
6F5A6
6E40C
6C268
7B298
73CEC
70CE2

