39BBE
361DA
4C794
2EC92
29C95
23EC0
57734
29793
46934
3D0AA
29DE2
240AC
1C808
35D42
3E602
61A87
29F08
28294
5C425
207DD
57886
241B5
6C278
307B1
31717
36F61
32833
3609A
48EDF
31D91
5B304
76CFF
34107
2B5FC
3F1EF
28A25
604F7
789F9
402AF
29275
5BDA6
3A489
370E7
3FE03
4AA05
383BF
77A7C
27EC8
2DD62
2C32A
31C5D
2A6A2
4F9D9
4AAEF
2CE8E
349BA
2EAB9
69296
278E5
6A2A3
48433
52660
6DA41
73A0C
554F2
427DC
2AD7A
24A6E
68181
14E5C
28A31
4AE80
246E7
5D022
32B2B
3A582
28986
3EFD1
24963
6CD53
3EF8C
51A66
379E3
38E58
2AC55
2D79E
2A3BE
5738D
3D940
3040B
4B79C
5F613
316C6
33F2D
3C4AE
494C4
56DB5
31764
6F494
202AA
41EB2
4BC64
5D818
3CBF8
2AB38
2BD86
3DE38
2A346
22477
27128
4794D
2A8F3
2B17D
774BE
3577D
90978
2D9FC
2D2B3
7FDE7
57DE8
6A446
731FD
3A6F0
69D6A
39824
3DA52
5EF18
1A8D8
36BA7
52F19
219F0
27967
3024B
32B78
5D31C
3B6BE
35E8E
2CB4B
38CF5
3F6B2
2C063
3395A
703AF
38BD6
2AB76
7B4C0
4D21A
6846F
44192
4C79D
42CB1
6EC9B
2B88C
2BEA7
64A5A
3B795
38112
2C2FB
34E04
3823F
73787
4699A
6EEFC
260E9
36B8E
39791
35B1A
2FE42
224BD
30698
4810F
2D087
42D2D
6A667
58C99
31BCA
3D94C
558DE
28EE0
4D4EC
47488
608F0
76F94
2D9EE
3A18B
29702
4B646
68231
6F801
3FFA5
2E20F
316D8
4AB5F
3DEA6
3FF41
2E3F6
40712
24B9D
2CDEF
3060D

