3DBF2
34A06
4E6AB
328DE
2B252
25E39
5A0B0
29BE1
47F89
3F1B2
29392
24ED1
1EABF
3783A
3CD6E
642ED
2875A
2AA0E
5EA51
21E93
5894B
25E31
6EB22
32324
364CE
37E5F
33C75
3812D
4A25E
2B6C2
5D5FF
7A093
30D95
2E753
3FB4C
2952F
5E7AA
7999C
43701
2B757
5E095
3D18B
38A01
42056
4AEB9
3B111
7E672
29679
2FB9C
2CA78
34C5E
2C8B9
51EC5
4CB8F
2E7EC
3929F
32AA2
6B0FC
294B7
6C68C
4CA05
5827F
7096F
773C5
5611E
460EF
31639
25D46
6BE87
16D1C
2B594
4E5E5
2571D
5EBD3
35BE0
3DB87
2C84B
4117C
264E5
6F90E
44A41
52C3F
3B4CE
3F4D8
2FFDF
304B3
2BEE6
59352
3ED6F
32E9C
4C60B
62196
337C3
368FA
400A6
4A1C3
5943A
2FF87
70D2D
21327
44B2A
4C482
5FC67
404C3
2CDF9
2D88E
3E079
2C1EF
2486D
27B88
46D9F
2C68A
2E070
79A6B
36459
937E1
31B6F
32C62
81E19
599B1
6C38F
767E6
3DD78
6B301
3CCC1
3EAD4
60D8A
1B1C4
39E1D
542A7
2277D
297D0
3D779
35A1D
5FE48
3F97A
3A30A
2CCD6
3CC1B
411C8
2E98F
3695D
73023
3CA07
2C73B
7CBA5
505A7
6C6D9
43B32
4EC9E
46134
710F5
2CFC7
2E623
68772
3C73D
3A39A
2D2B4
37676
3AB52
75079
44E28
70C95
277DA
38FD6
3C350
3604C
32A08
1DFE7
2F9E7
4C48C
2F177
455A6
6C646
5BC8E
341D6
41095
58290
2B29E
4E7C0
4A039
610E4
7967C
30694
39B09
2BC21
4D199
6AA3D
71BF2
42CF6
31280
337A8
4B91C
409DA
448DA
306F8
43BE6
265FF
2E0D7
31854

