6ADC7
5BFAC
6E5B0
54D89
4D400
3FC38
81F93
47D2A
647BF
5971A
3D966
3EFF0
3552A
606FD
5B100
8F9F4
403A7
49034
84A1D
38BF9
7F051
3E6BA
9F938
5334D
491ED
5074A
4FFE3
60378
6AE3B
4B12B
869DB
AD973
5A38A
42440
5BCCA
3B944
8BAD5
B032B
70DF7
489F6
86D4F
650F6
5D611
5C013
6D6FB
62162
AF0C7
4188F
4566B
4F5DA
5A0AD
4AF49
74545
84A58
4D905
58EA2
51FE7
99ABF
46452
9B9FD
842B8
77082
9E84D
A56A1
7B1BC
61C9F
42C1A
400B3
97EC0
25322
46422
6F350
3E50A
8A000
5AC28
6734C
4B9C2
5A827
41BBC
9F01E
5C60D
77478
51F82
5357F
4563B
5144F
42883
81084
5979A
56D9D
6DC2C
89F8F
567D2
5D348
6C732
6A207
808C2
53E24
A08F1
386B2
73AA2
6D0B6
8B153
6E2DA
4B504
4E13E
592AA
40E3F
3829A
456EE
688DF
404E4
4EA60
AFF2F
4E976
CF439
442E2
4DE75
BB41A
80CF0
9B989
A5C03
68933
9B564
689B5
5B3B2
8945F
2E2E9
62287
7725A
39178
41EEF
4669E
5DD49
85545
71838
64D76
4A764
5329B
6711A
52B8D
5B143
A5563
6589B
4A708
B5308
71649
95B2C
62D9C
71824
62109
A2B9C
51982
4E932
9371B
5722E
647F3
44705
60E73
6652B
A8037
65D11
A3B01
4629E
5D31B
6ABF7
4E694
46967
3F698
466A0
793DF
53765
74C51
9C43D
81E61
58636
6EB2E
7F094
4A276
70F15
6839A
8B606
AE56D
5438A
544E0
478B8
6DC6C
995F1
A390A
5D0F7
4EA3A
55273
6C170
72AC6
706C3
54BB1
73217
3DB86
4F2F9
569BA

