24863
22D3B
3D020
1EBEA
19753
176FE
44299
1AB51
38AD5
306BF
1F6D4
17800
11DFF
221BB
2EDC2
4C9B7
1E003
19C00
49DAE
15B19
44A3E
185B8
54653
2092B
29614
2AEA3
24EB6
22E12
38EF5
20092
4723C
5DD98
1F5D3
224DD
31435
1FBA4
494AC
5D90D
2A8E3
1B576
48003
273F1
25625
337D3
39859
25A12
611A3
1C512
23915
1B4EF
201D0
1BE9F
3F0E2
2FB74
1DEE5
25F8B
1FE21
525D4
19B0C
53229
2DF8A
44840
57689
5D7BF
4302D
35A40
21BAC
180F1
5313F
0E4E9
1BE0A
3B69B
18667
47E21
2120C
26AE8
1A244
32CD0
1782C
55EE8
34A9E
3FB1C
2D4DB
3097B
22B6D
1DD65
1F5DB
43DC2
309E4
1F332
3B023
4C1BD
20A6B
217DA
27445
397F1
43E18
20053
57DAA
14F64
2B658
3B8DB
48871
2701C
1C3F8
1C3F2
30413
20656
190A6
18A0C
36945
211B2
1BAC6
5CCE2
2989A
736BC
25AE0
20CD7
63C67
44BB4
531DC
5C4CC
262AE
522E4
24AE5
2FA65
4B372
1169B
239EE
41C81
16C66
1BEFB
2F54B
1FA6B
4B29B
23D29
21E5B
1EEA9
2EADD
2D257
1AD54
22424
57C96
257F4
1C469
5F84D
3D706
54B67
34541
3BBA4
35B18
56908
1A068
1CA24
50293
2E72B
23C85
20DB3
21020
2347C
5A554
35A17
5601B
17588
25660
23416
29884
24E19
11C72
24A66
32C08
1BA3B
2C173
53042
4681C
20738
27E7B
42DB9
1A3BC
3C6DB
38E9D
4B879
5D320
1C998
2C990
1C142
3B846
5173B
5739D
33A3A
1FFB4
214E0
3ABC5
2610B
2B41F
1CF34
29DC5
19A75
1CDFE
1E73C

