5F319
4C3AD
6580A
4CD2C
42998
390DA
770EE
3DAE2
5C408
52943
3636B
36BAF
2FA43
53E68
4F609
83724
36543
4102A
7A36C
321CD
73062
37D41
91928
49911
476F2
491D8
477BC
542DC
60F95
3A85B
7ADC3
9F69D
48090
3E932
52DBE
360CD
7A933
9EC6F
646F0
40D4F
7B41F
5A125
52240
554AA
61FDF
577E8
A5421
3AC28
3FD91
43A81
502B6
4299A
6AF18
73300
44760
529D6
4B921
8BD00
3DFCB
8DECC
7546F
72336
91FB7
99627
6F57E
5BD47
4627A
38173
8CD5C
221B9
3FDD6
67814
36BE3
7D0C4
51141
5C45B
44E33
540B9
39ECF
918F3
59D40
6C0E2
4DDC7
52CF5
41997
48C4C
3C97F
75843
51B2C
4D0E0
63692
7F42B
4C75F
52808
60E49
60244
759EE
451F3
91EF6
316BE
663FF
62770
7E9A8
61D5F
42EB7
4475D
504BD
3BAB3
33C22
3BBC3
5C6E0
3B65A
465DD
9FE74
47289
BE05C
41AC9
4A9B1
A9CDE
75497
8D83F
993A9
5D3C6
8C596
5CC70
529A9
7D87D
27F86
57671
6C8B7
31F96
3B75A
50369
52C7F
7B61C
646AE
5A678
3F377
4F6CB
5B964
48CE8
518A4
971B7
5B4C8
41E73
A3762
696F8
8BE06
58156
6810A
5BCCA
9431D
46214
45EBD
88B20
4F061
57FC7
3D7F3
551A7
59C64
986E7
591CF
944C7
3CE69
52F84
5D4B9
4693A
44DB0
2E319
3E2A4
6E246
48E31
66DA7
8E0B0
78005
4E30C
625CD
7468D
419D4
666D9
60B0D
7D99E
9ED08
4AAEF
4B0D0
408D0
646A9
8C0A9
94EA5
56EDA
47EE9
4B943
61E48
63D2F
66190
4A465
66112
373E8
44D50
4ACEA

