2DD87
2967B
43711
2610D
1FFE9
1CC72
4C3FB
20438
3E544
35D93
230C1
1C764
169AA
2A04E
3406B
5551E
21DDB
1FFCE
5189D
1A357
4C027
1D5B8
5E1D7
27160
2E27A
2FB68
2A693
2AB64
3F4BD
243E7
4F5B6
68443
25D37
26CBB
3699C
23462
511F4
67ED2
33C04
214C3
5024F
2F525
2C7EB
38DC1
3FF3A
2D8D4
6BEE4
21275
280F9
21B80
27BF9
220F6
46073
3A6F8
240D7
2D107
26D2F
5B7DD
1F751
5C79B
394CE
4BC63
60B6E
67004
4A0DF
3BB54
27845
1D25F
5C411
1173E
21985
426B1
1D389
50547
28BF1
2F323
20EED
38152
1CFA8
5F67C
3A918
46BE0
3279E
36077
279F0
24A87
24028
4BBFD
35DFB
267C3
416D7
543C5
279C9
29471
306C2
3FA2E
4BC88
25EA4
6114F
197BD
34BF3
41BC5
511E8
305A8
22646
22A2B
35587
24BAA
1D491
1E34A
3C97D
25487
2274D
67773
2E3E7
7F460
2A20A
2771B
6EE6C
4C722
5C650
65FAF
2EEAB
5B6C2
2D97F
35340
5335A
14FF3
2BD90
48936
1B18A
20F1D
348E1
27C64
52D2E
2E15D
2AE00
240C5
33E1B
34865
22232
29C55
61D8D
2E0B8
22410
6A504
446DD
5D7A2
3A025
42C5A
3BBF6
605B3
21086
23318
5924A
339FA
2C139
25682
2948E
2BF03
64330
3B44A
5FE75
1D4FF
2CA38
2C7A0
2E259
29F61
164AE
28B42
3C301
22D40
356D3
5C64F
4E5ED
27B7D
31315
4ABAF
207D8
4319F
3F3BA
537C2
679EF
23EBD
316FA
21DF8
4203E
5AC2B
6106E
393EF
26542
28057
40F4F
2FE0A
349B2
2426C
336D1
1E5AE
23391
257FD

