33542
2D464
4739E
2A5F4
23D6E
1FEB7
51016
23884
41A76
390A7
252D4
1F617
1962C
2EAC3
3710B
5A71F
2423C
23A83
560ED
1CDD6
50583
204C7
63D52
2AEAD
30F6B
32891
2DA42
2F51C
4309C
26B82
5430D
6E64D
29A08
29701
39BD8
255C4
55BA5
6E056
39290
24CD3
54EF5
34125
30AD8
3C04C
43BBE
32365
724CF
23FFB
2AB43
257D6
2C3D5
25AD0
4A213
40BDC
27A74
313C9
2AE83
60DC4
22D97
61F84
3FF6E
500B3
66305
6C996
4E32A
3F46F
2AEBC
20244
61A6F
134DA
24F55
468A0
200E9
554C6
2D3A4
34346
24ED9
3B308
2031E
64FA5
3E0AA
4AE36
3584D
393A1
2A81F
28ABA
26BDC
5063E
38F73
2AC54
45341
59042
2BB4C
2DDBB
35CEE
433F8
506E9
2961E
66829
1C24B
3A3F5
455F5
562C4
35DA0
2601A
2664D
38570
27472
1FC85
217C9
40216
27BD8
26724
6DBC9
31031
863EE
2CBE6
2B59D
75723
50FBD
61DA3
6BACA
34103
60DBD
32D61
38785
57E96
171AE
30AFE
4C928
1DA36
23E40
37A0D
2C8D9
57549
341F4
3027F
27111
36F12
38DD7
266F1
2E308
67C3C
3312C
25C54
70A9C
488A7
62A1E
3D59D
46EA6
3F4F1
661DB
25279
270D5
5E6D3
36AB0
30F49
28155
2E274
3107F
6A00B
3E958
65B9A
20D28
30E5D
31E6A
30DC7
2CF30
18F2C
2B169
41BD0
270E9
3AEB2
61E92
52FEF
2BFE3
36A7F
4F5C8
242BB
4706C
42F35
582A1
6DC0E
283A6
34484
25482
45D66
603C7
66CAD
3C8B4
2A0FF
2BF8D
449DC
35A63
3A1AE
28632
390D9
211ED
26F51
29A50

