0C788
133AD
2D41B
0BB81
091CB
0A451
30459
0D82D
2B04D
22DF8
17B2E
0B354
05A22
0E926
23F1D
374F2
15675
09E4B
370FC
0A248
3326D
0BDCC
3CC6D
107C8
1BA0E
1F78C
1759D
0F2D1
29A40
1A9B6
332D4
4457A
10E88
16487
24B2B
172DE
385AD
456B7
134B3
0C28F
34413
12DF1
13BF7
25F58
2A8DD
11AC7
449E6
1053D
18201
0BCBB
0CABB
0C6EE
2DCA1
15476
0ED2E
13281
0E1FF
3C779
0B41F
3C987
11113
30A59
409B8
45C1E
327B8
25A7B
14CF1
0B6A2
3C073
05E18
0D587
2975E
0C957
338E3
0DC97
1102E
0855A
25A1C
09BB7
3E9AD
23E0D
2EFAD
1F56D
20879
123EF
0C7F7
13D8C
30B33
23E01
0CB0C
2BE32
38231
0F45F
0DEFE
0FEC3
2B0D1
3071F
11BF6
41E39
09D26
1415D
2D1EF
33837
0F349
0CA77
0C4E1
24C1A
154D9
0E1DE
0B197
2933A
1685F
0A559
43198
1E521
56D96
18D79
0F023
49271
32265
3CD17
447AD
0FEBF
3C3BB
0E1D7
2262C
37F15
0877B
0EB6E
31967
0BFF2
0F507
1B9FF
0AFE9
38374
09956
0AAB5
114A4
20878
1AE2F
085EB
0F326
3F4CF
0F771
0D7D0
45F53
2BB8E
3E6DA
27C3B
2A5B1
25FB2
3EEF7
0877B
0BFB9
3987E
21FCB
0F21B
15D77
0C4FD
0D972
430F6
29D6B
3E559
0879B
1346B
0C12D
1EEBB
1AFAD
07787
1C23F
1AC22
09A04
14CE4
3C752
32E8E
0E201
10539
2F55C
0A51A
2C79A
28EEB
391BD
43F67
0A0E5
21F31
0DB2F
2BB64
3AC66
3F87D
252EC
102CD
10832
2BF50
0D4E9
134BE
0ACA8
11BD6
0DB28
0D413
0D27C

