103C9
1482A
2F015
0ECFA
0B3B3
0BD01
32902
0E9D2
2C602
249C3
178C1
0CB36
0794E
10E3E
239DA
39A4E
1596A
0C2C9
39220
0BDDD
3499D
0D799
3F3DA
1265D
1EFCB
2078B
18F7A
11D4F
2B16F
16E07
35414
472DA
114CE
18873
25A54
18023
38401
47041
168AA
0E609
3646C
15ABE
15E85
27CCF
2B871
1462F
4988C
11CA3
19C9E
0D5B3
0F7EE
0E894
2FE0F
18626
109B8
1688B
10C6B
3E7FB
0D23A
3ECE4
15507
34B7D
43276
48C55
33AE6
286F5
15225
0CFB9
3F1B1
0775B
0F6EE
2C2A8
0DE87
357FC
108C1
14268
0B5C3
274E1
0B9C3
41501
27D00
305AC
220B9
24C2B
1808B
0EFDE
15427
32B07
252DE
0F57E
2D09A
3A6BB
11809
108B0
13571
2C221
32AE5
1330E
43C52
0B1EF
170B9
2E192
35D41
12AA0
0EE03
0E574
252CC
16F72
0FCD3
0C7CF
297DB
1803C
0CE90
459A6
1F4B8
599FC
1BFFD
1258D
4B8F4
33F0F
3EEC1
473B2
13201
3E10F
11487
23901
39D11
099CE
11B6F
32FE9
0D5EA
11092
23F5D
0DF88
3A7D3
0D7C6
0E5B7
13BF3
235B1
1D166
0AEF9
11E8C
41E40
12E48
0F43B
48065
2E39B
41A32
27F6F
2C656
28843
4140D
0AC63
0E5B6
3C9CA
232EF
11BB1
16F3E
0EFE5
106FC
44DC2
295C6
40776
0A5C0
15A3E
0F2F8
1F7D2
19D31
07F3B
1BD3A
1E372
0BFE3
17C54
3E9AE
35645
10A28
13B0E
31B91
0C9DA
2DE7C
2B289
3A371
46813
0CAA0
22113
0F777
2D5FE
3D312
41E4D
276FC
122AB
12AFC
2D31F
10B5A
16E93
0D470
150AB
0F6BE
0F0EB
0F1D5

