780C1
037D1
1F2BC
7BE57
7A5E6
7EB1F
1E97F
00E4D
1E95B
1710C
0F802
0000A
7B508
7CDBB
1804C
24334
0C233
7C3C6
26470
000EF
22BC5
00EC4
27662
020CC
11C8F
14DF8
0B185
7DA41
1B85C
101EC
211F7
2D91C
010B9
0CC42
18C69
0F4DA
26537
2E50C
7F0BA
7F13C
22631
01167
03D0E
1A43D
1C151
00464
2D970
05AE2
0E543
7D2CD
7BEDF
7EE7A
1E86C
7D2E9
013FA
04101
7F708
284CD
7E7D2
2808A
78297
216AC
2C499
310F4
22C4A
18A4C
0ADDF
0006F
28250
7F1AE
0107F
1A5E8
01D2C
20D9E
7D21D
7E5C6
79C72
1A30C
7D9D7
29BEE
17A72
1F561
14625
1588F
072DF
7D9E1
09BEC
1F517
18471
7CA4D
1DA24
266E0
7FDD3
7CC91
7BE6F
1D673
1F1CF
036FF
2D67A
7FBD5
7F678
1F4A2
2090D
7AA7E
7F18A
7E12D
196A9
0BDF3
0504E
7E7A4
1B7E7
0D7B9
7B8D8
2B8C2
13E04
3CCB6
0F76F
01665
3076A
21214
284F8
2F6EC
7CBD4
27A7C
7A88F
16160
26584
004E9
7CA8C
22896
023D3
045C9
125DD
79122
2787D
73187
77288
04EB6
1592D
0A670
78483
7EC72
29390
7CD75
004CD
2DE3D
1CA5B
2B8BA
1AFAD
1AF5C
18FB0
2957E
78A51
7D92E
26136
167CB
7CA93
0BC25
7A022
7A641
2D376
1CDC7
28676
7B20A
03483
7796B
14A51
118B4
7B5DB
12FE6
06508
79A66
000AA
27BA3
21D18
7E0E8
7BE82
1E16F
7C81B
1DA91
1B3CC
274ED
2CF21
7A023
170DD
012EC
1D6AE
264E9
29E2C
1917A
02A8D
01A8F
1E149
775FC
7F257
7ACAE
7CAAC
034E7
7EFD3
7D431

