6BF71
5CD49
6F1DF
55B38
4E0C1
4063A
82EDD
48814
6527F
5A150
3E07D
3F9A1
35E17
6164F
5BB51
90A7B
40BAB
49C04
858A1
394B1
7FE83
3F030
A0BB5
53FC9
49A70
51075
50A7C
612A3
6BA71
4BA3D
87978
AED25
5B142
42C7B
5C71A
3C014
8CA6C
B1727
71F7A
49546
87CC3
66057
5E3D8
5CA31
6E37F
6306F
B04B2
421C4
45EE4
50280
5AF27
4BAFC
75278
85F2F
4E4C2
59BB0
52C9B
9AC30
46F5D
9CBC5
85842
77DAE
9F9E0
A6888
7BF54
627E0
434B4
40A8C
98FF2
258FF
46EC8
7005D
3EE59
8B02E
5BA90
6836D
4C659
5B20C
42637
A0228
5D0A0
78200
528FC
53F01
45FCD
5212E
4313F
81F8C
5A1A2
57B7E
6E880
8AEE0
57526
5E21D
6D883
6ADD5
817C0
54A84
A1AA8
38F6B
74C85
6DCAD
8C1B6
6F4A0
4C0BE
4ED8D
59C79
41667
38A79
461D8
694BA
40CB6
4F728
B138E
4F27E
D0AC1
44AFE
4EA3B
BC974
81BA8
9CB46
A6E37
699CA
9C730
69AA4
5BE55
8A397
2E9F8
63225
77F5E
399E8
42868
46EA0
5ECC9
863B3
72BAB
65E56
4B216
53C15
67F5C
53977
5BF76
A687B
668B7
4B270
B67D8
72352
96B81
638AA
72575
62C48
A3E48
52731
4F5A8
947EE
57C20
657EC
44FBD
61E47
675C5
A931B
6684B
A4DF9
46E2A
5E0F1
6BDAF
4EF78
47190
40110
46E89
7A58D
54536
75E46
9D62B
82D29
5941C
6FCD7
7FF7E
4AE68
71BE5
68F72
8C56B
AF955
5516B
54E4D
4838B
6E8C9
9A7A5
A4BC2
5DB6C
4F5EA
55F4C
6CD71
73DBE
71830
55988
74451
3E483
4FF50
57779

