56FD4
4CA9F
60A68
45736
3EE7C
34807
70C5E
3B8BF
5862D
4DF49
359C6
3417E
2B487
4F33B
4F757
7D07B
37367
3BB97
744D3
2EEFC
6F0C3
33C6D
8AC6C
4528F
3F8B1
4624A
44117
4F27E
5D272
40DEA
750CC
976EE
4AC97
39019
5032F
33EA8
7A22B
99B7E
5D2C0
3BE4C
75727
53C1D
4DE0C
50A07
5F5B1
51285
98A47
372CE
3BDE9
41240
49C0E
3DCAF
657A9
6D336
405AF
4A3A9
43B4B
860CB
39D8A
879E4
6BF01
6836C
8ABF8
9146B
6BD1A
55211
39155
34F6C
84936
1E9A7
3A46D
60860
33D86
77CD2
4A8E1
550F4
3D725
4F60A
35F19
8AB64
507BC
680EF
474F7
48A56
3A9F5
42CA8
38B41
701EC
4E30E
473D0
5FE48
78BE7
477F0
4C846
58F87
5CD90
6FAF1
45F5D
8CA0E
2E9BD
5F8AE
5F964
78A5B
5A2F2
3E1F4
403B1
4E220
37B6D
2F4F9
39270
5B379
37826
40443
99089
446DD
B5E9D
3B0E7
40A9A
A33C0
703FB
87A49
9145D
55E94
8750A
558E5
4F438
7826A
263DF
50975
6880C
2F992
3746D
3D67C
4C642
75185
5BA23
51DB9
3E6CF
4880D
5707D
4311A
4B1A8
8FDB0
536AD
3D9B9
9DC5B
62B9B
83536
56695
62878
556A6
8DB79
42330
408E3
8083D
4BF27
52867
3AA0F
4F182
53A47
92C29
59309
8E59A
392D4
4DA1F
56D10
4469C
3D683
33A28
3D83B
6559C
43EAF
60912
88185
71450
48C10
5AD4B
6E41D
3CB70
62875
5AE68
7A0E9
97F1B
449B8
49B42
3B5DE
5FDE4
8574D
8E815
514BF
417D2
46B3D
5E969
5D554
5CD13
452A2
5EA0A
339C3
414E4
4724F

