1386C
16D4F
3146A
11651
0D89C
0DB2A
356AC
10932
2E5ED
26869
18D33
0E73B
09403
13AEB
25706
3CB81
16F3E
0E603
3BD84
0D75C
3733B
0F3D6
42ABD
14B24
20AC2
222A4
1AE7D
1498A
2D55B
185CB
3827C
4ADAD
1394B
1A1D0
27878
1942A
3B038
4AAC3
19C98
107AC
39269
18858
186AD
29B22
2DCC0
172EC
4D5B3
137F4
1B5FE
0F9E7
1230C
10B4A
32570
1C2AF
12C4A
19099
1339D
41B86
0F2CB
421A3
19500
3747A
46704
4C213
362AC
2A939
172D3
0EC76
42583
0891F
11738
2EA38
0F9C0
387AF
133C6
1727D
0DC1D
292B5
0D8A4
44A80
29E58
32D79
23DEF
26ADE
19C41
11663
16E60
35794
2708C
11EA2
2F4DA
3D4A0
13F57
134A9
16925
2E4CE
35786
15457
4706E
0CB78
1A587
3047B
38DC5
15F68
110B5
10988
26F8C
187EA
114CC
0E74E
2B9D0
197D2
0F4DE
495D9
20F4C
5DCEA
1D91B
14B0F
4F7C9
36A9F
42326
4AA5C
16369
41540
146DC
2585D
3CA36
0AE0B
149E4
35647
0EE51
12CDA
25CDD
10D67
3D316
111BA
1186A
158EE
25312
1FB11
0D838
148F7
45710
15E8D
115FD
4BD5A
30B14
44BB0
29F83
2EE1E
2AA73
44B58
0D3F5
10AC1
3FC83
25029
14A87
188F0
11EA2
137E0
48579
2B59C
43F5A
0C772
18321
1270A
211E1
1B9E1
098BA
1D41F
218BB
0E87C
1B10D
41EA3
382AD
13331
16F80
34806
0ED2F
3042B
2D639
3D05E
4A2F3
0F3F9
23C66
11830
2FAAF
407A3
455A6
296A5
14683
150EA
2F641
142C3
1A35E
0FD1A
186AF
1114A
114C4
119A0

