5C73C
4A4B9
639C3
4AAB8
40AD5
377B8
74AE1
3C0BC
5A96F
50FB9
35262
35456
2E401
5192E
4DDB9
80E24
35312
3F2D0
77F44
30C8D
70DB4
365B9
8EB6B
47A6A
4607A
47B44
45DE5
51E00
5F1A5
3948E
78718
9C598
46227
3D40F
5149F
3501C
7845A
9BBAD
61BAA
3F147
78DCC
57B25
500C9
53B64
6019D
552A0
A212C
39565
3E86C
41C56
4DEC8
40CAD
68E48
7008E
42A91
50875
49877
8920C
3C4A8
8B2D8
71F1F
7010E
8F3EB
9695E
6D459
5A0BA
4473E
36980
8A22D
212EB
3E2EE
6571D
35533
7A904
4ED67
59C49
42E3E
527DE
38514
8EC5E
58176
69FB7
4C570
51360
40280
46C33
3B3A5
73322
50270
4AE97
6185D
7CDED
4A69E
50363
5E333
5E55F
734BD
43636
8F389
30177
637FE
60A58
7C13A
5F163
411CD
4294C
4ECC8
3A64F
32828
3A183
5AA93
3A2B2
445F1
9CC4A
45C63
BA895
405DA
48A70
A6883
7304A
8AC95
9661B
5AA9A
89A19
5A27F
50F87
7B2DE
26EA8
54FBA
6A8BE
30B40
39FC8
4EAD3
50644
7920F
61662
57C39
3DB51
4DE4F
596AB
46A88
4F54A
94260
58C8E
40251
A0496
67613
894C7
5669A
65FE4
5A04C
91509
4411A
43FDF
860DB
4D806
558BF
3C289
52AB4
573A6
95879
57748
91634
3B255
50D72
5A954
45383
435C8
2CDDA
3CF90
6B5DE
46C5D
641B7
8B48E
75B03
4C0D9
5FA18
72181
3FC62
64772
5ED50
7B42E
9BBF8
4887A
49A0C
3ED8B
62815
894DB
92085
55478
4610A
499A7
60101
60F02
63592
48282
6340E
35DC9
42F70
48BC0

