05D8D
0E1FE
28B03
06965
0454A
06841
2A89C
096B4
26FC7
1F0B3
150A3
0792E
02496
08D3B
2013A
311C9
12660
0576C
319E3
06DF4
2DD3E
08508
35D7E
0BCDE
186F9
1C08D
13604
097D3
250FD
1734B
2D525
3CF4E
0BC37
13324
20D4D
149FF
3281F
3DED3
0CBA0
07EAB
2E75B
0D1A8
0E94B
222A9
25DC4
0C07D
3D265
0CDFD
14F2B
070DD
073DB
080BB
28D6D
0D76B
0A6BC
0E42E
095CA
35ED3
071DC
35ED4
08FD6
2BB51
3A046
3F0B6
2D62D
216F6
1195A
07B8B
35945
03AEF
095A0
2490E
09180
2D7D3
0862A
0AF66
039D0
21EBD
05CD6
37D6F
1FE9C
29E80
1BC94
1CF6C
0EA82
07AC0
10921
2B100
201D2
077C7
2743B
3264E
0A469
085FD
096DF
269FF
2AD2E
0D1B4
3B3ED
068D4
0D60C
28A29
2D5E4
088A7
0841C
07B08
21142
123E8
0B2A8
07018
24C18
13976
058A4
3B760
1AEEE
4E662
15CD0
0A984
41253
2CA14
362AC
3DA75
09B34
358F3
07C3D
1E659
323C4
05D22
08DBD
2CB4D
08D50
0BC32
189F4
052E7
32CDF
024A4
04576
0D473
1CF9E
158A5
0326F
09DF2
3823E
096CC
09360
3E26E
26D54
384DE
239E3
255CD
21C3C
37EEB
03560
074F4
33389
1E41E
09242
12925
06602
075D1
3BF9C
25A13
3738C
04257
0E16C
056E0
1B968
17EB6
038B7
192C8
1420C
0471D
0E124
35BBF
2D5DD
08E9F
09B43
29BDF
05D6D
27ABA
247DA
3355E
3C7F7
04D9F
1E6A7
09A3C
27137
34230
3882C
2142F
0BCAA
0BB1F
2774E
06319
0CC2E
059A3
0AE7C
0A53C
08A0C
08003

