6539A
507C7
69AA5
518F7
46D44
3C825
7C4A6
41469
5FE8C
56172
388E7
39F0E
32B39
5904F
52B86
89158
38D47
450BE
7F2F7
3508B
77CAD
3B105
97DC9
4DC7E
4A862
4C385
4B097
593F4
65171
3D3EC
802D6
A6275
4C376
417B2
56501
38584
7FA44
A57B3
6A624
44AF9
8086E
5F4BF
56BDE
58C44
66271
5C9ED
AC43D
3DE3B
42C15
47CDF
551C2
4693C
6F749
7A1FC
486C0
57345
500FD
91B7E
41B7F
93F80
7C9B9
76E5B
9800F
9F8AE
73E6A
5FC18
49E64
3B623
92C5D
2424B
43908
6C09B
39DCB
82836
56020
61C81
49483
57768
3D76B
97B07
5DA61
709DA
51355
5653D
44C65
4D2EA
3F992
7A9F0
55196
51C4D
67907
8484E
50F6F
578A6
66D12
641D5
7ABBE
48EFA
97E7F
3458E
6C4CD
66771
8429B
67E23
46E53
48982
53971
3E78F
36815
3F582
60522
3E199
4AC16
A6CD2
4A342
C5B11
448D5
4EE74
B100F
7A475
9384E
9F7E1
62E5A
92544
628B6
56328
82B3F
2A4A0
5CB9E
70F0E
34C53
3EB34
5397F
58099
8056C
6B0EE
6036B
42898
52CA8
605C7
4D887
56669
9D9DF
60D47
45C58
AA724
6DF56
918C2
5BC26
6C9F8
5FB78
9A87D
4AAA0
4A2A7
8E81D
525F6
5D5A5
4070F
5A758
5F607
9ED0B
5CC2C
9AB3D
40C2E
57A79
63430
49900
48248
311D6
40C9C
743F6
4D89F
6CE4F
941C7
7D16E
52E48
685F4
7980E
45A9A
6ABEE
64C7B
82BFA
A58F7
4F6BC
4E2E8
444CE
689EF
92108
9B41D
5A8E6
4C09F
4FECC
65EB0
6A2C4
6C259
4EEF3
6C41A
3A494
48F0A
4F5DF

