7051C
7D885
19D75
75E8C
74CA5
7A50C
17E79
7C1EA
19E15
12990
0C660
7BC33
77690
7627E
13819
1CF85
08A1A
77117
1FED3
7C3E2
1C863
7CC8A
1F4F6
7C966
0E0F8
10DCD
06752
77018
162E3
0C26F
1A4AA
24F3E
7B0B0
092A5
1443B
0C52B
1F812
2592D
77625
7A209
1BA05
7A5BE
7DC9A
15D71
169B4
79B0D
24E05
01A6C
0A9F4
77A4A
75984
79C94
18C05
74106
7C1CA
7E5A0
79E20
20AB5
79A84
2040F
6EBCF
1BA79
24994
293A6
1CD27
13B86
071AF
7BB7E
209F0
7C8A9
7C5F2
14A8B
7DC06
19C61
76D48
774DD
74452
15DC8
7907B
21DA6
1306F
196AB
103D2
115FF
02FE1
77FCB
05EC5
18BDC
13E3A
76928
183DA
1FBAD
7A089
764BB
7453A
183D3
188E1
7E05D
25A77
7BECB
77944
1A0E5
19657
72E15
79F75
78B05
15201
084DA
0193A
79B3A
164E9
0A0FD
75F5B
22A2C
0FEC9
32EFA
0BEAA
7C401
271F2
1AB0A
208D1
27781
757B3
1FDE8
73206
116E9
1FAFB
7D382
75D3E
1CD78
7E8C1
0037B
0EDD0
7249F
21379
6A963
6FC69
003D2
116D9
042A5
7231E
7890B
20DE7
75CB5
7B4F5
24C88
16F17
24668
16247
15228
140FB
212C6
72A86
781F3
1EB6E
1222C
75AC0
07F1B
73153
73205
24F38
17F35
201B2
7613B
7D3AF
6FD66
10C1B
0DF95
76C94
0F885
7E944
739AD
782F5
1FE22
1B59F
77FA1
742E3
17908
7747C
180E1
160E3
20929
243C9
73EFC
12EE7
7C725
18023
1E8FE
21B22
14848
7D8BA
7C0A5
18D46
6F133
7785A
74BD3
74B18
7F5FE
79975
773F9

