5B67C
50114
63B23
48DF3
4217D
37012
74986
3E465
5B131
50822
37623
36842
2D839
53083
52099
81296
39375
3EAD6
77EE3
311DF
7298D
36246
8F660
48480
41ABE
486F5
46B7D
52F27
6034A
43231
78F41
9C5B6
4E377
3B105
52C6E
359E7
7E089
9EB6C
618CC
3EB8E
794F7
579A2
51529
5327B
627C2
54EB6
9D9F1
397A4
3DFCD
444D4
4D5F8
40B7C
68C77
72693
434A6
4D7E0
46E18
8A690
3C9B6
8C106
7152A
6B81B
8F243
95C05
6F377
57F14
3B3BA
376D1
88E00
20118
3CF07
63C96
362C0
7BD87
4E27F
5917A
40981
51D9F
38904
8F38E
53207
6B70E
49ADD
4B05F
3D03E
46023
3AE34
73E0E
50B2D
4AB53
62F97
7C929
4AD3E
5039B
5D4C9
5FCC7
736E7
490DF
910EB
30C9E
6403A
6293D
7CBE7
5EA09
410DB
434ED
5095B
39C0E
31473
3BE1A
5E2E5
3976D
43766
9E203
46AFF
BB8C0
3D157
439AE
A892A
73EDC
8C13B
95D2D
5A0F0
8BC3B
59CA1
51EC5
7BF4B
2801A
547EB
6BC1D
31B53
39A51
3F684
50443
78B3E
607EF
56138
4119B
4ADF4
5A983
468C2
4EA75
94A10
5771B
40758
A2F9E
65FC1
87689
592CF
65DBA
583A0
9262C
459ED
43ABC
84B8B
4E6F0
5684D
3CCF1
530D4
57CB3
977BA
5BFEF
93178
3C101
51173
5B3EE
46A29
3F727
36408
3F7DF
69C55
475F4
650E7
8C93C
74F70
4C3A7
5F3EF
71FC5
3FB39
65BB5
5DDC8
7DE7E
9CEBB
4813C
4C0F4
3E12B
62F57
89E1C
932F6
53E93
44694
49E9E
6196B
62135
612C8
489FB
632F0
35DB6
4463E
4A94A

