56F81
466D0
5FD36
465D1
3CD50
34573
6FEC6
38C70
5743D
4DCA5
3304F
325A3
2B77E
4CEB9
4AD1A
7BC23
32EB1
3B81B
736F4
2E20E
6C858
336AA
88FF0
43D1E
43389
44E1B
42A35
4D448
5B5C6
36CF3
739C1
9638E
42556
3A9C9
4E263
32EBB
73AA9
95A2A
5C51E
3B937
74127
52F25
4BDDC
508D8
5C519
5080F
9BB42
367E0
3BE22
3E001
496EC
3D2D4
64CA8
69BAA
3F0F4
4C5B3
45723
83C25
38E62
85AEF
6B47F
6BCBD
89C55
90FCC
6920E
5679F
410C6
3399A
84BCF
1F550
3AD1E
6152E
327D4
75984
4A5B3
54C27
3EE52
4F628
3519E
89334
549E4
65D62
494C1
4E035
3D451
42C01
387F0
6E8E2
4D0F9
46A06
5DBF3
7816F
4651B
4BA1A
58D08
5AB96
6EA5D
3FEBB
89CB0
2D6E9
5DFFD
5D029
7705D
5996B
3D7FA
3ED2A
4BCDF
37D87
30035
36D04
571FA
37B62
4061A
967F4
43018
B3907
3DBFE
44BED
9FFCB
6E7AE
85542
90AFF
55841
8431E
54E9E
4DB43
767A1
24CED
5024C
668CC
2E294
370A5
4B9A8
4B9D0
749F4
5B5CB
527BA
3AB04
4AD58
5513A
425CA
4AE96
8E3B0
53C1B
3CA0E
99EFD
63449
8424A
53123
61D97
56751
8B8E1
3FF27
40222
80C51
4A750
50AAF
397B6
4DCCD
52229
8FB9D
54239
8B90F
37A2C
4C94D
5528A
42814
405F8
2A35C
3A969
65D10
428B4
5E9D9
85C4B
71101
47C74
5A2AE
6D768
3C17F
608A4
5B1D5
7694F
959D9
44391
46C82
3B701
5EAED
83D3E
8C447
51FB3
4254D
45A71
5C674
5B2A8
5DD96
43EBC
5DA07
33189
3F3B0
4496D

