7445C
00C6B
1BB44
78D93
779F2
7BCA4
1A4DE
7DF1C
1B6B5
14546
0CAFA
7DD0B
7964D
79285
141DE
1F817
09FE2
79761
22156
7E523
1E7E2
7E799
2214E
7EDBD
10A98
1213B
087E2
7A558
18017
0A40A
1C9A6
27EDA
7DEA4
0B0DA
15A1F
0D5E7
20C2A
27EF1
7AF47
7C820
1DD87
7D724
00932
17B06
183CF
7C9E8
290C8
0347A
0C4F3
7A200
78972
7C18D
1AF5C
78399
7E3E2
01416
7BF40
231DF
7BD6C
22C8C
7353C
1EF17
273C5
2C386
1E8D0
163B8
03C5C
7DB71
23939
7E05A
7E47C
17268
7F721
1C28B
79B14
7A9B7
76FC6
1775A
7B34F
24E46
16194
1B35F
1286E
14739
09502
7A877
07542
1B057
15698
797CB
19C7D
220A4
7C9EF
792EB
77DFB
19B6B
1AF93
0181C
28162
7D8E6
7AFE6
1B8D4
1C0DD
769FD
7C718
7B2C7
15E72
09F75
03112
7BC13
17733
0B7BC
788FA
259F2
112D4
3610F
0EA80
7E6C1
2A2E6
1CCC4
23164
2A30A
78E0B
22575
768BA
12E70
21D5B
7EDC8
79089
1E9CB
0067D
0202B
14498
7599B
23819
6EB29
736C8
0459F
13BF8
06F3C
7505E
7B5F9
23B5B
793FB
7D546
27A40
19414
27582
16EC2
17437
165A9
23E0C
75C0A
7AAD8
21AA6
13A82
78D94
094D3
7629B
76767
27430
1872E
22C6A
7875A
7FEB5
73859
11A52
0A959
7A687
0FAA5
01E87
766D2
7BC32
22788
1DCD1
7AD57
77D3F
1A1AD
79D87
19E31
1832F
22596
273A7
76B2F
138D5
7E152
19E16
21442
247D9
169DD
7F200
7E899
1A881
7345F
7ADDA
77AC9
78586
01514
7C032
79F92

