543AC
4A896
5EBF4
43500
3CE9B
32F00
6E625
39D77
56B4B
4C5C1
3480C
32944
29E37
4CCEF
4DD8E
7A72A
35F5E
39E10
72088
2D92E
6CD44
324C6
87E33
43358
3E368
44B60
42697
4CC94
5B3EC
3F73D
729C3
945B1
48A4A
37B85
4E968
32DA0
77B2F
9698A
5A6F8
3A202
73085
515AA
4BB99
4F0BE
5D667
4ECE6
9587C
35BC9
3A8BA
3F2A3
477DB
3BF6F
636A9
69F1C
3E855
48306
41B8A
83531
381EF
84D6F
68928
6627E
88008
8E7AA
69B20
535EF
37BD6
336CD
81E39
1DB00
389CD
5E7BF
32642
75461
484DF
528A1
3B7AC
4DD4D
344E6
87E4B
4ED4E
65F1C
45D47
47290
39208
40C7C
3756A
6DC57
4C9FB
4511E
5DF77
7659E
4569F
4A330
5643D
5B00E
6D577
4406C
89DC3
2D3F1
5CBF7
5DB7C
76163
57683
3C4A3
3E4EC
4C99B
36709
2E14E
37725
595D5
3649A
3E44E
95D9C
43048
B2648
39CA0
3ED2D
9FE5F
6DF2E
84DF1
8E6DB
5351A
8488C
52E8F
4D9A0
75C5E
2523A
4E26B
66781
2E479
35CBF
3C278
49F81
72D71
58984
4F389
3CC10
4705D
54CD9
40E51
48E28
8CDF3
50E69
3BD35
9A851
60B02
80C62
54AF0
6072E
53A8A
8ACCA
400FA
3E9BB
7DE2D
4A649
50077
39443
4C9EF
510C4
8FCEE
576FA
8B630
375F7
4B78A
540C5
43065
3C21C
31FFC
3C474
62968
41C24
5DC2C
854B2
6EF5B
46952
58125
6BED3
3AD93
6086D
590CB
77A6C
94D56
42705
483B3
39ACE
5DEFB
82B0B
8B948
4FA9B
3FA99
44B20
5CB68
5A5E8
5A181
4300B
5BC79
3234C
3F60B
44FF2

