3FF09
362C9
4FEE4
3446D
2CAED
27254
5BF21
2B0CC
494D0
40620
2A133
2617F
1FC8C
39602
3E0E1
663BA
295E7
2C189
6073E
22F93
5A509
27104
70FB9
33BA9
376C8
3906F
35122
39EAA
4BA51
2C69A
5F4EE
7C7CA
325E9
2F83C
40F64
2A289
60525
7C09D
4599F
2CDC3
5FF3E
3EFF2
3A4C6
4348E
4C6EE
3CEE4
80F36
2A8AE
30C86
2E29A
3691D
2DFDD
53905
4F3EA
2FEF8
3AD53
344C3
6D359
2AA6D
6E9B6
4F4AB
59DD2
72C78
79799
57BA2
477C7
32C03
2706F
6E113
178F4
2CB1B
50044
26944
60B9F
3788E
3FB95
2E1DC
4255E
2797A
71CB8
4607C
546C7
3C847
40950
31258
31E61
2D061
5B106
40138
34A09
4DE35
6402F
351F8
3864A
4231E
4B8E1
5B1FA
315B8
72FEA
2242C
46E5E
4DBC8
61CBF
427F3
2E51A
2F09B
3F3A3
2D23F
25868
29088
48443
2D643
2F9F9
7C28D
37611
96480
32C2D
34563
847FC
5B6BC
6E67D
78C57
3FE68
6D5CC
3EE4F
3FFBC
62BA2
1BF42
3BD16
55C3B
237C2
2AAAB
3EB24
378B2
61B1F
4201D
3C4D7
2E028
3DFB1
42D8F
3050E
385A5
75603
3EA35
2DDBD
7F448
51FF8
6E7D7
45095
50723
477FF
735D1
2EA29
2FED5
6A943
3DAB9
3C2D3
2E3D6
3959F
3CBEB
7759D
46361
731D7
28E51
3AB18
3E607
371AB
33D28
1F0E6
3092A
4E812
30C88
478CB
6E995
5DA29
35D32
4338C
5A034
2CA2C
500DF
4B803
62ED7
7BDBC
32225
3AD40
2D1F2
4EA10
6CD48
740D8
44212
32A66
350F1
4D088
42ECA
46C0C
32214
45FE9
277B2
2F8BD
332DC

