7296C
61EF9
73AF7
5AD53
52D42
4424A
88A99
4C98D
69305
5DE96
40B08
433C7
393A3
6723A
5F934
96DA4
43BC1
4E2E3
8AFBA
3C906
853B3
428F5
A7AA4
58AB3
4CD85
54774
54A15
66DA1
703B4
4F0A8
8D728
B6352
60393
45DDD
604F8
3E8F2
927FA
B8F0B
7888C
4D92A
8D97B
6BC9F
63685
606DF
72E98
68AB9
B7C32
45904
491BA
54E5E
60607
5012F
7A1AC
8DC3B
52B34
5EA03
578CF
A14D7
4B19F
A3678
8D97F
7CCB5
A6352
AD3EF
810DF
66B65
4684B
445A4
9F720
27C28
4AEAF
74EAD
4262F
9113D
610FD
6E435
511E2
5ED6C
46518
A6E66
61010
7D32E
561D5
5780F
4993A
56E65
465AB
879BF
5DDD1
5CEC3
73276
90AC3
5C51C
63B1E
74067
6F4A7
871B0
594C6
A84F4
3C3BC
7B7D6
72473
92409
75F43
50719
53767
5D752
44758
3B9AE
4A358
6DBDC
43B9F
543DD
B8DC6
528B1
D91F5
47BA7
530D9
C4992
873FA
A35B0
ADB6F
6FD54
A31F8
7003F
5FE29
8FEE9
31450
68FD6
7CD78
3CC8B
4613D
49EAB
649CB
8BA49
7A05D
6C395
4F248
574EF
6D4E6
58CF3
614A9
ADB0C
6C95C
4F6DF
BE4BD
7718C
9CD7D
67B02
77559
66FBE
AAE54
5794D
5406E
9ACE3
5B7CD
6B7C5
4840F
67D42
6D967
B0475
6ABA3
ABFC6
4B36D
633EF
727FC
524CA
4A286
43FDF
49E00
80FA3
5981D
7CA06
A41BE
885DA
5E77E
766CD
858FC
4F615
768C6
6D683
921CA
B70C5
5A4B1
586D7
4C47E
732F6
A11DB
ABC14
61A2A
53C0D
5AC5E
71573
7AF8F
780C0
5AC8D
7B1AB
41A6E
54957
5C9F2

