781C5
037C1
1E5A7
7BDCE
7A502
7DFD4
1DA24
003B7
1DBF1
16907
0E2D4
7FDBC
7B575
7C6A3
163E7
2317E
0B959
7C07A
253F4
002E2
2186F
0088A
26157
018A6
12A0E
140D7
0AC10
7D8F2
1AA00
0BFC3
1FFC9
2C37B
00936
0CE71
17D49
0ED44
23FC0
2C333
7EBDC
7EF5F
2132E
00C57
0380C
19E68
1AE2B
7FE1A
2D81F
05457
0E28D
7CC3C
7BBBF
7EA0C
1DD4C
7CA39
00C36
042D1
7ECFB
26E01
7E36B
26A16
77FE0
21EE9
2B114
30239
21738
18BB2
0627C
7FCF9
275AE
7F514
00A27
1A08F
016E4
1FA31
7CD44
7E1D0
79C85
19A26
7D755
28CB0
1887A
1E1CE
14A82
16B0A
0B556
7D567
093DA
1E451
17938
7C7CB
1C6C8
2562E
7F7CB
7C638
7BA4C
1C3DE
1E3A3
03EF2
2BE2E
7F6B0
7ED81
1E18E
1F977
7A791
7EF92
7DCDF
17FFC
0BC01
04D0A
7E0D2
19ED2
0D341
7B5AA
2A02E
131D5
3AF26
107CD
01282
2EC34
1FF97
26E85
2E2D1
7C7AF
26258
7A372
15306
25206
00564
7C6BD
2168E
022F5
0412A
16704
78F20
26A92
72EC6
771EE
0676E
15E3E
09FD9
7807E
7E776
27DA2
7CC4C
7FCA9
2C15F
1C222
2AF40
1942F
1A29F
18D8C
27E8F
78A34
7D610
255D3
15C9B
7C438
0B2CD
79922
7A071
2B530
1AC52
26D9E
7AEA9
02E68
77519
138B9
0CAD1
7C446
1155A
05CB1
7962F
7F9B4
26551
210A0
7DD37
7BA70
1D58B
7C6C0
1CA27
1ACD2
25A00
2B857
79B6C
158B6
00780
1C8E6
25196
2886C
18ECD
01BD1
014D9
1D17E
77504
7EB71
7AA3A
7C48B
0340D
7EA05
7CE00

