76774
0252F
1D37C
7A922
7928E
7D0BF
1C34F
7F407
1CBFC
159B4
0D89B
7EFB9
7A81B
7B04D
15551
218E4
0AE70
7AEDD
23E42
7F622
203A0
7FA6C
245E5
00642
11C92
1334B
09C8F
7C2D4
1980A
0B3E1
1E896
2A611
7F6F8
0C1C3
16E37
0E341
229A4
2A5F2
7D1E5
7DE8D
1FC30
7F58A
023F8
18F3E
19C04
7E7BC
2B98C
046AF
0D5DD
7BA22
7A631
7D8B1
1C99C
7ABF4
7FAED
02ECA
7D962
2543C
7D322
24FB6
75FE3
20A6A
296CE
2E75A
20355
17A90
05225
7EE9A
25BC5
7EC32
7FA03
18CC7
00947
1E257
7B7C2
7C9C5
78958
18B3C
7C7E5
271F0
177CE
1CDE7
13BE7
15BB0
0A77B
7C225
086BD
1CE0A
16A61
7B339
1B4A8
23F3C
7E424
7B03C
7A072
1B288
1CD53
02E4D
2A41F
7E9EC
7D31A
1D01A
1E135
78D2D
7DE39
7CAD4
1719C
0AFC5
0410D
7D112
18DD7
0C776
7A283
28214
1248B
38DAE
0FB3E
7FFC2
2CCC9
1E9CF
25452
2C77C
7AEFB
24840
78A47
14358
23B74
7FB46
7AF82
2035F
016C2
03306
15843
77830
254F1
711CC
75895
058F1
14F8E
08B03
76BDE
7D240
2613B
7B429
7EBC8
2A2E4
1AE65
29681
18425
18EBC
17C74
262E9
7766B
7C38A
23C76
14DFE
7ACCD
0A5F4
781C4
787FF
29955
19C67
251AC
79DD0
019F7
75B10
12BB1
0BC79
7B787
109E8
0420C
781E2
7DF58
24AD6
1FA6C
7C8B2
7A036
1BF50
7B515
1B750
19AFA
24389
29AE7
786BF
14B0C
7F723
1B68D
2374E
26CBF
17EF8
009E5
001E2
1BFED
7594F
7D10B
795E5
7A989
026C7
7D818
7BA1A

