26F76
27A69
3F87B
203EF
1C3D1
19492
47349
1DE11
3B264
3230F
22559
19BEB
13051
258D2
336AA
50194
216CB
1B9C7
4CD5F
17399
4872B
1A0DE
58828
2336F
2865E
2D38C
27401
25ECA
3BF4C
28362
4A993
61E2C
257CC
22A10
342A4
21659
4FBE5
63648
2D8FC
1D21C
4B6F2
29F11
286A9
35213
3D53F
283EE
627E6
1E23D
24D59
1EC34
22639
1DFBB
41971
348A4
206F6
26BCE
212D0
56A14
1BD28
57453
31607
44676
5AF7F
609BC
46DE6
3688E
21B4E
1A301
55D2A
0EABC
1D523
3D09E
1A8B2
4BD21
2364B
2934D
1B380
34798
1973B
59AA4
33BCE
43464
2D8D1
2ECB1
209A1
1FCD5
20F39
473FD
32EBC
2181E
3E60C
4F1BB
23438
24301
29E53
3CC1B
46EE1
244FE
5C768
16E6D
2EEA2
3F108
4C182
29DD5
1E3E2
1EC48
3377D
2189C
19EB5
1B795
3AFC2
22407
1D829
61A76
2BDED
78A65
2501D
20A9D
692E8
483AC
576C2
5FC8B
28CE8
56EDD
27842
3257A
4EC5B
130DD
26232
451CF
18A7A
1D85F
27A2C
223F2
4DDCA
26C1C
23FB1
21569
2EBE0
30456
1D3DA
247F3
5BF14
27A04
1E98F
652E4
3F476
56ECD
38599
3E542
36D8C
5AF25
1CFE9
1EACD
52C50
30E80
27180
22EBE
240E8
267F7
5F65E
3AACB
5AC8D
19CA9
28066
26A62
2C405
27387
172C6
2801C
3547B
1E5A2
2FBE3
5759D
49150
22F89
2AD12
45B51
1C3CD
3FB1B
3AB2E
50339
61D2A
1EDFD
3015A
1DEFB
3E41A
55541
5B9C4
34DE2
21B57
23C7A
3DF59
29C2C
2D6FE
1F8BD
2D13E
1B2D7
1FC30
21C61

