3D0BC
38AB1
4EC20
315A0
2C2D6
25CC8
5A512
2B84F
48977
3EF4D
2B327
25DBF
1E2CE
38B38
404F4
64C1B
2B713
2A603
5EFB2
22207
5A31E
25E17
6F9EF
32D26
330A2
38AE0
34800
38E1A
4B381
338C7
5E1DC
7A815
36A2F
2CEAD
410DE
29E95
633BE
7C5EB
43738
2B467
5EC02
3D2AD
39A3D
41C5A
4CF91
3B0E4
7B63C
29A68
2F6CD
2E919
347CD
2C9BB
52173
4E974
2F1C7
370E3
310D3
6C6EA
29A06
6D7FD
4C4D2
54DE4
70EFA
76FC0
57DB7
4499E
2C745
267FA
6B518
15FF0
2AA25
4D5A8
262D3
600AA
35661
3D5E6
2AF4A
40D80
268D3
70372
40F44
542FC
3964F
3AADF
2C90B
2FE39
2BDF3
5A0A6
3F757
32DAE
4DC98
62405
33EC1
36BAE
3F89F
4B82D
59AAD
33C85
729BA
21CD3
4545B
4E047
60941
40149
2CE66
2E272
3FBA5
2BBBE
23C12
291E8
49CDE
2C068
2D7D7
7B1DA
37296
94D12
2F250
2F603
83DF6
5AA11
6D97C
76899
3D8B6
6D2CF
3CAF1
3FA3B
61CC0
1BE04
39A80
55626
23341
295D2
31A51
359F9
5FE66
3F116
3912D
2EB63
3A962
42176
2EA21
363F4
73CF7
3BC28
2CDAE
7F332
4F937
6B56D
462BD
4EF8F
44E6C
724A1
2E19A
2E409
67CD5
3D56B
3B0FF
2DD24
37D81
3B410
77034
48B46
727E2
2838B
3950D
3CCB8
375C3
316BD
24425
31E53
4B61A
2F9FA
4630D
6DC31
5B8F1
3457B
40E47
5859D
2B2B7
4FB5C
49810
63720
7AB4C
30391
3BDD0
2B77B
4DB5C
6B74C
7302A
41F04
30520
33D61
4CF61
4178E
43389
30D79
43DBF
26693
2F2F2
32F4A

