73241
625C7
7410E
5B42B
533A2
4474C
8923E
4CF01
69866
5E3B1
40E94
4389F
39819
679E3
5FE5C
975E7
43FC2
4E8CB
8B6FC
3CD62
85ACC
42DB0
A83E3
590F1
4D1C6
54C0A
54F62
67536
709CF
4F531
8DEF6
B6D2B
60A6F
461FA
60A20
3EC5A
92FC6
B9908
7914E
4DED2
8E135
6C450
63D69
60BEE
734DA
6923F
B8627
45D9F
495F6
554B0
60D44
50709
7A846
8E6A6
53113
5F08A
57F29
A1D8F
4B725
A3F5C
8E444
7D34B
A6C1B
ADCE3
817AB
67105
46C97
44A91
9FFB9
27F16
4B403
75534
42AD7
91954
61830
6EC45
5182E
5F25E
46A55
A776B
6155A
7D9F1
56692
57CD0
49E03
574D5
46A09
88143
5E2D5
5D5B3
738A0
9126B
5CBC6
64288
7490F
6FA8E
8792F
59AF6
A8DD0
3C819
7C0C7
72A6E
92C3A
76826
50CF6
53D8E
5DC39
44B6C
3BD9D
4A8CD
6E1CA
43F88
54A41
B97F5
52D35
D9D3A
47FB5
536BC
C543F
87B56
A3E8F
AE489
705A0
A3ADE
708B6
6037B
90685
317D8
697A5
7D3FA
3D0C3
465FA
4A2AC
6518B
8C180
7AA16
6CC04
4F7A1
579AC
6DC06
593E8
61BC3
AE498
6D169
4FC93
BEF25
77811
9D5A8
68089
77C01
6755D
AB7AA
58025
546A9
9B54D
5BCC7
6BFC2
4886B
6852C
6E1B4
B0DE7
6B13F
AC941
4B933
63ADA
730D7
5293C
4A69B
4451B
4A1F5
8187A
59F06
7D301
A4AB4
88D3E
5EE70
76FA2
86071
4FC0E
76F2E
6DC6F
9297C
B7AB9
5ABA1
58B8D
4C9E8
73925
A1AB5
AC570
61F64
541E5
5B2CA
71B73
7B90B
78977
5B378
7BAC8
41EED
54F82
5D0D2

