27440
24C30
3EE67
20E5E
1B616
19020
468A7
1C576
3A56E
32048
207DE
18F59
13440
246F5
30612
4F2B7
1F234
1B95B
4C1D6
17058
46CEC
19D40
57410
227D1
2AC8C
2C537
2688D
252EE
3ACE5
21460
498E7
60E9D
2143C
23A00
32D53
20C54
4B985
609CF
2D429
1D17D
4A656
299F1
2779B
35119
3B69C
27F5A
64498
1DBD5
24E3A
1D31A
225BE
1DB8B
411B2
32DE6
1FBB4
280EC
21ECB
550C7
1B62F
55E1D
314DA
46A69
5A254
60488
45152
376CD
236E8
198E4
55C6D
0F3B7
1D8F2
3D793
19D17
4A5E1
235E6
292F9
1C239
345AB
191E7
58B7D
36668
41C47
2ED32
32310
24284
1FD7E
20BB6
462E3
322A0
2157B
3CE58
4E7FC
22B2D
23C7F
29F5B
3B4D6
46348
21C10
5A917
164AC
2E258
3D5F3
4B0DF
29C18
1E0E2
1E203
31C08
21ABA
1A4A0
1A44B
38591
2255A
1DAB1
5FF0D
2AEC0
76E82
26FCE
22C18
670C3
47001
55D85
5F25A
28BDA
54E61
274D6
31487
4D911
12779
260A5
43C7A
180BC
1D68C
30DE0
220A5
4D6A8
26D74
2489A
206CF
30359
2F510
1CFB4
2477D
5ABED
2802D
1E08B
62B19
3F7EB
574A5
35FFD
3DCCB
37795
5971C
1C161
1E902
52CD8
2FF86
2638D
2231D
23713
25D3A
5D3C2
3749E
58EAE
1919C
27872
25F7B
2AE3B
26601
131B1
25D79
3586F
1DC0F
2ED62
55C64
48D1D
2296A
2AA30
452C5
1C12E
3E642
3AC5A
4DDE9
60430
1EC0C
2E055
1DC86
3D6DA
54309
5A1BC
3549C
21D92
2347C
3C90B
28F38
2E01D
1F118
2CAC9
1B095
1EBDE
20865

