0E207
14819
2E661
0D008
0A4EB
0B355
31B48
0E88B
2C06E
23D4A
185D0
0C1DD
06785
10021
24E96
38DBC
1627B
0B002
386C2
0AF5D
347B9
0CBFD
3E829
11A82
1C6D3
2054C
18583
10990
2AC91
1B751
34A40
46305
1231D
170DF
25AA3
17D16
39D11
474B0
14EF7
0D387
35B41
14503
150A3
26E83
2BBA3
1315A
467C6
1130D
18EB7
0CFB2
0E072
0D87B
2F06E
173B9
0FECB
14616
0F50C
3E1A3
0C4AF
3E434
13162
31E1A
42414
476F8
33C1B
26B5C
159D7
0C568
3DA3E
066E2
0E581
2AAF2
0D74D
35127
0F233
12860
0983C
268F4
0AB6F
404BD
24DE9
303F9
203A3
216BD
1324A
0DB45
14AA7
321C0
24D0C
0DFDD
2D0B0
39929
1085D
0F53E
118BC
2C286
31D9B
12E86
438CC
0AA3A
15C32
2E3E1
350CC
10DF2
0DC0E
0D758
25AD0
16115
0EDAB
0C1F7
2A503
1741A
0B886
45026
1F2AE
58F63
199A3
101CB
4B278
3387A
3E7B2
462FB
117A1
3DE6E
0FB3E
23621
395EA
09211
102DA
32CED
0CC9A
1033D
1C602
0C729
3991A
0B682
0C405
124B0
216AE
1C391
09ACA
10872
41174
10F9A
0E8EC
47E8C
2CF1C
3FF5A
28CD1
2B9AA
27090
40AFA
09C02
0D26A
3B1BB
22EB7
10A12
16A8B
0DCBC
0F25A
44D4D
2AE41
401CC
098EC
1492A
0DBC1
1FC0F
1BBEA
0873B
1CE1D
1C6A8
0AEBE
167D4
3E237
344BA
0F6DA
11FB7
30BBB
0B705
2DAD2
2A0AF
3A8D5
45D44
0B5B7
22D54
0EB6C
2CDF0
3C6F4
41492
2629C
11455
11B76
2D151
0F15E
14EE2
0C16A
1372D
0E8A3
0E695
0E71B

