59B5E
485C4
61B7C
48845
3EC13
35E95
724D3
3A696
58ED6
4F62F
34158
33CFC
2CDC0
4F3F3
4C56A
7E523
340E2
3D575
75B1C
2F74E
6EB06
34E31
8BDAD
45BC4
44A01
464AF
4440D
4F924
5D3B6
380C0
7606D
99493
443BF
3BEEC
4FB81
33F6C
75F82
98AEC
5F064
3D53F
7677A
55525
4DF53
5221E
5E35B
52D57
9EE37
37EA3
3D347
3FE2B
4BADA
3EFC1
66D78
6CE1C
40DC3
4E714
477CD
86718
3A985
886E3
6E9CF
6DEE5
8C820
93C95
6B333
5842C
42C02
3518D
876FE
2041D
3C806
63626
33E83
78144
4C98D
57438
40E48
50F03
36B59
8BFC9
565AD
67E8C
4AD18
4F9CA
3EB68
44C1A
39DCB
70E02
4E9B5
48C4F
5FA28
7A7AE
485DD
4DEBE
5B81D
5C87A
70F8D
41A78
8C81C
2EC30
60BFE
5ED41
798CC
5C567
3F4E4
40B3B
4D4D3
391EB
3142E
38744
58E47
38F0A
42606
99A1F
4463E
B70CE
3F0EC
46B2F
A3427
70BFC
880EB
9388D
5816E
86E9B
5788E
4F565
78D40
25DCB
52903
688C5
2F6EA
38837
4D23E
4E00A
76E01
5E616
551F9
3C32A
4C5D4
573F2
44829
4D1F0
91308
56455
3E62F
9D1C9
6552E
86B89
54BDF
63EBE
583CF
8E6F5
42020
42100
83696
4BFAB
531B7
3AD1F
503C1
54AE7
92A0B
55CC0
8E7A2
39641
4EB5F
57DEF
43DCC
41DE0
2B89B
3BC7D
68977
44A88
615C8
8886C
73602
49EA7
5CE63
6FC74
3DEF0
6280B
5CF92
78EBE
98AE8
46605
48347
3D246
60981
8690C
8F266
53A15
4432C
47A0C
5E3BA
5E0D5
60994
4609F
6070B
347A9
41190
46A97

