53ADE
441AA
5D8E1
43C7A
3A867
3274A
6D11C
36D10
55452
4BE00
31BDD
3099D
29CCA
4A20C
48FED
78AF0
318DE
394E1
70B91
2C88F
69EBA
31A6E
8590D
41856
41892
43302
40B33
4A80D
591DA
3552F
70B5A
928BB
400D9
3906B
4C43E
31AB4
70E71
91FA8
59130
39795
7132A
5018C
495B5
4EA85
5A0CA
4DB52
97E1B
34C90
3A4C3
3BBCE
46BCF
3B01E
62547
65F20
3CE62
49DA6
42FF1
8089A
36DD1
82630
67485
693C0
867C8
8DA0E
66A48
5455B
3F018
31CDD
817FE
1E38C
38CD5
5ED9F
30C9B
729D1
47AAE
51C12
3C7F8
4D854
332BD
85DB5
5288C
63595
4778B
4C182
3B89B
4057C
36DB7
6BC55
4B34B
440E2
5B7B3
7538B
43DCD
48E21
55954
588E9
6BDBC
3DD71
86893
2BD60
5AB2F
5AD40
73FD9
564A3
3B548
3C915
4A01F
3650F
2E83C
34D85
55004
363CB
3DFCC
92BC1
41585
AF618
3C2E0
4266C
9C0F7
6BC1E
820DC
8D455
526D9
80EED
51C49
4BBE6
73A7D
238B0
4D3D6
6426E
2CA2D
3545D
49C27
48BF0
71EB1
57BD7
4F507
38E09
48FF7
5278F
3FC8A
4842B
8AAE0
50BD5
3A84B
96208
60CCF
810CC
5110F
5F5D0
54521
88196
3D795
3DD17
7D998
48A16
4DBD9
37E03
4AE10
4F145
8C3E7
52263
8812B
3587B
4A06A
51E77
40E05
3E948
289DE
39285
627C7
4001B
5B520
82755
6E499
4536B
56E3C
6AAF3
39E2A
5E2F6
58E25
73C62
91EF9
41A38
4512F
39648
5C63B
808AD
88CEE
5000A
40175
43483
5A352
57B40
5A8CB
41611
5A403
316FD
3CFD7
421A2

