05D19
0D288
27D08
06A10
03ECF
05D7F
29868
08675
260EF
1E8B8
13804
0727C
024BC
080C7
1DD77
2FE80
1144B
0533E
308BC
06D1F
2C5D5
07E30
3460A
0B1E5
19A68
1B1BE
12D46
0913E
23FAE
122C7
2C123
3B894
0A141
13821
1FAE1
140B7
2F7FC
3B6FB
0C43A
07B85
2D2CC
0CA57
0DF5C
21CC5
24576
0B883
3D6E9
0C625
14C45
06311
06F66
07AAB
2815E
0C674
09C40
0E9B5
0904C
344C4
06B1B
345DC
08A70
2C9B2
38C0C
3E226
2BCF2
21A75
0EAA8
074B7
34D98
03F19
090B0
24563
08852
2C0F0
08085
0AA26
03C51
2166D
057FC
36B98
21369
287A3
1C439
1EAF4
128CB
075E5
1011D
29DF2
1F4E2
07336
25DD1
31567
09B91
07D70
091B9
25456
29D94
0C9A5
3974E
06114
0C984
27305
2C39E
0837D
08024
07334
1F7C4
121F6
0B0EB
06410
22C51
1358A
05544
39B04
1A090
4C608
17074
0AEC9
3F1FE
2B51B
348D5
3C697
0958C
33BCC
07527
1D5B2
30E1E
059B8
08851
2B66A
088A3
0B702
1E1F0
04E43
31ED4
02040
0452C
0E02E
1D8A8
14D75
02C5B
09837
36A59
0956C
08953
3BF5C
2669B
37D78
219D9
2485F
21C00
364F4
02F15
07068
3292B
1D662
08760
11DDF
05BE2
06C29
39D55
230F7
3567C
03B0E
0D8C4
04E12
1A54D
14259
02E80
174BC
13AB6
03F55
0D561
341FA
2C9A6
08834
094F8
28EC8
059F8
26729
24185
3152F
3ADA5
047B2
1CA8E
08FD8
261CB
32C9D
36F09
212B9
0B12A
0B2E1
263DF
05BE3
0C767
053AA
0A59D
0A2AC
07F65
073D0

