254F7
265FE
3E635
1EF68
1B0B1
1858E
45C5A
1CDB3
3A242
313BE
21AB6
18D62
122EE
241D8
32731
4E8CA
20AC6
1A80F
4B799
16684
471DF
192AD
56C6D
220B5
27999
2C5CC
2641B
2480A
3ACFB
275C7
49227
600A1
24338
21DB7
3332D
20C21
4E482
6184F
2BEB7
1C123
49FC4
287FF
271FE
342E7
3C279
26D5C
60A06
1D46D
240A4
1D93C
21081
1CE2E
405A4
32961
1F559
25839
1FFC3
54FEA
1AC98
559A6
2F5B7
432B4
59522
5EEE2
45983
357AD
20E68
1943B
5435F
0E1F2
1C529
3BD0A
19ABC
4A4DD
220B0
27B1B
1A09E
338C1
18783
57F95
32BF2
42019
2CA9B
2DE6D
1FB46
1E988
2021E
45D71
31FB0
2034D
3D38F
4DAC3
2203A
22CC1
2845A
3BA66
45865
2326E
5ACD5
16158
2D3CE
3DF16
4A8EE
2832C
1D24B
1D9D1
328C7
20C60
192E7
1A735
39DFA
2184C
1C4FC
5FBE8
2B060
76899
243F3
1F8F5
672E1
46D97
55C28
5E13D
27406
5542B
25EDC
31585
4D587
12647
24AC5
43E48
17DD2
1CA29
26E29
20CB1
4C825
24EEF
22661
2055D
2DDAA
2EEF3
1BEFB
232A7
5A270
261DA
1D873
633AB
3E0E7
5564E
37504
3D149
35CAE
59322
1BB62
1D81C
51313
2FF94
2598A
221AA
22929
24F0E
5DA07
399F5
59019
18B58
26BA7
24FCE
2B6B1
26749
16312
2743E
339F5
1D0E8
2E0F3
55AB8
47B24
21AB1
29294
444F1
1B1E1
3E7E3
3996A
4EC21
5FF4E
1D92B
2F337
1CEBF
3D18F
53AB3
59DB0
33E33
209CF
22935
3CD58
27FB8
2BCDA
1E3FC
2B5E7
1A55C
1E9AE
207C3

