16449
18C44
332B1
138C5
0F75F
0F44C
37CB9
12358
30086
281F2
19E3C
0FE95
0AA44
16025
26F56
3F482
1816E
1035D
3E1AC
0EC9C
395E9
10B5D
4587A
169CA
2213B
23938
1C854
16E66
2F34B
19998
3A927
4DEB1
157B4
1B6F3
29197
1A4DA
3D511
4DB85
1C7DE
123B4
3B8BC
1AE58
1A823
2B468
2FB02
19834
508A8
14EB6
1CB23
11811
146FA
12837
34640
1F522
14918
1B1FA
15447
4467A
10DEE
44D98
1CA50
396A3
492CF
4EEDC
383D2
2C5C6
18E0F
10469
450B1
097ED
13220
30B2F
11070
3AF6F
157A0
19A8E
0FC13
2AB90
0F25F
47715
2BA21
34EA4
25646
28473
1B359
1367C
1843A
37CB4
28948
140EB
3130F
3FADE
16018
1594E
1943B
301B2
37CB6
17014
49BDB
0E0BF
1D188
32193
3B634
18B64
12D9F
12799
28781
19C4E
128C6
1018E
2D61D
1AB7B
114C9
4C804
22571
614B1
1EE09
16A50
52C24
38EED
44ED0
4D7EA
18C95
440BD
170CD
27280
3EFD4
0BEE9
1709C
37640
102A7
1446C
27573
133A2
3F723
14206
142AA
17114
26B8E
21DCA
0FA97
16C51
48667
186C7
1321F
4F026
32BF9
474EF
2BA3E
30F44
2C6F1
4796C
0F4EF
1299F
426C7
26884
1718F
19E5A
14595
1609E
4B3E7
2D023
46DED
0E386
1A533
1526F
22798
1D1C9
0ADF9
1E732
24522
10A50
1DCFD
44AC5
3A7AE
15564
19B35
36D12
10AA1
32392
2F3F6
3F5CD
4D402
1166D
2532A
13375
31944
43371
483C6
2B107
16461
17085
31388
170EF
1CF5C
11EFD
1B3B3
1276A
132A4
13ACA

