4195B
3755C
5110E
35919
2DD62
28168
5D5F6
2C07C
4A4C6
41573
2AB6C
26F82
209E7
3AC58
3EF77
67C54
2A0D1
2D326
61CF0
23C53
5B9D8
27F22
72B2B
34E0D
38444
39DFB
360A3
3B4C7
4CC47
2D27C
60C22
7E534
33827
304EA
41E76
2AC8D
61B40
7DDDE
47396
2DE95
6163C
406BF
3B8DA
443B8
4D916
3E543
82DC9
2B656
31936
2F4B4
37EAB
2F138
54CB5
5122E
31041
3C15A
3585D
6ED1E
2BAB5
70415
514A8
5B251
746BE
7B278
58F85
488E8
33C5A
27ECD
6FAFC
181D6
2DB3F
5140C
276E0
62379
38E11
413A0
2F509
43448
288EB
73778
47128
55AAE
3D6E2
418A9
32033
331A3
2DD7E
5C74C
4100F
35E9B
4F055
65721
3659F
39C47
43CF8
4CA37
5C84B
3265D
749F8
230F1
488C5
4ED3D
63502
44257
2F673
302A5
40203
2DE7B
26465
2A047
4953E
2E20F
30D20
7E0A7
3835B
985F8
338BC
35824
86767
5CC84
700B0
7A7AC
4171C
6EFE4
40779
40F6A
64234
1C961
3D450
56F6A
243F5
2B8CF
3F9E4
38FA2
630C1
43D17
3DE30
2EEA6
3EE61
44265
319AE
39ADB
7726A
40258
2EE9E
812C3
533B5
70096
4609F
51B07
48917
75177
2FDF2
3115A
6C29F
3E956
3DA3F
2F0AF
3ACFE
3E45D
79179
4734C
74DC9
29F2A
3BF8A
40010
37EB3
34B80
1FDA6
3149C
502B6
320D4
49328
7040F
5F05D
371B6
44DC5
5B66E
2DBD6
513B6
4C9DC
6454D
7DB2C
336D1
3BAE9
2E24F
4FC69
6E790
75C84
451E7
33C52
363E8
4E219
44A7F
48671
33669
47AEB
284F8
30AAA
346C2

