5552F
4543D
5EB0B
45126
3BADB
3365F
6E7F1
37CC0
56447
4CD53
32616
317A0
2AA24
4B863
49E83
7A389
323C8
3A67E
72143
2D54F
6B389
3288C
8747E
42ABA
4260D
4408E
41AB4
4BE2B
5A3D0
36111
7228E
94624
41318
39D1A
4D351
324B7
7248D
93CE9
5AB27
3A866
72A29
51859
4A9C9
4F9AE
5B2F1
4F1B1
99CAF
35A38
3B172
3CDE7
4815D
3C179
638F7
67D65
3DFAB
4B1AD
4438A
8225F
37E19
8408F
69482
6A83F
8820F
8F4ED
67E2B
5567D
4006F
32B3C
831E7
1EC6E
39CF9
60167
31A37
741AB
49031
5341C
3DB25
4E73E
3422E
87875
53938
6497B
48626
4D0DC
3C676
418BE
37AD4
6D29B
4C222
45574
5C9D3
76A7D
45174
4A41D
5732E
59A3F
6D40D
3EE16
882A1
2CA24
5C596
5BEB4
7581B
57F07
3C6A1
3DB20
4AE7F
3714B
2F438
35D44
560FF
36F96
3F2F3
949DA
422CF
B1790
3CF6F
4392D
9E061
6D1E6
83B0F
8EFAA
53F8D
82905
53573
4CB94
7510F
242CF
4EB11
6559D
2D660
36281
4AAE8
4A2E0
73453
598D1
50E60
39C87
49EA8
53C64
4112A
49961
8C748
523F8
3B92C
98082
6208C
8298B
52119
609B4
55639
89D3B
3EB5E
3EF9C
7F2F5
498B3
4F344
38ADC
4C56F
509B7
8DFC2
5324E
89D1D
36954
4B4DB
53880
41B0D
3F7A0
2969D
39DF7
6426B
41468
5CF7C
841D0
6FACD
467F0
58875
6C12D
3AFD4
5F5CD
59FFD
752D8
93C69
42EE5
45ED9
3A6A5
5D894
822F6
8A89A
50FDE
41361
4477A
5B4E3
596F4
5C330
42A67
5BF05
32443
3E1C3
43587

