6D733
564A5
6F57A
58051
4C98C
4138C
836CF
462DB
64E57
5AE0F
3BC03
3E51A
36DFD
5FFFE
57475
90C59
3C3D8
4A8CE
85F6F
3904A
7E4B7
3F79B
A0701
53871
4EBCB
50742
4FE1E
60288
6AB3F
40F55
876D8
AF584
51EB0
4571C
5B05C
3B796
868CE
AE9F7
727F5
49F11
87B66
666BF
5D042
5D815
6BD37
639C6
B5D1C
42284
46B83
4D75F
5BD8C
4C002
759BA
83952
4DD2D
5D767
562FA
99C59
46CE9
9C35D
869A9
7D4D4
A0370
A7F09
7A1D9
651C1
4F018
3FDFC
9ADE9
26EB5
489C0
72381
3E1DA
89F76
5CBAD
694B5
4F464
5C1F9
4249C
A00C6
62DBD
76D5A
55C5C
5B1FD
491AB
53335
43B21
81951
59BC8
58327
6D3A6
8BB0A
571B2
5E695
6EE53
69883
81B4F
4E232
A00C5
38564
748CF
6BEB8
8BBE6
70216
4C511
4E3B5
58150
424BB
3A402
44441
65A08
41C91
50BD9
B0352
4E5B2
D0266
4879F
54C38
BAD22
8115E
9BB4B
A808B
6A9DF
9A7BD
6A689
5B18F
89C1B
2D739
63FC4
76EF9
38955
431E9
58341
5F348
87194
741D0
6822A
4710C
5761A
66DF2
53FA5
5D076
A67E6
685F5
4B0BE
B3F89
74205
9947E
60C59
72D6B
650F1
A32B9
50D8D
4FF42
966EC
56F07
64ABC
4474D
61C31
67042
A7854
61BC2
A36F6
4606B
5E0B1
6B65F
4DA26
4CA00
35192
445D7
7C92C
53E1C
7521D
9C62D
84072
594E0
70913
80733
4B2EF
70A22
6A5B3
89C4A
AEC25
55E19
52736
4969D
6E5AC
9A472
A3E7C
5F80D
51A3B
55D9E
6B685
72D4A
74653
5549C
74B24
3E6F3
4E8A9
5595C

