61631
4DC71
67042
4E8BC
44234
3A4F5
78F60
3EFCD
5D94F
53DB1
3710D
37E5D
30C10
55C30
5097C
857F1
373D0
427A6
7C059
332CC
74C20
39014
93DC0
4B196
488EC
4A3E8
48C69
56059
62788
3B833
7CCB3
A1DD4
498E4
3FA1B
541D6
36E27
7C6AE
A1370
6698E
423BB
7D2C8
5BF8C
53D05
568E2
63814
595BB
A7CE5
3BE5E
40E7B
452A3
51F75
440BE
6C959
75B5C
45E6C
5448A
4D342
8DF5C
3F581
901F6
77F16
73E89
942C0
9B9FB
71002
5D41F
47843
3949C
8EFE8
22D91
4135D
69274
37E09
7F090
52DEF
5E469
467C5
5549C
3B365
93C9D
5B37A
6DB6B
4F141
5416C
42C11
4A5FA
3DAFA
775F6
52EF5
4EC4E
64EBC
812C4
4E193
54559
630C1
61961
777AE
46824
941B3
327C4
68733
63EB6
80A00
6408F
445D9
45F6A
517E7
3CB03
34C1D
3D0C3
5DD84
3C614
47F66
A2697
48440
C0CFB
42B87
4C2B2
AC6C1
771A2
8FB2D
9B81B
5F4B6
8E861
5EDFE
53E92
7F695
28D04
5956A
6E24B
32FDB
3CA35
51714
54B14
7D2F3
66D51
5C845
406C9
50A61
5D52B
4A867
534EB
99797
5D4F6
434F5
A6005
6B148
8DF05
596B9
69B8F
5D395
967FA
47C75
4776F
8ACF0
503DD
59F00
3E915
570D0
5BCFC
9AC0B
5A708
96A0A
3E4DF
54AC6
5F770
47A99
460D0
2F418
3F1E7
705CC
4A942
690CD
903FE
79DA0
4FE68
648C4
76430
43162
67FF8
622D8
7F791
A1447
4C67F
4C308
41EA1
65F20
8E3B4
9738B
583F6
496CE
4D28C
635B4
6621F
684C2
4BF81
68515
3859B
46536
4C772

