45F8A
3A6E3
5417F
39038
30E99
2A99F
612D8
2EA52
4CF54
43E4F
2C6AE
294DE
22D83
3E7E9
4165E
6BDEE
2BDEC
3021D
656C9
25E52
5F155
2A4C8
7745A
37F17
3A838
3C21C
389FC
3EFC1
4FC2C
2F22B
64A01
833A2
368CE
326BC
446A7
2C741
65635
82BE0
4B8D2
30B6E
6538D
4438B
3EE64
46C27
5097F
420E9
87F52
2DAC1
33B0A
324F8
3B828
31F7F
58136
562E5
33E59
3F6C2
38CA0
731D7
2E621
74A69
569F5
5E8F7
78CD0
7FA20
5C48D
4B698
367ED
2A51F
74013
19986
3064C
548CB
29B2C
66312
3C76D
453BB
3282C
45C0D
2B216
77ECD
49D9D
58FBF
3FDD5
44198
34525
364FE
30074
602B3
437A1
39576
520AA
69452
39A07
3D6E8
481E8
4F872
603CB
352BF
78F73
252FC
4CF2C
51BC9
675B2
488B7
324B6
332C1
42857
2FF1B
2845B
2CA47
4C285
30182
34033
830EB
3A6CA
9DF36
35A39
38A26
8BB2C
6069A
7468C
7F090
458FC
73579
44A94
4393B
67E65
1E45D
41242
5A292
2647F
2DE85
4213A
3CCCC
66A6F
48A5D
421C9
31549
4158D
479F3
350AD
3D36A
7BE2A
442B5
31BA1
8640A
56856
74294
48B65
55011
4B6AD
79B31
332B4
342BE
70641
4104E
418B1
312F2
3EB50
4258D
7DBC2
49DBE
7984D
2CC16
3F60E
4457E
3A171
371C0
21FA4
33322
549C2
356F5
4D974
74AAC
62B92
3A86E
493B3
5F1B5
30AF2
545F4
4F971
68133
829AB
36DF2
3DF58
30DF0
52D56
72DA7
7A650
47C1E
36C1C
3967A
510F0
49460
4CCD5
36CA2
4C2F1
2A85E
33A77
37BD1

