192AA
1D03D
36034
158E0
1246E
11770
3B42C
155AA
32BF8
2A369
1CCB8
122C7
0C0C3
19953
2B5BB
432FF
1B29F
12621
417EB
10694
3D5B3
12A9A
4A10C
1975D
21BF4
260F7
1EF82
1A138
326AB
21203
3E665
527FA
1AC4E
1C32E
2C1C0
1C134
438FD
53C82
1FE16
144AD
3F5C9
1DED0
1DA6D
2D3A7
338CC
1C7D4
52EF0
16F22
1E371
14E25
1713C
14D7B
3746F
24421
17433
1C8A1
1740D
4900E
1331E
49609
208C8
3A1D1
4D3D2
529F9
3C404
2DBE4
1AFD3
127E5
48635
0A17C
15002
32D77
1345D
3F2EB
1823E
1C9AC
11622
2CBE8
1143C
4B924
2B7A4
38B45
26262
275D4
191FF
15BF7
1A204
3B814
2B15A
16AA5
34BF5
4324E
18DA2
18995
1C5E2
3388F
3B381
1AA4A
4E9F5
1016D
20F0E
35B80
3F4AB
1BFAC
15150
1526D
2BCE4
1B2A6
13C5A
12F21
31B91
1C24A
1385D
51BD8
24D03
670B9
1EABD
1777D
587FF
3CBAC
4990E
51902
1BD88
49066
1A495
2A082
42E1C
0D8A4
19F01
3AF19
120FE
161F7
21615
1622D
42968
178FF
16CC3
18FAD
2756F
25221
125ED
19673
4D066
1B0AC
15AFB
54EB3
3517D
4A2AA
2FB63
33ED1
2E100
4C5B8
124DA
14F08
459FD
2922C
1A9D1
1C1BE
17B08
19867
50A38
31E7F
4BF77
10C5C
1D37E
18CEC
254EE
20D85
0EFEA
21D39
27777
138EB
21B69
49581
3D88B
181D2
1D051
3A0E1
12E7A
35AF2
31720
442C8
52455
14080
28B8F
157AC
34991
477FA
4CFC5
2CB2D
1893A
19BEA
34954
1AF0F
1FD28
14BC8
1ED6D
14281
161F6
1708F

