3FCE4
3ACBA
50A95
337D6
2E2B7
275CE
5CB4B
2D397
4A459
408D5
2C4E1
275FA
1F91D
3B184
41EBD
6756C
2CB1C
2C38B
613FC
237D5
5C69D
275BE
72828
34C5C
345EA
3A1CB
3627F
3B404
4D208
34F73
608E5
7D952
38C7C
2E340
42AA6
2AF9C
65ABA
7F7E0
46300
2D0B0
612A4
3F920
3BCB0
435A3
4EEDB
3D683
7E806
2B16E
30BFC
308B6
36BFF
2E6FB
54274
51D8E
30F21
39186
33094
6F284
2B5A2
70472
4FAAB
56ED2
73AE9
79C80
59FB2
465C0
2DCC4
28099
6E016
16E97
2C4C5
4F649
27A17
6291B
37A64
3FE39
2CEC4
4263D
28306
7308C
429B3
564CF
3ADFF
3C2A5
2E0F9
31E66
2D3CA
5C63B
4106B
3505F
4FB69
64A4E
36012
390C3
423E9
4D5B0
5C027
35B76
75605
2329F
48112
4FE2F
63239
42DB8
2EBB6
30138
4142A
2D023
24FBE
2AD32
4BA82
2D3F4
2F7CD
7E4C6
3892B
98568
30697
3136F
87358
5CEDE
705D3
7961B
4022F
6FF4D
3F547
414D3
642CD
1CFA9
3C189
576B0
2485A
2AD81
32E55
380BA
6227A
421B6
3BB5D
30623
3C112
4451A
30CE9
38774
76CB4
3E46D
2EA32
8273C
519CF
6DE41
47E62
510D9
46A88
75351
303D0
30331
6A6E5
3EE49
3D8EF
2F2F1
3A515
3DD93
79F6F
4A755
7574D
2A067
3B7A2
3F902
38BFB
32B24
25E51
3321A
4E24E
31C85
48FF2
70903
5DDE6
36839
43A6D
5AAE6
2D094
51B64
4B5AD
65D9D
7DD10
32643
3D55F
2D28B
4FA45
6E38E
75EF7
43928
32259
35D7E
4ED61
446FA
45F1B
33010
46B4F
27D0A
311CB
351A7

