40E8E
3BA57
516C3
34585
2EF77
27FD1
5DA95
2DE81
4AF1A
4130B
2CBF8
27FAB
2020A
3C0D6
4290D
685F3
2D31F
2CF5B
62280
2408E
5D4CF
27F34
73AA5
358D9
34E6D
3AAF6
36D19
3C32E
4DE3D
35885
61883
7ED05
39A34
2EB7C
434F5
2B66C
66A51
80BDB
47483
2DC01
62218
40882
3CA77
43FC0
4FB5F
3E58F
7FBF1
2BAA3
31475
3155B
37A7A
2F2AE
54FA7
53266
31ADE
39E94
33D47
703F5
2C0AD
7163A
51036
57BFE
74C7C
7AE67
5AD49
47101
2E55D
28A73
6F148
17473
2CF6B
50356
28365
63948
388CB
40E5B
2DB5B
43022
28D81
74296
43446
57257
3B779
3CC27
2EA8B
32B44
2DC87
5D543
41A72
35E40
507BD
6599E
36D66
39F99
4353A
4E17D
5CF24
367D6
767BC
23B58
492F5
50A25
6429C
43F7E
2F770
30D87
41DF8
2D84B
2579C
2B81D
4C65D
2DBC5
30495
7F925
39234
99BF0
30EB3
31F34
888B2
5DD96
7178F
7A84F
412C6
71119
40636
41F77
65205
1D6B8
3D127
583B5
250CB
2B6FA
33657
3903A
630E8
43529
3CC3C
310D6
3CA8C
4535C
31AD3
395A8
77FCC
3F489
2F59A
83C0D
526D9
6EE96
48971
51E2A
475C6
765FD
3117F
30FA7
6B7B9
3F83B
3E8E8
2FBA9
3B4E9
3EE2E
7B253
4B28F
76A45
2ABF2
3C578
40ABA
394DE
3334D
268C9
33A03
4F3FD
32A56
4A1E8
71AF1
5ECAE
3761E
44C16
5B9D1
2DC86
52834
4C185
66D02
7F0F9
33424
3DECC
2DD5E
506A1
6F541
771AF
4439D
32E09
36A56
4F962
459F2
47088
33DE6
47D89
28607
31E21
35F66

