49309
42072
57221
3AC28
34F19
2CAE5
64D41
33058
4FFC1
45FA2
30125
2C85A
244F9
433BC
47669
701E6
30F3A
327F1
68F5F
281F7
63F4A
2C62A
7C550
3B67D
38E46
3EFB6
3BC98
434EC
539D1
39C8B
68D9E
880BC
40119
32936
4824B
2E982
6DF43
8A1B8
4F7DA
330DD
695FE
47BDC
431CF
48B9B
5593E
4566B
89151
2FFB3
35400
37430
3E711
34A6F
5B2A8
5CEB4
372ED
4007C
39C88
786C6
31380
79B9A
5B1C2
5DEC7
7D04B
834A8
61337
4C567
325DA
2D450
77242
1A066
31F4C
5653A
2C932
6B29C
3F4D4
48754
339C7
47A59
2DC1A
7C9E4
48392
5D7D0
3FE88
41379
33253
38BCA
31E0D
64603
465AD
3C656
56431
6CC7A
3D15A
40ED9
4B717
53A04
63F91
3C4A9
7EC9B
27CBE
5191A
563DD
6BD83
4C4C9
34F61
369D7
46787
31578
2929F
309FC
51F47
3166A
36477
891EA
3D5F3
A44F1
34B86
3777A
928D8
64BFC
79C95
830D4
48F33
79693
48537
46F3F
6C42B
20BA7
44644
5E555
29015
2FE05
37265
4047D
69D23
4C707
44ACB
36113
4119C
4BE48
3832E
40028
80F01
46D56
34B25
8D82A
588A2
76912
4DC5E
58207
4CA1A
7F20C
37821
36D1D
735EA
442D3
460B8
33D10
42BA3
46AB7
84003
506BD
7F885
30287
42D36
48F9A
3D786
37081
2B74D
37558
57898
391F8
52897
7A168
65B8A
3DE59
4D08A
629AD
3361E
5884C
51A5A
6E078
88645
39C3B
42578
32E8E
5635A
77A06
7FE15
4920A
385B5
3CAAD
55365
4E837
4F33C
3A5AD
50639
2C96D
37AAA
3C67D

