64CA0
574CC
6A2AF
50245
48DDF
3C529
7CB7B
44126
60C99
55EF0
3B267
3BAA3
32415
5B2BB
57846
89F0F
3D794
44F3D
7FA46
35C01
7A23B
3B2B1
99388
4EEA1
4631B
4D4DF
4C596
5B00F
66B13
47F49
813FA
A6D20
55815
3F6FB
58414
393CD
86512
A9545
6ADA6
44BBB
81851
5FC5E
58A48
58873
69225
5CE9F
A833C
3E5E9
427D1
4B04F
5510A
46EEF
6FCAB
7D7B8
49872
546D6
4DA0D
93AD1
42795
9582E
7CC40
72810
987A5
9F42D
766FC
5DEBB
3FCD0
3CA88
9202B
232E7
4298E
6AB87
3B1DB
84707
55CEF
61A95
47484
571BB
3E218
98CE5
58BE6
72A0E
4EB66
50132
42198
4CD87
3F876
7BDD5
5606F
52149
6985F
84B55
51E86
581B2
667F7
6611C
7B651
4FA12
9A781
356BD
6D842
68EEC
85732
6811A
47486
49D8C
55CB9
3E163
35754
41AE4
647AA
3D9E3
4A410
A8F27
4B7C7
C7849
41647
49DBA
B3EA9
7BBFA
957FD
9F7E6
62DF4
95381
62C92
57930
840A9
2BC18
5CCA5
72AC2
3630E
3EAD5
43A94
58807
805E7
6AD40
5F0A7
46C8C
4FE7E
622B1
4DF06
56329
9EC5E
60004
4684C
AE08C
6CE94
9015A
5F0CB
6CEE8
5E332
9C4E7
4CE3E
4A4A8
8DA90
53B7A
5F016
4170F
5B762
609D7
A184F
61F56
9D2B0
42321
58707
64A86
4B5B3
43C85
3BD04
43B1D
732A0
4EB66
6E98C
961A1
7CD15
539C7
68A0C
79E8C
460C3
6C89D
64275
86159
A77F0
4F734
5110D
43D2E
6986D
93494
9D214
59774
4A9F0
50BCD
67F6E
6C272
6A6EA
4FF97
6CDDA
3AA19
4AF1D
51E21

