213BF
20816
3ABCC
1C293
1726A
158D5
414F0
18BF0
36AEA
2E819
1E262
15BFB
1034A
1F50E
2D096
49883
1CA30
178C7
4724B
14199
420A0
1697C
50F70
1E463
27B1D
2938A
22FB3
201D6
36B09
1E8CF
443D5
5A2C5
1D156
20B80
2F610
1E79D
46875
59E8B
274F6
193D3
45206
24658
22DFD
31980
3740A
22D55
5D47C
1A9C2
21FB6
190BC
1D6B2
19BE9
3C981
2BEEA
1BC53
2377D
1D6EF
4F249
17A7B
4FD6A
29F91
41F43
541FB
5A201
40867
337FC
1FAFE
16434
4FD6D
0D325
19DC0
38F0C
16B2E
44E6E
1E707
23AD3
17BEA
30EFC
1594B
52969
32946
3D34F
2B7A5
2EAC8
20FB7
1B6E0
1DBA2
41135
2EC36
1CA0E
38BE3
493D9
1E31D
1EBE1
24092
37545
41177
1DF0A
5498E
135DC
2818A
395F2
457ED
23B54
1A146
19FDD
2E754
1EDDE
178AD
16A8C
3474F
1FA1B
19478
590AF
27E07
6F3CD
241C2
1E755
5FD93
42023
4FD77
58E22
23146
4EEB3
21890
2DB09
4864E
1025F
20B78
3F623
153FF
1A2B2
2D7CA
1CC8B
48758
20334
1EBA8
1D1AE
2CD7C
2A8AD
18415
1F9B8
543C6
227AE
1A2A7
5BB58
3AF8D
519E9
3252D
393DD
338E7
531BD
178D6
1A519
4CFDA
2C9F1
20DAE
1F401
1E162
20397
56D9E
33A41
52838
153D6
22D7D
20003
27E75
23169
102F4
23381
2F6BF
191A2
28CBA
4FB4D
43BB3
1DE2E
24A09
40143
18067
3A12D
36AEC
48B8C
59841
1A03F
2AE3E
1A089
39394
4E2AA
53C44
31A91
1DBDC
1EEF3
388A3
229A2
27F54
1A68A
267C1
17FE9
1AA24
1BF70

