53202
49AF9
5DFC5
42751
3C1DB
324FE
6D6DB
3928E
5608A
4BB8B
340F5
31F93
2954B
4BD9D
4D33E
796A3
3575B
39240
71204
2D076
6BF12
31B50
86BB6
426DC
3DAE5
44235
41BFE
4BD69
5A7B6
3EE2B
71A26
931FF
47C92
3734A
4DF18
326D1
76B98
9558F
59575
396B2
72111
50648
4ADD2
4E6A1
5C9E3
4DDDA
94491
35294
3A041
3E5FE
46961
3B3BB
62976
68A45
3DC98
475F8
40ED7
823C0
376E3
83BA6
6739D
65552
86E75
8D5C3
68D88
52AAE
3733D
32CF4
80D06
1D524
37F26
5DAB2
31CF4
74433
47677
51880
3AB15
4D368
33A6B
86C40
4E2BB
65195
453CE
4690D
38876
3FF9D
36CAE
6CD4E
4BFF3
4433D
5D323
7564E
4494B
4945B
552EC
5A440
6C67A
4340C
88C0C
2CB38
5BA14
5CF86
75100
564BD
3B8EA
3D89D
4BFCC
35EE1
2D970
36C3B
589FA
35CC9
3D785
9493E
42740
B0FBF
39484
3E168
9E904
6D076
83C35
8D4A7
52483
836C0
51DA0
4CEFC
74D25
24B2B
4D2CD
65A7C
2DC08
35346
3BA76
49001
71F03
57611
4E2AA
3C15D
466E3
53E97
40067
47FF5
8BADB
4FE4D
3B1CD
99380
5FDF9
7FC0D
53FE2
5F9DD
52F4C
89A1D
3F34B
3DD45
7CD59
49C57
4F07E
38B8A
4BA1B
50029
8EA0A
56BC1
8A338
36A6C
4A9B5
52F0E
42782
3B9F3
31584
3BC8B
617BA
40E53
5CA37
842C4
6E093
45B6C
56F7C
6AFE9
3A1A1
5FB9C
584F3
76B07
9396E
41924
47A47
38FFB
5D29E
81958
8A690
4F026
3EEE9
43E48
5BF68
592F0
59014
42234
5AA40
31A4F
3E9B5
44233

