FFC66
0971D
24803
01E22
FFF28
03132
25485
05AAF
234A2
1B888
129A4
043E1
FF381
038F8
1C880
2B6E4
0FA4C
01675
2CA0D
03DFC
28F27
050FF
2F7CE
07832
15827
18E22
0FBB7
04469
20DD5
14169
27F44
362FB
070C3
105DF
1D497
12488
2D25D
370EC
06B50
04070
2925D
07D11
09D82
1EB09
218EE
06DBA
364DB
09B57
12092
02B51
02439
04061
244D3
064CB
06629
09C62
04FF0
2FEE5
0351F
2FD06
0195E
272E0
33F9E
38E42
28B6D
1D911
0EA10
04560
2FAB0
01AB4
05B0D
20145
05E51
27EDA
036F1
056AF
FF492
1E850
02333
31A37
1C475
25416
18877
19B1F
0B5DE
033F7
0D914
25E52
1CAA7
02B73
2306F
2D213
05B1D
03467
037A4
22913
25ABD
08DA2
3527D
038DF
073AC
2485E
27BC3
026E7
0439E
03756
1DB50
0F70C
08762
0340E
20AE4
10E74
01255
34758
17D40
46A73
13035
068C9
39CE2
2791E
30120
37658
03FF6
2F711
01F19
1ABD7
2D00E
03651
037DB
283B5
05EE6
08818
15DEA
FFDA5
2DD81
FB9AC
FE8A7
0999B
19B81
10A3C
FE5E9
04FD8
31939
03E35
054A4
36FF2
2259E
32B0B
1FD13
20C91
1DE65
31836
FEA1C
0306A
2D6FE
1AD6A
03A66
0F92F
00EF1
01A7D
357B5
21C58
30B3B
002D9
09557
FF56F
18887
151D4
FFF23
16746
0E0CD
FFB1E
07E5F
2F923
28490
04230
03A21
249D7
01BBA
23441
206B5
2E0B1
35A7A
0014A
1B2D4
05EB2
22D38
2E0D3
32136
1DAAC
07C60
0747A
2354C
FFAC4
06C55
00D89
04A3F
073CF
04630
03469

