13A58
18C2B
3234A
11474
0E4AD
0E562
367BA
11F1B
2F633
27059
1A944
0F252
09424
14CBA
28229
3E05E
18A8D
0EB12
3CF57
0DAF9
38EB6
0FB4C
4449A
158F0
1F163
23322
1BA83
15564
2E99E
1E4AA
39852
4C580
167B5
19A06
28E32
19F25
3EB07
4D899
1A686
10C1A
3A885
191E9
19588
2A115
2FA37
17C97
4CB5B
14118
1B914
10EEC
128D7
112FB
3326F
1DBED
1397F
1875B
1348D
438D8
0FBE7
43D1E
19D15
35FF6
47BF3
4D078
3800F
2A3A0
184D5
0F6A6
4303A
0842F
11AC1
2EC35
105D5
3A209
13A38
17906
0D72F
29A6E
0DFD5
45EF0
282C6
3479F
23303
24648
16224
11B9E
17655
36CEA
27F33
12541
30E52
3E5BB
14AFF
13F69
16F4F
2FD8A
3688E
16C68
49161
0D5D4
1B5A0
31FB0
3A2BC
166CF
116AF
114E2
28BDA
189DE
11503
0F88C
2E04A
19B32
0F871
4B5FF
21FD8
6000E
1C230
13CA4
51D3C
38213
44060
4BDFE
16A95
4376A
14FEA
26B51
3E203
0B55B
150EE
36E03
0F6CC
1329A
1EE0B
114AB
3E141
117C1
11864
15A2F
2460F
20AD9
0E05C
14F73
470ED
16023
121F3
4E69F
3104C
45102
2C41A
2FC3E
2A8C8
46859
0E06E
110B9
405DC
26071
159F1
19625
12BE2
14561
4ABC2
2E660
460A2
0D2A4
18E54
13456
2287F
1E4B8
0BB92
1F5AB
21F0F
0F3D4
1C19E
43BDC
38EA2
13C56
17804
3564E
0F2C0
31AE2
2DBE7
3F5CE
4C0CC
0FB1B
25C72
1218C
30BC0
41F77
4722B
296E4
14EC8
15BB0
30D52
15036
1A605
10699
1924D
11592
12446
12BD5

