59328
4E5D9
622C6
47295
407FC
35C0C
72AF2
3CE92
59BAF
4F3B6
367F4
354E0
2C660
511DF
50BF8
7F188
3836E
3D337
761DB
3006D
70D28
34F59
8D166
46B88
409B7
474A0
4564A
510D2
5EADE
4200D
77007
99E52
4C807
3A08F
517CF
34C47
7C15A
9C375
5F5C6
3D4ED
7760F
55AE0
4F99A
51E41
60EBA
5309E
9B21C
38539
3CEDB
42B8A
4B903
3F415
67210
6FCE5
41D2B
4BDC5
454B1
883AE
3B3A0
89D75
6EA15
69DC4
8CF1E
93838
6D848
56892
3A288
3631F
86B9B
1F55F
3B9BA
6227B
35023
79D2C
4C5B0
57137
3F053
509D4
3740F
8CF79
51CE2
69BFF
487EA
49D5A
3BD19
44666
39CBB
71FFD
4F71E
48F91
616F0
7AA88
49297
4E5F1
5B228
5E52C
718EC
4781E
8ED7C
2FB2E
61C74
61151
7AB21
5C67D
3F967
41C4F
4F5BE
38BBD
304B6
3A845
5CB2F
387CA
41DD5
9B946
458EE
B8BAF
3C11F
42224
A5E75
7216C
89DC2
938C5
57FC2
898A2
57AC3
5097E
7A0DB
271FD
528B0
6A214
30A72
3875F
3E680
4E543
76E61
5E109
53F79
3FC35
49B01
58D00
44CEE
4CE0F
923E0
556E4
3F089
A05FC
645AE
855DF
57CB2
64319
56D23
900D2
43E8E
421CF
829E4
4D30B
5485A
3BB80
5112B
55B7D
951F2
5A97C
90B89
3A9EA
4F5C9
5907F
45863
3E6D5
34F18
3E80D
678F9
45A51
62CFC
8A560
731E0
4A7DB
5D09D
701F1
3E355
64215
5C618
7BFB3
9A6EB
4657A
4AE1B
3CB85
6169D
87AB4
90D85
529A9
42F33
484EE
6016A
5FB45
5EFEE
46E4E
60E7D
34BBC
42D91
48DCD

