5063A
41C85
5B48C
41323
3837D
30921
6A372
34DAF
53467
49F5B
3076B
2ED98
28215
47560
472C0
759BC
3030A
371A8
6E02E
2AF10
6751D
2FE31
82229
3F38F
3FD9B
417EA
3EC30
47BD2
56DEE
33D6C
6DCF3
8EDE8
3DC5C
3770E
4A61A
306AD
6E23A
8E526
55D43
375F2
6E52D
4D3F2
46D8D
4CC31
57C7A
4AE95
940F5
3313F
38B63
3979A
440B1
38D69
5FDE7
62297
3ABD0
47598
408BF
7D50F
34D40
7F171
6348B
66AC3
8333B
8A450
64281
52318
3CF6A
30020
7E42C
1D1C8
36C8B
5C610
2F161
6FA1E
44FA9
4EBFD
3A19E
4BA81
313DD
82835
50734
60DC8
45A55
4A2CF
39CE5
3DEF8
3537E
68FC7
4959D
417BE
59374
725A6
4167F
46227
525A0
5663D
6911C
3BC28
83477
2A3D7
57662
58A56
70F55
52FDB
39295
3A501
48360
34C97
2D043
32E05
52E0F
34C34
3B97F
8EF8E
3FAF2
AB32A
3A9C3
400EA
98223
6908E
7EC77
89DAB
4F571
7DABD
4E9F5
49C8A
70D58
22473
4A561
61C10
2B1C5
33815
47EA7
45E10
6F36E
541E2
4C254
3710E
47296
4FDE4
3D34B
459BF
87211
4DB90
38689
92512
5E556
7DF4E
4F0FB
5CE08
522F1
84A4A
3B003
3B80C
7A6E0
46CDC
4AD03
36451
47F53
4C060
88C30
5028D
84948
336C9
47787
4EA64
3F3F6
3CC98
2705F
37BA0
5F27E
3D783
58067
7F260
6B831
42A61
539C9
67E7E
37AD5
5BD47
56A74
70F76
8E41A
3F0E0
435DD
3758F
5A189
7D41C
85595
4E060
3DD9D
40E95
58030
543D7
57401
3ED67
56DFE
2FC70
3ABFD
3F9D6

