25DCC
26CCC
3EC4C
1F640
1B711
18A8F
463FF
1D328
3A7A3
318D9
21E41
1923A
12765
24981
32C59
4F10D
20EC8
1ADF7
4BEDB
16AE1
478F8
19768
575AB
226F3
27DDB
2CA61
26968
24FA0
3B316
27A50
499F5
60A7A
24A14
221D5
33855
20F89
4EC4D
6224C
2C779
1C6CB
4A77E
28FB0
278E2
347F6
3C8BB
274E2
613FB
1D908
244E0
1DF8F
217BE
1D408
40C3E
333CC
1FB38
25EC0
2061C
558A2
1B21D
5628A
3007D
4394A
59DEC
5F7D5
4604F
35D4D
212B5
19927
54BF8
0E4E0
1CA7C
3C390
19F63
4ACF4
227E4
2832B
1A6E9
33DB3
18CC0
5889A
3313B
426DC
2CF58
2E32F
2000F
1EFF7
2067C
464F5
324B4
20A3D
3D9B8
4E26B
226E4
2342B
28D02
3C04D
45FE4
2389E
5B5B1
165B5
2DCBF
3E511
4B11F
28C0F
1D828
1DFF9
32DAE
21074
196D6
1ACAA
3A3E7
21C35
1CB61
60618
2B4E4
773DD
24801
1FED8
67D8E
474F3
56506
5EA57
27C51
55D11
26753
31AD7
4DD23
129CE
25294
444CA
1820A
1CEE6
2722A
21471
4CF5C
258A9
22ED1
20AB7
2E267
2F614
1C5F0
239C0
5ABFC
269E8
1DE27
63E13
3E76C
55E79
37A8B
3D7F1
3624D
59C79
1C23A
1DE57
51B7D
3048E
26187
22606
23114
2575C
5E379
39F92
59995
1911E
27291
258AA
2BB22
26B5E
1684E
27832
342CD
1D7D1
2E9EE
563AF
48288
221A4
29B69
44C67
1B7DA
3EE4B
39F56
4F3D3
60942
1E01C
2F7ED
1D428
3D7BD
5438D
5A70C
3436D
20FA7
22FA2
3D359
28934
2C591
1EAE7
2BF04
1A9DA
1EFD9
20EA2

