3611F
2F359
491E5
2C867
25C31
217D9
53623
252AA
4350F
3AA30
263DD
20D70
1AC6E
30FFD
3895B
5D01F
2546C
257DD
58515
1E315
52831
21C4F
66B0F
2CD53
325E3
33F25
2F41A
319F8
44E8C
27F50
569B8
71752
2B870
2AC24
3B4F7
26674
5807E
71117
3BDD6
268DA
57547
36725
32C4E
3D992
45A00
348AD
757C4
256BE
2C068
27600
2E7C4
277BC
4C2E4
43E4F
29743
3352A
2CF2D
638B8
248BB
64B79
434BE
522DB
68ED0
6F65F
5044F
410FD
2C9F8
21A37
6459D
143A8
26A3E
48997
21798
57C86
2F77E
36B57
26ECE
3CBE3
21CD9
67C3A
3FC74
4CF61
370A5
3AD36
2BF36
2AAD3
281B6
52B5E
3A82E
2CE9D
47176
5B681
2DC0D
3025F
38803
450DD
52C19
2B1DB
69396
1D792
3CFF5
4730C
58B32
3899C
27D04
2845E
39D65
288D6
2107E
23209
41E62
28F80
28710
70DF3
32657
89BB4
2E0D4
2D4DE
78B7F
5340B
6494D
6E858
36A2F
6393B
35752
3A1A7
5A435
1828B
331B5
4E921
1EE8C
255D2
392A3
2EF13
59956
37240
32CBF
28938
3878D
3B090
28951
30662
6AB94
35965
27876
73D69
4A98C
6535D
3F058
48FCC
4116E
68FEF
27373
28FB4
61118
3830B
33651
296BF
30967
3393E
6CE79
403E0
68A2D
2293C
3306F
349CF
3237E
2E718
1A46B
2C47D
44837
292BE
3DAA1
64AB4
554F1
2E215
39634
51AD4
2602C
48FD3
44CF3
5A811
70D1E
2A61B
35B48
26FC7
47BFA
62F95
69ACD
3E316
2BEDE
2DF29
46723
38890
3CDAC
2A815
3BDDC
2280D
28D31
2BB79

