479DC
3B976
553AA
3A4E4
3210E
2B8B4
629AD
2FA03
4DF4A
44DA2
2D0E7
2A2E0
23ADD
3FE3F
424F4
6D688
2C8D5
313BA
66C7B
26B11
60623
2B2E6
78FCB
3917B
3B5B3
3CFA8
3997E
405DF
50E22
2FE0D
66134
8510B
37B0D
3336B
455B9
2D145
66C51
84921
4D2C9
31C3F
66A8B
45A58
40278
47B51
51BA7
43748
89DE5
2E869
347BA
33712
3CDB7
330DA
594E6
5812A
34FA1
40AC8
3A039
74B9D
2F669
764C9
589F2
5FD76
7A717
814FF
5D871
4C7B9
37844
2B37D
759FC
1A268
31671
55C92
2A8C9
67AEC
3DCF0
46BC6
33B59
46AF7
2C186
7998C
4AE49
5A3A6
40C6F
450F1
35300
37841
30D91
618FA
44678
3AA08
532CA
6AB44
3ADAE
3ECE5
49BC1
509C8
61A1B
36364
7A981
25FC0
4E993
52D3E
68DF4
4A31B
3360F
344CB
436B7
30B57
29057
2DA06
4D380
30D4D
3535A
84F05
3B413
A00AD
366C8
39CE6
8DA97
61C62
760BE
80BE5
471B0
74F92
463BE
448E9
694F7
1EE7B
4297D
5B5C0
270B2
2ECA9
42FFB
3E3BC
68011
4A757
43B22
323C7
4243E
48EC8
3654D
3E8A0
7DA92
45AD7
32C82
88285
57C13
75B53
49B6F
563F4
4C7C5
7B6D7
3467D
35544
71F9D
41EEB
4301D
31FCB
402AF
43DFF
7F79D
4ADA9
7B43F
2DCEF
40A7F
45F88
3AE79
38018
22C63
33E94
56466
36B41
4F3D0
76527
641C6
3BCF3
4ADED
607F0
31C9D
558CB
50B49
697A9
8471B
3829E
3ED01
31E4D
53FAF
747EF
7C1FD
48BF2
37E08
3A971
52281
4B014
4E73A
380F7
4DDF3
2B5A4
34C64
38FB7

