2434D
25860
3DA06
1E1B9
1A3F0
17B8B
44D10
1C2C9
39781
30988
2139F
183B1
11A02
23286
31CE0
4D843
202C2
19C3F
4A915
15DCB
463AC
18937
559EF
21439
27116
2BCA1
25981
238E0
3A0C6
26CB5
4828A
5ECEF
23580
2157C
328DD
20551
4D4EA
60453
2AD34
1B5D2
49050
2789E
26437
338CA
3B5F5
25E4F
5F61B
1CB38
2382B
1CC97
20206
1C27B
3F871
3148A
1E99C
24B2B
1F30F
53E79
1A18D
547DE
2E02D
42588
5838F
5DCFB
44BEC
34C6C
205CF
18A62
5322C
0DC16
1BA83
3AFFC
1916E
494B0
21248
26AF9
19407
32EDB
17D08
56D8B
3215F
41291
2C121
2D4EB
1F1B4
1DCA9
1F961
44E68
315A8
1F56C
3C73B
4CB72
212E6
21DEB
27309
3AE98
44968
2260D
59B1E
158A0
2C1EB
3D320
4988B
27166
1C691
1CD82
31EF8
20438
18B09
19C4A
3921F
2107B
1B833
5E78A
2A757
75210
23BD6
1ED30
65D86
45EDF
54A6B
5CF09
2636F
5425F
24DED
30AE2
4C64F
11F38
23B28
43144
17561
1C0B0
26627
1FD31
4B9B6
23B7D
21581
1FAAA
2D430
2E0B2
1B111
22473
58F57
251BF
1CD0B
61EDA
3D3DE
545F9
369F5
3C3F8
35170
58076
1ADB3
1CBA6
5023F
2F5A2
24990
218F1
21955
23E74
5C723
38EBC
57D22
17FCD
25DD1
23E17
2ADCD
25F20
1589A
26C55
32847
1C317
2CEFE
548CA
46C5B
20CCB
280EB
43607
1A5EF
3DB13
38D91
4DCBC
5EB66
1CB4A
2E9CB
1C3EB
3C532
528FF
58AF8
333BE
1FE1E
21C5D
3C158
26CC0
2AB6D
1D625
2A3AE
19C5F
1DD58
1FA04

