2A473
2A341
41D07
22CFD
1EA12
1B29A
4A128
1FECE
3D2A7
341B2
23A9E
1B8FE
14B17
286C8
3559B
53328
22ED6
1DD36
4F8EB
18DC3
4B1C2
1BD40
5BFA0
258E4
29FE8
2EF0C
293CE
28C49
3E3EE
29E98
4D86A
65942
280F5
242C1
36193
22AC8
52AAC
6723A
30D85
1F40D
4E54E
2CD36
2AFFF
3706B
3FACB
2B113
663A6
1FDDD
266C4
21223
251A9
202D5
4410B
38729
22A2F
292F7
238EA
59E67
1DE4A
5A9AC
356A5
46DFA
5E438
63F70
496AC
38A50
23519
1C08D
590C1
0FC51
1F516
3F7C6
1C49D
4EDA9
26182
2C3B0
1D945
36548
1B6AB
5D0C3
35B86
45CFB
2F53E
30938
22658
22371
2296E
4A116
34CD3
241C0
40B08
51FAD
25C33
26F81
2D244
3EF84
49BD9
26A1F
5FC8E
18896
3244A
414EB
4F2AC
2D326
2070F
21135
354E9
23114
1B64F
1D854
3D353
23B7C
1FE83
65792
2D906
7CDFF
26871
22DEC
6D2F7
4AFD4
5ABF8
63326
2BEAE
5A441
2AB10
34564
51A04
14609
2910A
478DC
1A3CB
1F4CA
29231
25273
50915
2A675
27250
23582
3084D
32F1B
1FD98
2728D
5F85C
2AA56
20BC6
69156
41B93
59FCC
3A6C5
40D34
38F47
5E72B
1F8F7
21030
55ECA
32C56
2A16D
248E7
27065
299C7
62F0B
3CC77
5E573
1BF4B
2A9E6
29F88
2DEAF
28C02
1922E
297D7
38986
20F15
331C3
5AB66
4BDA8
2593A
2E20D
4880F
1E7A3
4218B
3CEB6
53168
658E2
217A0
31D9F
1FF75
40931
58A5C
5F1ED
36D41
23E68
26303
4035A
2D514
30B46
2223F
307EB
1CDCC
22133
2459D

