69103
5331E
6C508
54932
49855
3EB55
7F9EC
43904
623C9
58532
3A0C1
3BFBE
34A61
5C46D
54D8F
8CABF
3A6BE
479D6
82595
36E4A
7AD3A
3D1F6
9BDD2
50767
4C7D7
4E322
4D4C5
5C78E
67B5A
3EFA6
838F9
AA715
4EE08
4354A
5882B
39CE2
82DDA
A9BF5
6E2B9
47237
83E15
629F2
59AB7
5AFA5
68CCD
5FE1F
B0B94
3FE19
449AF
4A71B
5840F
491BB
7253A
7E89B
4AF15
5A1FF
52EB7
957A0
4417E
97D09
8145C
79E2D
9BD5F
A3761
76CD1
62411
4C485
3D7AA
968D1
25705
45EB3
6EEC2
3BD8E
85FDD
59251
65499
4C141
59A34
3FB71
9B971
60148
73849
53569
5890E
46CB9
4FFDA
4182A
7DDEA
57436
54C4C
6A351
87DD9
53D4A
5ABF3
6A964
66A48
7DFCF
4B5CF
9BB4B
36358
70268
6902C
87B35
6BBB6
496CE
4B39A
55AFB
4041B
3840C
41A42
62CC1
3FD1E
4D8C7
AB30E
4C243
CA928
46622
51A36
B595C
7D748
9756F
A37A8
667FF
96227
6636E
587BE
85FEA
2BC3D
601D2
73BD1
368CB
40C33
55BEB
5B61E
837E5
6F48B
63E91
44A68
54EEE
63664
508A6
597E7
A1C26
64598
483BB
AEE42
70D63
95280
5E193
6F861
6235B
9E8FF
4D8CA
4CDDE
9234A
5480F
60C49
4250A
5DDDF
62F11
A2E0B
5F150
9EC71
4337E
5AA2D
670F1
4B767
4A3C0
32F94
42751
78220
507FB
70BD1
97F90
8053D
55E29
6C325
7CBEC
483D3
6D7E4
6761E
86064
A9DA6
526F8
502C8
46AFB
6B4BF
95E5B
9F4B0
5CDD6
4EA70
52B0B
687AD
6E369
6FFF0
51E64
7031F
3C38E
4B8DD
5244D

