0CF25
12304
2CBC0
0C3A2
08EC9
09ED8
2FB58
0CA71
2A617
22B1E
1644F
0AF31
05E99
0E192
21CAD
3691A
14396
09F90
366BD
0A45D
32000
0BB5D
3BCF6
10195
1D4D5
1EC73
17077
0F114
28D83
15644
325AD
43807
0F051
16F16
23C30
16C1C
357C9
435BF
134BC
0C466
3366F
12D24
1365D
25E7B
29421
11972
45B66
10153
1833F
0B180
0CCD1
0C5DF
2D6AF
1499D
0E726
1407D
0E539
3B471
0B1AA
3B825
1150D
32280
3FDE9
45697
31320
264B2
13176
0B2FC
3BDDF
06597
0D6A5
29B19
0C34E
32849
0DDBC
11253
08F69
2570D
09AE3
3DF82
25BA8
2DDDF
20383
22D78
164D5
0C95A
139EE
2FE79
23530
0CC5A
2AC5B
378D7
0F0BA
0DCB7
101BE
29F75
2FE45
111C4
40835
09867
13BEC
2BEA9
32CBD
0F5D8
0CB50
0C160
2360D
156FA
0E4DB
0A84F
275E5
168A5
0A842
41D73
1DA25
5570D
1A6DF
1000C
47A20
3137E
3BA5B
43D08
10099
3ACDF
0E233
219A5
36FED
08591
0ECFA
3098B
0BD83
0F44A
221DC
0B1A8
37C90
09DD2
0B305
11EF8
21850
1A7BC
085B9
0F420
3E570
0FE03
0D278
44370
2BC21
3E8B4
25F5A
29E8F
26613
3DCC2
084D1
0C0AB
39711
215B5
0ECDB
1558B
0C127
0D617
4160B
275F1
3CF93
0840F
1315B
0BEE5
1DDC3
18081
065BD
1A656
1AE29
0974A
1479C
3B4B8
329DD
0E11E
1069B
2EF1B
0A685
2B8CE
28ED8
37684
42D34
0A147
205C1
0D6BE
2B14C
39E81
3E6F5
25752
0FED3
1050F
2AFFE
0D3F1
139C9
0ABC6
11AA7
0DC31
0CD11
0CA09

