FD0BA
06F7A
21C26
FFBD1
FDC61
00D11
21EA3
032C8
20BD2
196FF
1017F
027C3
FDD84
009A6
18FAA
27B4B
0DA17
FF550
29509
02921
256DC
032E4
2B3AC
04FD1
15280
1697C
0DA94
01B4B
1DFE2
0E368
24564
31BB7
03FF2
0F47D
1AA80
10B4F
28213
31AF6
039C0
021D3
2582A
050BE
07447
1CBE6
1E4A2
04136
333D8
07D4F
1089C
00289
FFC6C
01E1C
2185D
02507
04011
07EE5
027C6
2BB51
01444
2B934
FDFD6
25C64
2FFE8
352D6
252E1
1BF17
09382
02814
2C369
00FBA
03A96
1DBE5
03FB9
241BD
00DCC
029EF
FD60C
1C6E4
005A6
2DCEF
1BA7E
21D81
17653
19916
0DEE7
00F2E
0BB2F
22724
1A5BD
00581
1FD27
29B05
032C0
0082E
007DA
1F7E0
22693
070E1
30C58
01CFD
03CB5
215EC
2423D
FF6BD
0239E
012FD
1AB1B
0E0B6
070FE
01011
1D1C2
0F6A3
FEF1F
2FA7B
159B2
4138C
12D7A
04AC5
34A72
240EF
2BD1D
334D0
011CC
2B0A0
FEEF0
18211
295BD
023C0
00C6D
2501A
04790
06B97
19344
FD3EF
2AB77
F85B5
FBDFA
092E7
18A50
0DE59
FBE5D
02718
2D2DA
014B4
02F4D
31CCE
1FD58
2F97D
1C44D
1DE4B
1C0D4
2D180
FC58F
00DA0
2A1E8
18872
00A7A
0D959
FDF3E
FE9C8
308C2
1DC12
2C173
FE134
06BBD
FC335
15FCF
0F5D9
FEA84
137B1
0AC9E
FD313
048C9
2B4C1
2533C
01AC5
0091C
2183A
FFBC0
202AD
1E25A
29D62
310A6
FD970
181B2
03895
1FFF0
2A06F
2DB71
1BE4B
05195
04DBD
20630
FC821
03AA1
FE73A
01592
05BE0
01FCB
009B1

