3F410
3A5EC
5047D
330FE
2DC57
270CD
5C3A6
2CE22
49EF9
403BA
2C155
27121
1F4A7
3A9DB
41995
66D29
2C71A
2BDA3
60CBA
23379
5BF83
27103
71EE9
3461E
341A8
39D36
35D33
3AC6E
4CBED
34AEA
60117
7CF79
3859F
2DF23
4257E
2AC34
652EE
7EDE2
45A3F
2CB08
60AEA
3F170
3B5CC
43094
4E899
3CEFD
7DE11
2ACD3
307BF
30263
364C2
2E122
53BDA
51323
30942
38AFF
32A3A
6E9CC
2B01C
6FB8E
4EFE6
5683C
73220
7938D
598E6
46020
2D878
27BAD
6D77D
16BA9
2BF72
4EFC2
27570
62105
37330
3F629
2C878
4214A
27DC9
72787
4246A
55E0C
3A942
3BDE4
2DC30
317F7
2CF6C
5BEB7
40B67
3496F
4F53F
642A5
35969
38959
41B41
4CFC9
5B8A8
35546
74D29
22E43
47821
4F833
62A07
424D5
2E5D9
2FB10
40F42
2CC0F
24BCF
2A7BD
4B494
2D00B
2F168
7DA97
384A7
97A24
30289
30D8D
868AB
5C781
6FCF5
78D01
3F9E4
6F667
3ECCF
40F82
63B31
1CC22
3B9BA
5702E
24422
2A8C4
32A55
378FA
61B43
417FC
3B2ED
300C9
3BC55
43DFA
305F4
3805B
76328
3DC5F
2E47E
81CD3
5134B
6D617
478DB
50A31
464E9
749FA
2FCF8
2FCF6
69E7C
3E950
3D0F2
2EE95
39D2A
3D546
795FC
4A1B9
74DD1
29AA1
3B0B8
3F027
3878A
3270F
25915
32E25
4D977
3159D
486F8
7000C
5D682
36146
43199
5A371
2CA9B
514FC
4AFC1
655EA
7D31C
31F53
3D0A9
2CD22
4F416
6DAB4
7559B
433EE
31C81
35711
4E761
43D7E
45664
32925
46232
2788C
30B9F
34AC8

