617A3
54BF4
67E24
4D937
4679E
3A721
79D9D
42069
5EC56
5404D
39D22
39D90
3094F
584C5
55954
86D7B
3BF89
42BCE
7CEBA
341D7
777A3
3964F
95C11
4C92C
44990
4B960
4A5CA
58290
64672
46413
7E522
A3209
52EEC
3DE4A
56525
37F5E
8364B
A5953
6791D
429C9
7E9F5
5CE3A
560F2
56A1C
66C98
5A17A
A477C
3CA49
40E66
48A60
5259A
44BD5
6D511
79933
47539
51FAD
4B3F3
9067E
40673
922D5
78BA1
7008D
952EC
9BE79
73E37
5BCF8
3E304
3ACFC
8EC94
22153
4099B
6845F
395EF
81680
531B9
5EA31
44EBF
5540B
3C2A8
956C6
56C2E
70178
4CEF9
4E4AB
404E1
4A6EB
3DE40
790BC
54258
4F7A7
67364
81D64
4F68B
55531
63405
63DB3
78958
4D4F1
9725B
33C94
6A299
66B08
82608
64BC9
45159
4789F
53F4C
3C8EA
33FB9
3FA24
62419
3C26E
47DB6
A520B
49CAE
C34AF
3FDF2
47A6A
AFE9A
78FD2
922C7
9C14A
5FC2F
91E1D
5F9C4
55947
81301
2A6EB
59DCD
703B5
349BD
3CE6A
4228E
55985
7DA9C
672E7
5BE07
44C73
4E211
5F7EC
4B549
5388F
9B315
5CFB2
44614
AA21A
6A777
8D05B
5CF9F
6A6F6
5C177
98CE1
4A531
47F46
8A816
51DA4
5C02A
3FCE6
587E5
5D806
9DFA2
5FDAA
999CA
4007F
55D88
6155F
49B0A
42409
39D9C
42362
6FD94
4C1F2
6B3AC
92BD8
7A0BC
51016
65511
771CE
43CEC
6A22D
61EED
8332A
A3C38
4CD91
4F4C8
41CB5
67356
8FF79
999EC
57816
486DE
4E544
65B6D
68989
672A2
4D615
6972D
38F23
48A1A
4F4E4

