22E11
21AA9
3BDF6
1D73F
184DE
167E9
42BC4
19BA0
37AE0
2F76C
1EC9B
169FD
110A4
20B64
2DF2C
4B11D
1D519
18A64
487FD
14E59
4356F
1779A
52AE1
1F6C7
28898
2A116
23F34
217F4
37CFF
1F4B1
45B08
5C02F
1E395
2182E
30522
1F1A0
47E90
5BBCC
28EEC
1A4A4
46905
25D25
24211
328A9
38632
243B4
5F310
1B76A
22C66
1A2D6
1EC41
1AD44
3DD31
2DD2F
1CD9C
24B84
1EA88
50C0E
18AC4
517C9
2BF8E
433C2
55C42
5BCE0
41C4A
3491E
20B55
17293
51756
0DC07
1ADE5
3A2D4
178CB
46648
1FC8A
252DE
18F17
31DE6
168BB
54428
339F2
3E735
2C640
2FA22
21D92
1CA23
1E8BF
4277C
2FB0D
1DEA0
39E03
4AACB
1F6C4
201DD
25A6B
3869B
427C7
1EFAE
5639C
142A0
29BF1
3A767
4702F
255B8
1B29F
1B1E7
2F5B3
1FA1A
184AA
17A4C
3584A
205E7
1A79F
5AEC8
28B51
71544
24E51
1FA16
61CFD
435EC
517A9
5A977
249FA
508CC
231BB
2EAB7
49CE0
10C7D
222B3
40952
16032
1B0D7
2E68A
1E37B
49CFA
2202F
20501
1E02B
2DC2C
2BD82
198B5
20EEE
5602E
23FD1
1B388
5D9D2
3C349
532A8
33537
3A7C1
349FF
54D62
18C9F
1B79F
4E937
2D88E
2251A
200DA
1F8C1
21C0A
58979
34A2C
54429
164AF
241EE
21A0C
28B7C
23FC1
10FB3
23EF3
31164
1A5EE
2A716
515C7
451E8
1F2B3
26442
4177E
19212
3B404
37CC4
4A203
5B5B0
1B4EB
2BBE7
1B0E5
3A5ED
4FCF2
557F0
32A65
1EDC8
201E9
39A34
24557
299BA
1BADF
282C3
18D2F
1BC11
1D356

