79C17
04A54
1F7D1
7D27A
7B777
7EEE8
1F0F9
01368
1EBE7
1785A
0ED0D
00BBE
7C2D0
7DCF9
1727E
24A18
0C443
7D216
269A5
00FA1
22D3E
016A8
27CC8
02B0A
13789
14E64
0BB92
7EF10
1BBF6
0CBA5
216FD
2E0E4
01B75
0DB20
18C5B
0F748
255DB
2E074
005D3
00030
22A2D
02324
04C1F
1AD92
1C053
01479
2F6B2
061FF
0EF3D
7DE55
7D14E
7FB66
1F0FD
7E87E
01D7F
056D8
00094
287C7
7F3B3
28475
79FDC
23367
2CB5B
31D18
22B1B
19CD3
072D4
00B57
28F97
7FDF6
01A4C
1B456
02480
2120A
7E2C7
7F9DA
7AFB2
1A910
7E6C5
2A770
19926
1F5B4
1591D
17A63
0C331
7E8A9
0A0F6
1FA97
1880F
7DC5D
1D8E8
26D21
00B72
7DC35
7D426
1D534
1F9F3
04F97
2D83C
00374
007E7
1F303
211B9
7C1F5
000EC
7EEE9
18E5B
0C83D
05906
7F092
1AFCD
0DF0C
7C8D1
2BE48
13F1F
3D09D
1145C
02543
30B9E
2155F
288B7
2FE26
7E064
27C70
7BC9C
162B4
26898
00F83
7DDF7
229BD
02F29
04F4E
175C4
7A60F
28034
74BC1
78B48
075EC
16CEF
0B4AE
7951D
7FCAC
29A0A
7E46E
00D8A
2DFD9
1D5DE
2C7FF
1A439
1B683
19EA4
29A35
79DFD
7E895
26F2F
16B38
7DBA3
0BFA6
7B081
7B8E3
2D10B
1BC3D
2898F
7BF82
042DA
78F23
145C0
0D929
7D105
120CC
07755
7AA7B
01411
27FCC
226D4
7F1BC
7D4A9
1EBC5
7D86B
1DCFE
1BEAA
27076
2D5C7
7B018
1665F
017DC
1DB3F
26BDE
2A418
19EA1
02DBD
027CF
1E30F
790B8
005D6
7BE90
7DF8D
04153
7FBF2
7E1E5

