0EADC
14EE7
2EC78
0D6DF
0AB4C
0B856
322ED
0EE00
2C5CF
24265
1895C
0C6B6
06BFB
107C9
253BE
395FF
1667D
0B5EA
38E04
0B3BA
34ED2
0D0B8
3F167
120C0
1CB14
209E2
18AD0
11126
2B2AC
1BBDA
3520F
46CDE
129F9
174FD
25FCB
1807E
3A4DC
47EAE
157B9
0D930
362FB
14CB3
15786
27392
2C1E5
138E0
471BB
117A7
192F3
0D605
0E7B0
0DE54
2F708
17E25
104AA
14C9D
0FB65
3EA5B
0CA35
3ED18
13C27
324B0
42CDE
47FEB
342E7
270FC
15E24
0CA55
3E2D7
069D0
0EAD4
2B179
0DBF4
3593D
0F966
13070
09E88
26DE6
0B0AD
40DC2
25332
30ABD
20860
21B7E
13713
0E1B4
14F05
32944
25210
0E6CD
2D6D9
3A0D1
10F07
0FCA9
12164
2C86C
3251A
134B6
441A8
0AE97
16523
2E9DC
358FD
116D5
0E1EB
0DD7F
25FB8
16529
0F19B
0C76D
2AAF0
17803
0BEEA
45A55
1F732
59AA7
19DB1
107AD
4BD25
33FD6
3F090
46C15
11FED
3E754
103B6
23B73
39D86
09598
10AA9
3336F
0D0D2
107F9
1CA03
0CEEA
3A051
0C03B
0CC75
12A0A
21B6B
1CAB2
0A1BF
10F8C
41B00
117A8
0EEA0
488F4
2D5A1
40784
29258
2C053
2762F
41450
0A2D9
0D8A5
3BA25
233B0
1120F
16EE8
0E4A6
0FAA8
456BF
2B3DE
40B48
09EB1
15015
0E49C
20081
1BFFF
08C77
1D212
1CF7F
0B5A7
170CF
3EB2E
34C1E
0FDCC
1288B
31330
0BCFE
2E13A
2A69B
3B087
46738
0BCA7
2320A
0F0D5
2D41E
3CFCE
41DEE
267D6
11A2E
121E2
2D751
0FADA
15799
0C855
1404A
0ED21
0ECC0
0EDFA

