44539
39451
52F55
37B8D
2FC25
29A8B
5FC03
2DAA2
4BF5F
42EFD
2BC75
286DB
22028
3D193
407C7
6A554
2B302
2F080
64118
25192
5DC86
296AA
758E8
36CB3
39ABC
3B490
37A7B
3D9A3
4EA36
2E649
632CD
81639
35690
31A0D
43794
2BD3E
64019
80E9F
49EDC
2FA9C
63C8F
42CBF
3DA50
45CFE
4F758
40A8B
860BF
2CD19
32E5B
312DE
3A299
30E24
56D85
544A1
32D10
3E2BB
37906
71812
2D5D8
7300A
549F8
5D479
7728A
7DF41
5B0AA
4A576
35796
296C0
7262B
190A4
2F627
53503
28D90
64B39
3B1EA
43BB1
314FF
44D23
2A2A6
7640D
48CF1
57BD9
3EF3A
4323E
3374A
351BC
2F358
5EC6C
428CA
380E4
50E8A
67D60
38660
3C0EC
4680E
4E71C
5ED7B
3421A
77565
24638
4B4C5
50A54
65D70
46E53
3135D
320B6
419F8
2F2DF
2785E
2BA87
4B18B
2F5B7
32D0C
812D2
39980
9BDBF
34DAB
37765
89BC2
5F0D2
72C59
7D53A
44048
71B61
4316A
4298D
667D3
1DA3E
3FB08
58F63
2584B
2D061
4127A
3B5DD
654CE
46D62
40870
306CC
406DD
4651E
33C0E
3BE34
7A1C2
42A92
30AC0
8458F
5549A
729D5
47B5B
53C2D
4A595
77F8B
31EEB
33039
6ECE4
401B1
40146
30619
3D3F1
40D1B
7BFE7
48DD3
77C5C
2BB3E
3E19C
42B75
3946A
36368
212E4
327B0
52F1E
342A8
4BF17
73031
6155E
393E9
4797A
5DB7B
2F948
5331D
4E799
66ABD
80C3C
35946
3D1AE
2FD94
51AFD
7135E
78AA4
46C49
35A30
38384
4FF60
478AC
4B26F
3584C
4A7EF
29B18
3288A
367EC

