1B33E
1C3FC
36930
176C8
12EBD
1218A
3C138
15269
33066
2AFEA
1BCE7
1289C
0D254
1A328
29B19
43E4F
1A22C
13833
422C0
112DB
3D455
135B8
4AACF
1A0F6
249AD
261DD
1F6D8
1B0BF
3292D
1BD3E
3EEC2
536EE
18E70
1DCFF
2BECD
1C2E5
41764
53348
215C2
15628
3FDB7
1F2BE
1E45F
2E1E6
33179
1DB50
56461
177AF
1F132
14E5E
187A7
15C47
38151
24FEF
17CF3
1EE0E
18F13
493CA
13EC7
49CB6
22A47
3D41E
4E1A3
53F79
3BF7B
2F92B
1BF14
12F84
49E6C
0B293
1628F
34686
13945
3F6FB
19828
1E2AD
1359A
2D84D
120B0
4C754
2EC25
38A57
28217
2B280
1DCE9
17043
1AB8F
3BF88
2B5CD
17EA1
3496F
43FB6
19B0E
19B43
1E1C8
335B4
3BFA7
1A203
4EA05
1070C
220BC
355F1
3FEFA
1DA90
161AA
15DB8
2B2A0
1C102
14CBB
130CD
3090D
1CEDD
14E3E
52251
24D4E
67917
213B6
1A292
58A63
3D045
49D68
529EA
1D6B2
48F06
1BC4B
2A18A
4338B
0DD44
1B64C
3AFCD
12742
16ED8
2A1B4
17871
43808
198F4
18EB6
19C8D
2979F
25C49
13876
1ABF3
4DB9F
1CF2F
164C2
54B96
3672F
4BF2C
2EA5D
34AEF
2FA39
4CC5D
1304A
16130
472DD
2945B
1B7D0
1C4E5
18BB1
1A9F5
50779
2FFE4
4C1C2
11611
1E287
1A08B
24EAE
1FCD1
0D436
20989
2950F
14735
22C12
49A35
3EA4A
192F2
1E9E1
3AFC2
13FA1
35C17
3297F
43930
52C52
15472
27C26
1648B
3504E
4824B
4D6CB
2E085
19A25
1A96A
3483A
1C40D
21E8C
15BFD
204B9
14F3C
1686B
1767B

