35516
32B65
496D9
2B5D5
26994
216B5
53A0C
26BED
43E30
3A7D1
28185
219E8
1A455
31FFB
3BCC0
5D86C
27EFA
25354
58A15
1E4FA
53FBC
21BDC
67883
2D5BF
2F50A
34AB6
2FDCD
323F1
45E08
2F94A
5748F
71E37
30A26
2950F
3C8B0
26EE6
5C699
73A0C
3BCA3
26533
57FD6
36703
339CA
3D58E
477F4
3478E
72AD1
259F3
2BB7E
29096
2E273
277D5
4C50C
45792
29F97
31582
2B7EC
64CD2
24CB8
65B81
42E0B
4F1B1
693F5
6F272
51E95
3FAD8
28B15
22309
63CB8
136EB
25F97
47A4B
221AD
58F6D
2F18D
364FD
2572A
3C83C
21F77
6852A
3C541
4E447
353FD
3684F
2860D
2A423
280CB
5376B
3B121
2CC88
4864D
5B8D1
2E177
303D7
37F6B
4658D
531C0
2E5E3
6ADB7
1DFC9
3D727
48C8A
5968B
384E0
27C51
28C4A
3B6FD
282A6
204FE
2457E
449E1
289AC
27E5A
72344
3335B
8AF56
2B98B
2A39F
7A87E
54307
65D54
6E92E
36494
6563A
35467
3AFC5
5B237
18C9D
32D31
4FB07
1F82F
25383
2E244
2ED77
59963
368F2
31B0E
2A07F
3670E
3BDAB
288BB
3008D
6B74E
34B68
27DD6
7617D
49DF4
6431C
41557
4925B
3FFB7
6A1E9
281CF
28CCE
6070D
38FCC
3412C
2A01A
30EB2
33FD4
6EBF6
43CB5
6A31E
232BC
33439
350B3
3378E
2DD9D
1FADD
2E6F3
43A56
29942
3E558
65EB0
55179
2E433
392A7
51D35
25F18
4A1AB
44527
5CB5C
71FF3
2A26A
37BDA
26BB5
484D2
63B62
6AD20
3D5D2
2B34D
2E376
47B5E
392C5
3B98C
2AC9D
3BE2B
227AB
29C95
2CF12

