395C3
3187E
4B63A
2F1BF
2811A
23602
563CD
2720A
454FA
3C8D6
2784F
22975
1C723
33CA9
3A688
60153
26A40
27B16
5B078
1FC94
551CE
2388B
6A1F3
2F21A
340DA
35A3E
3131C
34633
47278
29713
5981F
75225
2DCEE
2C581
3D31B
27A7B
5ACB6
74B99
3F1C4
28A7D
5A344
394BF
35476
3F7E6
47E50
3756A
794EA
2720E
2D9C7
29A34
312E1
29A72
4EA44
47AD8
2B9D5
35D37
2F65F
66C43
2694B
68038
474B8
54BD8
6C35D
72C1D
52C15
43340
2EAA6
236F4
6796F
1556C
28A87
4B126
232D1
5AC39
32283
39B6C
29528
3E9B7
23BB9
6B1BA
41DCC
4F72E
38DDB
3CBE9
2DAEC
2D157
29BEF
557EB
3C5DC
2F7C1
495B6
5E466
3035B
32E58
3BBB7
47389
558BA
2D325
6C7B2
1F11B
404C3
495F6
5BBB7
3BE63
29FB6
2A873
3BA24
2A14E
22877
25189
44058
2A716
2AD5D
74A27
340EA
8DEA3
2F9F2
2FA60
7CA54
55F9B
67DB2
71F03
39B98
66D6B
389A6
3C103
5D159
196C8
3602B
50F7F
206F3
2721A
3B023
31CF3
5C499
3AC34
35F71
2A633
3A4EF
3DA3A
2B290
330CD
6E463
389AB
29A38
77A5E
4D106
684DB
4106C
4B794
4339F
6C73B
29B05
2B4BF
643D1
3A045
36527
2B071
33825
36A22
70630
423B6
6C210
24AED
35952
37DE2
33D8D
303C8
1BDE9
2DB61
47D80
2BB56
40F5A
67FAA
58159
30B1F
3CAA7
54749
28382
4B582
470A3
5D4FE
747FD
2CF74
3769B
29080
4A0AC
66426
6D226
402BF
2E2B6
30516
48A45
3BFF9
40277
2D0C0
3F3E0
24299
2B10A
2E345

