4D0DB
45018
59CC4
3DC0D
37BBA
2EDEF
682C4
35689
52565
48360
319F6
2EA45
26435
4695B
49A83
73BBE
32B47
35149
6C22E
2A07E
670FB
2E747
80606
3E230
3AC12
40FCB
3E1B2
46A00
5648E
3BC49
6C445
8C5AB
4311D
34605
4A662
3015A
715D6
8E7A8
53525
35877
6CC14
4B1B1
46209
4AF01
5850C
48B16
8D707
31FEE
371A8
3A072
419BE
37362
5E0DC
617A5
39C04
42E2C
3C8FC
7C3D1
33A27
7D9D8
5FD25
60CE1
80DCD
8734F
642C9
4ECCA
343F2
2F6C9
7AE72
1B4E9
34493
592E9
2E9C4
6EB3A
4273E
4BFC9
365D7
49CFB
300C8
80908
4A894
6072B
41FB1
434C1
353D2
3B8D5
33CA1
67AA0
488C8
3F6E9
58F56
70213
3FFFF
442C5
4F3B1
56354
67408
3EFFA
82A9C
29B43
557B5
58DBB
6F6DE
502FD
3786C
394EB
489DB
33204
2AE29
33031
548C6
331C8
39135
8D936
3F591
A93D0
367E9
3A0AC
97394
67F81
7DAA8
8708A
4C944
7D4DE
4C07C
4947A
6F970
2245A
47CEB
612E5
2AD9E
31F2C
38E6C
43ABF
6CFA5
50B19
485DB
38685
432C6
4F02E
3B3E1
431DB
851D6
4A5B6
37311
92104
5B644
7A23B
50311
5B0A1
4F175
83368
3A807
398BB
770CE
465A3
498A1
35B95
4630A
4A4D5
88222
52E05
83AE7
32AEE
45DA0
4CD9C
3F6A0
38D11
2DBF1
39108
5B67B
3C254
56772
7E029
68F47
40EFD
50E5A
65DE1
35FED
5B524
543CE
7165B
8CBF2
3CCCF
44673
35472
58E9F
7B7FB
83F9A
4B6A3
3AE9E
3F7A2
57D66
52A9B
5303B
3D61A
54603
2E8E2
3A5D9
3F699

