088F6
0F17D
29B4F
08C83
05D92
076A1
2BE76
0A09B
27B88
20242
1490D
089D5
03AFD
0A601
1F5C7
32780
1267C
07099
32CE4
0825E
2E883
095B7
373C7
0D08B
1B0E1
1C852
1471E
0B61A
25D9D
13695
2E7CE
3E999
0BFA9
14D44
213FF
15168
31CD5
3E7BD
0EF80
0978D
2F91E
0F057
100D3
2360B
263B8
0DDCB
409DE
0DCE8
1616A
0813C
09354
09797
2A22E
0F8E6
0B90F
10B16
0B0F6
36FB7
0863E
371D1
0BFC0
2EBDA
3B7D7
40EEF
2DE17
23703
105E4
08CAA
378C7
04DE7
0AB98
2665A
09F01
2E8B0
0A45F
0D237
05C47
22F48
071B8
3982D
22F32
2A8CE
1DC90
20489
13FE3
095FE
116F7
2C313
20D9E
0957F
27C06
33BA6
0BC52
0A215
0BCCE
2713B
2C2C5
0E562
3C2BA
0765B
0F584
2901D
2EC0C
0AF79
09D0D
09145
20FB9
1365A
0C4E5
07E50
2489E
14932
07530
3CD2E
1B6B6
4FDCF
18562
0CE0A
4265A
2D969
3747F
3F425
0BEB9
36749
09F18
1EFD4
333BC
06A95
0AF08
2D663
09CF9
0CE94
1FA86
0747E
342E1
0508C
06F6C
0F854
1F124
1702E
04EBA
0BB91
399B1
0BDA6
0A575
3F229
28780
3A6B7
23495
26985
2387D
39308
0500F
08F47
35370
1EEBD
0AE68
13348
082D5
094E7
3CBC2
24B7E
3850F
05722
0FAD7
07977
1BB04
15A41
043BF
187D0
1671D
0612A
10150
36E1C
2EEA8
0AA67
0C0AD
2B3D4
07769
28690
25F43
33A9E
3DEB4
06A27
1E152
0AB1D
2805F
3586B
39D29
22D1B
0CF09
0D27D
28126
08A10
0F365
0758E
0D2A1
0B8CB
09D45
094FA

