0AC0E
10A40
2B388
0A813
0762E
08ABC
2DCE7
0B586
290CF
216B0
156AE
09C83
04CCB
0C3C9
2093A
3484D
13509
08814
349D0
0935E
30441
0A88A
3985F
0E910
1C2DB
1DA62
15BCB
0D397
27590
1466C
306BD
410D0
0D7FD
15E2D
22817
15EC2
33A4F
40EBE
1121E
0ADFA
317C7
10EBE
11B98
24A43
27BEC
0FB9F
432A2
0EF1E
17255
0995E
0B012
0AEBB
2BC6F
12142
0D01A
125C9
0CB17
39214
09BF4
394FB
0EA67
3072D
3DAE0
432C3
2F89C
24DDA
11BAD
09FD3
39B53
059BF
0C11E
280BA
0B128
3087C
0C10D
0F245
075D8
2432B
0864D
3BBD7
2456D
2C357
1F009
21900
1525C
0AFAC
12872
2E0C6
22167
0B0ED
29430
35A3E
0D686
0BF66
0DF46
28858
2E085
0FB93
3E578
08761
118B8
2A763
30C65
0D2A8
0B42F
0A952
222E3
146AA
0D4E0
0934F
25F41
158EC
08EB9
3F550
1C86D
52A6E
19621
0E70B
4503D
2F674
3976D
41896
0DFA9
38A14
0C0A5
204BC
351D5
07813
0CE01
2EFF7
0AD3E
0E16F
20E31
09313
35FB9
0772F
09138
10BA6
204BA
18BF5
06A3A
0D7D8
3BF90
0DDD4
0BBF7
41ACC
2A1D1
3C7B5
249F7
2840A
24F48
3B7E5
06A70
0A7F9
37540
20239
0CDA1
1446A
0A1FE
0B57F
3F0E7
260B8
3AA51
06D98
11619
09C2E
1CC63
16D61
054BE
19713
18AA3
07C3A
12476
3916A
30C42
0C5C2
0E3A4
2D178
08EF7
29FAF
2770E
35891
405F4
085B7
1F389
0C0ED
298D5
37B76
3C20F
24237
0E6EE
0EBC6
29892
0AF00
11697
090AA
0F6A4
0CA7E
0B52B
0AF81

