45536
3F0CC
5477E
37C42
32278
2A7DC
617BD
30A27
4DA1E
43BE4
2E854
2A66F
225BD
3FE1E
4524F
6C80E
2F32E
2FE9A
65C91
26371
60D99
2A50C
7849A
38ACA
3707B
3CFA0
3977F
3FFD7
50F15
37CCC
656F8
83BCD
3D114
30C68
45E34
2D1AB
6A8B0
85BC9
4BA8F
30943
65FE8
44607
40195
46835
52D70
421C0
84B9C
2DF79
33659
347EF
3B464
3217B
58474
585C2
349D5
3D2CB
37015
749BA
2ECD9
75D5C
5665E
5B0AD
792C8
7F601
5E3A6
49E04
307C2
2B1D8
73611
18BE4
2FA05
5378B
2A89F
679FE
3C269
44EE0
30DB6
457B7
2B76C
78AC0
45E91
5A875
3DD5F
3F231
310D3
35EBF
2FF79
61165
44292
395C3
5390C
696E0
3A2B5
3DAEE
47A7C
510B4
60B1A
39958
7AE99
25E39
4DA81
539FE
68428
48695
32657
33EC2
44534
2F8EB
27715
2E3C7
4F5C9
2FB0C
337B8
84A9F
3B656
9F613
32F24
34E49
8DE1C
61877
75E81
7F11E
45523
75849
449F2
44A04
68EE6
1F2F3
40F9D
5B7C6
2728C
2DCDE
3565F
3CE3C
66AA1
482F4
40FBC
33BA1
3F072
48C63
3527B
3CE74
7CC2D
434F6
32339
88F4F
55B00
72FE9
4B5AB
5536D
4A2C0
7B0B0
3483C
34180
6FB06
42004
428CE
31E8B
3F43B
43099
7FDE4
4DF74
7B623
2DA1F
3FCCC
45198
3B86B
353F1
292A9
359A8
53AB6
3619B
4E9BD
762A8
627CE
3ADB5
492BB
5F579
30C4F
55B74
4F0E5
6AA96
84099
36BA8
4047D
308AB
53815
73C11
7BC90
46D71
35CCB
39DB7
52963
4A5D3
4B63D
3753F
4C66F
2A9F9
34F7B
39661

