6FE2D
7DAE4
18AD3
75674
748BA
7946D
167FC
7B546
18C26
11C6A
0AFB8
7B7AF
772B1
756F4
11AF8
1B67D
082C8
7686A
1E77C
7C323
1B065
7C1F3
1D81F
7BCB3
0E6A4
0FD1A
05E89
76A5E
15031
0845A
18BC7
2306C
7ADFD
08F08
131EE
0BB32
1D135
230EE
76A0A
79B47
1A036
79A57
7D3A8
15296
15365
78E42
23F3F
0100F
0A31F
771BC
74FF5
79346
17ADC
732E2
7B5CA
7DEAE
78AFD
1ED26
79201
1E638
6DFEF
1B870
22DB3
27BDD
1B3C8
13609
010C9
7B520
1F422
7C8AA
7B96F
13DA9
7D2D5
182F1
761B7
7699C
73CA4
14F95
78A24
206F2
1351E
17E4D
1017C
11E4A
0700F
7751C
0524B
174F0
12F06
760F1
16C29
1E373
79587
7584A
7390B
16D30
17412
7EBBA
23BE7
7B6DA
7697F
18A47
1802C
7239D
798D5
782AC
1381D
07ED5
0111C
79213
149EC
09848
755E8
209AE
0EF65
307D1
0C903
7B4BF
24F21
192AE
1EB88
25A27
74C2B
1DFDF
7259F
1049F
1E12B
7D2CC
75297
1B6A3
7E5F3
7FA75
11D42
71C71
1FE6B
69DE4
6F330
01EFB
114CC
037AE
7195F
77D69
1EF9B
7539E
7A843
228F9
15F73
23385
143FC
13F2D
13813
1F453
72747
77974
1D705
1138A
74F21
07290
72449
72636
229E7
15CBC
1E1E5
75A6D
7C831
6F2EA
0F793
08319
78489
0DC1F
7D77B
730B1
775E6
1E0EB
1A19C
7769F
73751
16666
76E6B
16BF3
15399
1E9B0
22528
7340E
11467
7B5B1
16D29
1CE2C
1FE0D
13FA6
7C235
7B607
179AA
6EA7D
76776
74491
73D81
7F1AE
79065
76A83

