19B7F
1D70B
3664B
15FB8
12ACE
11C71
3BBD1
15B1F
33158
2A884
1D043
127A0
0C53A
1A0FC
2BAE3
43B43
1B6A0
12C09
41F2E
10AF1
3DCCC
12F55
4AA4B
19D9C
22036
2658C
1F4CF
1A8CD
32CC6
2168C
3EE33
531D3
1B32A
1C74B
2C6E8
1C49B
440C9
5467F
206D7
14A55
3FD83
1E681
1E150
2D8B5
33F0E
1CF5B
538E6
173BD
1E7AD
15477
1787A
15354
37B09
24E8D
17A12
1CF28
17A67
498C6
138A4
49EED
2138D
3A867
4DC9B
532ED
3CACF
2E184
1B420
12CD1
48ECE
0A46A
15555
333FE
13904
3FB02
18971
1D1BD
11C6D
2D0DA
11979
4C229
2BCED
39209
2671F
27A95
196C8
16266
1A662
3BF98
2B65E
17195
3521F
439F6
1944B
190FF
1CE8B
33E76
3BB00
1B07A
4F2D1
105C9
21800
3617B
3FCDD
1C88F
1572C
15895
2C1CC
1B6BB
14049
13496
3217E
1C633
13EC1
52607
25187
67BFE
1EECB
17D60
592AC
3D308
4A1ED
5221C
1C5D4
4994C
1AD0D
2A5D3
435B8
0DC2C
1A6D0
3B59B
12536
166B3
21A16
169ED
4309F
182B9
17533
19507
27A2C
25942
12CE2
19D8D
4D9F2
1B8BA
160AF
5591B
35802
4AAD4
300EA
34579
2E69F
4CF0E
12BB2
15543
46267
29725
1B1CE
1C61B
182F2
1A0B4
513AA
3241B
4C8F3
11222
1DA69
195C7
25960
2119A
0F526
2212E
2804E
13FD3
22464
49E77
3DFEF
188C5
1D926
3A856
13473
3615A
31D0C
44A7B
52E49
14771
29045
15D15
34FBF
480D4
4D921
2D067
18F12
1A256
34F54
1B88B
205DE
152B3
1F68A
146FF
16822
1776F

