4C00B
3EAFD
5841B
3DC03
35246
2E0EA
66690
323D9
509D8
4767E
2EC29
2C83C
25E79
439D0
44BDA
71822
2E5F0
342B1
6A654
28D10
63DA0
2D88C
7D8FA
3C285
3D9A7
3F3C9
3C2D7
440D8
53E08
31DBC
69F13
89F7A
3ABB4
3553C
47DE9
2EBF9
6A745
89724
51806
34918
6A7DC
49725
43802
4A3C1
54C11
472EE
8EF6D
30CD4
3698F
36756
40734
35F21
5C966
5D1E1
37DB9
44030
3D47C
79056
321D5
7AB1D
5DF3F
6341D
7ED29
85CA8
60D79
4F569
3A3D7
2D9CF
79F14
1BA18
3417E
59151
2CD15
6BA85
4164C
4ABE1
36E7C
492BC
2EAB2
7E0E1
4DABE
5D8B7
43362
479E0
377F3
3AB9C
33088
65460
46E0B
3E0E3
5631F
6E875
3E217
42786
4E0B1
53802
6559C
38FC6
7EEFC
281CC
52FFA
55BCA
6CEA4
4E97B
36452
374E6
45D0B
32BF7
2B04D
30406
500C8
32CC1
3866C
89F49
3D783
A59EC
38845
3CEE8
92E5D
65678
7A69B
854C8
4B391
79527
4A6DA
472B9
6D128
20977
4676F
5E8E8
2913C
3125F
45751
420E6
6B9BF
4F49D
47EBB
34A6B
44B6A
4C656
39C4C
42130
82651
49B34
35986
8D3CB
5B0B5
79D51
4C635
598FE
4F55B
80090
37B40
386A8
7633E
445E4
46E90
3420E
44101
47F30
841E7
4D81B
7FEC4
309DC
44103
4A4F6
3D138
3A658
24E61
35D1A
5AB72
3A162
53A1C
7ABC3
67CFB
3F3AA
4F3DB
64337
34BB9
58B09
53ADF
6D390
8959A
3B9BF
4116F
349EE
5709C
78E06
80BC9
4B629
3ADD3
3DC03
55159
4F9F6
52D9D
3B72F
525F9
2D90A
37C30
3C4C7

