06662
0E8CD
2911B
0703D
04BAA
06D42
2B041
09C28
27528
1F5CE
1542F
07E06
0290C
094E3
20663
31A0C
12A62
05D54
32125
07250
2E457
089C3
366BD
0C31C
18B3B
1C522
13B50
09F68
25718
177D4
2DCF3
3D927
0C313
13742
21275
14D67
32FEB
3E8D0
0D462
08454
2EF15
0D959
0F02F
227B7
26406
0C803
3DC5B
0D297
15368
0772F
07B18
08694
29407
0E1D6
0AC9B
0EAB5
09C24
3678B
07762
367B9
09A9B
2C1E7
3A90F
3F9A9
2DCF8
21C96
11DA7
08077
361DE
03DDD
09AF3
24F95
09627
2DFEA
08D5E
0B777
0401C
223B0
06214
38674
203E6
2A544
1C150
1D42D
0EF4B
0812F
10D7F
2B885
206D6
07EB8
27A65
32DF6
0AB13
08D68
09F87
26FE5
2B4AD
0D7E4
3BCC9
06D30
0DEFE
29024
2DE16
09189
089F9
0812F
21629
127FC
0B697
0758D
25206
13D5E
05F09
3C190
1B373
4F1A7
160DE
0AF67
41D00
2D170
36B8A
3E38F
0A380
361D9
084B4
1EBAA
32B60
060A9
0958C
2D1CF
09188
0C0EE
18DF5
05AA7
33416
02E5D
04DE6
0D9CC
1D45B
15FC6
03964
0A50C
38BCB
09EDA
09914
3ECD7
273D8
38D08
23F6B
25C75
221DB
38842
03C37
07B2F
33BF3
1E917
09A3F
12D81
06DEC
07E1E
3C90E
25FB0
37D08
0481D
0E856
05FBC
1BDD9
182CB
03DF3
196BD
14AE3
04E06
0EA1F
364B6
2DD41
09592
0A417
2A354
06366
28122
24DC6
33D10
3D1EB
05490
1EB5E
09FA5
27765
34B0A
39188
21969
0C282
0C18C
27D4E
06C95
0D4E5
0608E
0B799
0A9BB
09037
086E3

