6A28F
53F80
6D125
556FA
4A4A2
3F563
80925
4437A
62E6D
58F6A
3A791
3C915
35348
5D351
55749
8DB26
3AE04
48594
8340C
376CA
7BB1A
3DB5F
9D01E
513AA
4D0D4
4EC2A
4DF1B
5D64D
68753
3F792
84871
ABAB1
4FA32
43DBE
59237
3A38F
83C97
AAF76
6F408
47D6E
84D6A
63926
5A81A
5B9C1
698E7
60D09
B1FF6
40734
45224
4B32C
5926F
49D4C
7325A
7FCC9
4BA9B
5AF59
53BC8
968CF
44C58
98E9E
829AF
7ABD7
9CEE3
A494B
77A13
62F7D
4CF69
3E13F
97A17
25CF1
46977
6FBF2
3C6A1
86FC3
5A0A8
664A0
4CE0A
5A425
405BB
9CB46
60C65
7458D
53F26
5934A
475F5
50CB1
420E8
7ECC4
57E1A
55A03
6AF66
88D25
54A64
5BA9B
6BAA0
675D7
7EEAF
4C0E8
9CCA9
36BDB
71401
69BCF
88B61
6CD4E
4A25F
4BFA1
56490
40C43
38C0A
424C1
63812
404FB
4E58B
AC71F
4CB1F
CBF77
46E81
526B6
B6E4D
7E5CE
986E6
A49E1
67877
9738D
67434
59233
86EF6
2C2FC
6114E
7489B
370EE
415A1
565C0
5C568
84650
707DC
64F77
45411
558B9
64447
51666
5A60A
A2F16
655AF
48EFB
B0293
71A8C
96300
5EC44
705A3
62EC0
9FB6E
4E5FB
4DA37
93433
551CD
61BE6
42D9B
5ED74
63F5D
A409D
5FBED
9FF13
43EB9
5B7CE
6824C
4C017
4AD50
33814
42EF3
793E3
51583
71D64
99138
8140A
56BD7
6D4A0
7DABE
48F9A
6E474
68203
86F5D
AB146
534C1
50BE4
475E4
6C0FA
96FE1
A0723
5D864
4F663
537B0
69363
6F5E2
71189
52BF2
71520
3CC67
4C4D0
53191

