517C6
428E6
5C0A8
420EA
38FCB
3132F
6B2AB
35825
53F0A
4A992
30E3C
2F6EF
28AFC
48444
47C7A
76A22
30A51
37D66
6EEA4
2B78F
682FC
3079B
83475
3FFD1
40698
420F2
3F686
48A90
579E7
34557
6EC6A
90184
3E885
37F83
4B026
30D5A
6F0F7
8F8A7
56E92
38128
6F482
4E325
47AEF
4D64D
58895
4BD7F
95557
33A5A
393D8
3A3AB
44F10
398FB
60B07
636C5
3B756
482F2
415CF
7E63D
3581B
80306
649DF
6786D
844BF
8B63A
64FC4
52E84
3DA4F
309B4
7F572
1D7B4
3774E
5D340
2FA74
70A05
45E00
4FC04
3AE67
4C472
31E28
83A0B
51251
61B0C
46411
4AD0B
3A622
3EBCE
35C3C
69EA1
49F82
42574
59F89
734F2
42399
470D0
536DC
571CC
69FFC
3C740
845D6
2AC5A
587FC
595F9
71F81
54173
39E26
3B108
48CF5
354BF
2D841
33885
53961
35411
3C643
9039F
403CE
AC979
3B222
40D6B
99714
69F13
7FDEE
8AFE4
505E9
7EC22
4FABC
4A6FE
71C65
22B32
4B4DD
628DA
2B9E8
34182
4887C
46D5B
701DA
55534
4D33A
37AB7
47C61
50BC8
3E10B
467E3
88501
4EBA7
391CA
93964
5F27F
7EFCD
4FBAC
5DB4B
52E56
85CB9
3BD33
3C465
7B7C8
4769A
4BC9F
36CE2
48EE7
4D0AD
89EC2
50D2A
85BE9
34204
48528
4FBC0
3FCA6
3D628
278DF
38342
60441
3E50B
591FA
80407
6C6FE
4380F
54B45
68D4F
3869C
5C9D7
5765A
71E6F
8F7BA
3FEA8
43EF8
38078
5ADC4
7E5A2
86808
4EAEE
3E990
41B3A
58BE6
5564F
5859A
3FAF5
58000
3054A
3B7F0
4071A

