33E08
2DA95
479AC
2ACD8
24395
203BD
517B2
23DBE
41FC8
395C2
2563C
1FAC2
19AA0
2F235
375E8
5AF52
245DF
24061
56828
1D215
50C72
2097C
64678
2B4CE
313E9
32D15
2DF6D
2FC7B
43699
26F78
54AC9
6F01B
2A01D
29B3B
3A0DE
2591A
56304
6EA16
39B38
2526E
5569F
348BE
31189
3C55A
441CB
32ADA
72F00
24488
2AF7D
25DDE
2CB05
26099
4A8A3
415F3
28037
31A76
2B50B
6165C
23305
6284F
40A18
50788
66BC7
6D28B
4E9CB
3FA25
2B42F
2070F
62312
137D0
254B7
46F37
20572
55CBA
2DAD0
34B49
2553D
3B801
20843
65890
3E639
4B4D8
35D2C
398BF
2ACBD
29125
2703B
50DAB
39465
2B330
4594C
597E8
2C1D9
2E50F
3658C
439BF
50E59
29BAA
670D8
1C68D
3ACC2
45BC6
56ADA
3666C
265E2
26C51
38A3B
27886
20083
21D09
407BF
27FC6
26D86
6E5D1
3149F
86F15
2D016
2BBDD
7619C
51700
6265F
6C3E7
3493F
61670
335C4
38CBF
5861C
1750D
312BD
4CF8D
1DE47
242F7
37EF8
2D07E
57C7F
34B9D
30AF2
275E6
373F7
394C9
26DD1
2EA1A
685B4
33937
261F4
714C5
48F3C
6325E
3DAF5
47547
3FAA4
66B12
25911
27702
5EF48
36F8F
31717
2859E
2EA3E
318A5
6A954
3EEA7
664EB
212C5
3152D
32718
3121F
2D3F8
1936C
2B53A
424B1
277AD
3B77B
62766
53756
2C6B9
3733D
4FD31
2489E
476B4
43528
58A1E
6E5DE
28A8B
34911
259F6
46384
60C8A
675E7
3CDFB
2A6F9
2C5E0
44FB7
3639F
3AA7B
28CF9
399D9
2165A
2754A
2A0F2

