09A82
0FDDF
2A76B
09A4B
069E0
080AF
2CDAE
0AB10
2862C
20C79
14FDE
0932C
043E4
0B4E5
1FF80
337E6
12DC2
07C56
33B5A
08ADE
2F662
09F21
38613
0DCCE
1B9DE
1D15A
15174
0C4D9
26997
13E80
2F746
3FD34
0CBD3
155B8
21E0B
15815
32B92
3FB3D
100CF
0A2C3
30873
0FF8B
10E35
24027
26FD2
0ECB5
41E40
0E603
169DF
08D4D
0A1B3
0A329
2AF4F
10D14
0C495
1186F
0BE07
380E6
09119
38366
0D513
2F983
3C95C
420D9
2EB59
2426E
110C8
0963E
38A0D
053D3
0B65B
2738A
0A815
2F896
0B2B6
0E23E
0690F
2393A
07C02
3AA02
23A50
2B613
1E64D
20EC5
14920
0A2D5
11FB5
2D1EC
21783
0A336
2881B
34AF2
0C96C
0B0BE
0CE0A
27CC9
2D1A5
0F07B
3D419
07EDE
1071E
29BC0
2FC38
0C110
0A89E
09D4B
2194E
13E82
0CCE2
088D0
253EF
1510F
081F4
3E13F
1BF92
5141E
18DC2
0DA8A
43B4B
2E7EE
385F6
4065D
0CF31
378AF
0AFDE
1FA48
342C8
07154
0BE84
2E32D
0A51B
0D801
2045C
083C8
3514D
063DD
08052
101FD
1FAEF
17E11
05C7A
0C9B4
3ACA1
0CDBD
0B0B6
4067A
294A8
3B736
23F46
276C7
243E3
3A576
05D3F
09BA0
36458
1F87B
0BE04
13BD9
0926A
0A533
3DE55
2561B
397B0
0625D
10878
08AD2
1C3B4
163D1
04C3E
18F72
178E0
06EB2
112E3
37FC3
2FD75
0B815
0D229
2C2A6
08330
2931F
26B28
34998
3F254
077EF
1EA6E
0B605
28C9A
369F0
3AF9C
237A9
0DAFB
0DF21
28CDC
09C88
104FE
0831C
0E4A2
0C1A5
0A938
0A23D

