331C3
3102A
47E7C
29A77
25014
202AF
51B78
2561A
428AE
39365
27357
20686
1927C
30157
3A81F
5B75E
26EF3
23BB5
56D0D
1D389
52357
208F0
65389
2BCC7
2E403
33861
2E89A
3059C
4459C
2E726
55555
6F6D3
2EEB6
28499
3B411
26147
5A769
71215
3999D
24E92
560EE
34840
31E3B
3C154
45EEC
32975
702FB
24788
2AA8C
2774C
2C57D
2606E
4AAA5
42DE3
2881C
2FB66
29E85
629F0
236A2
637F0
402F6
4D759
670CF
6CEA4
50366
3E457
279E3
20F57
61A53
12B33
24A4A
46030
20F11
56F13
2D4BE
344BB
23DFC
3B471
20A82
66116
3B01C
4C938
3410A
3554A
272E8
28A66
26F52
5195A
39D11
2B0C7
46DA6
59A30
2C6D0
2E62D
35CCA
44DF2
513C5
2CD22
68A49
1CE58
3B361
4749E
575C5
36155
264DE
273AC
3A360
27255
1F542
22FA9
4322B
27A09
264C9
6FA87
3214A
88244
2A953
28C15
77DC9
52596
639DB
6C4C6
34366
632A2
33289
39A7E
593C6
17E7F
30DF6
4E0FF
1E74E
24091
2D240
2CE76
57C86
3420C
2F94F
28B19
3541B
3A128
26CE7
2E427
6911E
32B31
26706
737DC
483E0
62272
3FF3A
477B9
3E93A
67C90
26670
273E2
5E566
37BE8
32139
28EAA
2EF09
31E9E
6C62D
42642
67D2F
21BA5
3188F
32D44
325C7
2CD4B
1E5ED
2D721
416F9
27D9F
3C16D
63AD5
533E9
2C868
36F55
4FF61
24734
4880B
42D77
5AC91
6F823
286A8
36901
2560F
46C18
617FA
687AF
3C0E8
29BEC
2C9C6
4635D
36CD5
396B1
290F1
399B8
215B1
283E8
2B394

