5ADA7
4FA45
6350C
4871C
41B1D
36B10
741E1
3DEF0
5ABD1
50307
37297
3636A
2D3C3
528DA
51B71
80A52
38F74
3E4EF
777A1
30D83
72274
35D8B
8ED22
47E42
4167C
48260
46631
52792
5FD2F
42DA8
78772
9BBDD
4DC9B
3ACE7
52746
3567F
7D8BD
9E16E
6100B
3E5E6
78D3D
571F2
50E46
52D6D
62180
54730
9CFFC
39309
3DB90
43E81
4CEBB
405A2
685DD
71C27
42EC7
4D159
467BE
89DD7
3C431
8B822
70A65
6B185
8E97A
95312
6ECAB
57974
3AF6D
371E5
88566
1FE2A
3C9B4
6360F
35E19
7B570
4DB4C
58969
40335
518AC
383C7
8EA89
52CBE
6B04A
49620
4AB9E
3CB75
459B3
3A9D5
73689
50629
4A462
6296D
7C181
4A695
4FC31
5CC21
5F6E0
72F68
48AAF
9080F
30842
63748
62342
7C3B6
5E126
40AFE
42EC6
50474
397FA
31083
3B8A5
5DCF7
39384
43102
9D7D4
4667B
BAD7C
3CD49
433CC
A7E7D
73780
8B85C
95413
598A4
8B355
59429
51973
7B7AF
27C93
5401C
6B59B
3171B
39594
3F283
4FC83
78407
5FE36
558C8
40C42
4A937
5A263
461CD
4E35C
94084
56F0D
401A4
A2535
6593C
86E5F
58D48
65712
57E01
91CD5
45315
43481
84321
4E1F6
56050
3C895
528EA
57465
96E48
5BA52
927FD
3BB3B
50A89
5AB12
465B7
3F313
35ECC
3F3EB
6937E
46F0B
647EC
8C045
7480C
4BCB4
5EB1B
71850
3F540
6554D
5D7DC
7D6CB
9C4C7
47A4B
4BC3E
3DBC2
62929
89542
9299A
53958
440BC
49832
6136B
617B9
60A12
48310
629D3
35937
44012
4A26B

