3B63D
37645
4D9DA
30119
2AFB6
24DC4
58E23
2A7F1
47955
3DFFC
2A884
24F36
1D56B
3743D
3F57B
63351
2AB0E
2944B
5D9EB
214F2
58DD2
24FE6
6DE33
31A6B
323DC
37D21
33819
3775A
4A130
32B2C
5CA70
78A8A
3559B
2C254
40167
2945D
61C5B
7A7F2
41CF4
2A36E
5D4D4
3BB9B
38592
40D2E
4BCCB
39A52
7985C
28C98
2EA18
2D621
33215
2B82E
50DA6
4CA31
2E02A
35D4E
2FDC6
6ACC0
28975
6BD50
4A483
53A22
6F49E
754E6
56955
438BD
2BA60
25934
69B4D
15726
29A2B
4C214
254DD
5E866
340C6
3BDB4
29C68
3FEA8
2591B
6E863
3FF68
52EB1
38819
39C9C
2BAB0
2EAEB
2B0D8
58A19
3E84C
318DC
4CA1A
60D0C
32AC4
3556D
3DEA6
4A679
58431
329F5
70F27
20FBE
43987
4CE55
5F0AC
3E6A0
2BCCF
2CFFC
3ECEF
2AF82
23045
28188
48B16
2B4AD
2C4AA
7934C
36509
92B45
2E626
2E45B
81DEF
593FC
6BEE1
74D4B
3BFD3
6B81C
3B18A
3EA46
605EC
1B36E
38313
5429F
22699
2879D
30E4E
342B9
5E8C1
3D3EA
377DD
2DB57
39B2B
40C14
2D542
34EA7
72053
3A3FF
2BC92
7D3F9
4E5A9
69CEE
45228
4DB96
43D8E
7089E
2CD13
2D158
66398
3C680
39909
2D010
365C3
39B28
753DD
47A70
70B6F
2723A
3804E
3B224
3686F
30A7F
23471
31275
49B95
2E540
4481D
6C14C
5A2C5
330A2
3F3C9
56F3E
2A0CC
4E824
4864C
62008
78D70
2EEBF
3AFAE
2A73F
4C8D1
69CBF
71416
40F55
2F397
32A1C
4BD60
3FB1A
41965
2F8B7
42268
25918
2E071
31AAC

