79B40
04C3D
20502
7D2DE
7B907
7FA23
2006E
01EAB
1F97D
1805E
102A5
00E93
7C26B
7E4B6
18FC5
25BFE
0CE39
7D57E
27A36
00E04
24111
01CF5
2921E
03386
12954
15BB8
0C16B
7F100
1CAAD
10F87
22963
2F6A7
0254E
0D89B
19BE1
0FF12
27C9B
30305
00AFF
00235
23D5F
02879
051B9
1B368
1D417
01AF6
2F750
068B2
0F1F8
7E5C5
7D496
00007
1FC39
7F22B
02596
05496
00A15
29EF7
7F862
29B37
7A2E6
22A6E
2DEF5
32BCE
240AD
19B2D
0BAC5
00F35
29C1C
7FA78
02079
1B97C
02B21
225E1
7E7B8
7FDF8
7AF54
1B1E4
7E98F
2B6FE
18A4F
209AC
1545B
166D2
0813B
7ED2F
0A907
20BA4
1937C
7DF1F
1ECA2
27DD9
011D1
7E2D1
7D868
1E828
2084B
04990
2F10D
008E9
0114D
20693
221A2
7C527
00321
7F3A4
1A55F
0CA2F
05C1B
7F804
1C9AF
0E373
7CC05
2D750
14B91
3EE83
1039A
0280D
32771
22829
29F93
3123A
7E4B7
2952E
7C1F6
17155
27C59
00F80
7E1F9
23C1D
0307C
053FF
131E0
7A863
28E22
74EB4
78BD8
05EC3
16763
0BBD3
79962
001BF
2B034
7E59E
015E8
2FD76
1DDE9
2D139
1C043
1C355
1A08D
2B181
79ED8
7EBE0
27A73
176B6
7E289
0C93A
7B7E1
7BF2A
2EFCD
1DE9D
2A2EA
7C35B
04943
793FE
157A6
124F2
7C58F
13BC3
07F8E
7AF20
01B9A
29688
23344
7F5C1
7D8FF
1F7CE
7DA06
1EDC9
1C590
28C05
2ECFE
7B4F4
17F00
02328
1E939
27F76
2BA40
1A129
03C15
02DD4
1F34A
79270
00C7B
7C16F
7E602
04262
00254
7E8D0

