1D656
1DCC0
38169
19258
14759
135A5
3DFA9
16754
345AD
2C458
1CA88
13B4A
0E421
1C0F0
2AE8C
45F1C
1B0B9
14FAF
43FAD
123DA
3F013
1488B
4CF67
1B97B
25BA7
273ED
20B85
1CE3C
34120
1CD15
40DB1
55E25
1A6C4
1EDE8
2D2E6
1D03F
434DF
55A49
23860
16C95
41C5F
21125
1FF24
2F61E
349AE
1F923
58D25
189E4
2021C
16680
1A465
1736B
39B91
2784B
193FF
208C2
1A934
4B627
1547D
4BFE0
254ED
3EF71
504AC
5634D
3D9FF
31003
1D4DE
142AD
4C0F8
0BE6B
17815
360E5
14B6B
416C8
1B4D6
202BB
14F2B
2EC30
13545
4EAFF
30260
3A4E0
29590
2C6F7
1EF63
189F0
1BD0B
3DD3B
2C996
19A0E
36199
45E4E
1B542
1B894
20440
34CD2
3DD67
1B834
50CC2
11812
243F0
36D37
41F52
1FDC0
178CB
175C5
2C5CA
1D152
15CB6
145CD
31FB1
1DE96
167C8
54A73
25F06
6A5B6
22474
1BB93
5B446
3ED50
4C056
54E5B
1F7A2
4B1D0
1DDD9
2B672
451A3
0EAC2
1D545
3C961
13786
181B3
2B55F
19706
454DF
1BF97
1B082
1AFDE
2AB35
27811
153F6
1C83A
5017E
1EF5D
17B44
5743A
3817F
4E02B
2FFC0
36574
31104
4F13A
14AAB
179E2
494AD
2A7D8
1D70A
1D607
1AADA
1CA8D
52C9E
3151D
4E704
12C87
1FDC9
1C343
2600E
20FF1
0E535
218CC
2B895
16245
24F38
4BD84
407E5
1AE4E
20CD8
3CD65
1572F
37536
34149
45723
55391
17002
28E5D
17A5B
368C5
4A556
4FBB1
2F5A1
1B20B
1C2B3
35FA6
1E8FD
241BD
17719
228BC
160EF
18051
19103

