03A39
0C6C4
272A6
04E07
02BC9
0543B
28A08
080E1
25A45
1DC46
14275
065CC
012BD
06E97
1EC99
2F0BB
11659
03FCC
2FCDB
05C83
2C0D8
0721C
33884
0A3E5
175F3
1AE37
120D1
0797E
23891
16127
2B5EA
3A7EA
0A0C7
122AE
1F8AE
13C60
308F0
3B6DC
0A89A
0680A
2C873
0B2E6
0CDBC
20E6F
244BC
0A265
3AA90
0BB92
13E39
05792
056E6
06954
27307
0ADBC
08F41
0CA12
07C64
33BF0
05BC6
33B43
064C1
2A0F9
37D20
3CCE9
2BAFE
20074
10828
067D8
336E0
02F36
08053
22EF4
07EE3
2B779
0695B
08F23
020A3
20AF3
047E1
3595B
1E977
28370
1A9A1
1BC67
0D75E
06102
0F7A8
292EF
1EDC2
05C06
25B94
307AD
089C2
06852
0743E
25263
28F34
0B8F3
3907F
05764
0B246
2723C
2B51E
0651B
06CA9
0626A
1FDA4
11398
0A2EC
05A43
23462
129D2
03F13
38EA3
19CDD
4B951
14C97
091FA
3E79E
2ACA3
33F33
3B60E
07A06
3355B
05A5E
1D112
30553
04F04
06E82
2B144
07C6F
0A940
179F0
033E6
31002
FFDBE
023B6
0BF0D
1BCAB
13C21
0169C
0818C
35C0E
07695
07C90
3B8CD
25340
36434
223C6
23B2C
205BF
35992
01A01
05C07
311E2
1D03A
0724F
117B5
04659
0549B
399D4
243A1
34D9D
02B40
0C5C1
03371
1A7A2
16E64
023C7
182F6
11EAF
02B7B
0BD3A
337E4
2B84D
072D4
077F1
27E0A
04589
26119
2302A
31694
3A027
031DD
1D3CF
08495
2587D
31EC8
362BB
1FF45
0A549
0A16F
25F4D
03D29
0A953
03DF7
08A09
09343
0715F
06485

