372AB
2FFBB
49E01
2D62F
2687E
221E6
5455C
25D1F
43FB3
3B467
26AAE
216C7
1B555
31EE1
39315
5E086
25BB3
2639B
5938B
1EB95
53610
225B8
67D5B
2D995
32EE0
3482E
2FE70
328B7
45A85
2873B
57930
72AED
2C49A
2B498
3BF03
26D21
58F3C
72498
3CF25
27411
5849B
37658
339B1
3E3AE
4661B
35797
76C26
25FD8
2C8DD
28212
2F623
2834E
4D004
4527C
2A2C9
34283
2DC3D
649E6
25395
65D0E
44A11
53085
6A054
70849
51191
41C68
2D4DD
223CC
656E3
14994
27501
496C7
220AB
58C6D
305D5
37B5E
27B97
3D5D4
22724
68E0F
40791
4DCA5
37A62
3B772
2C873
2B7AA
28A74
53A38
3B213
2DC54
47D8C
5C5CD
2E927
31108
3993F
45C6B
53AF9
2BCF4
6A4F4
1E015
3E18F
47EAF
59B5F
39B33
28895
29065
3A6FA
290FE
2187C
23C89
429B4
2975D
293D4
72205
32F33
8B204
2E933
2E15F
7A071
54290
65AC4
6FA91
37AA7
64AA0
36818
3AC1B
5B341
1894A
34132
4F5EB
1F6AF
25F3F
39C78
2FE5E
5A7C2
38591
33DA5
292E1
39159
3BE73
29710
31486
6BE84
3697D
283B7
751BA
4B6B5
663DC
3FB0A
49D0F
41CD4
6A25E
280A3
29C0D
62201
38CC9
345ED
29F50
318FC
3498A
6E10B
40E7C
69CCE
23477
33E10
35B2A
32C2E
2F0A8
1ACEA
2CC1E
459FA
2A046
3EC34
65C5B
563BE
2EFC3
3A7B0
529A6
26BF3
49C63
458D8
5B70B
720BD
2B3E3
36464
27AAF
48836
6411B
6AD40
3EDA4
2CAD1
2EBCD
472D9
39B08
3DF45
2B5A4
3CFDE
230E6
29924
2C8BD

