50EAE
47FBE
5C768
40BF2
3A85A
310F8
6B847
37CBB
54B08
4A71E
332C7
30C31
28371
49EF9
4BE9D
77595
34753
37AA0
6F4FC
2BF04
6A2AC
30864
846BC
40DE3
3C9DE
42FE0
406CB
49F14
58F4A
3DC08
6FAEB
90A9B
46122
362D4
4CA79
31931
74C68
92D98
5726F
38011
70229
4E785
49243
4D267
5B0DB
4BFC1
91CBC
34029
38F4F
3CCB4
44C6C
39C55
60F0F
66096
3C51C
45BDD
3F570
800DD
360CD
81815
64889
63AFA
84B4F
8B1F6
6725A
5142C
3620B
31941
7EAA2
1C96C
369D9
5C097
30A57
723D9
459A8
4F83D
391E7
4BF9D
32576
8482C
4CD95
63685
440DB
45609
37552
3E5E0
35B35
6AF3E
4ABE3
4277B
5BA7B
737AD
42EA3
476B0
5304B
58CA5
6A87F
41B4B
8689E
2B9C8
5964F
5B799
73039
54132
3A176
3BFFF
4AC2F
34E90
2C9B3
35666
57244
34D25
3BDF4
92081
4152F
AE2AE
3844C
3C9DE
9BE50
6B306
818BC
8B040
50355
81328
4FBC1
4B9B6
72EB5
23D0E
4B392
64074
2CB28
34054
3AA72
47100
70227
54F2B
4C0EA
3ABF8
453F0
52214
3E494
4638E
894AB
4DE16
39AFD
969DF
5E3E5
7DB63
529C4
5DF3C
518CF
874C4
3D7EC
3C459
7ABB2
48873
4D08B
37A1A
49A72
4DEF3
8C441
5554E
87D49
35356
48E0A
50B9F
415BB
3A9A1
30094
3ACB8
5F45D
3F2B0
5A64D
81EE9
6C303
43FA1
54C29
69215
389BD
5E1FC
56D43
74C3D
9119E
3FD62
4676E
37A55
5B9E5
7F5F0
8811F
4DB3C
3D788
42497
5A767
56D00
56D39
40688
585CD
30856
3D108
426B5

