1DF1C
1E2F0
38777
1993B
14D80
13AAC
3E746
16C8F
34AFF
2C974
1CDF1
13FF6
0E895
1C862
2B369
4674F
1B45C
1558E
446E8
1281A
3F703
14D3F
4D88D
1BF9C
26026
27871
210B0
1D59B
3471D
1D10B
4156D
567F3
1ACD9
1F222
2D7EC
1D396
43C3D
56409
24108
17230
42409
218BE
205D5
2FB2C
34FBB
20098
59756
18E72
20657
16C89
1AB95
17934
3A221
28261
199C2
20F6F
1AFBC
4BEBE
159EB
4C8AB
25F97
3F646
50D6E
56C43
3E0A0
315B9
1DA50
14777
4C99B
0C161
17D77
3677D
14FF5
41EBB
1BC02
20ABF
15590
2F128
13A6B
4F3E9
307EE
3AB82
29A6F
2CC15
1F401
1905C
1C169
3E4A8
2CE88
1A0EA
367A4
465F4
1BBCF
1BFE8
20CDE
35299
3E4D7
1BDC0
51572
11C53
24CBD
37309
42768
2068C
17E94
17BC9
2CA94
1D566
160B5
14B0D
3255A
1E285
16E2A
5547C
26374
6B0DE
228A4
1C1D4
5BEBF
3F493
4C911
55778
1FFDE
4BA83
1E63C
2BBAC
45929
0EE22
1DD03
3CFC6
13B98
1866A
2BA4A
19EAB
45C15
1C940
1B8F5
1B4B3
2B01B
27F02
15AD6
1CF4C
50AF6
1F769
180E4
57E62
38814
4E86B
30519
36C15
316B7
4FA71
15144
1800E
49D22
2ACB7
1DED8
1DA4F
1B2A5
1D2B3
535E7
31A6B
4F054
13225
2049A
1CBF0
26465
214B9
0E975
21C9D
2C176
16909
25801
4C657
40F4C
1B525
21596
3D4CE
15D12
37B7E
3473C
45EA0
55D61
176E7
292EB
17FCF
36EE3
4AE19
504EB
2FAE7
1B804
1C905
36581
1F23A
24A8A
17DE0
231BD
1655C
1864B
197A5

