31744
2FBBF
46C36
285F0
23CF3
1F3AB
50489
245BB
4188D
38413
268B4
1F7FD
18519
2EA5C
398A6
59E94
262ED
229FD
55746
1C674
50E0B
1FABF
637CD
2AA0C
2D73E
32AA1
2D8B4
2EEDD
4334C
2D98B
53DE9
6D948
2DA22
27841
3A49A
2570F
59006
6F41C
37F59
23D99
549C0
3312E
30990
3B228
44C26
312E3
6E51B
239B8
29DD7
26454
2AFC6
24EE1
496D8
40EA0
2767F
2E7D2
28B78
60FC6
22612
61D43
3E2A7
4C397
65673
6B3CA
4EF03
3D376
26CFD
20091
60088
12268
23A50
44C9C
2011B
556CF
2BF22
32C89
22B1A
3A59A
1FACA
64606
3A040
4B4EC
332D3
34707
2648D
27718
26238
502CD
38E05
29BF5
45B28
58338
2B2D3
2CFEC
342D1
43C3D
4FD49
2BA91
66FB6
1C144
3988D
462AC
55D30
346AC
25347
26136
394A9
26619
1E974
21F49
42063
26E4E
2519C
6DBF9
313BD
86078
29D29
27A6D
75DC2
50F82
61F41
6A978
32A84
617F0
31922
38A89
57CF2
173E9
2F68A
4CD78
1DAA6
2325C
2C63D
2B735
566E1
324E0
2DFFF
27B0D
345E4
38BC5
25808
2CEDA
67479
31308
255EA
718A3
47052
609F3
3EEA4
463C0
3D85D
6608D
251EA
26130
5CC29
36CFC
30943
28195
2D74A
305B6
6A9D7
4156C
660BC
20A54
303CF
312B1
31873
2C10E
1D639
2CB43
3FC73
268E5
3A67E
61FF0
51DBD
2B38F
354D8
4E902
23549
474D3
41BB3
5957A
6DA47
271D6
35ADF
245D2
4598D
5FD6D
66B9B
3B139
28A63
2B681
4515D
35061
37C8D
27C30
37E62
20836
27166
29EF6

