0FB03
141F9
2EA07
0E616
0AD8C
0B7FA
32166
0E497
2C0B0
244A8
17559
0C68B
074DB
106CC
234FD
3921A
155C7
0BCEA
38AE5
0B99D
342AD
0D2E5
3EAB4
1203B
1EB4D
20307
18A4F
115F0
2AB72
16A11
34C58
4690C
10EB9
18439
2554E
17CCC
37CA2
46681
16002
0E06E
35CC2
15324
157D3
277C1
2B263
13EBA
48E5B
11816
19864
0CFAB
0F0BF
0E2CB
2F77F
17C0F
103F5
161DE
105E3
3DF64
0CCCD
3E41A
14A5D
344A9
429B4
48360
33445
2813F
14CB2
0CAEE
3E90E
07465
0F18D
2BC11
0D9FD
35009
10195
13A65
0AF5F
26FE8
0B49E
40C16
27771
2FF0A
21BDA
2470D
17BED
0E973
14FC8
3239A
24DEC
0EEA3
2CA90
39F15
1117C
1015C
12CD4
2BC5A
32375
12D81
433A2
0ADAE
167EC
2DBC1
3552B
121D4
0E83A
0DF71
24E02
16B5E
0F8D5
0C28F
29232
17C4D
0C82E
44F9D
1F04A
58ED4
1BBCE
11F4D
4AE7B
337CC
3E605
46A95
129C5
3D85D
10C24
233C7
3958B
0966F
113B1
32984
0D1D9
10BDB
23A72
0D7E2
3A09D
0CE1D
0DD44
1371F
230CB
1CA74
0A819
1177A
414C8
1263C
0EE9A
4763C
2DD06
411F3
27A16
2BFB5
28290
40AD6
0A5CB
0DF89
3C156
22E10
113E2
16AF5
0E81A
0FED6
44479
29078
3FE26
0A023
1536D
0EA4A
1F37A
19869
07AFB
1B96A
1DA90
0B91F
1738B
3E0DA
34EDE
10351
13250
31428
0C3F7
2D834
2AC96
39BF4
45E43
0C3BC
21C85
0F203
2CFE0
3CA4F
41514
271B5
11CB2
124AA
2CD45
1021E
165C7
0CDA9
147AA
0F251
0EAF1
0EB33

