0055E
0949F
2407B
02529
0014A
02B3A
24C4D
05229
22BBD
1B5A4
115F1
043C8
FF839
03652
1ACD7
2AC7F
0EFEB
01889
2C06C
042A0
28079
04F21
2EA8F
07498
16D77
18495
0F997
04786
203CE
0FB2C
273CC
3568A
06470
10DDB
1C8A4
11F56
2AE4A
35578
06DAE
04376
28626
07E57
09C6F
1EA39
208F1
06DF3
370FE
098A0
121FC
026BC
0278A
040D1
23FBD
06190
062A2
0A6F3
04EF8
2EEDC
034D4
2EDF3
01FD0
28561
33476
38894
27AA7
1E15A
0B430
044D1
2F73B
0217D
05AE0
20374
05AF3
27170
038D2
05A04
FFC66
1E4B7
02486
3126F
1DBD6
2454E
19389
1B7C9
0FA9C
035B3
0D568
253B2
1C36B
02EA5
22167
2C8EA
05A0E
03427
03B8D
21A8C
25334
0922A
34074
03686
07183
238D5
272C2
02B85
04650
03712
1C7DA
0F92E
088F7
02F91
1F3B8
10E39
0156D
336AE
17445
4567A
14698
07046
38947
26C80
2F182
36B7B
04334
2E4D0
02145
1A16D
2C2E1
037FD
03AE2
27678
05FF7
087DF
1B0C5
001CF
2D6BA
FBFA9
FF0AD
0AFE1
1A7B1
10803
FE79C
05183
30BAA
044F9
0510F
359C4
224D1
32AFB
1E462
20612
1E304
308CB
FED21
032AB
2D4A1
1A5AC
03950
0F30B
00DFC
01AAC
34079
1FBE8
2F956
002E6
094A0
FF748
179DE
11289
00402
14E95
0E1E7
FFBAC
07D82
2E9B6
27FA4
043CF
03D8E
244B0
01F15
2285B
2060A
2CA4F
34B86
002C9
19D04
0594E
224A2
2D500
312CA
1DDF4
0756D
073AB
22952
FFF8A
06F6B
00FE4
04B96
0766C
043A5
0317D

