7A415
0530B
20B19
7D9B5
7BF67
7FF24
20813
02420
1FEDD
18579
10630
0136C
7C6E1
7EC5F
194ED
26442
0D23A
7DB65
28178
01261
2482A
021B0
29B5C
039C4
12D96
1604D
0C6B8
7F896
1D0C8
11410
23131
30080
02C2A
0DCB8
1A108
1027A
28467
30D03
013C0
007DD
24519
0302A
0589D
1B877
1DA59
0227C
30145
06D4C
0F635
7EC18
7DBD4
005E1
202D2
7FC97
02B75
05B1C
0106F
2A7AF
7FDE8
2A41B
7ADAB
23104
2E7BF
334C1
24779
1A0CD
0BF12
01421
2A4B5
7FD67
025CC
1C003
02FC9
22DF8
7EEEC
00608
7B5A0
1B6D7
7EECD
2C003
18F98
21070
15918
16B93
08604
7F39E
0AD65
21328
19880
7E60F
1F2CC
28581
0187B
7EA3C
7E110
1EE0E
20FCA
04FC0
2F9E9
00D45
01A3E
20C8E
229D3
7CE0A
008FD
7F9CB
1AA46
0CE43
0600A
7FD79
1CF9D
0E75C
7D269
2E17F
15015
3F9C8
107A8
02DEF
3321E
22F85
2A871
31B54
7ED02
29E14
7CA6E
176A7
283F5
01307
7E9C7
2429F
034B4
058BB
135E1
7B023
29559
7586D
79448
0641C
16C20
0C2F4
7A057
008D8
2B9C1
7EDAC
01B9C
307DF
1E46E
2D963
1C5CA
1C9FE
1A62D
2BAD7
7A5AF
7F21B
282DD
17BAF
7EA86
0CD96
7BFCB
7C777
2F93F
1E439
2AC65
7C921
0502E
79CDA
15C17
12907
7CACB
13FB8
08865
7B608
02495
29F7E
23AA8
7FCB4
7E1D4
1FF44
7DFFF
1F431
1CB7C
293B8
2F6F2
7BBE5
183B6
02892
1EF67
28850
2C39D
1A664
041ED
03440
1F94A
79BEC
01532
7C85A
7EF1F
046E0
00880
7EFAF

