5D002
4AAEA
63FD1
4B19C
410FC
37CBF
7527D
3C5F7
5AEC1
514D4
355CA
35901
2E875
520A0
4E296
81657
356B6
3F8AF
7867F
310CD
714A3
36A6E
8F491
4808C
464F8
47FC8
46310
52560
5F7A2
39884
78ED4
9CF66
4683C
3D849
519A5
35373
78BB9
9C56E
62452
3F6E2
79576
582BF
5077B
54072
607AA
55A14
A2B5D
399F3
3ECA6
4225F
4E5F8
41276
694D8
70AA5
43054
50F22
49EFF
89AA3
3CA16
8BBA2
729C9
707E2
8FCAE
97253
6DAFA
5A670
44CB0
36E4A
8AAD0
215E1
3E850
65DB5
359BC
7B0F7
4F492
5A44D
434A2
52CD7
38A39
8F549
58705
6A659
4CA4E
5187E
4071E
4729E
3B804
73A8F
50763
4B573
61E68
7D593
4AD2B
50AB7
5EBD1
5EB26
73C2D
43BC2
8FC39
305B8
640CB
6102A
7C950
5FA2F
41796
42F4F
4F193
3AA63
32C27
3A6C3
5B03C
3A6A0
44C54
9D652
460D1
BB3BD
40A0A
490B0
A72FC
7378C
8B551
96F38
5B2D6
8A2CC
5AAE3
514C1
7BA64
27208
55778
6AF23
30F51
3A47F
4EFBE
50DEA
79944
6200B
584AC
3E025
4E335
59D9D
47168
4FC5C
94BD7
5949A
407F2
A0EBE
67CA7
89D07
56BF3
66685
5A5FF
91E40
447B3
4460B
8694F
4DCE5
5608D
3C6D2
5327E
57BCC
961C2
57C96
91F85
3B7F2
51442
5B201
457DB
43A90
2D219
3D361
6BEC0
47321
64A81
8BD62
7626A
4C7B0
602D6
728E9
40246
64DBA
5F342
7BBAB
9C5C8
48F5E
49E99
3F2FF
62E33
89D9D
929BF
559BF
46703
49FFA
606DC
6183E
63E5E
48949
63D0F
36235
4356A
49262

