44DFE
39A81
53563
38271
3024C
29F91
603A0
2DFDD
4C4B1
43418
2BFDD
28B87
2249C
3D905
40CA4
6AD87
2B6A5
2F65F
64853
255D2
5E376
29B5E
7620E
372D5
39F3B
3B914
37FA6
3E103
4F033
2EA3F
63A89
82006
35CA5
31E48
43C9A
2C094
64778
81860
4A783
30037
64439
43458
3E102
4620B
4FD65
41200
86AF0
2D1A7
33295
318E7
3A9C9
313ED
57415
54EB8
332D3
3E968
37F8F
720A9
2DB46
738D4
554A2
5DB4E
77B4C
7E836
5B74B
4AB2C
35D08
29B8A
72ECE
1939A
2FB89
53B9B
29219
6532C
3B916
443B4
31B63
4521C
2A7CB
76CF8
49280
5827B
3F418
4375C
33BE9
35828
2F7B7
5F3D9
42DBD
387BF
51495
68506
38CED
3C840
470AC
4ECE3
5F4EB
347A6
77E15
24A79
4BD92
51026
66586
4771F
31926
326BA
41EC2
2F6F3
27C5D
2BFC7
4B733
2F9A5
3336E
81CDA
39DEE
9C8E6
351DA
37DA5
8A63B
5F814
73515
7DE57
44884
72414
439CD
42EC7
66F59
1DD9E
402C6
595C8
25C5C
2D517
41765
3BD82
65C04
4770B
410E3
30BA1
40BC2
46C0F
342ED
3C546
7AB3A
4329D
31060
84FB8
55B2E
73215
480B4
542CE
4AB48
788C2
32584
33665
6F558
40690
40915
30A61
3DBBC
41541
7C930
49322
785AC
2C0DB
3E86D
43423
398C2
36830
21724
32B81
537FF
3496D
4C7E1
73905
61CC5
39AC0
48238
5E2E3
2FF2B
53965
4ED8C
6723A
8160B
3602A
3D63C
30308
5211B
71C21
793DD
47190
36029
389D6
5053A
481E8
4BB3C
35F13
4B0EF
29F85
32E84
36E8E

