6B41B
54BE2
6DD41
564C2
4B0F0
3FF70
8185D
44DEF
63910
599A1
3AE62
3D26C
35C2F
5E235
56102
8EB8C
3B54B
49152
84282
37F4A
7C8F9
3E4C8
9E26A
51FEC
4D9D1
4F532
4E971
5E50B
6934C
3FF7E
857E9
ACE4C
5065C
44633
59C43
3AA3C
84B54
AC2F6
70557
488A4
85CBE
64859
5B57D
5C3DD
6A502
61BF2
B3458
4104E
45A99
4BF3D
5A0CE
4A8DE
73F7A
810F7
4C621
5BCB3
548D9
979FD
45733
9A033
83F03
7B980
9E068
A5B35
78755
63AE9
4DA4E
3EAD3
98B5D
262DD
4743A
70921
3CFB4
87FA9
5AEFF
674A7
4DAD3
5AE17
41006
9DD1B
61782
752D1
548E3
59D86
47F32
51988
429A5
7FB9E
587FF
567BA
6BB7B
89C72
5577E
5C944
6CBDC
68165
7FD8F
4CC01
9DE08
3745E
7259B
6A772
89B8D
6DEE6
4ADEF
4CBA7
56E25
4146B
39407
42F41
64364
40CD8
4F250
ADB30
4D3FB
CD5C7
476E1
53337
B833F
7F453
9985D
A5C1A
688EF
984F2
684FB
59CA7
87E02
2C9BB
620CB
75565
37910
41F0E
56F96
5D4B3
854BC
71B2E
6605D
45DBA
56284
6522B
52425
5B42E
A4206
665C6
49A3C
B16E5
727B4
9737F
5F6F6
712E6
63A26
A0DDC
4F32B
4E690
9451B
55B8B
62B83
4362B
5FD08
64FA9
A5330
60689
A11B4
449F4
5C56F
693A8
4C8C6
4B6E0
34093
43694
7A5A6
5230C
72EF7
9A2DF
822D7
57984
6E61C
7E990
49B61
6F103
68DE9
87E57
AC4E6
54289
514FF
480CC
6CD35
98167
A1996
5E2F1
50256
54454
69F19
7085A
72321
53980
72722
3D541
4D0C3
53ED5

