1F3D0
21B1D
3A334
1A424
16A8F
14E7F
40843
191AF
3671D
2DB93
1F3B7
15815
0F1D9
1ED95
2EE76
48DE5
1DEB2
16718
467C2
1368C
423C9
15EA3
506BC
1DC09
24AC7
29361
229CF
1F4A1
369D3
243E5
43C46
5944D
1F7C3
1F072
2FA76
1E6AA
48EBF
5AA68
25E66
182E8
44AC6
23368
22635
30B47
37DA3
21A98
59C7B
1A1C8
2120A
193B1
1C0DF
18DD4
3BD0A
2B6C1
1B4C6
2106D
1B9E8
4EFFC
16FDB
4F7D7
27F40
3EA43
5347A
58C6E
40EC4
319C8
1DF1D
15E10
4E4CA
0C1B7
18A95
37540
1678D
44BE4
1D177
22264
15B60
30254
14DDF
51C5C
2F1CB
3D5AF
2967E
2AA21
1C6A2
1A2BF
1D211
40AC2
2E885
1B6F9
38FC2
48688
1D6EE
1DB2B
2251E
3797B
405F3
1EE5C
54B65
13163
2716E
39D4B
44ECC
2216C
191CD
1961F
2F2D6
1DF83
167A1
16B2B
35CC5
1ED4B
17EAC
58BE0
27EB1
6ECA9
21758
1B839
5FD70
41CA2
4FA9B
57D1F
218C7
4F249
201B9
2DB04
481D1
0FF76
1F4E3
3F6B0
14F68
19610
2421F
1B76F
478C6
1E3F7
1C992
1CA85
2A98D
2A08A
17274
1E48D
5396B
20943
199B7
5C12F
39932
4FC7C
33833
3880D
31ED7
52C6D
1701E
19392
4B688
2C8E0
201AE
1F1B4
1D219
1F3BB
5721F
35C3A
527C8
14BDA
21F92
1EE5D
285CF
23A67
1297E
248BB
2D8B6
184E9
27E2E
4F81C
429D7
1CE42
23173
3F2E9
1702E
3A16B
35845
49774
591D1
18CD6
2BF63
19335
38D90
4D956
536BA
304B0
1C984
1E28F
38B56
21763
25D01
197E2
251AA
173EE
1A5D2
1BC29

