27D06
25261
3F475
21542
1BC3D
19527
47043
1CAB1
3AAC0
32564
20B46
19405
138B4
24E67
30AEF
4FAEA
1F5D7
1BF3A
4C912
17498
473DB
1A1F4
57D36
22DF2
2B10B
2C9BB
26DB8
25A4D
3B2E1
21856
4A0A3
6186B
21A51
23E3A
33259
20FAB
4C0E3
6138F
2DCD1
1D719
4AE00
2A18B
27E4D
35627
3BCA9
286CF
64EC9
1E062
25275
1D922
22CEE
1E154
41842
337FD
20177
28799
22553
5595E
1BB9D
566E8
31F84
4713D
5AB16
60D7D
457F3
37C83
23C5B
19DAF
56510
0F6AD
1DE54
3DE2A
1A1A0
4ADD4
23D12
29AFD
1C89E
34AA3
1970C
59467
36BF6
422E9
2F211
3282E
24722
203EA
21015
46A50
32792
21C56
3D463
4EFA2
231BA
243D3
2A7F9
3BA9D
46AB8
2219D
5B1C6
168ED
2EB25
3DBC4
4B8F5
2A4E4
1E6AA
1E806
320D3
21ECE
1A89E
1A98B
38B3A
22948
1E113
60915
2B32E
779AA
273FE
23258
67B3C
47744
56641
5FB76
29416
55714
27D39
319C1
4E097
12AD8
26863
442DF
184CD
1DB43
312CB
2284A
4DDDE
2771D
2510E
20BA3
3083E
2FC02
1D694
24E8F
5B565
28839
1E62C
63542
3FE7F
57CE5
36555
3E36C
37D48
5A054
1C7FA
1EF2F
5354C
30465
26B5B
22766
23EDD
26560
5DD0B
379EC
597FF
1973A
27F43
26828
2B293
26AC9
135F1
2614A
36151
1E2D3
2F62B
56537
49483
23041
2B2EE
45A2E
1C711
3EC8A
3B24D
4E566
60E00
1F2F0
2E4E3
1E1FB
3DCF8
54BCC
5AAF6
359E3
2238C
23ACE
3CEE6
29874
2E8E9
1F7DF
2D3CA
1B501
1F1D7
20F07

