62077
552C3
6843B
4E00F
46DFE
3AC22
7A542
425DE
5F1B7
54568
3A0AD
3A268
30DC5
58C6E
55E7C
875BE
3C38B
431B5
7D5FC
34633
77EBC
39B0A
9654F
4CF6A
44DD2
4BDF5
4AB16
58A25
64C8D
4689C
7ECF1
A3BE2
535C8
3E267
56A4D
382C6
83E17
A6350
681DF
42F71
7F1AF
5D5EB
567D6
56F2A
672DA
5A900
A5172
3CEE4
412A3
490B2
52CD8
451AF
6DBAB
7A39E
47B18
52633
4BA4C
90F36
40BF9
92BB9
79667
70723
95BB5
9C76C
74502
5C299
3E751
3B1E9
8F52D
22441
40EEE
68AE5
39A97
81E96
538EC
5F241
4550A
558FE
3C7E5
95FCB
57178
7083B
4D3B6
4E96D
409AA
4AD5A
3E29F
79840
5475C
4FE97
6798E
8250C
4FD34
55C9C
63CAD
64399
790D7
4DB21
97B37
340F0
6AB8B
67104
82E3A
654AC
45736
47EC7
54434
3CCFE
343A8
3FF99
62A07
3C657
4841A
A5C3B
4A132
C3FF4
40200
4804D
B0948
7972E
92BA5
9CA64
6047A
92703
6023C
55E98
81A9D
2AA73
5A59C
70A37
34DF5
3D327
4268F
56146
7E1D3
67CA1
5C677
451CC
4E6CE
5FF0D
4BC3E
53FA9
9BCA1
5D7C0
44BC8
AAC82
6ADFB
8D886
5D527
6AD9F
5C716
99637
4AC08
48581
8B080
5229D
5C826
40143
58FCF
5E054
9E914
60347
9A345
40644
56472
61E3B
49F7C
4281E
3A2D8
42756
7066C
4C8DB
6BCA7
934CF
7A820
51709
65DE6
77943
442E5
6A895
624D9
83ADD
A462C
4D482
4F97E
4221E
67985
90853
9A348
57D50
48CB7
4EBB0
6616D
69305
67B58
4DD00
6A04A
393A1
49045
4FBC4

