5292D
4942A
5D9AE
42079
3BB7B
31FFC
6CF36
38D19
55B2A
4B670
33D6A
31ABA
290D4
4B5F4
4CE15
78E5F
35359
38C58
70AC2
2CC19
6B7F8
31695
86277
4209E
3D6A3
43DA0
416B1
4B5D4
5A19B
3E9A2
71257
92826
475B6
36F2C
4D9F1
32369
763CC
94B91
58CB4
3910A
71957
4FE97
4A6EE
4E192
5C3A1
4D654
93A9C
34DF9
39C05
3DFAB
46223
3ADE2
622DC
67FD9
3D6B9
46F71
4087D
81B07
3715E
832C2
668D8
64EBC
865AC
8CCD0
686BD
5250E
36EF0
32807
8046D
1D236
379D3
5D42B
3184C
73C1D
46F43
5106F
3A4C9
4CE75
3352E
8633B
4DD71
64AD1
44F11
4644C
383AD
3F92E
3684F
6C5CA
4BAEF
43C4D
5CCF9
74EA5
442A1
48CF0
54A44
59E59
6BEFB
42DDC
88331
2C6DC
5B123
5C98B
748CE
55BDA
3B30D
3D276
4BAE5
35ACD
2D580
366C6
5840D
358E0
3D121
93F0E
422BB
B047B
39076
3DB86
9DE57
6C91A
83357
8CB8D
51C37
82DDA
51528
4C9AB
74589
247A4
4CAFF
653FA
2D7D0
34E89
3B675
48840
717CC
56C58
4DA3A
3BC04
46227
53776
3F972
478DB
8B14F
4F640
3AC19
98918
5F774
7F3E3
53A5A
5F335
529AD
890C7
3EC73
3D70A
7C4F0
4975E
4E881
3872E
4B231
4F7DC
8E098
56624
899BC
364A6
4A2CA
52632
42310
3B5DE
31048
3B896
60EE2
4076A
5C13D
839CE
6D92F
45479
566A7
6A874
39BA8
5F534
57F07
76354
92F7A
41234
47591
38A92
5CC70
8107E
89D34
4EAEB
3E910
437DC
5B968
58974
5875D
41B49
5A123
315D1
3E38A
43B54

