67A94
77E06
12FFE
6EF19
6EC73
74906
0F5D3
766D4
13C5B
0CFCD
07C9C
771A3
72FED
6E745
0D208
13B7C
04C37
7105B
17B04
78365
1485C
77B5C
14EE6
760C0
0A33B
0B95D
01102
6FBCA
0F663
048F2
117C5
19D5D
752C3
04F9F
0E693
08921
162AA
19EAA
6E838
74730
12D3E
72857
76F45
106C5
0F89F
71E69
1A660
7CBC6
063B0
7173C
6E42B
73C80
1186B
69B8C
75F5E
77A8C
72900
16C4B
74097
1625B
63FFF
151F8
1AA52
1F582
15058
0E061
7BF15
76D47
17295
79C40
768B7
0DAC3
78EC6
10BB2
6F62A
6F168
6DCC3
10504
73CF3
18133
0E1C2
11ACD
0B875
0D18A
02AC9
714D0
010BD
1058F
0E4D3
6FA16
1118A
170B7
73343
6EA5B
6B7CA
11682
10481
79882
1B9A1
77705
6E57D
13300
106E1
69FA9
74217
72879
0F03F
041A9
7D52E
74355
0F506
05D50
6F625
1732E
0ACF4
2607C
08A38
756FB
1B20D
125C5
1688B
1D17D
6D0A6
15D66
6A7CC
0B639
17050
7A033
6DE71
156B8
7A8F1
7B3C0
0D381
6A9C1
19243
60D01
67471
7D688
0CB59
7CF84
6B241
7135C
16194
6DAF1
753DD
19094
0FCC4
1B7C9
0F3C9
0DBBA
0E29A
16A16
6C45A
71CD9
15836
0CA78
6DA09
03252
6AF6F
6ABFB
19E9E
10D25
1562D
70631
761FA
670BC
0B66E
03B61
744CD
0A2E4
75245
6CB34
6F218
15C86
13298
71008
6B433
0F741
71617
10DBE
0FA61
17961
191F9
6CCB0
0D019
763E2
1116D
14AC1
173AF
0F07F
76899
75735
121D5
65FF7
6E37C
6DEE7
6B676
7AF4F
736C5
70706

