4290D
3CEC3
52909
35A0C
30297
28ED5
5F184
2EEDF
4BF3C
4225D
2D69A
28E34
20F6D
3D7D1
43886
69EBD
2DF25
2E112
63846
24DA3
5EA1B
28D65
75661
36B93
35B32
3B8B6
37CFF
3D9ED
4F08E
36620
62FEE
80A90
3AEC8
2F7D4
4446D
2C0A4
681B5
829D4
48EC8
2ECFA
63946
41F94
3DF23
44EEC
50E26
3FC22
819D1
2C873
3212A
32852
39032
3043B
56374
551A8
32C7B
3B228
35054
71E1F
2D13D
730E7
53085
58FC0
766D9
7C941
5C1AC
481E2
2F243
29939
70B14
17D3D
2DF65
516EA
2915B
6518C
39E67
4268D
2EE3D
43EFA
29D39
75DA6
44422
586A2
3C5AF
3DA6B
2F8E6
33E92
2E9A2
5EBD0
4297E
37311
51A3A
67097
38164
3B5D9
44F33
4F332
5E5A1
37A67
7824F
2486C
4ADC9
51C17
65B31
45A26
30907
31FFD
42CAF
2E487
26369
2C87D
4D825
2E780
317C3
817B3
39FC1
9BDBD
31ADD
330DC
8A8BA
5F3AA
7322A
7C39D
42BA9
72BCB
41F9D
42F6C
668DA
1E14E
3E893
5973B
25D73
2C52F
3425A
3A77B
6468E
45255
3E58C
320E2
3D8C2
468BF
32FB2
3AAF4
79C70
40CB2
306B5
85B46
53A68
70715
49A07
53223
486A4
78200
32606
32258
6D0F6
40726
400DF
308BE
3CCA8
40716
7CEA9
4C365
786B8
2BD43
3DA37
4254D
3A233
33F8B
2787D
345E1
50E82
33F10
4BCD8
735D6
602DA
38AF7
46694
5D030
2EE71
53B6C
4D349
6841A
80ED5
348F6
3ECEE
2ED9B
5192D
70FCF
78DC4
4534C
33F92
37D9B
50B62
47666
48AAC
352A8
498DF
29382
330A3
37404

