3786A
3469F
4AF37
2D134
28315
22ABA
558A0
281C0
453B2
3BC3E
28FB3
22D4A
1B62F
33E9E
3D161
5F97A
28F01
26AF4
5A71D
1F66C
55C21
22EC9
69D7D
2EEB8
30611
35D0B
31300
34246
47674
30B6E
593CA
7459B
32596
2A586
3DD50
27C86
5E5C8
76202
3DFA9
27BD4
59EBE
385C6
35558
3E9C8
490FD
365A7
752A6
26C5E
2CC70
2A9E0
2FF68
28F3B
4DF73
48140
2B712
32F9E
2D152
66FB4
262CF
67F12
4591F
50C09
6B71B
7163F
539C3
4115A
29C47
236BC
65F1D
142A3
274E4
49465
2344A
5AFC8
30E5C
38540
27058
3DC06
2346D
6A93F
3DA67
4FF56
366F0
37B54
29931
2BDE0
29245
5557C
3C530
2E84A
49EF5
5D772
2FC1F
32182
3A20C
47D29
54FBA
2FEA3
6D126
1F139
3FAED
4A477
5B751
3A86C
293C5
2A4E8
3CA9B
292F6
214BB
25B53
46197
2994F
297EC
74C01
3456C
8DC67
2C9C4
2BB29
7D333
56078
680CD
70D95
385C2
679D2
37645
3C50B
5D0A7
19ABA
34C6C
51510
20910
26675
2F248
30C77
5B63F
38FD8
33CCE
2B5E5
37A01
3DA2E
2A48F
31CF4
6DD7E
36B9F
294A6
78B1E
4B807
663C5
42B74
4ACFC
41634
6C742
29D2D
2A5BA
628B4
3A3B1
3611F
2B18B
32E5B
3610A
711BE
45327
6C90D
249D2
34FE4
37422
34954
2EDF0
20FCD
2F6C5
45DB2
2B4E4
40943
6828C
56F09
2FFFE
3B5FA
53B0A
276FC
4BB4B
45CD8
5EA26
747C4
2BE2C
38EB3
2815B
49D8C
65EC9
6D291
3EABB
2CAAE
2FD27
4935F
3B8B5
3DC67
2C84A
3E29F
239A4
2B542
2EA90

