FD03D
07514
2298E
FFBEB
FDF48
0182B
22E4C
03F68
219BF
19F00
117EA
02BA6
FDD31
012AC
1AEB6
28D93
0E643
FF8ED
2A5C2
0282E
26BA9
03957
2C995
058FB
142DF
17737
0E138
01E7F
1EF4E
12ABC
2583A
331BD
04E76
0F14C
1BAD0
11381
2AB62
33EF8
03F88
02427
26BBB
0569D
07B10
1D1C0
1F9A4
0481B
33310
08452
10B63
00BB4
00006
02321
223D3
030B1
048CF
07BBF
0302F
2D34A
01984
2D090
FE384
251F2
313AE
36181
26973
1BCEF
0D491
02CC0
2CFB3
00C0D
0406C
1E0A4
0470D
25669
012EE
02E5C
FD519
1CF93
00900
2ED1D
1AA07
23243
170C7
18359
09DF1
013CB
0C33D
238BD
1B194
008C1
2119D
2ABCA
039CC
00F52
00C5A
20B91
23543
06EB1
32633
02312
046F5
22A76
252CB
FFA78
0264E
01890
1C2CB
0E2A7
073B6
018C4
1ED40
0FAE8
FF25F
3146C
166AB
4321D
11BEE
04B5C
36780
25451
2D4C8
348D6
0167C
2CA92
FF4C4
1913F
2AA02
024AC
010D1
2632A
049CD
0706A
149E5
FD6E4
2B96D
F890D
FBE77
07EDB
183D0
0E698
FC320
02C58
2E97D
015F1
03820
33BE9
20506
30237
1E16E
1EB47
1C249
2E987
FC7E6
01142
2ACEE
1948D
01276
0E363
FE75E
FF0FA
3287A
20049
2DBD0
FE5FD
072C2
FC924
1724F
13D6D
FE4F7
1537F
0B499
FD893
0517A
2CC51
25F9C
01F72
00DFB
2248D
FFDDC
21439
1E919
2BA35
328B6
FDE97
19B45
043A2
20E50
2B492
2F269
1C088
05F27
0545D
2174B
FCB58
040C3
FEAF2
01CAF
05D57
02758
0120C

