5E18E
4B74C
64BEE
4BF64
41D4A
386CC
761B6
3D06D
5B964
51F0B
35C9B
36258
2F15C
52F84
4EC50
826BE
35DFC
4046D
794F6
3194D
72283
373D7
906DC
48CCE
46DF5
488D0
46D66
5341E
6039B
3A06F
79E4C
9E301
47466
3E0BE
523B2
35A20
79A76
9D8EE
635A1
40218
7A4CB
591F2
514DD
54A8E
613C5
568FE
A3FBF
3A30E
3F51B
42E70
4F457
41E08
6A1F8
71ED3
43BDA
51C7C
4AC10
8ABD1
3D4F1
8CD37
73F1C
7158C
90E32
9843D
6E83C
5B1DB
45795
377DF
8BC16
21BCD
3F313
66AE5
362D0
7C0DD
502EA
5B454
4416B
536C8
39484
9071E
59222
6B39E
4D40B
522B9
4105B
47F75
3C0C1
74969
51147
4C32A
62A7D
7E4DF
4BA45
51960
5FD0D
5F6B5
74B0D
446DA
90D97
30E3B
65265
61BCD
7D97C
60BC7
42326
43B56
4FB28
3B28B
33425
3B143
5BB8E
3AE7D
45918
9EA63
469AD
BCA0C
41269
49D31
A87ED
74612
8C6C8
98170
5C34E
8B431
5BBAA
51F35
7C970
278C7
566F5
6BBED
31773
3ADED
4F994
51D34
7A7B0
6335C
59592
3E9CE
4ED00
5AB80
47F28
50A80
95EC7
5A4B1
41333
A2310
689CF
8AD86
576A5
673C8
5B164
930AF
454E3
45264
87A37
4E6A3
5702A
3CF62
54213
58C18
97454
58733
93226
3C32D
521E3
5C35D
4608A
44420
2DA99
3DB03
6D083
480A9
65C14
8CF09
77137
4D55E
61451
737BB
40E0D
65A49
5FF28
7CAA5
9D968
49D26
4A7B5
3FDE8
63A6E
8AF23
93C32
5644C
472F6
4AC9E
61292
62AB6
64FF7
496D7
64F10
36B0F
4415D
49FA6

