15B84
18613
32CA3
131E1
0F138
0EF45
3751D
11E1E
2FB34
27CD7
19AD4
0F9E9
0A5D1
158B3
26A79
3EC4E
17DCB
0FD7E
3DA70
0E85C
38EF9
106A9
44F54
163A9
21CBC
234B4
1C329
16707
2ED4E
195A3
3A16B
4D4E4
1519F
1B2B9
28C91
1A184
3CDB3
4D1C4
1BF36
11E19
3B111
1A6BE
1A172
2AF5A
2F4F5
190C0
4FE77
14A29
1C6E8
11209
13FCA
1226E
33FB0
1EB0B
14355
1AB4D
14DBF
43DE3
10881
444CD
1BFA7
38FCE
48A0D
4E5E7
37D31
2C010
1889C
0FF9E
4480E
094F7
12CBE
30497
10BE6
3A77C
15074
1928B
0F5AF
2A697
0ED3A
46E2B
2B492
34802
25168
27F55
1AEBA
13010
17FDB
37547
28456
13A10
30D05
3F338
1598B
151F9
18B9D
2FBEB
37546
16A88
4932B
0DC7E
1C8BB
31BC2
3AE1E
18298
127D6
12196
282B6
1983A
124C7
0FC4E
2D074
1A78C
10E67
4BDFB
22103
6098A
1E9DA
16410
521AC
387AA
44614
4CECE
18459
4380A
16869
26D46
3E84E
0BB89
168DD
36FDB
0FE96
13FB5
27088
12BFC
3EFEE
1385D
13A37
16C40
266A8
216D8
0F3B7
1653F
47CEF
17EBC
12C7F
4E5FD
32565
46CAF
2B4E6
308A3
2C13E
47035
0EE57
12373
41E53
263A5
169C1
19A11
13DCB
15878
4AA9E
2CAD5
4649C
0DDE8
19E63
149C2
22340
1CD01
0A9B9
1E362
23C40
1038C
1D433
441F2
3A048
14E8D
19277
365A9
104BD
31D4A
2EE04
3EE51
4CA32
10F89
24E9D
12E01
31326
42AAE
47A8C
2ABC0
15E68
16A33
30DAD
167B3
1C690
11836
1AAB2
122FD
12CAB
13428

