6B69C
5C67B
6EBC7
55460
4DA60
40139
82738
4829F
64D1F
59C35
3DCF2
3F4C9
359A0
60EA6
5B629
90238
407A9
4961C
8515F
39055
7F76A
3EB75
A0277
5398B
4962F
50BDF
5052F
60B0E
6B456
4B5B4
871A9
AE34C
5AA66
4285D
5C1F2
3BCAC
8C2A0
B0D29
716B8
48F9E
87509
658A6
5DCF5
5C522
6DD3D
628E9
AFABC
41D29
45AA7
4FC2D
5A7EA
4B522
74BDF
854C4
4DEE4
59529
52641
9A378
469D7
9C2E1
84D7D
77718
9F116
A5F94
7B888
62240
43067
405A0
98759
25610
46975
6F9D6
3E9B1
8A817
5B35C
67B5C
4C00D
5AD1A
420F9
9F923
5CB57
77B3C
5243F
53A40
45B04
51ABE
42CE1
81808
59C9E
5748E
6E256
8A738
56E7C
5DAB2
6CFDB
6A7EE
81041
54454
A11CD
38B0F
74393
6D6B2
8B984
6EBBD
4BAE1
4E766
59791
41253
3868A
45C63
68ECC
408CD
4F0C4
B095F
4EDFA
CFF7D
446F0
4E458
BBEC7
8144C
9C267
A651D
6917E
9BE4A
6922C
5B904
89BFB
2E670
62A56
778DC
395B0
423AB
46A9F
5E509
85C7C
721F1
655E6
4ACBD
53758
6783B
53282
5B85C
A5EEF
660A9
4ACBC
B5D70
71CCE
96356
63323
71ECC
626A9
A34F2
5205A
4EF6D
93F85
57727
64FEF
44B61
6165D
66D78
A89A9
662AE
A447D
46864
5DA06
6B4D3
4EB06
46D7B
3FBD4
46A94
79CB6
53E4D
7554C
9CD34
825C5
58D29
6F402
7F809
4A86F
7157D
68986
8BDB8
AEF61
54A7A
54997
47E21
6E29A
99ECB
A4266
5D632
4F012
558DF
6C770
73442
70F7A
5529C
73B34
3E004
4F924
5709A

