1A454
1DDDA
36C62
16690
1312E
12173
3C376
16094
336B9
2AD9F
1D3CF
12C78
0C9B0
1A8A5
2C00C
44386
1BAA2
131F1
42670
10F4D
3E3E5
13410
4B389
1A3DA
22478
26A21
1FA1C
1B063
332E1
21B15
3F602
53BAC
1BA06
1CB69
2CC10
1C803
44895
5507D
20F99
14FFD
4053D
1EE32
1E834
2DDC4
34550
1D6E1
542DB
17858
1EBEA
15ACA
17FB7
1592E
381A3
258F9
17FF1
1D5AE
180C1
4A17F
13E29
4A7D1
21E52
3AEFD
4E565
53BE0
3D19B
2E725
1B86C
131BE
49768
0A758
15AA8
33A85
13DAC
40318
190A5
1D9CE
122B9
2D5CD
11EB6
4CB2E
2C237
398CD
26BDC
27F56
19B91
168D6
1AAC1
3C71C
2BB62
17885
35849
4419E
19AF5
1986A
1D733
3445D
3C27F
1B6AA
4FBAC
10A26
220F1
36777
4050E
1D172
15D09
15EBC
2C6B3
1BACF
14438
13A0B
3276C
1CA1C
14525
53036
2560B
68742
1F2D9
18343
59D59
3DA64
4AACB
52B36
1CE1F
4A232
1B584
2AB25
43D54
0DFB3
1AE9F
3BC1D
1296E
16B70
21E16
171AE
437D6
18C72
17DA3
19A60
27EE9
26063
133D7
1A4A6
4E37E
1C0C8
16663
56384
35E87
4B2FE
30671
34C22
2EC3E
4D864
1328A
15B7E
46AD1
29C1F
1B9CB
1CA77
18ADD
1A902
51D1C
329B8
4D26F
117E8
1E153
19EA3
25DD1
215AE
0FA62
22522
28926
146BC
22D5E
4A76E
3E753
18FB8
1E1FA
3AFCB
13A6C
367C2
322F8
4522D
5383D
14E61
294FC
1627F
355EE
489AD
4E27D
2D5A2
194EA
1A8C2
35555
1C207
20E95
1599E
1FFA7
14B7E
16E4D
17E4E

