42221
37B8D
5171C
35FFD
2E389
2866F
5DD92
2C5B7
4AA17
41A8E
2AED4
2742D
20E5A
3B3CA
3F454
68487
2A475
2D905
6242B
24093
5C0C8
283D7
73451
3542E
388C2
3A27F
365CE
3BC27
4D243
2D672
613DE
7EF01
33E3C
30925
4237C
2AFE3
6229F
7E79E
47C3D
2E430
61DE6
40E58
3BF8B
448C6
4DF23
3ECB7
837FA
2BAE4
31D70
2FABC
385DB
2F701
55345
51C45
31604
3C807
35EE5
6F5B5
2C023
70CE0
51F52
5B925
74F81
7BB6D
59626
48E9E
341CC
28397
7039F
184CC
2E0A1
51AA4
27B6A
62B6C
3953C
41BA3
2FB6E
43941
28E10
74063
476B6
56150
3DBC0
41DC7
324D1
3380E
2E1DD
5CEB9
41501
36577
4F660
65EC7
36C2C
3A39B
44596
4CFFE
5CFBB
32BE9
752A8
23532
49192
4F30E
63D18
44B23
2FC3C
308A9
406CD
2E28F
26863
2A587
49AE7
2E5FD
31382
7EAAF
387C9
99120
33CEC
35E64
871DF
5D3C7
7096B
7B0C9
41F58
6F896
40FDC
414A4
649BA
1CCC0
3DC0F
575CF
24806
2BD86
3FECF
39747
637F6
446C0
3E6A3
2F37A
3F347
44957
3208E
3A1ED
77BE2
40A64
2F43F
81CEC
53A49
708D6
465F8
521A8
48ECA
75AAE
3048A
31787
6CB14
3EE35
3E20D
2F4F7
3B4C8
3EC83
79AC2
4789A
75719
2A4C7
3C65A
408BE
3830B
35048
201E5
3186D
50B98
32798
49BF1
70CE3
5F7C3
3788D
45683
5BDD7
2E1BA
519FE
4CFCE
64CCA
7E4FC
33DB5
3BF77
2E7C3
50286
6F053
765BE
4572D
3424B
36A3B
4E7F4
453BB
48F3E
33D30
483EC
28965
310A4
34D64

