1BC04
1CA2D
36F3E
17DAC
134E4
12690
3C8D4
157A4
335B8
2B506
1C04F
12D48
0D6C7
1AA9A
29FF6
44682
1A5CF
13E12
429FB
1171A
3DB44
13A6D
4B3F5
1A717
24E2C
26661
1FC03
1B81E
32F2A
1C134
3F67E
540BB
19485
1E139
2C3D3
1C63C
41EC3
53D08
21E6A
15BC3
40561
1FA58
1EB10
2E6F4
33786
1E2C5
56E92
17C3C
1F56C
15467
18ED6
16210
387E1
25A06
182B6
1F4BB
1959B
49C61
14435
4A581
234F1
3DAF3
4EA65
5486E
3C61C
2FEE1
1C486
1344F
4A70F
0B589
167F0
34D1E
13DCF
3FEEE
19F53
1EAB1
13BFE
2DD46
125D5
4D03F
2F1B4
390FA
286F6
2B79E
1E188
176AE
1AFEE
3C6F5
2BABF
1857C
34F79
4475C
1A19B
1A297
1EA66
33B7C
3C717
1A78F
4F2B4
10B4D
22989
35BC3
40710
1E35C
16772
163BB
2B76A
1C516
150BA
1360D
30EB6
1D2CB
154A1
52C59
251BC
6843F
217E6
1A8D3
594DC
3D788
4A623
53306
1DEEE
497B8
1C4AE
2A6C4
43B11
0E0A4
1BE0A
3B632
12B53
1738F
2A69F
18016
43F3E
1A29D
19729
1A161
29C85
2633B
13F56
1B305
4E517
1D73B
16A63
555BF
36DC3
4C76C
2EFB6
35190
2FFEC
4D595
136E2
1675C
47B51
2993A
1BF9F
1C92D
1937C
1B21B
510C2
30532
4CB12
11BAE
1E958
1A939
25306
20199
0D876
20D5A
29DF1
14DF9
234DB
4A309
3F1B1
199C9
1F29F
3B72B
14584
3625F
32F71
440AD
53622
15B56
280B4
169FF
3566C
48B0D
4E005
2E5CC
1A01F
1AFBC
34E15
1CD49
22758
162C4
20DBA
153A9
16E64
17D1D

