236D7
220DA
3C404
1DE22
18B05
16CF0
43361
1A0DB
38031
2FC88
1F003
16EA9
11518
212D7
2E409
4B950
1D8BD
19043
48F38
15299
43C5F
17C4F
53407
1FCE8
28D17
2A59A
2445F
21F53
382FC
1F8A6
462C4
5C9FD
1E9AA
21C68
30A28
1F4F7
485EF
5C58C
29794
1AA3F
470AF
264BE
248C2
32DB7
38C3F
24B28
5FD41
1BBF7
230A0
1A8DE
1F371
1B30D
3E3C2
2E746
1D35F
25231
1F110
514A5
19031
52094
2CA37
43A97
56504
5C5D5
422EB
34ED4
210C8
1775D
51FF9
0DEFD
1B347
3A96C
17D54
46E3B
203B5
25AE1
1957B
322DE
16DE1
54D13
33F81
3EDD8
2CB1E
2FF40
22230
1D08E
1ED1E
42EE9
2FFFF
1E57B
3A40E
4B271
1FD51
20932
26309
38C63
42F37
1F53B
56C4B
146E2
2A4BE
3AD38
47845
25E84
1B867
1B7EB
2FA7E
1FE2E
188A8
17F8C
35DF3
209D5
1AE01
5B8D1
28FBF
7206C
25280
20056
62776
43D2E
52065
5B293
25236
5117E
23A1E
2EFF1
4A466
10FDC
22A71
40FB7
16444
1B58D
2EB75
1EB20
4A42F
229D7
20D75
1E500
2E112
2C474
19F95
21600
569A6
247DD
1B928
5E3FB
3C9DE
53AE7
33A90
3AE62
34FB2
5569A
19337
1BDCB
4F1AB
2DD6D
22CE8
20523
2008B
22430
592C2
34F7A
54D7A
16A4D
248BF
222BA
28FD4
24489
113F3
242C4
31A45
1ACB2
2AFE0
51E9B
4594E
1F98A
26D00
41EE7
197F5
3BA4C
382B7
4A980
5BF80
1BBD0
2C075
1B659
3AC0B
505B5
5612A
32FAC
1F3C1
2083C
3A00F
24E93
2A286
1C1A6
28BC4
1919C
1C20B
1D9F8

