25129
2336C
3D62F
1F2CE
19D7A
17C05
44A36
1B08B
39027
30BDA
1FA3C
17CAB
12272
2292D
2F29F
4D1EA
1E3A7
1A1DF
4A4EA
15F58
4512D
18A6D
54F79
20F4C
29A92
2B327
253E1
23571
394F2
20488
479F8
5E766
1FBE8
22917
3193B
1FEFA
49C0B
5E2CD
2B18B
1BB11
487AD
27B8B
25CD6
33CE1
39E67
26187
61BD4
1C99F
23D50
1BAF8
20900
1C468
3F772
3058A
1E4A8
26638
204A9
52E6B
1A07A
53AF3
2EA34
44F15
57F4B
5E0B4
436CE
35FF6
2211F
185BC
539E1
0E7DF
1C36C
3BD33
18AF1
48614
21938
272EC
1A8A8
331C8
17D51
567D3
3502D
401BE
2D9B9
30E99
2300B
1E3D0
1FA3A
4452F
30ED6
1FA0D
3B62E
4C963
210F8
21F2E
27CE3
39DB9
44588
205DF
58659
153A6
2BF25
3BEAD
49087
278E8
1C9C0
1C9F5
308DE
20A6A
194A5
18F4C
36EEE
215A0
1C128
5D6EB
29D08
741E3
25F0F
21317
646E0
452F6
53A97
5CDE8
26AEA
52B96
25348
2FF9F
4BAF8
119FB
241AC
422E6
17077
1C3B1
2FA35
20210
4B9D1
246D1
226CE
1F37D
2EFC3
2D949
1B434
22B36
5860E
25FFF
1CA0A
60276
3DD9A
553A6
34A9A
3C246
360CA
5723F
1A700
1D050
50B07
2EC0A
24453
211FC
217EA
23CA2
5AE9E
35F65
5696C
17B26
25D30
23CC3
29CDB
252E1
120B2
24E36
334EA
1C0FF
2CA3C
53916
46F82
20E0F
28739
43521
1A9A0
3CD23
3948F
4BFF6
5DCF0
1D07C
2CE1E
1C6B6
3BE64
51FFD
57CD6
33F81
205AD
21B32
3B1A0
26A47
2BCEB
1D5FB
2A6C6
19EE2
1D3F7
1EDDE

