0053B
09DEC
24E1A
024F9
00588
03633
25C2A
06024
23A02
1BDA3
12D2F
048B9
FF7F7
040A1
1CDA8
2BF27
0FE4E
01C5D
2D14F
04258
29641
055BA
3010C
07E70
15C69
192B7
10104
04BFF
213F0
145F2
28712
36CD4
0779F
109FD
1D9BF
127F0
2DA29
37AEA
07411
04619
29A17
084C1
0A466
1F017
21F30
07540
36ED0
09FF2
124CE
031A3
02B76
0463B
24B6D
06F37
06C08
0A2E9
05649
3079D
03AA5
305EA
02423
27976
34867
39735
29239
1DEB2
0EE5C
04A4C
3034A
01DA2
06060
207CC
062F8
286F1
03E25
05EC0
FFADE
1ED43
02870
3233C
1C9BF
25ADA
18D34
19FE0
0BAA7
03A67
0DD72
265D6
1CFAB
03263
23698
2D9BC
061C7
03BD2
0404C
22EFA
2623B
093D2
35B59
03D3B
07C9E
24E59
283F5
02FCA
0497B
03D7D
1E038
0FB20
08B51
03983
210D1
1125D
018B9
35187
181C4
475B7
13443
06EAB
3A78F
2807A
309FE
37F72
04841
2FFF7
02791
1B129
2D7AA
039D8
03FA9
28A37
0631E
08CD5
161EB
00565
2E4B8
FC365
FF117
09EF4
1A03E
1115D
FECDE
056F2
322C6
04643
05A58
37A5B
22C23
33336
2029A
2133A
1E404
3218C
FF0F3
036A5
2DF68
1B263
04263
0FD8C
016DC
022CB
36127
221F5
314B7
0089F
09C42
FFE4B
18CF8
155E9
0045F
16B3B
0E9A4
00207
0875A
3021A
28BF5
04923
042F6
2514C
021B3
23AA9
20CA1
2E864
3646E
0083A
1B78A
0641C
23366
2E9AD
32A92
1DFE7
08238
07AE6
23B4C
00440
0750B
01474
0535C
0784D
04C5B
03B49

