1E226
20D80
39706
19675
15DCF
1447C
3F8F9
186C5
35C5C
2D15D
1ECA0
14E64
0E8EC
1DE44
2E425
47D5E
1D6AF
15B48
4593E
12DD4
41596
1552D
4F43F
1CF8D
24243
28A37
21F35
1E577
35D9D
23AD3
42CA9
5809B
1EA0B
1E837
2F027
1DFDB
47F28
5966D
24CE3
17797
43B52
22406
2186E
3012A
3711E
20B8C
58890
19892
20991
1870C
1B264
18221
3AFD6
2A1EA
1A909
2035F
1AD35
4DE8B
164D0
4E60F
269B5
3DD17
522E7
57A87
4012C
30E87
1D684
15437
4D398
0BBDB
17FEF
36833
15E3E
43BB7
1C30F
21242
14EC9
2F86F
14364
50A52
2E738
3C827
28D05
2A09E
1BD10
195E1
1C954
3FBBA
2DE7D
1A918
3836E
47738
1C99A
1CC55
213CD
36DAD
3F6F6
1E1FB
539AE
128AB
25F8B
39155
43E69
20FA6
18614
189D0
2E907
1D75B
15FC2
16040
350EA
1E57A
171E4
57781
275A9
6D620
20F3B
1AC74
5E815
40DE9
4E8DF
56AEB
20830
4E07D
1F0C9
2D060
47299
0F867
1E546
3E9AC
146F7
18C97
23A1D
1A7EF
46A58
1D084
1B8B2
1BFD2
2A013
29249
1648A
1D659
52652
1F928
18E4F
5AC5E
38C28
4EC27
32D25
37ABC
31399
519C0
1626F
1871C
4A5B5
2BEEE
1F1B4
1E8FC
1C244
1E320
55F3B
35101
514D1
1404F
211BD
1DCA5
27CEC
2323E
11F06
240D2
2C708
17718
26C39
4E62F
41B0F
1C05C
21FCA
3E3FF
1643C
3949A
34C6D
4880F
57DE9
17EF5
2B5F7
18862
38133
4C7A3
52402
2FA3B
1BDD4
1D5B7
37F56
2046B
24B94
18A0B
23F71
16AF2
1997C
1AE6A

