1D07D
1FFE3
38AD7
188C6
1510F
13A79
3E9AF
17BDB
3519B
2C727
1E588
144B3
0DFFF
1CEF2
2D9D5
46CD7
1CEAB
14F78
44ABA
1251B
40764
14BB7
4E1C2
1C310
239C0
2810C
2149C
1D64D
35168
231C2
41D0B
56CE9
1DC53
1DFFC
2E5D7
1D90B
46F90
58271
23B60
16C47
42BDE
214A5
20AA7
2F70D
3649A
1FC80
574A6
18F5D
20118
17A67
1A3E9
1766E
3A2A3
28D13
19D4B
1F651
1A081
4CD1A
159C5
4D446
2542B
3CFEB
51154
568A0
3F395
30347
1CDEB
14A5D
4C265
0B5FF
17548
35B26
154F0
42B8A
1B4A8
20221
14232
2EE8A
138E9
4F848
2DCA6
3BAA0
2838B
2971C
1B37E
18902
1C098
3ECB1
2D475
19B37
3771A
467E7
1BC47
1BD80
2027D
361DF
3E7F8
1D59B
527F7
11FF2
24DA8
3855F
42E06
1FDE1
17A5A
17D81
2DF38
1CF33
157E4
15556
3450F
1DDA8
1651B
56323
26CA0
6BF98
2071F
1A0AF
5D2BB
3FF31
4D722
558B8
1F799
4CEB0
1DFDA
2C5BD
46361
0F158
1D5A8
3DCA8
13E87
1831E
2321B
1986E
45BEA
1BD12
1A7D2
1B51F
29699
28407
156A0
1C826
5133A
1E90D
182E7
5978D
37F1F
4DBD2
32216
36D6B
3085A
50714
154C0
17AA6
494E1
2B4FC
1E1BA
1E044
1B270
1D285
54C57
345C7
501D9
134C4
203E8
1CAEE
27409
22A15
1148E
238E9
2B55A
16947
25A43
4D441
40C47
1B276
20E21
3D515
1584A
387CA
34095
478AA
56A01
17114
2AC8A
17D8F
374D6
4B5EF
5114A
2EFC6
1B223
1C8DF
37356
1F173
23A26
17C35
22D37
161F5
18D25
1A0AB

