11E1A
15ABC
30240
101A6
0C628
0CC15
33FD7
0F982
2D5F7
25916
182FA
0D939
086A8
12494
24870
3B2E8
16454
0D466
3A7D2
0CA9C
35E6C
0E5B8
40F4B
138C0
1FD47
21518
19EFB
1336D
2C365
179E9
36B48
49043
1270D
19521
26966
18A26
39A1D
48D82
182A1
0F6DB
37B6A
1718B
17299
28BF8
2CA98
15C8E
4B71F
12A4B
1A94E
0E7CD
10D7D
0F9EF
311BF
1A46B
11B01
17C92
12004
401C1
0E283
40744
17503
35FFC
44CBD
4A734
34EC9
29817
1627C
0DE17
40B9A
0803D
10713
2D670
0EC23
36FD5
11E43
15A72
0C8F0
283CB
0C934
42FC1
28DAC
31993
22F54
25B84
18E66
10320
16143
3414D
261B5
10A10
2E2BA
3BDAE
12BB0
11EAC
14F4B
2D377
34136
143B2
45660
0BEB4
18B20
2F307
37583
14504
0FF5C
0F77E
2612C
17BAE
108D0
0D78E
2A8D5
18C07
0E1B7
477C0
20202
5BB73
1CC8C
1384E
4D85E
354D7
408F3
48F07
14AB5
3FB27
12DB1
248AF
3B3A4
0A3ED
132AA
34318
0E21D
11EB6
24E1D
0F677
3BD75
0F4C0
0FF11
14A71
24462
1E63C
0C398
133C2
43AA8
1466B
1051C
49EDF
2F757
432F1
28F79
2DA3A
2995B
42FB3
0C02C
0F83B
3E326
2418C
1331C
17C17
10743
11F6E
4699E
2A5B1
42368
0B699
16EAF
10D01
204D9
1AB89
08BFA
1C8AD
1FE16
0D42F
196B1
40429
36C79
11EAC
15547
331CB
0DB85
2F154
2C461
3B9E7
48583
0DF4C
22EBC
107D4
2E857
3ED5B
439FA
286D0
13497
13DF3
2E4B0
1270E
188F9
0E8C5
16BAD
10404
102D8
105BA

