70BD6
589CB
719CE
5A9A9
4EE75
431B5
86478
4823B
66E42
5CCB4
3D075
4011F
388B2
62CAA
591A2
93D8D
3D9AC
4CC07
88AD2
3A9C9
80E55
413D8
A3DE4
55D38
506C2
5225B
51D20
62EC3
6CF2C
42719
8A540
B3056
5432D
47079
5CE80
3CB9D
89506
B2479
75BE3
4C0B3
8A963
69459
5F86A
5F669
6E186
66683
B9A42
43DD4
484E3
4FB92
5E8AA
4E2B7
7811B
875DB
4FFBE
5FF75
58A2D
9CFE4
48D7A
9F81C
8A9A3
7FDD1
A37FE
AB4C7
7C9A0
67404
510C6
41AB9
9E1BB
28079
4AA0A
74B10
3FD13
8CF29
5F6B2
6C4CA
51ABE
5DFCD
4437C
A3645
64F15
79527
57992
5D0B0
4AD61
559BA
4555A
845DE
5B976
5AC4B
6F7E5
8E8EF
59901
6128E
72207
6BB2F
847EF
5037B
A34E2
39EEC
77D9D
6E1A1
8EC6A
736DE
4E7C3
507C9
59E0F
43D33
3BBFB
463C0
67BFE
43428
53227
B3F86
50045
D4555
4A0BD
571B9
BEBF6
83CEF
9EFB0
AB736
6DB47
9DBED
6D8DD
5D0EB
8C93F
2EB76
66E39
79556
3A1BC
44E31
5A0C1
62128
89CD6
77BC5
6B4DC
48E06
5937C
6979C
568E4
5FAE2
AA0B5
6B63A
4D280
B7C7E
7697E
9C5FC
62C6D
75532
67321
A6A04
5351F
5244D
999A5
58C41
67993
460FF
64AEF
6A126
AB00B
63B98
A6ED9
4821C
60994
6EA72
4F435
4E6B0
36B11
45CBC
7FE75
566B5
786D5
9FB22
86CDA
5BDEA
73D86
833A9
4D644
72FD1
6C964
8C936
B2705
58772
54289
4B756
70A5E
9D903
A75D5
617B6
53E13
5838B
6D9A6
764B3
77B1E
57D46
78129
40180
50C83
58128

