6E3DB
7C851
178A8
741C8
73646
78558
15127
7A595
17C31
10D17
0A57F
7A9AD
76557
7409E
10C62
19DE3
077DE
756CE
1D1CA
7B664
19B97
7B3D5
1BCAD
7AA4F
0D929
0EF8E
04F08
75440
13E3B
07879
17494
21302
79BBE
08259
122DC
0B12F
1BB19
213AD
75013
78A76
18938
7838A
7BF94
1436D
1413D
777E3
220AC
00267
0966F
75FA2
73A66
781EB
1672B
7149E
7A481
7CAA7
77764
1D361
781B8
1CBD9
6BFF3
1A3F2
2136C
260FE
19FE5
124E7
00072
7A6C1
1DA39
7BFC8
7A94A
129E1
7C538
16B18
74C34
75191
72977
140AB
77AB4
1EC32
12472
16A67
0F2E1
10EF0
06234
761D9
0452F
15EA9
1202F
74C5E
15A09
1CC80
781E0
7424D
71F31
15BDA
15DC2
7DB16
221D9
7AA16
74F18
178D3
167EA
70939
7877C
770A2
129BE
07299
00520
78254
138F1
08C7D
742C1
1EB94
0E21B
2E65A
0BC74
7A1FE
22FB6
17CE6
1D155
23ED2
73377
1C5C7
70C74
0F4F1
1CA98
7C8AD
73B5C
1A374
7D9C0
7EC51
10E82
70581
1E8C9
680E9
6D9D6
0107E
1061B
022D9
704C0
76833
1D334
73B7C
79762
20A7F
14BB6
21AC5
133F2
12B49
126FB
1D8AD
7137E
766EF
1BDA8
104EC
737B6
065B7
70CEA
70DC4
20E0B
14CD1
1C5F4
74994
7B3BF
6D8E1
0EA8C
074C1
777CA
0D0AD
7BCD6
71C65
75B8A
1C671
18B68
7621B
71D18
1502B
75CC1
1591C
141C1
1D33A
207B8
71F62
106BE
7A554
15AD0
1B3E3
1E261
12FD1
7B049
7A310
16819
6CEC9
74D11
7303C
7227E
7E468
77E78
7569D

