482A2
3BFA7
559B8
3ABC8
32735
2BDBB
63149
2FF3D
4E49B
452BD
2D44F
2A78C
23F51
405B1
429D1
6DEBB
2CC79
31999
673B6
26F51
60D13
2B79B
798F1
3979C
3BA32
3D42C
39EA9
40D3E
5141F
30203
668F0
85AD9
38122
337A5
45ABF
2D49B
673AF
852E2
4DB71
321DA
67236
461F2
40929
4805F
521B4
43EBD
8A816
2ECF7
34BF5
33D1A
3D4E7
336A3
59B76
58B41
35564
41175
3A6C1
75434
2FBD7
76D93
5949B
6044B
7AFD9
81DF4
5DF12
4CD6F
37DB6
2B847
7629F
1A55E
31BD3
5632A
2AD52
682DF
3E41B
473C9
341BD
46FEF
2C6AC
7A277
4B3D8
5AA48
4114E
4560F
3579E
37EAC
311F0
62066
44B6B
3B0E4
538D4
6B2EB
3B43B
3F439
4A45F
50F8F
6218B
368F0
7B231
26402
4F260
5330F
6960A
4ABE7
33BD8
34ACE
43B82
30F6B
29456
2DF46
4D929
3113C
359BC
8590D
3B881
A0BD5
36AF8
3A327
8E50F
623A5
7697A
81501
479EC
75844
46C22
44E23
69C7D
1F1DB
4313B
5BC26
274C4
2F160
434E6
3EB61
68747
4B0FF
44395
3289B
42923
495BA
36C2D
3EFB2
7E40A
462E3
33223
88CAD
582A7
76393
4A0C8
56A96
4CD78
7C00E
34D16
35B70
72811
423CA
437EB
32414
40A79
44626
800E7
4B2F7
7BD90
2E28D
4114F
46836
3B2D1
384E0
230A3
34265
56D48
37205
4FC99
76DFA
6492D
3C3C9
4B6AA
60F59
32280
55F13
5113C
69F26
850EB
38982
3F18F
323C1
545CC
750B2
7CB36
49139
38401
3AFC3
5285C
4B951
4F006
387BE
4E6F4
2BA11
3525D
39659

