28120
28807
404AA
2119E
1D091
19E94
48293
1E8FB
3BD25
32D46
22C70
1A59C
1393E
26824
340FA
5121B
21ECF
1C596
4DBE3
17C52
4955D
1AA54
59AA5
23FEC
28EE2
2DCB6
27E9B
26DF4
3CB82
28C74
4B930
631DE
26584
2324B
34CF4
21D29
50B7D
64A43
2EA7F
1DD6C
4C666
2AE73
29471
35C30
3E1C3
292FB
63BD1
1EB73
255D2
1F8D9
234B3
1EB6E
426A4
35D7B
212B3
278DC
21F83
57B85
1C834
5861B
32B91
453A2
5C112
61BA2
47B7E
373CF
223E7
1ACDA
56E5C
0F099
1DFC9
3DDAB
1B200
4CD4E
244B3
2A36E
1C017
3517E
1A1B6
5ACAF
34661
441EC
2E24B
2F633
21333
209B4
217F5
48306
338C3
225FF
3F260
5010C
2418B
251D6
2AFA3
3D7E8
47DDF
2515F
5D920
17725
30085
3FCFE
4D1E5
2AF9B
1EF9C
1F897
3414C
220C4
1A693
1C27F
3BB9D
22BD8
1E4F2
62ED5
2C6F5
7A0EE
25839
21662
6A842
49264
5887F
60EBF
29D7F
580A9
28932
3301E
4FB94
137EC
271CF
45ED3
192EB
1E1D8
2822E
23372
4EC38
27F8F
25090
2201C
2F55A
31297
1E1C4
25627
5D22C
28A1F
1F4F7
667B4
4017F
57F22
390A8
3F292
378CA
5C1D2
1DD98
1F744
53D24
31872
2817A
23777
250BD
27892
60942
3B605
5BF84
1A834
28E3C
27C19
2CCE8
27BB0
17D3E
28805
36629
1F373
30DD9
5878B
4A018
23D6F
2BEBB
46A3B
1CFBF
407EB
3B706
5129E
63112
1FBDE
30AC6
1E9CF
3F077
566F5
5CC7D
35857
22708
24952
3EB59
2AF24
2E86C
20693
2E378
1BBD3
20886
22A20

