5FD24
53788
66BDE
4C4B0
4547E
3981D
786AE
4100B
5DC35
530FB
3927F
38F06
2FBEC
56DCA
549DB
854B1
3B384
41A16
7B8F4
334C2
76257
3881E
94055
4B672
43CCB
4ABA0
495E3
56BD1
63421
45678
7CDB6
A147E
51A58
3D1F1
555AD
37526
81EE8
A3B59
65ED8
418D0
7D2C7
5B728
54C47
55AF0
659D2
58AE7
A299C
3BC79
401B1
47768
50FE3
43A48
6C144
779F0
4639C
50C18
4A0E6
8EC54
3F5E3
90828
76B52
6ECCB
9388F
9A39F
729D4
5AC17
3D61F
39E36
8D2C9
21888
3F9A1
670CB
387FA
7FE3C
51C1D
5D1FF
43BDC
54533
3B2F0
93BB7
55C52
6ED2C
4C0C3
4D668
3F686
4939D
3D126
77A2F
5334C
4E2D6
660E6
8066B
4E28D
53EF1
61A0C
62BFE
772DC
4C260
957C8
32F80
687C5
65917
80D74
63120
43FC2
46629
53096
3BCAE
333EC
3E9C4
61251
3B6B3
46A89
A337E
48F21
C12E2
3F1C8
468C3
ADE93
779BD
9082C
9A5FC
5E34C
9036B
5E05E
54952
7FC2C
29C55
58661
6F02E
33D14
3C035
4168B
54245
7C4F7
655BB
5A4B8
43C67
4D3DB
5E28A
4A06A
52342
99671
5B789
434F8
A82E1
693E8
8B7DC
5BF0A
692FD
5B099
970DE
490AA
46C94
88ED9
50EB8
5A833
3EFD2
57026
5BF1E
9C34B
5ECD4
97D56
3EF2E
548C8
5FACC
48DB5
417CC
38DE8
41784
6E30F
4AD39
698BC
910F3
78A90
4FB3D
63A93
75B6E
42B01
68EF5
60D29
81C12
A1E5C
4B8C0
4E6A5
40C78
660CB
8E4EB
97DD7
56866
47556
4D200
6496C
66D15
6587E
4C154
67BD7
381A8
47798
4E046

