4E323
403C1
59C53
3F793
36AE1
2F506
68501
338C4
51F20
48AEC
2F9CA
2DAEA
27047
45798
45F4D
738EF
2F47D
35A2D
6C341
29E10
6595F
2EB5E
7FD92
3DB0A
3EBA1
405D9
3D783
45E55
555FB
32D94
6BE03
8C6B1
3C408
36625
49202
2F953
6C4C0
8BE25
53AA4
35F85
6C685
4B58C
452C8
4B7F9
56446
490C2
91831
31F0A
37A79
37F78
423F2
37645
5E3A7
5FA3C
394C5
45AE4
3EE9D
7B2B2
3378A
7CE47
609E5
64F70
81032
8807C
627FD
50C40
3B9A1
2ECF7
7C1A0
1C5F0
35704
5ABB1
2DF3B
6DA52
432FA
4CBEF
3880D
4A69E
2FF47
8048B
4F0F9
5F33F
446DB
48E58
38A6C
3C54A
34203
67214
481D4
3FC50
57B49
7070E
3FC4B
444D7
50329
54F20
6735C
3A5F7
811BA
292D2
5532E
57310
6EEFD
50CAB
37B74
38CF4
47036
33C47
2C048
31906
5176B
33C7B
39FF5
8C76B
3E93A
A868B
39904
3E7E9
95840
67383
7C989
87939
4D481
7B7F2
4C867
487A2
6EF40
216F5
48668
6027C
2A181
3253A
46AFC
43F7B
6D697
51B3F
4A088
35DBD
45F00
4E21D
3B7CB
43D77
84C31
4BB62
37007
8FC6F
5CB05
7BE4F
4DB98
5B383
50C26
8256D
395A1
39F5A
7850F
45960
48DC9
35330
4602A
49FC8
8670B
4ED54
82406
32053
45C45
4C7AD
3E297
3B978
25F60
36C5D
5CEF8
3BC72
55D41
7CF11
69A96
40F06
516D2
660DA
36347
5A428
552AA
6F183
8BCDA
3D54F
423A6
35FBF
58912
7B111
830AF
4CB45
3C5B8
3F54C
568C5
51EE6
550CF
3D24B
549FC
2EABD
39417
3DF4E

