1C7A8
1F914
384C0
181EE
14AAF
13578
3E20A
17667
34C3B
2C20C
1E1FD
13FDA
0DB89
1C749
2D4AD
46494
1CAA9
14990
44378
120BF
4004A
146FC
4D883
1BCD2
2357E
27C77
20F4F
1CEB7
34B4D
22D39
4153D
56310
1D577
1DBDF
2E0AF
1D5A3
467C4
57874
2329F
1669F
42424
20CF4
203C3
2F1FE
35E58
1F4F9
56AB0
18AC2
1FCDC
17414
19CAC
17094
39C09
282A7
1976C
1EFCA
19A28
4C461
1543F
4CB62
24966
3C955
5088B
55FAD
3ECC9
2FDA6
1C99E
14571
4B9CC
0B311
16FF5
3549F
15048
42373
1AD74
1FA10
13BE6
2E997
133AC
4EF42
2D75C
3B3DC
27ECF
2925B
1AEB5
18293
1BC3A
3E52D
2CF72
19447
370F0
4603F
1B59D
1B615
1F9D4
35BF8
3E07A
1CF6B
51F1B
11B96
244B7
37F63
425D5
1F4FE
1747D
1775A
2DA51
1CB1F
153F5
14FE0
33F22
1D9BF
15EB7
558F3
2681C
6B453
20311
19ACD
5C80E
3F7D5
4CE44
54F9E
1EF4D
4C5CA
1D763
2C06B
45BC5
0EDD1
1CDDA
3D626
13A4F
17E61
22E1A
190AE
454B3
1B358
19F62
1AFC6
291DC
27CE6
14FAB
1C10D
509AE
1E0FF
17D33
58D25
3789A
4D3A8
31C8F
366C3
302BB
4FDBE
14DE8
1746B
48C77
2B003
1D9BE
1DBE7
1AA86
1CA38
542E5
3402B
4F85D
12EFE
1FCFD
1C212
26F98
22601
10F52
234F4
2AC82
1625E
25149
4CB4A
404E3
1AB83
2054C
3CDA0
15251
38162
33AA9
470F8
5600D
16A23
2A7D4
17825
36EA7
4AD15
507EE
2EA8B
1AC4B
1C273
36D55
1E7F7
23170
1754A
2241A
15D77
186FA
199CC

