3A74E
324E0
4C256
2FF86
28D68
2400F
57306
27C80
45F9E
3D30D
27F20
232CC
1D00A
34B8D
3B041
611B9
27187
286D4
5BEEE
20514
55FAD
241F5
6B43E
2FE5D
349D7
36346
31D73
354F2
47E71
29EFF
5A797
765C0
2E918
2CDF5
3DD27
28128
5BB73
75F1A
40313
295B4
5B298
3A3F2
361D9
40202
48A6A
38454
7A94C
27B29
2E23C
2A645
32140
2A604
4F764
48F05
2C55B
36A91
30370
67D71
27426
691CD
48A0B
55982
6D4E2
73E07
53957
43EAC
2F58B
24089
68AB5
15B58
2954A
4BE56
23BE4
5BC20
330DB
3AB73
2A1F1
3F3A8
24604
6C38F
428E9
50472
39798
3D625
2E429
2DE2E
2A4AD
566C5
3CFC1
30578
4A1CB
5F3B2
31075
33D01
3CCF3
47F17
5679A
2DE3E
6D911
1F99E
4165D
4A199
5CBE3
3CFFB
2AB47
2B479
3C3BA
2A976
23075
25C08
44BAA
2AEF3
2BA22
75E38
349C6
8F4F3
30251
306E0
7DF45
56E21
68F29
7313C
3AC10
67ED0
39A6D
3CB77
5E065
19D87
36FA7
51C49
20F16
27B88
3B9F9
32C3E
5D305
3BF85
37058
2AFDC
3AEBA
3E81E
2C050
33EF1
6F753
399C2
2A579
78EB0
4DE2E
6955A
41B1E
4C4D6
43F04
6D9A9
2A835
2C118
654B9
3AA03
374C4
2B902
347B9
37A6E
718C2
42E52
6D4B2
25629
366F3
38F3D
3463D
30D58
1C669
2E303
48F43
2C8DF
420ED
69151
59026
318CC
3DC22
5561B
28F49
4C211
47C88
5E3F7
75B9D
2DD3C
37FB7
29B68
4ACE8
675AC
6E499
40D4D
2EEA8
311BB
495FA
3D271
41410
2DE4E
405E2
24B73
2BCFD
2F089

