627BD
4E8D3
67C5F
4F683
44E81
3AF03
79E98
3FA43
5E3F3
547E8
377DD
387B4
314F7
56B14
51336
86858
37B16
43364
7CECF
33B4C
759FF
3997D
9500B
4BDD8
491E9
4ACF1
496BF
56F18
63381
3C01F
7DC2B
A3170
4A50D
4028F
54BE2
374D4
7D56B
A26F1
67ADD
42EF2
7E21C
5CEBF
54A68
572FE
6442F
5A4A5
A9147
3C779
416F0
45EB4
52DD4
44C4F
6D679
76F89
469F2
551E4
4E053
8F08B
4005C
9138B
79469
74C33
95444
9CBE5
71D44
5DF8B
48328
39E30
9012E
2337D
41E20
69FA4
3871C
80077
53C46
5F470
4748D
55E8D
3BDB0
94E72
5BE98
6E8AF
4FAFD
54BA8
4354D
4B2D1
3E3B8
784D0
538DA
4FA04
65AD2
82210
4EEAD
55401
641FD
624F0
7868E
4733C
95312
33047
698CC
64A59
81A2D
65227
45169
46B71
5217C
3D32B
3541B
3DB43
5E8D5
3CDF1
48C2B
A3AA8
48D1C
C234A
433E6
4CF33
ADBB3
78028
90CA4
9CA54
6052E
8F9C7
5FEC5
54906
805A1
293C3
5A4E7
6EF15
337FD
3D3A2
520EA
55A5F
7E15F
680A2
5D92B
41072
5142C
5E30F
4B627
5430F
9AA87
5E50D
44036
A7457
6BE71
8EF84
5A16A
6A8D2
5DEFA
97A69
489A6
483C8
8BDD9
50D9B
5AE9D
3F1A5
58064
5CD48
9BE9D
5B1A5
97CAB
3F01A
55867
608CB
48349
46A60
2FC97
3F988
7178E
4B6CA
6A25F
915A6
7AC6D
50C16
65A40
77302
43D29
68C87
62EBD
8068B
A27E7
4D447
4CC23
42989
66B5B
8F53A
985FE
58E83
4A2C1
4DF30
6416A
67498
6965B
4CD0F
69716
38E75
4712A
4D4B6

