11705
170F0
30AED
0F916
0CB2C
0D15D
34926
10948
2E0B1
25BED
19B16
0DEF0
0824B
12E16
26D88
3BF50
17A86
0D372
3B24F
0C987
37251
0E85F
41FA0
13FF7
1E05D
220CC
1A550
13710
2D132
1D286
37918
49E1C
14C45
18990
27992
19185
3CBD8
4B0A2
18380
0F579
3899D
17327
179F9
28CDB
2E12F
15E7E
4A386
12EAD
1A822
0F5A2
10BE2
0FB94
31808
1B23F
12204
16D40
11B26
415F6
0E5D1
4198D
17200
3459E
458CD
4ACAB
364E1
28D1E
173A3
0E2F4
40DD5
07877
10574
2D21A
0F338
381AE
11D69
158C3
0BE01
286A3
0CAE0
43ADB
26DA1
32C90
2200F
23344
14F00
101E1
164DC
34ED9
26B24
1097F
2F5AB
3C71B
13058
121BE
14CAE
2E5EF
34A93
153A7
46DF2
0C463
191DA
307C4
381F5
14344
0FF3B
0FC45
2783D
1798E
10546
0E2B7
2C894
18B8F
0DEE0
48D42
20DC7
5D2FD
1B1F7
1251A
4F287
364A2
41CE7
49996
14967
413D2
12E0B
2560B
3C392
0A73D
131B3
353FA
0E5EB
11FA8
1DE08
0F5AB
3C464
0F0DB
0F6A4
144C9
2331C
1EE56
0C488
1330C
44ABC
13FEC
10B24
4BCFE
2F639
43058
2ADFD
2E19C
2924B
44300
0C510
0F7CD
3E435
24C8D
139FE
184B4
10C39
1242B
485FA
2CFED
43AB3
0BB8D
172AA
110E7
216B9
1D466
0A6A2
1E5D9
1FBB3
0D832
19DB4
41800
37112
1208B
154B2
3387A
0DADB
30142
2C437
3D704
498FC
0DF59
24999
10BE5
2F306
3FC0F
44CBB
281FA
13767
141FF
2F552
12A46
1832A
0EAEC
16DDA
10399
10B99
11057

