FE1E7
082B2
235BD
0099B
FEC08
0222E
23D96
04A51
22480
1A937
11F01
03557
FE61E
021FE
1B907
29E19
0EE47
004BD
2B446
030E7
279DB
042CD
2DC12
06578
14B62
18062
0EBD1
02DAA
1FB84
133CE
267D8
3456F
05C2E
0F987
1C51F
11A51
2BAF9
352F3
0510B
02F77
27B2F
065FF
088D7
1DBDD
20628
05727
346FB
08D87
113DC
01859
00E81
02ED4
23106
04588
0548D
088CD
03CE3
2E4BB
0248F
2E259
FF90F
25F1E
32541
37368
2770A
1C830
0DD2A
0369A
2E0E5
011E9
04B13
1EDB1
0505B
26696
02156
03E7D
FE1B0
1D979
0137B
2FF27
1B499
23FCA
17A41
18CDB
0A783
020A9
0CBF9
247C5
1BB9C
016A2
21DF1
2BB1B
0471F
01E27
01DAB
2175E
24441
07B11
337EA
02BCA
058D8
2366D
2632E
00C3E
03208
024DF
1CC9A
0EAD0
07B94
023AE
1F91B
102BA
FFF28
328CA
16FB3
448A6
1240A
05721
37CDA
2630A
2E685
35B0A
02713
2DC5E
005B3
19BE2
2B93A
02BBB
0206E
2702E
0523D
079E3
151E7
FE664
2C7DB
F9C80
FCF57
0898E
18D4A
0F4D9
FD10A
03A8C
2FC95
0260C
04388
350B9
21210
3128C
1EC7D
1F898
1CD87
2FC33
FD595
01DB8
2BDC1
19E7F
02270
0EC1B
FF733
00195
33B5E
20B82
2EEC8
FF188
08098
FDADC
17B32
14596
FEF6F
15B68
0C647
FE665
0636F
2DE3F
26E64
02D57
01FA4
23377
009CF
22109
1F4F1
2C99A
33C9E
FEC78
1A4B1
04E75
21AAD
2C645
30522
1CAFD
06AD7
06135
2234B
FDE50
05231
FF8C8
02EE9
06654
033AE
01FCB

