717C2
6115B
72EC8
59FA4
52082
43848
87B4F
4BEA3
68844
5D460
403F1
42A16
38AB6
662E8
5EEE3
95D1D
433BD
4D713
8A136
3C04D
84580
41F7F
A6827
57E37
4C501
53E4A
53F7C
65E77
6F77E
4E796
8C78A
B4F9F
5F5DB
455A2
5FAA8
3E223
91863
B7B0F
77709
4CDD9
8CA07
6AD3E
628BD
5FCC2
72214
67BAC
B6847
44FCF
48941
541B9
5F78C
4F57C
79479
8C763
51F77
5DCF6
56C1C
A0366
4A694
A24B0
8C3F5
7BF89
A51BF
AC209
80348
66024
45FB1
43BCB
9E5EE
2764C
4A409
741A0
41CE1
90110
60295
6D413
5054B
5E386
45A9D
A5C5C
6057E
7C5A6
5585B
56E8D
48FA8
56187
45CEE
86AB6
5D3C9
5C0E2
72622
8FB72
5B7C8
62C48
72F16
6E8DA
862B3
58866
A733D
3BB04
7A5F3
7187D
913A6
74D7D
4FB5F
52B18
5CD83
43F30
3B1D0
4986D
6D001
433CE
53714
B7967
51FA9
D7B6D
4738B
52514
C3438
86542
A23F4
AC93B
6ECBD
A202C
6EF50
5F386
8EFB0
30D42
68038
7C074
3C41A
457C4
496A9
63A4B
8ABDA
78CEA
6B2B5
4E795
56B76
6C6A4
57F09
60676
AC7F4
6B940
4EB78
BCFEC
76483
9BD29
66FF3
76808
66480
A9BA7
56B9E
533F7
99C10
5ADDB
6A7CC
47B57
66D6E
6C8CC
AF190
6A069
AACCE
4A7E2
6261A
71644
51BE7
49A5D
43567
49617
7FDF5
58A4C
7B811
A2FD0
87712
5D998
75524
84A11
4EA23
75BF6
6CAAB
91265
B5CDD
596D0
57D6A
4B9AB
72699
A0027
AA95C
60FB5
5305D
59F85
70972
79C97
76F53
59EB7
79F71
41172
53D00
5BC34

