70EED
60A8D
728B1
598CD
51A22
43346
873AA
4B92E
682E4
5CF45
40065
4253D
38640
65B3F
5E9BB
954DA
42FBB
4D12B
899F4
3BBF1
83E67
41AC4
A5EE9
577F9
4C0BF
539B4
53A2F
656E2
6F163
4E30D
8BFBC
B45C6
5EEFE
45184
5F581
3DEBB
91097
B7112
76E48
4C831
8C24D
6A58D
621DA
5F7B4
71BD2
67426
B5E52
44B34
48504
53B66
5F04F
4EFA2
78DDF
8BCF8
51998
5D66F
565C2
9FAAD
4A10E
A1BCB
8B930
7B8F3
A48F5
AB915
7FC7C
65A84
45B65
436DE
9DD54
2735D
49EB6
73B19
4183A
8F8F9
5FB61
6CC03
4FF00
5DE94
4555F
A5357
60034
7BEE2
5539F
569CC
48ADF
55B17
45890
86332
5CEC5
5B9F2
71FF9
8F3CA
5B11E
624DE
7266E
6E2F3
85B34
58235
A6A61
3B6A8
79D01
71281
90B74
7449A
4F582
524F0
5C89B
43B1C
3ADE1
492F8
6CA14
42FE5
530B0
B6F38
51B24
D7028
46F7D
51F31
C298B
85DE5
A1B16
AC021
6E472
A1746
6E6D8
5EE34
8E814
309BA
6786A
7B9F2
3BFE2
45308
492A8
6328B
8A4A3
78330
6AA45
4E23C
566B9
6BF83
57814
5FF5C
ABE68
6B132
4E5C4
BC584
75DFE
9B4FE
66A6C
76160
65EE1
A9251
564C6
52DBC
993A6
5A8E2
69FCF
476FB
66583
6C07E
AE81E
69ACD
AA352
4A21C
61F30
70D68
51776
49649
4302B
49222
7F51E
58364
7AF16
A26D9
86FAE
5D2A5
74C50
8429C
4E42A
7558E
6C4BF
90AB2
B52E9
58FDF
578B4
4B441
7206B
9F74E
AA000
60A7A
52A84
59919
70372
7931B
7669C
597CB
79654
40CF3
536D5
5B554

