4E285
45DB6
5A8F3
3E9BC
3887A
2F7F1
6920E
36173
53026
48D97
3210D
2F3F6
26D22
478AD
4A4D3
74C44
3334A
35D19
6D0B2
2A936
67F2E
2F0BD
81883
3EEAD
3B496
418F5
3EC4B
4792B
570C3
3C55B
6D3E2
8D95D
43ED6
34E40
4B0B2
30829
7256D
8FBA3
546A8
363C7
6DB88
4C112
46FD0
4B91E
59191
49A23
8EAF1
32923
37A21
3AD17
42839
37F15
5EE0F
62C7C
3A7C2
43B3A
3D5B0
7D543
34532
7EBA0
612B0
61A0D
81F60
88536
65060
4F80A
34C8C
300A2
7BFA4
1BAC5
34F39
59FF6
2F313
6FB68
435A5
4CFEA
3726E
4A6E0
30B43
81B12
4B327
614B2
4292B
43E43
35D64
3C5B4
3455D
689A8
492D0
404C9
59BAA
71164
40D52
4519A
50501
56F22
68306
3FC5B
83C53
2A3FB
56997
599B1
70742
514C3
38426
3A13A
493AA
33A2C
2B607
33B1B
554A1
33999
39DFE
8ED94
3FE99
AAA58
37005
3AC71
988EE
68E39
7EC65
882BE
4D9DB
7E6AA
4D16B
49F1E
708A8
22B69
48C89
61FE9
2B60F
328A5
3966E
44A3F
6DE13
51E8C
496BA
39138
43C40
4FE70
3C1CB
4400E
864EE
4B5D2
37E79
935D5
5C34D
7B28F
50E20
5BDF2
4FCB3
84614
3B5B6
3A531
781A2
46F95
4A89B
3644D
472DF
4B570
89507
5393F
84DDE
33679
46B75
4DF54
3FF84
3953A
2E669
398F1
5C829
3D025
57967
7F216
69E0F
41CE3
52003
66CCB
36BDF
5C1F4
54FA6
725C0
8DFDA
3DAB0
44FE0
35F45
59AFC
7C9AF
85253
4C118
3BA4F
4047A
58966
53D94
541A8
3E3F1
5583C
2F1DE
3B22F
40458

