065DE
0D8B9
28317
070F4
044F6
06286
2A004
08BB0
26641
1EDD3
13B6C
07727
02930
08839
1E254
306B3
117EF
0591D
30FF7
0715F
2CCC5
082E5
34F30
0B806
19EE7
1B642
13271
0989D
245AA
126BD
2C8DE
3C261
0A756
13C5B
1FFE7
1440D
2FF5B
3C0BB
0CCE1
08120
2DA76
0D1F1
0E60D
221D3
24B83
0BFF8
3E11A
0CAB3
15080
0691A
07695
08074
287EE
0D08B
0A203
0F062
096D4
34D5B
07088
34EA7
0951A
2D086
394CE
3EB1B
2C393
2202B
0F01A
07981
3563B
0420F
09611
24BFB
08CDB
2C8E3
087B1
0B22A
042B5
21B66
05D22
37483
218F8
28E46
1C917
1F012
12D6A
07C50
1057C
2A55F
1F9D5
07A12
263DC
31D0D
0A21E
084C5
09A57
25A1D
2A504
0CF31
39FFD
06555
0D251
278D6
2CBB4
08C49
085EC
07937
1FC8E
1260A
0B4EA
06950
231FA
13978
05BA6
3A50C
1A4FE
4D130
174A4
0B509
3FC77
2BC5E
35191
3CFB3
09DC8
3447E
07D8A
1DAEC
315A4
05D17
0900F
2BCCF
08CB4
0BBB9
1E6DB
055E9
3260A
029E9
04D9F
0E503
1DD8E
15467
0333B
09F49
373D1
09D78
08EF3
3C985
26D2F
385B8
21F32
24F00
221B2
36E2B
035AD
07695
3319F
1DB41
08F2E
12227
063AC
0744F
3A69E
23645
35FCC
040AB
0DF95
056C0
1A9A5
14721
032C0
1788D
14397
04619
0DE2A
34ACE
2D10D
08F0B
09DB6
29631
05FDB
26D71
24778
31CAB
3B775
04E96
1CF1B
0954C
267E8
3355F
37843
21800
0B723
0B934
269BA
0651F
0D034
05A71
0AE9E
0A718
0855E
07A72

