0430E
0CD92
278BD
054DF
03229
0593D
291AD
08655
25FA6
1E161
14600
06AA4
01733
07640
1F1C2
2F8FF
11A5B
045B4
3041D
060DF
2C7F2
076D7
341C2
0AA23
17A34
1B2CD
1261D
08113
23EAC
165B0
2BDB9
3B1C3
0A7A3
126CC
1FDD6
13FC8
310BC
3C0DA
0B15C
06DB2
2D02D
0BA96
0D4A0
2137D
24AFE
0A9EB
3B485
0C02D
14276
05DE5
05E23
06F2E
279A0
0B828
09520
0D099
082BD
344A9
0614C
34428
06F86
2A78F
385E9
3D5DC
2C1CA
20615
10C74
06CC5
33F7A
03224
085A6
2357B
0838B
2BF8F
0708F
09734
026EE
20FE5
04D1E
36260
1EEC0
28A34
1AE5D
1C128
0DC27
06772
0FC06
29A74
1F2C6
062F6
261BE
30F55
0906C
06FBD
07CE6
2584A
296B2
0BF23
3995A
05BC0
0BB38
27838
2BD50
06DFE
07286
06891
2028B
117AC
0A6DB
05FB8
23A50
12DBB
04577
398D2
1A162
4C495
150A5
097DD
3F24B
2B3FF
34812
3BF27
08252
33E41
062D6
1D664
30CEF
0528C
07651
2B7C6
080A7
0ADFC
17DF1
03BA6
3173A
00778
02C26
0C466
1C167
14342
01D90
088A5
3659A
07EA3
08244
3C335
259C5
36C5F
2294D
241D4
20B5E
362E8
020D9
06242
31A4C
1D533
07A4C
11C11
04E43
05CE9
3A346
2493D
35719
03106
0CCAC
03C4D
1AC13
17278
02903
186EB
12786
03263
0C634
340DB
2BFB1
079C7
080C5
2857F
04B82
26781
23616
31E46
3AA1B
038CE
1D885
089FF
25EAC
327A2
36C17
20480
0AB21
0A7DB
2654D
046A5
0B20A
044E2
09326
097C1
0778A
06B65

