126E0
160ED
3084E
10889
0CC4F
0D11C
34773
0FEBD
2DB49
25E31
18662
0DDE4
08B1C
12C06
24D4D
3BB1B
167F7
0DA45
3AF0D
0CEDC
3655B
0EA6C
41871
13EE2
201C5
2199C
1A426
13ACC
2C962
17DDF
37304
49A11
12D22
1995C
26E6C
18D7D
3A17B
49742
18B48
0FC76
38315
17924
1794A
29106
2D0A5
16403
4C151
12ED9
1AD89
0EDD6
114AD
0FFB8
31850
1AE82
120C4
1833F
1268D
40A58
0E7F0
4100E
17FAD
366D1
4557F
4B029
3556A
29DCD
167EE
0E2E1
4143D
08333
10C75
2DD08
0F0AD
377C9
1256F
16276
0CF55
288C3
0CE59
438AB
2933A
32035
23432
260A2
19305
1098C
165A2
348BA
266A8
110EB
2E8C5
3C554
1323D
12600
157E9
2D93F
348A6
1493F
45F0F
0C2F5
193ED
2F8D8
37D99
14DD0
10524
0FD82
265F7
17FC2
10CCE
0DCCE
2AE7E
18FF6
0E819
481C8
20670
5C69B
1D0BC
13E8E
4E2D7
35C1A
411AF
49823
152F1
403DA
13615
24DE9
3BB2A
0A74C
13A68
3497D
0E62F
1236D
25308
0FE1D
3C4AB
0FE69
10784
14F45
24947
1ED2D
0CA78
13AD4
44420
14E76
10ABC
4A908
2FDEB
43B31
294D1
2E0DB
29F0E
438EA
0C6C5
0FE68
3EB9A
2466B
13AEA
1805F
10F0E
12794
472E7
2AAFF
42CB9
0BC37
17580
115AF
20931
1B051
0903A
1CC7D
206F8
0DAF3
19F7A
40CFC
373E0
12583
15E05
33934
0E168
2F79B
2CA53
3C164
48F53
0E630
2334A
10D48
2EE74
3F61E
44334
28C17
13A90
14445
2EA8B
1304A
191C5
0EF8C
174AE
10871
108D1
10C5C

