67F78
526BC
6B8EC
53B6A
48C07
3E147
7EAB3
42E8F
61925
57AFB
399F0
3B667
3417A
5B589
543D6
8BA58
39F77
46E19
8171F
365CB
79F5B
3C88C
9AB86
4FB25
4BEDA
4DA1A
4CA6E
5B8D0
66F60
3E7BA
82982
A937A
4E1DE
42CD5
57E1F
39635
81F1C
A8874
6D169
46701
82EC1
61ABF
58D55
5A589
680B3
5EF35
AF732
3F4FE
4413A
49B09
575B0
48629
7181A
7D46E
4A38F
594A5
521A7
94672
436A3
96B74
7FF09
79083
9ABDA
A2577
75F8F
618A6
4B9A0
3CE16
9578B
25119
453F0
6E192
3B47B
84FF6
583FA
64492
4B479
59043
3F126
9A79C
5F62A
72B04
52BAD
57ED3
4637C
4F303
40F6C
7CF10
56A51
53E96
6973C
86E8D
53030
59D4B
69828
65EB9
7D0EF
4AAB7
9A9EC
35AD5
6F0CE
68489
86B09
6AA1F
48B3D
4A793
55166
3FBF3
37C0E
40FC2
6216F
3F541
4CC02
A9EFD
4B967
C92D8
45DC3
50DB5
B446A
7C8C3
963F8
A256F
65787
950C2
652A7
57D4A
850DE
2B57E
5F255
72F07
360A9
402C6
55215
5A6D3
82979
6E139
62DAA
440BF
54523
62880
4FAE6
589C3
A0936
63581
4787A
AD9F0
7003B
94201
5D6E2
6EB1E
617F5
9D691
4CB99
4C185
91262
53E51
5FCAD
41C79
5CE4B
61EC5
A1B79
5E6B4
9D9D0
42843
59C8C
65F95
4AEB7
49A30
32715
41FB0
7705D
4FA73
6FA3E
96DE9
7F66F
5507B
6B1A9
7BD1B
4780C
6CB55
66A38
8516A
A8A06
51930
4F9AD
46013
6A883
94CD6
9E23D
5C348
4DE7E
51E67
67BF7
6D0F1
6EE57
510D6
6F11D
3BAB4
4ACEA
51709

