5A424
48BF5
6218B
48F29
3F23A
3639C
72C70
3ABD1
59428
4FB4B
344C1
341A8
2D233
4FB65
4CA46
7ED57
34485
3DB54
76257
2FB8E
6F1F5
352E6
8C6D3
461E5
44E80
46933
44938
50084
5D9B3
384B6
76828
99E60
449D4
3C326
50087
342C2
766E0
994AC
5F90C
3DADA
76F24
55CBF
4E604
5272C
5E968
534CC
9F868
38330
3D781
40434
4C20A
3F589
67408
6D833
41385
4EDC1
47E55
86FAF
3AEF2
88FAE
6F479
6E5BA
8D0E3
9458A
6B9D4
589E2
43175
35657
87FA1
20713
3CD68
63CBE
3430D
78937
4D0B9
57C3C
414AC
513FC
3707E
8C8B4
56B3C
6852F
4B1F7
4FEE8
3F007
45285
3A229
7156F
4EEA7
4932A
60033
7AF54
48C6A
4E613
5C0BB
5CE42
716FD
42004
8D0CC
2F071
614CB
5F312
7A0E2
5CE33
3FAAC
4113E
4D99E
395FF
3182D
38C84
593F0
392F8
42C68
9A427
44AAC
B7BF6
3F51C
4716F
A3EA0
7133F
889A7
941AA
589AA
8774E
580F2
4FA9F
794C6
2612A
530C1
68F2A
2FAFB
38CEE
4D728
4E7AF
77537
5EFBF
55A6C
3C7FF
4CAB9
57AE4
44F09
4D902
91C80
56C60
3EBD0
9DBF2
65BC2
873C9
55138
6455F
58981
8F02C
426B9
4272D
83F0A
4C48A
53985
3B168
50B8B
5530E
93354
5620F
8F0F2
39BDE
4F230
5869D
44223
422A8
2BCDB
3C04D
69258
4514C
61E92
89140
73D69
4A57E
5D721
703DD
3E4D4
62E53
5D585
7963B
994B8
46CEA
487D5
3D7BB
60F9E
871CF
8FB9F
53F5C
44925
4805E
5E995
5EA11
61260
46766
6100B
34C16
4178A
47139

