59299
47F93
6156E
48161
3E5EC
3598F
71D37
3A15C
58984
4F113
33DF0
33851
2C94C
4EC81
4C08D
7DCF0
33D3F
3CF96
753E1
2F30E
6E416
3497D
8B487
455A3
44583
4602B
43EE2
4F1C5
5CDB9
37CCA
758B1
98AC5
43DAA
3BAB2
4F67B
33C15
75823
9812C
5E7BC
3CFA4
75FD0
54D8C
4D8A2
51D10
5DD4E
525E3
9E406
37A15
3CF0C
3F823
4B3AB
3E9F8
666E8
6C405
40800
4E067
47145
85E81
3A417
87E19
6DF25
6D811
8BF5E
933A0
6AC92
57E76
42690
34CC3
86E5B
20128
3C2A5
62F8E
339FA
77951
4C262
56C35
407E4
50A0A
36634
8B6DF
5601E
677EA
4A83A
4F4AD
3E6CA
445AE
3996C
70695
4E4C3
48573
5F41D
7A008
47F50
4D76A
5AF80
5C2B3
7081D
414EC
8BF6D
2E7EE
60331
5E76F
790B6
5BC9B
3EF1B
40537
4D009
38DD7
31030
38204
5889E
38B1B
41FA4
99016
441D0
B65A6
3ECBD
464EE
A29AE
704B9
87830
92F71
57932
865E8
5702B
4F02B
785BA
25A6B
52145
68260
2F2D9
38380
4CD53
4D865
766CC
5DC6E
54986
3BE56
4C0EE
56D01
44149
4CADE
90990
55C49
3E08F
9C7A0
64E99
86349
54686
6381C
57E1C
8DDBE
41988
41AD4
82E22
4BACC
529E9
3A8D7
4FBF6
542C1
920C2
55772
8DE51
390A3
4E48F
57541
43974
41918
2B45B
3B8AC
68095
443C4
60CFF
87F99
72E9B
497D0
5C5A5
6F50B
3D90D
621C3
5C9A0
78742
98118
45F21
47EB9
3CCD2
60363
8604A
8E92D
534CE
43D32
473BA
5DDE0
5D799
600C7
459D8
5FE0A
3433C
40B97
463F5

