70DF1
7DF53
1A38D
76564
75305
7AA0E
1861E
7C75F
1A375
12EAB
0C9EC
7C10B
77B06
76A27
13D41
1D7C8
08E1C
776FF
20615
7C83F
1CF7D
7D145
1FE34
7CFA4
0E53A
11262
06C9F
777AD
168FE
0C6F8
1AC78
25917
7B78C
096C2
14963
0C893
1FFDD
2632A
77EE6
7A7B1
1C1BF
7AD6E
7E37E
1627F
16FF7
7A294
257FA
01F07
0AE30
7809D
760C2
7A26E
1929E
74B72
7C7A9
7EC27
7A47A
2136E
7A00A
20CF3
6F695
1C10F
2525E
29C99
1D3F3
14127
075FC
7C06A
21289
7CB97
7CB45
15112
7E0AE
1A477
7747C
77CEE
74A9D
162BA
795B9
226AC
135B9
19D6F
1088F
11AC0
034AA
7863A
06323
19360
1433E
77019
18A04
20355
7A733
76C26
74DE3
189BA
1905F
7E68D
26353
7C327
78236
1A6E0
19E89
736F8
7A552
7912C
156E9
088EE
01D29
7A0B0
16AD7
0A4E6
765BF
2345B
1034D
33A3E
0C2B8
7C9E4
27C9F
1B267
211AF
2809B
75FFE
206CE
73A7D
11C3B
20297
7D709
7650D
1D3FA
7ECF9
00837
0F1D1
72C60
21AB1
6B31C
704D9
0092B
11B96
049C6
72A12
79025
21773
764C3
7BAA9
256F1
1759C
24E93
167CE
158D0
1469A
21C1C
7315E
7882E
1F3D8
12725
762BD
08377
7393D
73A53
258AA
184D2
20B2E
76701
7DA9A
70642
1108D
0E3A9
771CF
0FC7A
7F21B
74096
78BF0
20719
1BD03
78693
74BB7
1807D
77A75
18749
166CF
210DC
24DBD
745EC
1339D
7CC8F
18652
1F1D8
2247E
14D82
7DE92
7C711
19347
6FAAF
78110
752BE
75435
7FA7D
79FA0
77AD9

