6E8BE
57107
70196
58E19
4D5DA
41D99
84607
46D50
658FB
5B846
3C2D4
3EE71
376E4
60EE2
57E2F
91CC0
3CB1F
4B48B
86DE5
398C9
7F296
40105
A194D
544B4
4F4C8
5104B
50874
61146
6B739
41741
88650
B091F
52AD9
45F90
5BA68
3BE43
8778B
AFD78
73945
4AA47
88ABB
675F2
5DDA4
5E231
6C951
648AF
B717E
42B9F
473F9
4E370
5CBEC
4CB94
766DA
84D80
4E8B2
5E4C1
5700B
9AD88
477C4
9D4F2
87EFC
7E27D
A14F5
A90F3
7AF1B
65D2C
4FAFC
40790
9BF2F
274A1
49484
730B0
3EAED
8AF5C
5DA04
6A4BC
5012D
5CBEA
42EE7
A129B
638DA
77A9E
56619
5BC39
49AE8
5400C
443DE
8282B
5A5AD
590DE
6DFBB
8CA56
57ECC
5F53D
6FF8F
6A412
82A2F
4ED4A
A1224
38DE6
75A69
6CA5B
8CC12
713AE
4D0A1
4EFBC
58AE5
42CE3
3AC00
44EC1
6655A
4246E
5189E
B1764
4EE8E
D18B5
48FFE
558B8
BC213
81FE4
9CCC2
A92C4
6BA57
9B922
6B750
5BC03
8AB27
2DDF8
64F40
77BC3
39177
43B56
58D16
60293
87FFF
75522
69310
47AB4
57FE5
67BD5
54D65
5DE9A
A7AD6
6960C
4BBFF
B53DA
74F2D
9A4FD
6170A
73AAD
65C56
A4527
51ABD
50B9B
977D4
578C5
65A59
44FDE
62BC6
6808E
A8AE7
6265F
A4997
46BA6
5EE52
6C7BB
4E2D5
4D390
35A12
44D79
7DAEF
54BA4
763B0
9D7D4
84F3F
5A28E
71A8E
81605
4BEB6
716B2
6B199
8AB43
AFFC5
56BE1
53052
4A185
6F1E7
9B5F8
A50EF
6029B
5262E
56A42
6C23B
73FC3
757EC
5622A
75D26
3EFCD
4F49D
566A0

