2EF13
2A2DD
4432D
26ED4
20C37
1D680
4D333
20EAD
3EFE8
367CA
23792
1D0BB
17291
2AF32
34A25
56585
22522
20B8B
52713
1ABD6
4CE06
1DF22
5F423
27DA3
2EB77
30470
2B0E9
2BA22
400B7
24BD3
5052E
697DE
26961
2752F
373A8
23B0F
520B1
69253
34D53
21FFA
511A3
30458
2D54E
397DD
40B55
2E7BE
6D346
21B90
2896E
22791
28A59
22C88
46D93
3BB26
24C5D
2DE61
27A40
5C90B
2022C
5D930
3AA21
4CA0C
61CF3
681EE
4AE21
3C6C0
28329
1DBF3
5D557
11D2A
22449
433E1
1DC9C
5152D
29A48
3032A
21BB6
38B43
1D9F3
60851
3B435
47925
3315B
36AB2
2832C
2575E
248E5
4CAD7
367E0
2757A
422ED
55311
286E3
2A319
317FE
405BD
4CB69
269BC
622AE
1A040
35D8D
42768
52214
31740
231D7
23632
35F1C
253D2
1DC8E
1EDCA
3D4CE
25C64
23412
68B84
2ECC2
80AAF
2AA69
2839B
7035D
4D5A7
5D7C7
671E7
2FF23
5C827
2EA45
35DB4
54266
156B2
2CD0C
49600
1B9AD
2188A
352B7
28BAF
53B9A
2F4AE
2BEE6
24A6E
347E6
35649
22FF2
2AA79
6307C
2F0CF
22F51
6B955
45406
5E821
3AAD7
4399C
3C75B
61821
21DB6
23F71
5A332
343B8
2D0D6
25F12
2A422
2CF4F
655C2
3BEE6
61116
1E03B
2D7D9
2D8FC
2EB08
2A8F0
16D2E
292E3
3D4C4
23AC9
36866
5D7F6
4F4BA
2892B
32491
4BA81
2139F
43E2E
3FFA0
546BB
68D8F
24C86
32016
228E1
42C79
5BDB0
622E1
39E7D
27135
28CFB
41B05
31082
35B4B
24FFA
348D3
1EE87
23F84
26540

