1055B
16353
2FEBE
0EB66
0BE6C
0C75A
339DC
0FE5E
2D5F0
251B6
193FF
0D53F
0795E
11EC4
26337
3AEC9
17282
0C7A2
3A3CA
0C0CF
3641E
0DEE9
40D23
1337B
1D7D9
217A2
19AB6
127E5
2C4FC
1C974
3697B
48A6A
13E8D
18155
26F42
18AB5
3BC40
49CA7
171FD
0EA29
37A29
163C5
16C31
282BE
2D4AB
14F72
48F9B
12578
19FA9
0E8FD
0FD68
0EFE1
30AD5
19D68
11646
16032
10E72
40485
0DAC5
407C5
15C76
33872
4473A
49AC5
3574A
281DD
16B09
0D91B
3FCA3
0729A
0FACE
2C50D
0E9E9
37181
10F02
148A2
0B16A
27CBE
0C065
428D1
2630E
31F08
21696
229C2
1456E
0F502
15C20
33FD0
2611C
0FB9E
2E957
3B7CA
12304
112E9
13B5D
2DA21
33B96
14747
45C3B
0BBAB
17FF7
2FBCD
37192
1317E
0F381
0EFF6
26E6E
17166
0FD68
0D7CC
2BCB9
183BD
0D217
478E3
204BF
5BC74
1A9DB
11955
4DD2D
355EA
40B2B
48763
138D0
40206
11D1C
24B68
3B45A
0A02E
12215
346F6
0DD7B
1162F
1D606
0E62A
3B5F6
0DD68
0E5C4
13A16
229A2
1E014
0B69E
124D9
437A4
12FD1
0FFBC
4A82D
2E92F
42003
2A2EE
2D44C
2870D
43053
0B760
0EB56
3D362
2429B
12A05
17BFC
0FC64
11390
47315
2C4B4
427BB
0B002
164D5
0FF30
20DD5
1CC3D
09C2B
1DDF0
1EA04
0CA61
18BBF
40612
3624A
112A5
14309
32990
0CEE9
2F472
2B85F
3C79F
48514
0D178
2402D
10112
2E6A9
3EA5C
43A02
27786
12BB6
13527
2E951
1174E
171BD
0DD16
15BA0
0FA9C
0FF42
10298

