0A348
1040F
2AD7A
0A12F
07007
085B5
2D54B
0B04B
28B7E
21194
15346
097D8
04858
0BC57
2045D
3401A
13166
08235
34295
08F1E
2FD52
0A3D6
38F39
0E2EF
1BE5C
1D5DE
1569F
0CC38
26F93
14276
2FF02
40702
0D1E8
159F2
22311
15B6B
332F1
404FE
10977
0A85E
3101D
10724
114E6
24535
275DF
0F42A
42871
0EA90
16E1A
09355
0A8E3
0A8F2
2B5DF
1172B
0CA57
11F1C
0C48F
3897D
09687
38C31
0DFBD
30058
3D21E
429CE
2F1FA
24824
1163B
09B09
392B0
056C9
0BBBD
27A22
0AC9E
30089
0B9E2
0EA42
06F74
23E32
08128
3B2ED
23FDE
2BCB5
1EB2B
213E3
14DBE
0A940
12413
2D959
21C75
0AA11
28E26
35298
0CFF9
0B812
0D6A8
28291
2D915
0F607
3DCC9
0831F
10FEB
2A191
3044F
0C9DC
0AE67
0A34F
21E18
14296
0D0E1
08E10
25998
154FD
08857
3EB48
1C400
51F46
191F1
0E0CB
445C4
2EF31
38EB2
40F7A
0D76D
38161
0B842
1FF82
34A4E
074B4
0C642
2E992
0A92D
0DCB8
20946
08B6E
35883
06D86
088C5
106D2
1FFD4
18503
0635A
0D0C6
3B619
0D5C9
0B656
410A3
29B3C
3BF76
2449F
27D69
24995
3AEAD
063D8
0A1CC
36CCC
1FD5A
0C5D3
14022
09A34
0AD59
3E79E
25B69
3A100
067FB
10F48
09380
1C80B
16899
0507E
19342
181C1
07576
11BAC
38897
304DC
0BEEC
0DAE6
2CA0F
08914
29967
2711B
35115
3FC24
07ED3
1EEFC
0BB79
292B8
372B3
3B8D5
23CF0
0E0F4
0E573
292B7
0A5C4
10DCB
089E3
0EDA3
0C612
0AF31
0A8DF

