0B4D4
11071
2B996
0AEF7
07C55
08FC3
2E483
0BAC1
29621
21BCB
15A17
0A12F
0513F
0CB3C
20E17
35080
138AC
08DF3
3510C
0979E
30B31
0AD3F
3A185
0EF31
1C759
1DEE6
160F6
0DAF6
27B8D
14A62
30E79
41A9E
0DE12
16267
22D1D
16218
341AE
4187E
11AC6
0B395
31F71
11657
12249
24F51
281FA
10314
43CD3
0F3AB
1768F
09F67
0B742
0B484
2C2FF
12B59
0D5DD
12C76
0D1A0
39AAB
0A161
39DC6
0F510
30E02
3E3A2
43BB8
2FF3D
25390
1211F
0A49D
3A3F6
05CB5
0C680
28752
0B5B1
3106F
0C839
0FA49
07C3C
24823
08B73
3C4C2
24AFC
2C9F9
1F4E8
21E1E
156FB
0B617
12CD1
2E833
22659
0B7C8
29A3B
361E4
0DD13
0C6BA
0E7E4
28E1F
2E7F5
1011F
3EE27
08BA2
12185
2AD34
3147B
0DB74
0B9F7
0AF55
227AD
14ABE
0D8DE
0988F
264EA
15CDA
0951B
3FF59
1CCDB
53596
19A51
0ED4B
45AB5
2FDB6
3A029
421B2
0E7E5
392C7
0C909
209F6
3595B
07B73
0D5BF
2F65C
0B14F
0E625
2131C
09AB8
366EF
080D8
099AB
1107B
2099F
192E6
0711A
0DEEA
3C908
0E5E0
0C197
424F5
2A865
3CFF5
24F50
28AAB
254FB
3C11C
07108
0AE25
37DB4
20718
0D56F
148B2
0A9C9
0BDA5
3FA30
26606
3B3A1
07336
11CE9
0A4DC
1D0BB
17229
058FD
19AE4
19384
082FE
12D3F
39A3E
313A9
0CC99
0EC62
2D8E1
094DB
2A5F6
27D00
3600E
40FC4
08C9B
1F817
0C662
29EF3
38439
3CB48
2477E
0ECE7
0F218
29E6D
0B83D
11F63
09771
0FFA4
0CEEB
0BB25
0B623

