699C9
5394F
6CB17
55016
49E7C
3F05C
80188
43E3F
6291B
58A4E
3A429
3C46A
34ED5
5CBDF
5526C
8D2F2
3AA61
47FB5
82CD1
3728A
7B42A
3D6AA
9C6F8
50D88
4CC56
4E7A6
4D9F0
5CEED
68156
3F39C
840B5
AB0E3
4F41D
43984
58D31
3A038
83538
AA5B5
6EB60
477D3
845C0
6318C
5A169
5B4B3
692DA
60594
B15C5
402A6
44DE9
4AD23
58B3F
49783
72BCA
7F2B2
4B4D8
5A8AC
53540
96037
446EB
985D4
81F06
7A502
9C621
A4056
77372
629C7
4C9F7
3DC74
97174
259FB
46415
6F55A
3C218
867D0
5997C
65C9D
4C7A6
59F2D
40096
9C25C
606D6
73EEB
53A48
58E2C
47157
50645
41C89
7E557
57928
55328
6A95C
8857F
543D7
5B347
6B202
6700F
7E73F
4BB5C
9C3FA
3679A
70B35
695FD
8834B
6C483
49C96
4B99D
55FC6
4082F
3880B
41F82
6326A
4010C
4DF29
ABD17
4C6B1
CB450
46A52
52076
B63D5
7DE8B
97E2A
A40C5
6703B
96ADA
66BD1
58CF9
86770
2BF9C
60990
74236
36CDC
410EA
560D5
5BDC3
83F1B
6FE33
64704
44F3C
553D4
63D55
50F86
59EF9
A259E
64DA4
4895B
AF86A
713F7
95AC0
5E6EC
6FF02
6290E
9F237
4DF62
4D40B
92BBF
54CEE
61418
42952
5E5AA
63737
A3754
5F69E
9F5C2
4391B
5B0FD
6799F
4BBBF
4A888
333D4
42B22
78B02
50EBF
7149A
98864
80CA3
56500
6CBE3
7D355
489B6
6DE2C
67C11
867E0
AA776
52DDC
50756
4706F
6BADC
9671E
9FDE9
5D31D
4F06A
5315E
68D88
6ECA5
708BC
5252B
70C1F
3C7FA
4BED6
52AEF

