1AA79
1BDCB
36322
16FE4
12896
11C83
3B99C
14D2F
32B14
2AACF
1B97F
123F1
0CDE0
19BB5
2963C
4361C
19E88
13254
41B85
10E9B
3CD65
13103
4A1A9
19AD4
2452F
25D59
1F1AD
1A960
32330
1B948
3E706
52D20
1885B
1D8C5
2B9C7
1BF8E
41006
52987
20D1A
1508D
3F60D
1EB24
1DDAD
2DCD8
32B6C
1D3DB
55A30
17321
1ECF7
14856
18077
1567E
37AC1
245D8
17730
1E761
1888A
48B33
1395A
493EC
21F9D
3CD49
4D8E1
53684
3B8DA
2F375
1B9A2
12ABA
495C9
0AF9D
15D2D
33FEE
134BC
3EF08
190FC
1DAAA
12F36
2D355
11B8A
4BE6A
2E696
383B5
27D39
2AD62
1D84B
169D7
1A730
3B81B
2B0DA
177C6
34364
4380F
19481
193EF
1D92A
32FED
3B836
19C77
4E155
102CB
217EF
3501F
3F6E4
1D1C4
15BE2
157B5
2ADD5
1BCEE
148BC
12B8D
30364
1CAEE
147DC
51848
248E0
66DF0
20F86
19C52
57FEA
3C903
494AC
520CD
1CE76
48653
1B3E8
29C50
42C05
0D9E5
1AE8E
3A968
12330
16A22
29CC9
170CC
430D2
18F4C
18643
197B8
292BA
25558
13196
1A4E1
4D227
1C724
15F22
5416D
3609A
4B6EC
2E504
3444E
2F487
4C326
129B2
15B03
46A69
28F7C
1B002
1C09D
183E7
1A1CF
4FE30
2FA96
4B871
11073
1DBB7
197DE
24A56
1F809
0CFF7
205B8
28C2E
14071
22348
49162
3E2E4
18C1B
1E123
3A859
139BD
355D0
3238C
431B3
52282
14D8E
27799
15F16
34A31
47988
4CD92
2DB3E
1942C
1A317
3425F
1BAD1
215BF
15536
1FBB8
14AD0
16271
16FD9

