3E266
3984E
4F84F
3234F
2CF96
266CA
5B45C
2C339
49438
3F983
2BA3E
26770
1EBBA
39A8A
40F44
65CA2
2BF17
2B1D3
5FE36
22AC0
5B151
2678D
70C6C
339A2
33925
3940B
35299
39D44
4BFB7
341D9
5F179
7BBC7
377E7
2D6E8
41B2E
2A565
64356
7D9E7
448BC
2BFB7
5FB76
3E20E
3A805
42677
4DC15
3BFF0
7CA26
2A39E
2FF46
2F5BE
35647
2D56E
52EA7
4FE4B
2FD84
37DF1
31D87
6D85B
2A511
6E9C5
4DA5C
55B10
7208D
781A6
58B4F
454DF
2CFDF
271D3
6C64A
165CD
2B4CB
4E2B5
26C21
610D7
364C9
3E608
2BBE1
41765
2734E
7157D
419D7
55084
39FC9
3B461
2D29E
30B18
2C6B0
5AFAE
4015F
33B8E
4E8EB
63355
34C15
37A83
409F0
4C3FB
5A9AB
348E5
73B72
2258B
4663E
4EC3D
619A4
4130F
2DA20
2EEC1
40573
2C3E6
243F0
29CD2
4A8B9
2C839
2E4A0
7C639
37B9F
9639B
2FA6D
301C8
85350
5B8C9
6EB38
77ACD
3E94D
6E49B
3DBE0
404DF
62BF9
1C513
3AA1D
5632A
23BB2
29F4B
32253
3697A
60CD5
40489
3A20D
2F616
3B2DC
42FB8
2F80A
37227
7500F
3CC44
2D916
80803
50641
6C5C2
46DCC
4FCE0
459AA
7374E
2EF49
2F07F
68DA8
3DF5E
3C0F8
2E5DD
38D56
3C4AB
78318
4967F
73ADA
28F16
3A2E3
3DE6F
37EA7
31EE6
24E9D
3263C
4C7C9
307CB
47502
6EE1F
5C7BA
35360
41FF0
59487
2BEA9
5082C
4A3E9
64685
7BF34
31172
3C73D
2C24F
4E7B9
6C900
742E2
42979
310D0
34A39
4DB61
42A86
444F7
31B4F
44FF9
26F8F
2FF49
33D09

