0D932
1414A
2E04A
0C930
09E8B
0AE54
313A3
0E316
2BB0E
2382F
18245
0BD05
0630F
0F878
2496E
38578
15E79
0AA1A
37F80
0AB01
340A0
0C742
3DEEA
11444
1C291
200B7
18036
101FB
2A676
1B2C8
34271
4592C
11C41
16CC2
2557B
179AE
39545
46AB2
14636
0CDDF
35387
13D52
149BF
26975
2B561
129D3
45DD0
10E72
18A7A
0C960
0D935
0D2A1
2E9D5
1694D
0F8EC
13F8F
0EEB2
3D8EA
0BF2A
3DB50
1269D
31784
41B4B
46E04
33550
265BB
1558B
0C07B
3D1A5
063F4
0E02E
2A46C
0D2A5
34910
0EAFF
1204F
091F1
26401
0A632
3FBB7
2489F
2FD35
1FEE6
211FC
12D81
0D4D6
14649
31A3B
24809
0D8EC
2CA86
39181
101B3
0EDD3
11014
2BC9F
3161C
12856
42FF0
0A5DE
15340
2DDE6
3489A
1050F
0D631
0D130
255E9
15D01
0E9BC
0BC82
29F15
17031
0B221
445F6
1EE2A
5841F
19595
0FBE8
4A7CB
3311D
3DED4
459E1
10F56
3D587
0F2C6
230D0
38E4D
08E89
0FB0B
3266B
0C862
0FE80
1C201
0BF69
391E3
0ACC9
0BB95
11F57
211F2
1BC70
093D5
10159
407E8
1078C
0E338
47423
2C897
3F72F
2874A
2B302
26AF1
401A4
0952A
0CC2F
3A951
229BD
10215
1662F
0D4D1
0EA0D
443DA
2A8A5
3F850
09326
14240
0D2E5
1F79E
1B7D6
081FF
1CA29
1BDD0
0A7D6
15ED9
3D940
33D56
0EFE7
116E2
30446
0B10C
2D46A
29AC3
3A122
45350
0AEC6
2289E
0E602
2C7C1
3BE1A
40B36
25D61
10E7D
1150A
2CB50
0E7E2
1462B
0BA7F
12E10
0E425
0E06A
0E03B

