6C749
7A8DF
172D2
72EA7
72004
78203
148F5
79BB9
17871
105D2
0AD8F
79A47
75754
72CE0
113FF
195AD
06E0E
747C0
1CC04
7A55C
196B2
7AB6C
1B440
79DB3
0C32C
0EDB8
04239
73B04
13827
0A2B1
16E03
20A4E
780AC
075D6
12024
0AD54
1C17F
2133D
738DA
77A6F
183EF
76FE9
7AC60
13A0B
13DE6
76662
20850
7FA31
08C4C
74E08
726D7
773A1
15DD1
6F815
798B3
7B7EF
771AD
1CDA9
773DE
1C5D1
6A06C
18C60
20C12
254FE
19D96
11423
05397
79905
1CDC0
7B426
7A0AB
11CDC
7BB74
163C2
73ADE
73C68
71841
13B26
76BCE
1DE82
10B6E
16751
0E2A9
0F4B6
00E61
752C0
04031
1573E
11B1F
73895
158B5
1C613
771E5
730D0
708A0
15A83
1546A
7B50C
21C76
7A046
73AAA
17707
15CFC
6EFE1
7766B
75FF0
12FAE
0684E
7FDB0
77505
13B6B
085A0
7329D
1E2E1
0DF2B
2E01C
0A247
79AD0
22736
17785
1CABD
237CB
71DA2
1BF9D
6F6C1
0F1AE
1C5B6
7BACE
72697
19FE9
7CB37
7E253
0D1C9
6EE5E
1E0F8
66551
6C15A
7DE60
0F5AF
010BF
6F26B
75758
1CB12
72455
78D09
203AE
14175
20D40
13B93
1238D
119A1
1D16A
6FAA1
75655
1B08A
0FF5C
722D7
06096
6F9EB
6F7E7
20D19
157ED
1BF50
738D4
7A345
6BF64
0ED00
0C305
747F0
0DCD5
7AB61
70951
7441A
1BF62
181E3
74EFD
70513
144D4
74AAD
15409
1376F
1D347
1FE1C
70E68
10DEC
7A142
154DE
1AB09
1D99D
123AE
7AFD0
793AF
16345
6AECF
73B5B
71B65
70B4F
7D68A
76E46
743DE

