777EC
03103
1ECA5
7B77F
79F86
7E61E
1E1DA
008D8
1E3FB
16BF1
0F476
7FB31
7B092
7C612
17B24
23AF1
0BE31
7BDDE
25D2E
7FC93
224AC
00A09
26D23
01A8E
1184E
14962
0AC38
7D2AC
1B241
0FD63
20A28
2CF43
009DD
0C825
18741
0F172
25D6B
2DB0F
7E7F9
7EB94
21E77
009B7
0362B
19F2E
1BB0F
7FCDD
2CF7B
05647
0E106
7CC7B
7B7A1
7E8A1
1E1D2
7C87D
00E1B
03A7A
7F0AE
27C14
7E24C
277A6
777D2
21017
2BBCF
30800
2257F
184AB
0A993
7FB82
279B7
7EEC0
00B2C
19F62
01884
20587
7CAE9
7DDB5
79627
19E1A
7D49A
292E9
17529
1EE9D
14168
153CE
06E16
7D372
0978E
1ED93
17F6D
7C35D
1D3FA
25F38
7F729
7C526
7B5C7
1D08C
1EA50
030CF
2CD9F
7F779
7ED87
1EEA6
200DC
7A19B
7EBAD
7DB06
191C1
0B9DF
04C5F
7E22F
1B1F9
0D3D0
7B273
2AE93
13980
3C172
0F361
01082
2FCBD
20AB8
27C1A
2EDD2
7C389
27196
7A018
15C0F
25DE8
00162
7C2BE
22214
01F9B
0410D
121DC
78962
27146
727CE
76A18
0495D
15470
09F4F
77D8E
7E558
28A04
7C567
7FF19
2D3D5
1C3D6
2B08F
1AA25
1A8B4
18A11
28C28
78379
7D2F3
258CD
162D2
7C296
0B7C9
79838
79DF4
2CA04
1C82A
27CFB
7AC44
02D99
7708F
145E0
114A0
7B09F
12BF1
05C31
7937D
7F7AF
272AC
215B4
7D9F5
7B5AD
1D9FA
7C222
1D429
1ADE0
26D3B
2C52D
79932
16C27
00D82
1D07F
25C0F
294D0
18C3F
024B4
01423
1DB49
76C80
7E9A1
7A5C3
7C18F
03068
7E9A7
7CD52

