70310
5839A
713C0
5A2C5
4E84F
42CAE
85CDC
47D00
668F1
5C799
3CD0D
3FC74
3843E
62538
58CC5
93559
3D608
4C628
88397
3A589
80765
40F23
A34BE
55717
50244
51DD7
517F5
62764
6C92F
42323
89D84
B2688
53D18
46C3F
5C97A
3C847
88DA7
B1AB9
7533B
4BB18
8A1B9
68CBF
5F1B8
5F15B
6DB79
65F0E
B9011
43947
480A8
4F58A
5E17A
4DCEF
77A8A
86BC4
4F9FB
5F8C8
583A4
9C74D
4880C
9EF52
89EF9
7F6FC
A2F3C
AABD2
7C2FF
66E4E
50B53
415EF
9D918
27D83
4A4A8
74478
3F88A
8C736
5EF87
6BCC6
5145A
5DAD4
43E57
A2D5A
64986
78E85
574B4
5CB92
4A8C3
5534F
450FB
83E71
5B484
5A570
6F1DB
8E149
59274
60B39
71969
6B568
8407F
4FDEF
A2C32
39AAB
774D0
6DBD0
8E454
72E12
4E1FB
501C6
59944
4391F
3B7FC
45E81
67655
43039
52BC5
B357D
4FBD8
D3A2D
49C8D
56B79
BE17D
835AC
9E6F5
AAE19
6D30B
9D33B
6D07A
5CBB1
8C1B9
2E816
6667B
78EF2
39DAB
4497B
59BD6
61982
895A1
7721C
6AC69
48932
58E96
690AB
56204
5F3D0
A973D
6AE2E
4CCE0
B7255
762EA
9BDBC
62714
74E91
66D6E
A60CD
52E86
51E21
99130
58762
671C4
45CB7
64324
69900
AA6C2
6364A
A6589
47C7F
602C3
6E1C4
4EFDD
4E1E8
366D1
458EB
7F593
55FF0
77E0C
9F24F
86573
5B713
734C8
82C40
4D060
72989
6C371
8C1BA
B1D35
5808E
53DFB
4B1E1
70440
9D040
A6C9B
6126F
5381A
57D39
6D3CB
75B77
77251
5767F
77828
3FD13
50689
57A86

