73144
7FA8E
1BBEA
780C2
76C85
7BE13
1A4B2
7DD32
1B8F7
14318
0D81A
7D46D
78CDF
788CB
151E2
1F8D6
09E23
78E9F
2231D
7D9B0
1EBE2
7E431
2232F
7E89C
0F640
124B8
081D2
79602
1816A
0D91C
1CBB3
2807B
7D2FD
0A738
15E02
0D633
21F0D
28B21
7A1EC
7BE52
1E0A7
7CC31
7FF0D
176B9
188FF
7C0AC
27FD0
03172
0BF22
799E7
77DB7
7B9D4
1AD05
77520
7DF25
00642
7BDE1
23650
7B620
23084
721A9
1DB67
27583
2C066
1EF22
157A8
0872E
7D41D
234EE
7D74F
7E092
16B2C
7F34B
1C4D2
7914B
79D30
763CB
17685
7AAAE
24AC0
14ADE
1B87E
11B82
12DC4
047CE
79FF7
0749C
1B171
1574E
78BDA
1A2AB
221F6
7C1DB
789D1
77084
1A155
1AE5A
7FF4E
286C1
7D497
7A5FB
1BECD
1BF4F
75A84
7BCC6
7A9CA
16A86
0993E
02CE6
7B685
1828D
0B48A
77F51
25D18
1155E
3674F
0D2F1
7E16E
2A753
1CFD7
23528
2A503
7812C
22A66
75C5B
13182
22107
7E527
78448
1EE03
7FDD9
01B29
101D5
74B60
2378D
6DA02
72699
01E91
12E89
06649
745E6
7AC8B
23DA3
784FA
7D179
28092
18FAF
26F3C
17DEB
17371
15D17
24175
74CBC
7A11A
2157F
13B09
782B0
094E8
758E6
75B88
27E73
19B45
2311D
77E17
7F644
729B1
12253
0F3FB
786BF
10C4C
01578
75C38
7AFDA
22AF5
1DA93
7A25F
76F09
19E51
79259
1A0E9
17E80
22FA6
2758D
761AE
14676
7E235
19F0B
21540
249EF
1626C
7F5F3
7E0C2
1AB47
7209F
7A3EB
76E6A
778A8
00C76
7B84D
79657

