3059A
2EE22
46007
27841
23033
1E9A9
4F53F
23AD2
40DCC
379DD
2619D
1EE4C
17C2D
2DB0A
38E56
58E0E
25AEA
21E2D
548C2
1BDBB
4FFD9
1F149
62550
29D90
2CEBB
32176
2CE1A
2DFB2
42716
2D07A
52E4B
6C596
2CC69
27006
39A4A
2503F
5806E
6E020
36DD6
23249
53A4C
321CD
2FBC8
3A80B
43FA2
303D7
6D131
23083
2955E
257AF
2A14B
2432E
489A5
3F9C9
26AC2
2DAC4
27EC4
5FE55
21B07
60B7B
3CD1D
4B66B
644E0
6A1E4
4E16C
3C835
26464
1F6B8
5EF56
11C8C
22FAA
43F8F
1F7CC
546A2
2B0BB
31C67
21E83
39BB5
1F04F
633FC
395AD
4A765
3295A
33D85
25AFB
26A3A
2597B
4F3C5
383FE
28E15
44ED4
573E7
2A57F
2C117
33180
4306F
4EE4B
2AE31
65DFE
1B88B
386AA
456B6
54CCD
334E6
2478D
254E7
38ADB
25DF1
1E196
2145E
41488
2667D
244D3
6C79A
30AB5
849EF
2950C
26EA8
74868
500CA
60D84
69744
319EC
60624
30833
37FE6
56DB9
16CDA
2E6EC
4C074
1D235
228E3
2BE3C
2A7B5
55873
3116D
2CF1F
2705A
33C6B
37D84
24A1E
2C0A7
66161
302ED
24A82
703D2
46348
5F99E
3E396
45670
3CD1E
64DE0
2443A
254BA
5BB55
3630A
2F949
278DD
2C776
2F51B
696F2
40A33
64DC4
1FEC9
2F5FA
300F9
30F90
2B8E4
1CBC2
2C35A
3EAC5
25B14
39488
60E02
50EF4
2A5A9
3432F
4DA17
22957
46803
40FDB
58614
6C65F
263F5
35172
23AFF
44D30
5EBB9
658E3
3A6C4
27EB3
2A9A9
4455C
33D69
36B20
26E59
36C28
1FF3A
2650F
29137

