49BDE
42741
57838
3B2FF
35579
2CFE7
654E6
335CD
50522
464BD
304B1
2CD33
2496F
43B65
47B91
70A29
3133C
32DD9
696A1
28654
64664
2CAE5
7CE8E
3BCBB
39288
3F44B
3C1E5
43C81
53FEC
3A114
6956D
88A95
407F5
32D54
48773
2ECEA
6E70F
8ABB6
5009C
33685
69DB8
4838D
438B3
490A9
55F80
45DF2
89B46
3044E
3583D
37A83
3EE4F
35048
5B942
5D91F
378CC
40702
3A2E2
78F7E
31905
7A47E
5BC87
5E55D
7D914
83D9B
61A03
4CB07
32A27
2D93D
77ADB
1A355
3249F
56BC1
2CDD9
6BAB3
3FC07
48F65
34012
47F4C
2E157
7D2E9
488DC
5DE94
40345
4183A
3371C
39239
3226B
64D87
46AB1
3CD46
56A5B
6D422
3D804
41644
4BFBF
53FEB
64710
3CAD9
7F576
2811A
5220C
569D8
6C5B5
4CDAC
3553E
36FFE
46C6F
3198C
2968E
30F71
52535
31A53
36ADB
89C1A
3DA78
A5036
34F95
37D5D
93385
65358
7A573
839EE
4977F
79F79
48DAF
47491
6CBC7
20F2E
44E13
5EBD7
2944D
302C1
37666
40C3D
6A45A
4D0C0
4533B
3666D
41659
4C569
38A23
40741
8188D
47564
350D9
8E292
58F27
7713C
4E1E5
588AF
4CFB9
7FB62
37EF9
37358
73E54
447CD
468B5
3416C
4338D
47305
84975
50C59
80200
3084C
43421
49876
3DBF7
37496
2BC89
3794D
5816F
398E0
53192
7AA5F
662EE
3E54C
4D95F
63122
33C17
58EB4
52046
6E82B
89039
3A32C
42A2E
333F8
56989
782E0
80771
49744
38B8D
3D119
55965
4F1B3
4FBF3
3AC98
50F56
2CDEC
380D5
3CD5D

