20E4F
22F89
3B57A
1B8AB
17DB0
15D83
41F32
1A20D
3773F
2EAE5
1FE59
1669E
0FF3C
20490
2FDEF
4A6AF
1EAB8
178D0
47D88
143A1
43915
16CD4
52278
1EEC4
2578C
2A121
239B5
20B61
37C24
25180
453B2
5B1D9
20C57
1FCCB
309EE
1F0E2
4A623
5C861
278AB
193E1
461F4
24A7A
23AE0
31A73
39069
2312B
5BA5B
1AF98
21EC0
1A6A8
1D697
19F61
3D0D7
2D604
1C663
22402
1CCF5
50A26
1806C
51284
29F8F
3FE05
54ED6
5A748
42326
32AA9
1EC03
16CD6
4FE95
0CA81
19A8F
388D4
17582
46428
1E712
23A95
16E42
3112C
15D97
5376C
301A7
3E9FA
2A4B5
2B864
1D4FE
1B60D
1DF2C
4214F
2F791
1CBCA
3A240
49D81
1EAEB
1F16B
23F17
38B2F
41C6F
200EC
565F8
13E77
28C42
3AF3D
46761
23C15
1A364
1A896
3018C
1EBBF
1736E
17B8B
36E8E
1F906
191D9
5AA6E
28C3E
70E76
22382
1C9E1
61D77
432B6
51536
5986D
231AA
50CFB
21B1F
2EAF8
498A6
10A0C
20C4F
40A37
15C10
1A445
24E22
1CEB0
48E6C
20124
1E2E2
1DA92
2B7C3
2B5ED
18753
1F9DA
5560F
2216D
1AAD3
5E068
3ACC1
514FB
348C9
39C06
32FB5
54870
184A5
1A643
4CFC5
2D7CC
219A4
1FEC9
1E9D7
20CA3
58E76
36D10
5443B
15D2B
23452
208F0
29324
246A5
13932
25499
2F33C
199A3
2991E
51301
44003
1E31A
24BF0
40949
18219
3B4A3
36A09
4AE8C
5AFAD
1A1A7
2CD86
1A372
3A01B
4F3E4
552CF
3145F
1DB0D
1F5D4
39D57
233D7
27725
1ACA3
26D01
18169
1B854
1D0C7

