4FD74
41654
5AE7E
40C3F
37D56
3041A
69BD6
34874
52F15
49A3F
30403
2E8ED
27DA1
46DEE
46DE4
75189
2FF67
36BC9
6D8F3
2AAD0
66E2D
2F97D
81904
3ED6E
3F91D
41366
3E705
47473
567F1
33976
6D537
8E41A
3D647
372D4
4A114
30356
6DADB
8DB66
5549B
37056
6DD83
4CC58
466DC
4C723
5766D
4A720
936C4
32CB2
38729
39192
43981
387A0
5F757
61880
3A60E
46EEB
40236
7CC78
347D3
7E8A6
629E2
663EE
82A78
89B5B
63BE0
51D62
3C9F8
2FB56
7DB89
1CED2
36729
5BF78
2ECD8
6F22B
4487D
4E3FA
39B3A
4B588
30EB7
81F4B
501A5
60726
45576
49DB1
39847
3D88C
34F20
6885B
490AB
410E2
58D69
71E00
40FF2
45AD3
51D03
56076
689AC
3B69C
82BC8
29F96
56D95
58485
7073F
5270F
38CCD
39EFE
47E95
34883
2CC45
328C5
52866
34846
3B31C
8E585
3F684
AA802
3A593
3FAAA
977AA
6894B
7E3BC
8948E
4ED35
7D20A
4E191
49750
705D2
22114
49DA3
615AB
2ADB4
3335E
479BC
4566B
6EC38
5383A
4B9E1
36C3A
46DB1
4F6F3
3CC6B
452AD
86899
4D385
380E8
91AEA
5DEC2
7D70E
4EBA2
5C767
51D3E
84113
3A96A
3B1DF
79E6B
467FD
4A534
36009
47788
4B83A
882E7
4FD3F
83FF8
3312B
470B6
4E1B7
3EF9F
3C7D0
26C1F
377D0
5E99C
3D0BF
5779E
7E98C
6B0CA
4238A
5310B
67715
374F1
5B700
56482
707F9
8DA4A
3E9FC
4314F
3701B
59B6B
7CB5A
84C5B
4DB19
3D7A4
40843
57A55
53A9B
56B34
3E6A0
564FE
2F803
3A603
3F334

