7ADA3
056B6
203ED
7E042
7C3C5
7F8F6
20032
01DDD
1F68B
18291
0F3DE
01515
7CBB7
7EBDD
17C37
25A7E
0CB8A
7DDD4
2781C
01821
23B1D
02012
28F14
0374C
14086
1576C
0C5E8
7FDCE
1C7EF
0D391
22675
2F480
0279F
0E394
19667
0FDF5
26499
2F3F5
01722
00B66
23981
03257
05982
1B7AE
1CC6D
02362
30B14
06B1A
0F7B2
7EA66
7DFAD
006F8
1FE1D
7FCAB
02905
06431
00DA5
298F5
7FE8E
2960A
7B530
24111
2DCE0
32F02
2385D
1A83F
07DB8
014EC
2A0DD
003E2
02510
1C186
02D93
221F1
7F11E
009E1
7BC7A
1B301
7F110
2B945
1A444
202F8
162DA
1849F
0CC6D
7F580
0A9B4
20971
191F4
7EA13
1E4FD
27C6D
0188C
7EADD
7E562
1E0C3
208D3
05AB0
2E99A
00BF7
01981
1FEA6
221E5
7D38D
00C7C
7FAF0
197F1
0D065
06103
7FB12
1BB1E
0E6E9
7D596
2D259
147FB
3E6EC
11CBC
031C4
3208F
223E4
29A2F
3105F
7F0DC
28DD5
7CD63
16D29
277A4
01642
7ED74
23687
0374B
058BC
17F99
7B55A
28EA0
75F12
79C2E
07F95
176BA
0C292
7A2DD
00AD0
2ACFA
7F485
018CB
2F42B
1E307
2D87E
1AEEB
1C3C6
1AA09
2ACA3
7AB2E
7F4EE
28018
174F6
7EB40
0C837
7C015
7C92F
2E39E
1C6D9
29C30
7CABD
0507B
7A07E
14E70
0E2B9
7D985
1286E
08918
7B803
025A4
29173
235A1
7FF6A
7E625
1FA97
7E432
1E98E
1CA8F
27F6F
2E966
7BDE0
16F7A
022C4
1E77A
27D64
2B68B
1A92F
039B0
03474
1EEC4
7A330
0176F
7CC1E
7F18F
04A2D
007E5
7EF29

