2C335
283E8
424E6
24C61
1ED74
1BD5E
4AD26
1F488
3D54F
34E40
22688
1B961
15C4F
289F8
331D5
53C84
212F1
1EE31
502EB
19697
4AB58
1C79A
5C665
25EFC
2D4FF
2EDDC
29711
29546
3E2C7
23805
4DE82
666D9
24AF8
2600C
35A89
22A5F
4FBD8
66191
3220D
203F2
4EB51
2DE58
2B3D7
37E97
3ED12
2C276
6A051
204CD
27449
20967
2666B
20F9C
44CC3
388B3
22F8E
2BD00
25996
59E18
1E708
5AD3C
374D1
4A7E4
5F128
65525
48CFC
3AA32
267EE
1C400
5AA28
10E5C
20961
412E9
1C5ED
4ED6D
2766E
2DB19
1FBC0
37268
1C038
5DBBC
3986C
457FA
31903
3511D
26C15
23745
2330B
4A5B7
34F25
25331
404B7
52CD3
26622
27E74
2ECE8
3E8D8
4A638
24DFF
5F741
18AF9
3318D
40A51
4F9A6
2EB44
214ED
21821
34727
23F6E
1C895
1D38B
3B882
248BC
21426
6595A
2D69D
7D2E8
2957B
2645A
6CF02
4B15A
5AC1D
64459
2D5F7
59CAA
2C054
34392
51CC7
145D4
2A655
47607
1A557
200F9
33A21
26574
5178D
2C463
294A6
23247
32F6A
33390
20D93
2871F
60125
2C895
2132F
68689
43321
5BEE2
3901B
41876
3AADE
5EA0D
1FCBC
22093
578ED
32B5D
2A9CE
249A9
27D2F
2A691
62754
3A45F
5E283
1C427
2B5C7
2AD97
2D551
29109
157EF
27FD0
3A85D
218F4
33C77
5ABD4
4CFB9
266F9
2F8DC
49575
1F62D
41EC8
3E1E2
5214C
65C7F
22A11
30951
20D9C
40DE5
591E2
5F4C2
3841A
25356
26D60
3FDBE
2E255
32F4D
22E17
31BCF
1D867
221A4
24417

