11554
1548B
2FC31
0FAC2
0C001
0C70E
3383B
0F447
2D0A5
253FA
17F92
0D48D
08235
11D22
24393
3AAB4
160B0
0CE87
3A097
0C65D
3577C
0E103
40625
1329F
1F8C8
21093
199D0
12C0D
2BD68
175F3
3638C
48675
120F8
190E7
26460
186D0
392BE
483C2
179F9
0F13F
373C0
169F1
16BE7
286EA
2C48B
15519
4ACEE
125BE
1A513
0E1C4
1064E
0F426
30B2F
19A54
1153E
175E5
1197C
3F92A
0DD15
3FE79
16A5A
35927
443FB
49E3F
34828
29261
15D09
0D94D
402F7
07D47
101B2
2CFD8
0E79A
367E2
11718
1526F
0C28C
27ED2
0C40E
426D6
2881D
312F1
22A75
25667
189C8
0FCB5
15CE4
339E0
25CC3
10335
2DCB0
3B608
12523
11758
146AD
2CDB0
339C6
13E26
44DB0
0BA72
18253
2ED35
36D6D
13C38
0F993
0F17B
25C62
1779A
104D1
0D24E
2A32C
18819
0DB55
46DB7
1FD94
5B04B
1C85D
1320E
4CDE6
34D94
40038
485EB
14279
3F275
1254E
24375
3AC1D
0A08D
12AEC
33CB3
0DE0C
119FF
24932
0EED2
3B63F
0EB17
0F69E
1459C
23F7C
1DF4A
0BCB8
12CB0
43130
13E5F
0FF7B
494B7
2F0C3
42AB2
28A20
2D399
293A9
4267B
0B994
0F20F
3DAB2
23CAD
12B4E
177CE
0FF79
11748
46055
2A063
41A17
0B0FC
167DF
10453
20081
1A6C1
087BB
1C4DC
1F535
0CD6B
18DE7
3FB55
36512
117D6
14C89
32A62
0D5A1
2EB0C
2BE6E
3B26B
47BB3
0D868
22A2F
1025F
2E239
3E498
430C0
28189
12E9E
137A1
2DED5
11DD2
1802C
0E1FE
162AC
0FF97
0FCDE
0FF18

