3E4B8
35036
4ECB9
32FC2
2B879
2633F
5A84C
2A11B
484DB
3F6CD
296FA
2537D
1EF32
37FAC
3D24B
64B20
28AFE
2AFEC
5F18D
222D3
5903B
262E6
6F447
32946
3694D
382E3
341A1
3888C
4A85A
2BAB8
5DDBA
7AA61
313AA
2EB8D
40052
29886
5EF09
7A35C
43FA8
2BCF2
5E83F
3D925
390B2
42564
4B4C6
3B886
7F0A3
29B06
2FFD6
2D081
3538E
2CE82
52555
4D5A5
2EDAF
3994C
3312A
6B993
29A24
6CF56
4D4AE
58954
71231
77CBA
567BF
466A5
31BAC
26210
6C72A
17012
2BAF6
4EC7D
25BA7
5F3C6
3630B
3E38B
2CEAF
41674
26A0A
701F9
44FD0
532E1
3B9AC
3F9F6
3047D
30B1E
2C345
59ABF
3F261
33577
4CC16
6293D
33E50
3704E
40944
4A78B
59BAA
30513
715DC
21768
453F7
4CA54
6047D
40D8F
2D3C1
2DE91
3E543
2C603
24C6C
280C8
47348
2CA78
2E6D2
7A474
368C7
94309
31F9F
332A2
82892
5A0F4
6CC4A
77102
3E5B4
6BBB3
3D525
3F00E
61510
1B524
3A5DB
5490C
22B8E
29C87
3DC64
361C3
6057D
40323
3AB7D
2D1AB
3D100
418BA
2F06F
3706F
7399B
3D213
2CCDC
7D5CE
50C3C
6CF18
4408B
4F33F
466E7
71A2C
2D660
2EC4F
68FE7
3CC1C
3AB68
2D6FD
37E41
3B379
759C2
45376
715E6
27D78
396A7
3CBFE
364A4
32ED0
1E427
2FDB8
4CD6D
2F83B
45E6F
6CF1A
5C3F5
348AD
41953
589F9
2B881
4EE08
4A62B
61861
7A04C
30D78
39F97
2C196
4D7B7
6B2FF
7252B
4323D
3187A
33DFB
4BEF7
41316
451A7
30DBF
444E7
26A6C
2E6D1
31EF6

