6924B
78007
14E46
70599
6F9C3
763FB
11B17
77AFC
1582E
0E72F
0984A
77D34
73C8E
6FEEA
0F50D
16419
05603
72450
1A078
78B32
16C1B
78F0A
17CC9
7783E
0A9A2
0D238
0226C
70D85
11385
0877B
13F2C
1CF38
75783
05D25
10135
098E5
192B8
1D74B
70451
7587D
15593
741C5
7830A
11BB3
1185A
7393E
1CC90
7DE91
072E1
72819
6FB67
75087
13637
6B98F
7757A
790C6
74B92
19956
752BC
19078
65FCD
164DC
1D759
21F4B
174D0
0F261
039CC
77B79
19A29
7A292
780B8
0F5B5
79F89
1333B
70FA7
70C05
6F27D
11D76
74C5D
1A863
0EBB6
13EBA
0C63C
0D82F
7F1AB
72C24
025FB
12A25
0FD08
70EF3
133B9
19822
749EA
70450
6D4AE
1371A
12772
78FEB
1E750
7861D
70502
15324
12BD3
6BA8F
7533E
73B03
11241
04FD5
7E615
75446
117DA
06E2B
70C42
1A5C5
0C412
29C82
089F3
77780
1E727
14B5D
19588
20130
6EBDD
18A39
6C3F3
0D1C4
1980D
7A5A2
6F7BE
178DC
7B1E6
7C5E8
0B9C4
6BFDD
1B5AD
62AF8
68EBB
7BE47
0D942
7E5FA
6C8AD
72CBE
191CA
6F403
76AD1
1C53C
11A58
1DC41
11A68
0FB9B
0F7E5
19964
6D193
730F3
17E10
0E185
6F2EA
0466D
6CA6E
6C617
1D46C
13641
18669
71632
779C6
68A3D
0D257
0AA8A
72888
0C51A
77656
6DFDD
70E3A
18999
1558B
7254C
6D018
11815
726D6
12D98
113E6
1A518
1C264
6E4C5
0F1A7
780C9
12FC7
175EE
1A174
10450
78CBF
76D26
13F44
675E6
70713
6F1E2
6D4A2
7BB94
74942
71AA1

