2B1A9
27786
418CA
23E99
1E126
1B350
49DED
1EA12
3CAAB
34409
21FB8
1B00A
15368
27B13
3281C
52C1E
20BAB
1E273
4F475
18E17
49D79
1BE31
5B41A
252BA
2CC02
2E4D4
28CBB
28688
3D6CE
23019
4CF0B
6533E
23ECE
25797
3507D
223B2
4ED1B
64E11
310BE
1F8BB
4DBFD
2CF25
2A674
3747B
3E0F8
2B38C
68BEF
1FBB2
26BD4
1FD56
2580B
2040A
43FA2
37486
22408
2AFA6
24C85
58CE9
1DC2E
59BA7
35F7E
49A3A
5DFA3
6433B
47FBA
39EC6
25D09
1BA6C
598E2
10871
1FE9D
405BA
1BCDA
4DD87
26817
2CB12
1EEF8
36877
1B5ED
5C9E7
38D4E
44AB6
30F47
346E1
262D8
22A6E
22A4E
496DD
34540
2457A
3F8A2
51D87
25908
26FCC
2DBAD
3DD4A
49758
242E6
5E5E2
18276
31FF3
3FEAE
4E979
2D9AC
2095C
20C1A
33D92
23746
1C097
1C90B
3AD30
240DF
20761
64549
2CDC1
7BC99
28D1B
257D9
6BA10
4A2D4
59AA6
63221
2C57F
58B44
2AF8E
3391E
50DBB
13F15
296D9
4693D
19D34
1F78B
3304C
2562A
50921
2B111
283C0
2289E
3259F
325AD
1FFD3
278FB
5EE35
2B87E
207EE
67237
425F8
5AE63
3856A
40B33
39F78
5D79F
1EF8C
2143A
56805
3219F
29A31
24118
26D9A
29644
614C2
399C2
5CFE2
1B8EB
2A826
29C3B
2CCA2
28779
14F6F
2782E
3969A
20B6C
32AE4
59A2D
4C0EB
2594B
2E761
486A3
1EA66
41238
3D5FD
51252
648DF
21C49
30035
202B4
401AA
5805D
5E24F
3798D
24764
260BB
3F208
2CFDD
31DB4
22089
309CE
1CF8E
215B1
236D3

