FD980
075AA
22234
002B5
FE288
01218
2263F
03803
21124
19C1B
104E7
02C6F
FE1F8
01118
19487
2837F
0DDBA
FFB2F
29C44
02D61
25DCB
03799
2BCD2
055F2
156FF
16E00
0DFBF
022AA
1E5DF
0E75E
24D20
32585
04607
0F8B7
1AF86
10EA5
28971
324B6
04268
0276E
25FD4
05857
07AF9
1D0F4
1EAAF
048AB
33E09
081DD
10CD7
00891
0039C
023E5
21EED
02F1D
045D4
08592
02E4E
2C3E9
019B1
2C1FF
FEA80
26339
308AB
35BCB
25982
1C4CD
098F4
02CDE
2CC0C
012AF
03FF8
1E27D
04443
249B0
014F8
031F2
FDC70
1CBDC
00ACB
2E5DA
1C00D
22423
17B32
19E34
0E385
01599
0BF8E
22E91
1AAB0
00C5C
20332
2A2AC
0394D
00F82
01077
1FDA8
22E04
0766D
31507
0213E
04582
21BBE
24A53
FFF89
02966
01901
1AFE5
0E4CA
074FD
01551
1D76B
0FA91
FF581
30483
15E20
41EB3
131AA
05105
354EB
24832
2C5D8
33DED
01A08
2B953
FF754
1874B
29D43
0271F
0142B
2567F
04BA1
0704D
1982F
FDB94
2B2AD
F8F5E
FC66D
097BB
18F35
0E54A
FC53C
02E2A
2DC52
01CBF
034ED
326F7
203EC
301BD
1C9A6
1E4EC
1C687
2DAB7
FCC28
013CD
2AA5C
18D51
01248
0DDA1
FE709
FF1EE
3120B
1E161
2CAC3
FE6D1
0728D
FCBE3
16427
0FAA1
FEEC3
13B81
0B580
FD9D8
05193
2BD95
25AA2
0219C
011DA
21FA3
001A3
208F5
1E84D
2A4DF
31A76
FE055
1863F
03E09
2060E
2A932
2E4AB
1C392
0578E
0540F
20C0B
FD15D
0436D
FEE01
01E93
0604D
025C5
01053

