6883E
52CED
6BEFA
5424E
4922E
3E64E
7F250
433C9
61E77
58017
39D58
3BB13
345EE
5BCFB
548B3
8C28C
3A31A
473F8
81E5A
36A0B
7A64B
3CD41
9B4AC
50146
4C359
4DE9E
4CF99
5C02F
6755D
3EBB0
8313D
A9D47
4E7F3
43110
58325
3998B
8267B
A9235
6DA11
46C9C
8366B
62259
59406
5AA97
686C0
5F6AA
B0163
3F98C
44574
4A112
57CE0
48BF2
71EAA
7DE85
4A952
59B52
5282F
94F09
43C10
9743F
809B2
79758
9B49C
A2E6C
76630
61E5B
4BF12
3D2E0
9602E
2540F
45952
6E82A
3B905
857E9
58B25
64C96
4BADD
5953C
3F64B
9B086
5FBB9
731A7
5308B
583F0
4681A
4F96F
413CB
7D67D
56F43
54571
69D46
87633
536BD
5A49F
6A0C6
66481
7D85F
4B043
9B29B
35F17
6F99B
68A5A
8731F
6B2EA
49105
4AD96
55631
40007
3800D
41502
62718
3F92F
4D264
AA906
4BDD5
C9E00
461F2
513F5
B4EE3
7D006
96CB3
A2E8C
65FC3
95975
65B0A
58284
85864
2B8DD
5FA13
7356C
364BA
4077C
55700
5AE79
830AF
6EAE2
6361D
44593
54A09
62F72
501C6
590D5
A12AE
63D8D
47E1A
AE419
706CF
94A40
5DC3A
6F1BF
61DA8
9DFC8
4D232
4C7B2
91AD6
54330
6047B
420C1
5D615
626EB
A24C2
5EC02
9E321
42DE0
5A35C
66843
4B30F
49EF8
32B54
42381
7793F
50137
70308
976BD
7FDD6
55752
6BA67
7C484
47DEF
6D19D
6702B
858E7
A93D6
52014
4FE3A
46587
6AEA1
95599
9EB76
5C88F
4E477
524B9
681D2
6DA2D
6F723
5179D
6FA1E
3BF21
4B2E3
51DAB

