694E6
79099
14229
703C5
6FEE7
7581B
10CA8
77684
14C50
0DF1F
086D4
77FA5
73D47
6FD9B
0E09F
15416
05721
721F7
190B6
79025
15D2A
7897B
16A58
77324
0B0B7
0C6E9
02084
711E7
10859
054D3
12EF9
1BAC6
76502
05C4D
0F5A5
09324
178C6
1BBEB
7022F
75801
1443D
73F24
78358
115EF
10AC7
734C8
1C4F3
7D96E
07060
72955
6F9BA
74DDB
12C1B
6B9D0
770A7
78E93
73C99
18610
750DF
17CBA
65FFC
16676
1C498
21061
1643B
0F182
7CF6C
77BA6
18C7E
7A522
778DC
0EE8A
79C62
1238B
70BAC
70972
6EFF0
113ED
74C63
19BF3
0F26E
12EB4
0C710
0E0E4
038A4
72812
01DD9
11BD5
0F3AA
70EA8
123A9
187A9
746EB
70058
6D1A4
127D8
11AD1
7A927
1D3AF
783C9
6FFE4
14475
11F24
6BA0D
75371
73A83
0FE9F
04DE5
7E12B
75314
10601
0691B
7094C
19147
0BA3E
281F4
096C7
769BC
1D178
13B8D
182BD
1ECD3
6E95B
1777E
6C0F6
0C5E7
186E2
7AA52
6F5AC
169E7
7B525
7C1E5
0E241
6C0B1
1A7E5
629FB
68DCA
7E506
0DA09
7E459
6C6E1
72892
17DFC
6F314
764BF
1AF0F
11080
1D088
103D4
0EF9E
0F3B2
185BC
6D823
72F5E
17193
0D915
6F174
03F2B
6C6CE
6C46D
1BA79
11D10
1721E
7170A
7766B
68AC5
0C375
049B9
7518C
0AE56
76CE9
6DF80
70C75
17700
148CC
7248C
6CE6C
10D7B
727C1
12096
10C39
18FD7
1AF69
6E15D
0DDC2
7743F
123C6
1650A
18F5B
10053
77A85
76A2C
13366
67BAC
6FDE1
6F33C
6D178
7BC95
748B2
71AEC

