6B59F
79B41
166A4
720F7
71344
77800
139AB
790CF
16DB0
0FB9C
0A678
79096
74E67
71D8E
109AE
18526
0660A
73BF0
1BD80
79CA3
18880
7A1F6
1A1C3
79136
0BAA9
0E48D
0379F
72BD9
12BF1
0999F
15E66
1F69C
772F4
06D9B
115D4
0A684
1B1E7
1FF42
72757
76F1E
1747B
76087
79E99
12FED
13162
75756
1F465
7F0FC
083D3
74163
7185D
767ED
1509E
6E33D
78CF5
7AAE1
764F9
1BC38
768D2
1B409
68AE2
17F34
1FA7F
24318
18FFF
108E2
04AFE
78F2C
1BC8E
7AE4A
79605
10FCF
7B225
15395
72C76
72C47
70BAA
13141
76153
1CC78
100DB
159C9
0D92F
0EB34
004CF
745E1
03774
14836
11117
72AB5
14C61
1B6C3
76491
721FB
6F750
14EB5
1456C
7A8AB
20ABE
7978D
728C7
16B11
14C99
6DE1B
76AB1
753A1
125DF
06026
7F5D2
76A1B
12F90
07DCE
725D4
1CE82
0D623
2C993
09A2B
78F0B
211DB
168CD
1B901
22597
70D0B
1ADD1
6E5D1
0E70B
1B67E
7B3C0
716F9
192E4
7C2C7
7D8DA
0C9C8
6DEDE
1D289
651DE
6B07A
7D3AD
0EC36
0027E
6E481
74924
1B7FA
7143A
781A1
1EEDD
1346B
1FCEB
13085
1163C
10E62
1BEBD
6ECF2
749DF
19FB7
0F56A
712DD
057DE
6EA17
6E74C
1FA35
14CB3
1AC58
72D48
79570
6ADAC
0E41D
0BADC
73D78
0D4EC
799B3
6FB80
73225
1AD74
1731B
74117
6F36A
135EA
73EBB
14739
12B97
1C3E2
1EA34
70087
1047F
7966F
14881
19955
1C6E5
11939
7A420
786D7
15745
69BD6
729EE
70D8F
6F915
7CD8E
761EF
7361F

