29758
264F4
406A0
229ED
1CEB1
1A43B
48718
1DA62
3BAB5
334B7
2157F
1A207
1460E
264BD
31985
51384
200C1
1D0D6
4DEC3
18158
488AA
1B012
598A8
24056
2BE86
2D747
27D3A
2706A
3C4D8
22438
4B7D7
635D4
22C90
24AE9
3416B
219AE
4D6FF
630D0
2F6C7
1E7EA
4C4FE
2B858
29261
36551
3CED0
29D2E
66D5C
1EE0A
25F25
1EB3C
2427C
1F2AF
42BF2
35641
212BF
29B9F
238EC
57324
1CBE5
58147
33F81
485BC
5C55D
6285C
46BD7
38DA5
24CB2
1AC0D
57EF9
0FF8F
1EE78
3F1F2
1AF3D
4C5AE
25294
2B307
1DBCB
3598D
1A67C
5AF27
37CA2
436CF
300AC
33788
254FD
2172C
21D31
48096
33669
230E8
3E682
50694
24561
259CF
2C1D3
3CBF4
48108
23242
5CBD4
175B1
3058C
3ED39
4D137
2BF48
1F803
1FA10
32F32
22B0A
1B49B
1B94B
39C35
23514
1F43A
6272F
2C077
79B22
2808C
24519
69AA6
48D0C
58074
616CC
2ACCB
5712C
29663
32970
4F729
134F7
27F9E
4560E
19101
1E967
3218B
23F3A
4F380
29417
26A67
21A21
316EF
310D7
1EB33
263C5
5D1CD
2A05C
1F70D
653BD
4123C
595A4
37560
3F750
38E60
5BBF9
1DBC3
201B4
54EA9
31302
282C6
2343F
2563C
27DD2
5F8E7
389D7
5B3F0
1A813
293B4
28232
2BF9A
27921
142B0
26CBC
37BF5
1F720
31088
57FB2
4AAB8
244C6
2CD27
47068
1D8BC
3FF61
3C425
4FBDC
62B6F
2079D
2F28C
1F257
3EF51
56614
5C6A2
369B8
23578
24DC5
3E077
2B429
3034F
20C34
2EECC
1C248
203C4
222ED

