755E8
018CD
1C760
79B5B
78640
7C6B1
1B417
7E991
1C158
14F7D
0D1CB
7E662
79F34
7A169
14B98
2087E
0A729
7A31F
22FCC
7EDA2
1F5C1
7F102
23399
7FA00
11395
12A43
09239
7B416
18C10
0ABF5
1D91E
29276
7EACE
0B94E
1642B
0DC94
21AE7
29272
7C096
7D357
1ECDC
7E657
01695
18522
18FE9
7D8D2
2A52A
03D94
0CD68
7AE11
797D1
7CD1F
1BC7C
797C7
7EF68
02170
7CC51
2430D
7C847
23E21
74A90
1FCC0
28549
2D570
1F612
16F24
04741
7E506
24A7F
7E646
7EF3F
17F97
00034
1D271
7A96B
7B9BE
77C8F
1814B
7BD9A
2601B
16CB1
1C0A3
1322B
15174
09E3E
7B54E
07E00
1BF30
1607D
7A582
1A893
22FF0
7D70A
7A193
78F36
1A6F9
1BE73
02335
292C1
7E169
7C180
1C477
1D109
77B95
7D2A9
7BECE
16807
0A79D
03910
7C693
18285
0BF99
795BF
26E03
11BB0
3775F
0F2DF
7F341
2B7D8
1DB49
242DB
2B543
79E83
236DA
77981
138E4
22C67
7F487
7A005
1F695
00E9F
02998
14E6E
768E5
24685
6FE7B
747AF
04F48
145C3
07D20
75E1E
7C41C
24E4B
7A412
7E087
28E92
1A13D
28601
17973
18179
1710E
2507B
7693B
7B731
22B8E
14440
79D31
09D63
7722F
777B3
286C2
191CA
23F0B
79295
00C56
749B4
12302
0B2E9
7AF07
10246
0304A
7745A
7CDC5
2392F
1EB9E
7BB05
78EBB
1B07E
7A94E
1AAC0
18F14
23490
28747
778F7
141F1
7EC3B
1AA52
225C8
25A4C
1746A
7FDF2
7F53D
1B437
746D7
7BF73
78857
79788
01DED
7CC25
7ACD6

