6FA4A
57D69
70DB2
59BE1
4E228
427A7
85540
477C6
6639F
5C27D
3C9A4
3F7C8
37FCB
61DC6
587E9
92D26
3D265
4C049
87C5C
3A149
80075
40A6E
A2B99
550F6
4FDC5
51953
512CA
62005
6C332
41F2D
895C8
B1CBB
53703
46805
5C474
3C4F0
88648
B10F9
74A94
4B57D
89A0F
68526
5EB07
5EC4D
6D56C
65799
B85E0
434B9
47C6E
4EF81
5DA4B
4D726
773FA
861AE
4F438
5F21B
57D1C
9BEB6
4829F
9E687
89450
7F027
A2679
AA2DD
7BC5E
66898
505E1
41124
9D075
27A8D
49F47
73DE0
3F400
8BF43
5E85B
6B4C3
50DF5
5D5DB
43932
A2470
643F8
787E3
56FD5
5C674
4A424
54CE3
44C9C
83705
5AF92
59E95
6EBD0
8D9A2
58BE7
603E5
710CB
6AFA0
8390F
4F863
A2383
39669
76C03
6D5FE
8DC3E
72546
4DC32
4FBC3
5947A
4350B
3B3FD
45941
670AC
42C4B
52562
B2B75
4F76A
D2F05
4985E
56539
BD705
82E69
9DE39
AA4FD
6CACF
9CA88
6C816
5C677
8BA33
2E4B7
65EBC
7888C
3999A
444C4
596EC
611DD
88E6B
76873
6A3F6
4845D
589B1
689B9
55B24
5ECBE
A8DC5
6A623
4C73F
B682C
75C56
9B57C
621BC
747F0
667BB
A5796
527EE
517F4
988BC
58283
669F6
4586E
63B5A
690DA
A9D79
630FC
A5C38
476E1
5FBF3
6D916
4EB85
4DD20
36291
4551A
7ECB2
5592C
77543
9E97B
85E0D
5B03C
72C0A
824D7
4CA7D
72341
6BD7E
8BA3D
B1365
579AA
5396D
4AC6D
6FE22
9C77D
A6362
60D28
53220
576E7
6CDF0
7523B
76985
56FB8
76F27
3F8A6
50090
573E4

