4BF31
4427B
59096
3CE5E
36EF9
2E3EC
6737A
34BA0
51AA4
4792A
312DF
2E094
25B48
45A09
49032
72B37
32343
34579
6B3A9
297C5
662C9
2DDD1
7F388
3D5B4
3A38F
406A0
3D718
45AD6
55858
3B337
6B4A7
8B1F9
42365
33DCA
49C12
2FA8A
7063E
8D3AD
523A2
34D26
6BCA0
4A24F
45441
4A4E3
57888
47C0A
8C31C
316B9
3692F
393CD
40B44
367AF
5D3A8
602CE
39047
4211E
3BC49
7B260
32F1B
7C80F
5E79B
5FFB5
7FC3A
86169
63531
4E189
33B59
2ECEF
79D3F
1AF0D
339EC
585DB
2E076
6DB0D
418D6
4AFA8
35940
49316
2F64D
7F6FD
49E01
5F9A3
41638
42B3E
34A40
3ABF6
333E4
66B98
47EC0
3E908
58302
6F2C3
3F2AB
433EF
4E260
55787
6650B
3E39A
818E5
2928A
545D2
581C5
6E67B
4F138
36CB2
3889C
4800C
329DC
2A64B
32546
53CEB
329F6
3846C
8C4D7
3EC89
A7D47
35FCD
394E7
95E39
670C8
7C8EC
85E56
4B8AD
7C312
4AF8D
489D7
6EA38
21D4C
46D4E
605E0
2A52E
315B3
3866A
42B3E
6C137
4F7A6
474FB
37BD3
4294C
4E1EC
3A5F7
423A8
83EBE
4959B
367A9
90C34
5A93A
791E6
4F803
5A351
4E636
820BB
39A57
38C45
75FFB
45BB1
488A8
352DC
45336
4943B
86F3E
522CC
827EF
31F63
44FCB
4BBE5
3EDBD
384E8
2D179
3891F
5A4CC
3B483
5557D
7CE3B
6807F
40117
4FCB1
64EF7
353FB
5A854
537F6
706F5
8B80A
3BEEE
43D07
3499E
58242
7A647
82CE2
4AC2E
3A2EE
3EACA
57166
517A3
51ECD
3C844
533C9
2DFE5
39982
3E8DA

