4815F
412D5
565F2
39E78
34258
2C0E3
63DF6
3256E
4F500
4556C
2FA0E
2BEA9
23C0C
4246A
46C19
6F15F
30737
31C21
680DB
2793E
63118
2BCB3
7B2D2
3AA01
385C3
3E68B
3B1FF
425C1
52D9B
39379
67E01
86D0A
3F361
320FB
477FB
2E2B3
6CFAB
88DBD
4E657
3258C
6868A
46C7A
42408
4817D
54CBA
4475F
87D66
2F67E
34B87
3678B
3D897
33EBB
5A575
5B9DC
3672F
3F36E
38FD5
77555
30875
789D1
59C38
5D19B
7BEB8
822C2
605A0
4BA26
31D41
2CA77
7610F
19A8A
314A5
5582D
2BFE3
6A26F
3E66C
47733
32D30
47074
2D19F
7B7D9
47900
5CA49
3F50F
409F6
328C1
37EEB
31550
636FA
45BA5
3B875
557DD
6BD29
3C406
40004
4A5C6
52E37
63094
3B849
7DAE3
27405
50738
557E6
6AD20
4B303
343A8
35D88
45DB8
30D50
28AC1
2FF11
5136C
30E98
357AE
87D8C
3CCEB
A2E69
3436A
36BB5
9137D
63D44
78AD8
81EA0
47E9C
784C7
47448
4649C
6B4F3
20498
436A6
5D851
287A5
2F48C
36A63
3F4FD
68EB5
4B394
439EB
35660
40823
4B007
37544
3F1F5
7FBE9
45D3B
33FBD
8C359
57B98
758BD
4D150
574B6
4BEDC
7DF5F
36A72
360A7
72517
438E1
450BE
33457
41BCE
45A1C
82D1F
4FB83
7E58D
2F6FB
41F61
47DE3
3CEA2
36858
2ACD5
36D6F
566EA
38426
516A2
78F7B
64CC2
3D073
4BEE1
61AC3
32A2C
57B7C
50E82
6D113
8725D
38E5A
41C0C
323BB
556FD
76852
7EB5D
48795
37A04
3BDD4
54764
4D53F
4E1CF
397D6
4F3FF
2C071
36E54
3B8BE

