5810D
47331
60952
47399
3D99E
34F81
70DFE
396E6
57EE0
4E6DC
33720
32EFA
2C065
4DD9D
4B6D3
7CC8A
335F8
3C3D9
7456B
2EA8E
6D637
34013
8A23C
44960
43C86
45723
4348C
4E307
5C1C0
374DE
74939
97729
43180
3B23D
4EC6F
33568
74966
96DAB
5D66D
3C46E
7507B
53E59
4CB3F
512F4
5D133
516F9
9CFA4
370FB
3C697
3EC12
4A54B
3DE66
659C8
6AFD7
3FC7A
4D30D
46434
84D53
3993D
86C84
6C9D2
6CA67
8ADDA
921B6
69F50
5730A
41BAB
3432F
85D15
1FB3C
3B7E1
6225E
330E7
7696B
4B40A
55C2E
3FB1B
50019
35BE9
8A509
55501
66AA6
49E7D
4EA71
3DD8D
438D8
390AE
6F7BB
4DADE
477BD
5E808
790BC
47236
4C8C2
59E44
5B724
6F93D
409D3
8AE0E
2DF6C
5F197
5DBCC
7808A
5AB03
3E38A
3F931
4C674
385AF
30832
37784
57D4C
3833E
412DF
97C05
438F4
B4F57
3E45D
4586E
A14BD
6F634
866B9
91D38
568B9
85483
55F64
4E5B7
776AE
253AC
511C8
67596
2EAB6
37A13
4C37D
4C91A
75860
5C91C
538A0
3B4AD
4B723
55F1D
43389
4BCBA
8F6A0
54C32
3D54E
9B34F
64171
852CA
53BD5
62ADA
572B7
8CB4F
40C57
40E7B
81D3A
4B10E
51A4C
3A046
4EC62
53275
90E30
54CD5
8CBB0
38568
4D6EE
563E5
430C4
40F88
2ABDC
3B10B
66ED2
4363C
5FB6C
86DF2
71FCE
48A22
5B42A
6E63A
3CD46
61534
5BDBA
77848
96D79
45159
4759E
3C1EA
5F728
84EC4
8D6B9
52A41
43140
46715
5D22A
5C521
5EF2F
44C4A
5EC09
33A63
3FFA3
456B1

