456C4
3A0B2
53B71
38954
30873
2A498
60B3C
2E517
4CA02
43934
2C346
29032
2290F
3E077
41181
6B5BB
2BA48
2FC3E
64F8E
25A12
5EA65
2A013
76B34
378F6
3A3B9
3BD98
384D1
3E862
4F630
2EE35
64245
829D4
362BA
32282
441A1
2C3EB
64ED6
82220
4B02B
305D3
64BE3
43BF2
3E7B3
46719
50372
41974
87521
2D634
336D0
31EF0
3B0F9
319B6
57AA5
558CE
33896
3F015
38617
72940
2E0B3
7419F
55F4B
5E223
7840E
7F12B
5BDEC
4B0E2
3627B
2A054
73771
19690
300EB
54233
296A3
65B1F
3C042
44BB8
321C8
45714
2ACF1
775E2
4980E
5891D
3F8F6
43C7A
34087
35E93
2FC16
5FB46
432AF
38E9B
51A9F
68CAC
3937A
3CF94
4794A
4F2AA
5FC5B
34D33
786C4
24EBB
4C65F
515F8
66D9C
47FEB
31EEE
32CBD
4238D
2FB07
2805C
2C507
4BCDC
2FD94
339D0
826E3
3A25C
9D40E
3560A
383E5
8B0B4
5FF57
73DD0
7E773
450C0
72CC7
44231
43401
676DF
1E0FD
40A84
59C2D
2606E
2D9CE
41C50
3C527
66339
480B4
41956
31075
410A8
47301
349CD
3CC58
7B4B2
43AA9
31601
859E1
561C2
73A54
4860C
5496F
4B0FA
791FA
32C1C
33C92
6FDCD
40B6F
410E3
30EAA
3E386
41D67
7D279
49870
78EFD
2C679
3EF3D
43CD1
39D1A
36CF8
21B64
32F52
540E0
35031
4D0AA
741D8
6242B
3A197
48AF6
5EA4C
3050F
53FAC
4F37E
679B6
81FDB
3670E
3DACA
3087C
52738
724E4
79D17
476D7
36623
39028
50B15
48B24
4C408
365DB
4B9F0
2A3F1
3347D
3752F

