369E5
2F98A
497F3
2CF4B
26258
21CE0
53DC0
257E4
43A61
3AF4C
26746
2121C
1B0E1
3176F
38E38
5D852
25810
25DBC
58C50
1E755
52F20
22104
67435
2D374
32A62
343A9
2F945
32157
45489
28346
57174
72120
2BE85
2B05E
3B9FD
269CB
587DD
71AD7
3C67E
26E76
57CF1
36EBE
33300
3DEA0
4600E
35022
761F5
25B4B
2C4A2
27C09
2EEF3
27D85
4C974
44866
29D06
33BD7
2D5B5
6414F
24E28
65443
43F68
529B0
69792
6FF54
50AF0
416B2
2CF6B
21F01
64E40
1469E
26F9F
4902F
21C22
58479
2FEAA
3735A
27533
3D0DC
221FE
68525
40202
4D603
37583
3B254
2C3D5
2B13E
28615
532CB
3AD21
2D578
47781
5BE27
2E29A
309B4
390A1
456A4
53389
2B768
69C45
1DBD4
3D8C2
478DE
59349
39268
282CC
28A62
3A230
28CEA
2147D
23749
4240B
2936E
28D72
717FC
32AC5
8A6DC
2E504
2DB1F
795F8
53B4E
65209
6F175
3726B
641ED
35FB5
3A6E1
5ABBB
185EB
33974
4EF86
1F29D
25A89
3978D
2F6B9
5A08C
37BE8
33532
28E0C
38C73
3B782
29030
30D74
6B50C
36171
27E16
74792
4B021
65B9D
3F5B1
4966E
41721
69927
27A0B
295E0
6198C
387EA
33E1F
29B08
31131
34164
6D7C2
4092E
6937E
22ED9
33740
3527D
327D6
2EBE0
1A8AA
2C84E
45119
29982
3E36B
65388
55C57
2E8EC
39EF2
5223D
26610
4961B
452E6
5AF8E
716EE
2ACFF
35FD6
2753B
48218
63858
6A406
3E85D
2C4D7
2E57B
46CFE
391CC
3D679
2AEDD
3C6DD
22C79
2932A
2C21B

