3C7E7
383E3
4E609
30EC8
2BC76
257C6
59D6D
2B2DB
48416
3EA32
2AF9B
258E7
1DE58
3838F
3FFCB
643D8
2B311
2A01B
5E870
21DAB
59C05
2595C
6F0B1
326E8
32C60
3864B
342B3
38684
4AD66
3343E
5DA0D
79E3C
36353
2CA8F
40BB7
29B2D
62BF3
7BBEE
42E77
2AEBF
5E448
3CAFC
3935A
4174B
4C94F
3A95E
7AC46
295CE
2F291
2E2C6
34090
2C3E2
51ADA
4DF09
2EBE8
36A5C
30A7A
6BE31
29480
6CF18
4BA0D
5474E
70631
766CC
576EC
443FE
2C2F9
2630E
6AC7F
15D02
2A4D1
4CF21
25E2B
5F893
34F2D
3CDD6
2A8FF
4088E
26396
6FA6D
409FB
53C39
39193
3A61E
2C442
2F7CA
2B995
59922
3F253
326BD
4D66E
61C5C
33817
36443
3EFF7
4B246
5932F
33655
720DF
21876
44B6A
4DA4C
6010F
3F866
2C889
2DC4B
3F6BD
2B7AA
23823
28C73
496F1
2BC7F
2D173
7A7AB
36E12
941CE
2EE42
2F020
83349
5A2B5
6D09D
75F7F
3D06A
6C9E9
3C279
3F4EA
61524
1BA7D
392B1
54FA3
22F09
29116
31650
35239
5F72F
3E75D
388BD
2E60A
3A4A5
41A56
2E32C
35CDB
7336B
3B41B
2C7FA
7E8CA
4F2B2
6AD43
45D36
4E8E7
448CD
71B4B
2DAC2
2DDCE
6746B
3D072
3A902
2D8C8
37597
3ABC3
766C2
485A9
71E67
27DC5
38E23
3C3DC
37152
312A8
23EE9
31A5F
4AD43
2F312
45A13
6D33A
5B18D
33E88
40572
57E28
2ACBE
4F4F4
49224
62F6D
7A158
2FCA0
3B91A
2B212
4D52E
6AE72
726CE
419CA
2FF48
336F5
4C960
40E12
42AD3
3068E
434A2
26214
2ECC7
3286A

