4B745
3E4CC
57E0D
3D51F
34C1F
2DBE4
65EF3
31E9E
50486
47163
2E8C1
2C391
25A05
4325D
446FD
70FEF
2E24C
33CD2
69F19
288D1
636B1
2D3D7
7CFD5
3BC64
3D529
3EF45
3BDAC
43979
5380B
319C6
69758
895AC
3A59F
35102
478E3
2E8A2
69FE7
88D64
50F5E
3437D
6A032
48F8C
43151
49EB3
54604
46B7A
8E53C
30847
36554
3614D
40004
35958
5C2D6
5C7CA
377F6
43983
3CDF3
787BF
31C67
7A252
5D495
62D48
7E467
853B3
606D8
4EFB3
39E65
2D504
79671
1B722
33C1C
58AB9
2C88C
6B292
40F21
4A3DE
36817
48DC3
2E58C
7D7F6
4D530
5D215
42E84
474C2
37354
3A531
32C29
64CF4
46919
3DA08
55D14
6E0CF
3DB8A
42032
4D813
5323B
64E2C
38A3A
7E64D
27D8A
5272E
555F8
6C68E
4E0AF
35E8A
36EE3
45841
327E3
2AC4E
2FEC6
4FB1F
328D2
3800A
89541
3D315
A4EC4
38416
3C8A8
923E4
64F35
79DDF
84BAB
4AB55
78C75
49E76
46D7F
6C9A2
20618
45FB1
5E283
28D2B
30DA8
45266
41941
6B28A
4EAF4
47648
34596
44685
4BF64
3956C
41A1E
81CD9
49328
353E5
8C9A3
5AA20
79511
4C0DC
5925D
4EFA8
7F759
374A8
3807B
75ACA
44105
466C1
33DC6
43936
4770A
8389D
4D2CD
7F573
3043F
43A32
49C48
3CCE0
3A190
24A21
3594A
5A291
39A9E
53152
7A2F0
67595
3ECD3
4EB1D
63BCE
345D5
584C2
534EC
6CC13
88BCA
3B2DB
40CE1
3447A
56A7E
78543
8028F
4B0E2
3A7D9
3D5B1
54B7E
4F0B9
524D1
3B068
51CF8
2D49E
37637
3BE25

