75D6D
01C97
1DA5F
7A2F8
78C66
7D71A
1CAEB
7F87A
1D3D9
15CA0
0E9D4
7ECA8
7A32F
7AF18
16BAB
22227
0B22C
7AC26
24767
7EF7E
20F60
7FBD8
25168
007D3
10B89
13BA2
09C52
7BBEC
19FF0
0EFC8
1F2BC
2B1B8
7F549
0BBCC
177CA
0E73A
24608
2BD16
7CDB4
7DA9B
20749
7F2A4
0217F
19002
1A849
7E64B
2B19B
04877
0D451
7B983
7A1E9
7D714
1CE05
7A93A
7FC7F
026E5
7DDA1
261EB
7D1BC
25CF9
75782
1FC55
2A173
2ED26
2111C
173CA
09CAD
7ECBC
25FEC
7E5F6
7FB32
18BCE
00A8F
1ED43
7B54E
7C583
78344
18F42
7C4E1
277DA
1654D
1DA51
13332
1458A
05FBB
7C024
08A73
1D706
17061
7AE8C
1C17D
2483F
7E32C
7AEE6
79BCE
1BED7
1D3D4
01E3F
2B30C
7EA64
7D2B3
1DCB5
1E847
786F2
7DA16
7C88F
1830B
0ADA3
04091
7D1CF
1A031
0C816
79F46
29005
12BF3
39FA5
0E737
7FEDB
2DCB5
1F4A4
2617F
2D285
7AAA6
256E4
786B1
14C1A
24714
7F6CC
7AB51
20E8E
012F2
032D7
115D9
77221
25BA1
70AA2
750C9
03950
1463A
089ED
768AF
7D00B
26D60
7AD3E
7EDFD
2B49C
1B047
29810
19990
194BB
17933
27025
76EF2
7C042
23F8F
153E6
7AAA0
0AAB5
78079
7850C
2ADAE
1B754
26087
79AF4
018D9
755FC
1388B
10862
7A0EB
12013
041AC
77EC3
7DCBF
257C7
1FF88
7C51D
79B30
1C39B
7B037
1C0F1
19C1C
25623
2A751
78461
15E04
7FD45
1BDF4
24181
278BB
17C90
0132C
000DE
1C948
7500B
7CF7D
79102
7A639
022ED
7D725
7B8B4

