0F23D
13BC8
2E3F9
0DF32
0A765
0B2F3
319C9
0DF5C
2BB5E
23F8C
171F1
0C1DF
07067
0FF5A
23020
389E7
15223
0B70B
383AA
0B55D
33BBE
0CE30
3E18E
11A1A
1E6CE
1FE83
18524
10E91
2A576
1661C
3449D
45F3E
108A4
17FFE
25048
17976
37544
45CC1
1575B
0DAD3
35518
14B8B
15122
272B3
2AC56
13745
4842A
11389
19429
0C9A2
0E98F
0DD03
2F0EF
171F9
0FE32
15B31
0FF5A
3D6CD
0C760
3DB4F
13FB3
33DD4
420F2
47A6B
32DA4
27B8A
14740
0C624
3E06B
0716F
0EC2B
2B579
0D574
34816
0FA6A
13261
0A8FB
26AF0
0AF79
4032C
271E2
2F868
216FC
241EF
1774F
0E307
14B69
31C2D
248FA
0E7C7
2C485
3976F
10AEF
0FA07
12436
2B693
31C05
127F5
42AF3
0A96C
15F20
2D5EF
34D15
11908
0E272
0D96D
24937
1674A
0F4D6
0BD4F
28C89
1785F
0C1CB
44595
1EBDD
583AC
1B79E
1190D
4A403
33089
3DD4A
46179
12189
3CFAA
103C0
22E8D
38E05
0930F
10BF3
3231F
0CDC7
10724
23587
0D03D
39968
0C475
0D4D1
1324A
22BE6
1C383
0A139
11068
40B50
11E31
0E8FA
46C13
2D672
409B3
274BD
2B914
27CDE
4019E
09F33
0D95D
3B8E1
22931
10C14
166AD
0E050
0F6B0
43B30
28B2A
3F4D5
09A85
14C9D
0E19C
1EF22
193A1
076BC
1B599
1D1AF
0B25B
16AC2
3D807
34778
0FC7A
12992
30CBF
0BE13
2D1ED
2A6A3
39477
45473
0BCD8
217F8
0EC8F
2C9C2
3C18D
40BDB
26C6E
116B8
11E58
2C76A
0F8E2
15CFA
0C6E2
13EA9
0EDE4
0E4F8
0E491

