154D7
1A096
33590
128FB
0F7CD
0F467
37EA9
12F79
30655
27FAB
1B3E7
100DC
0A187
163B5
291A1
3F928
19692
0FCC9
3E51D
0E80E
3A402
1097D
46056
16BAA
1FE29
240E2
1CA69
16C24
2FBEF
1F245
3AFBE
4E30B
17C4A
1A65F
29DA9
1A95C
4026A
4F692
1C0CB
11D13
3BFB3
1A8FC
1AA33
2B041
30CFE
19329
4E93B
14EE8
1C5C9
121E3
13E8F
12488
3463C
1FB30
14B1B
19AF0
1479A
45302
10C77
457CB
1BD64
373B8
4964F
4EB52
39472
2B481
191BB
1056C
44A05
08CF9
12ABB
2FFC9
113CA
3BA4D
14FD3
19138
0EA11
2A946
0EF8E
479FF
292A3
35BEA
24139
2548C
1707F
12EEC
18370
38376
28E3F
13A12
320D0
3FCB4
15EFD
155AA
18948
30F3F
37F0A
17EF9
4ABF4
0E2E8
1D074
331A2
3BB50
18178
12845
12759
29A91
1961A
120D0
108EC
2F212
1A6ED
10B9E
4D48D
22D65
621DB
1CE5A
14E4C
53D43
39827
45AFB
4D94C
18377
4521C
16950
27B46
3F8D7
0BFF1
1685A
38189
10375
140CF
1FA0E
12BEC
3F6E6
134ED
131B3
16A3B
25445
2203C
0F53B
164C0
48D91
1784C
1330F
505D8
323DB
46981
2D4B0
31037
2B9A5
4845C
0F4F5
1236A
41F19
26F5D
171E8
1A339
143A1
15E49
4C819
2F736
47D15
0E3F5
1A314
14EE9
235D3
1F0F5
0CB46
20189
23995
1088E
1DC8E
456C0
3A4CE
1512E
19281
36CAE
104AB
32E1A
2EDAC
40CE6
4DEA8
10FED
26A94
131C8
31E4C
43A05
48E40
2A694
16050
16EF4
31F53
16CAA
1C029
11B5A
1ADA4
1230D
136C7
14073

