FEB0C
0820C
22E50
0107D
FEED5
01C26
23578
04279
21BC7
1A652
10BB8
035C6
FEADF
01FFC
19E41
293E5
0E501
006EC
2AABA
035E0
26BAA
04103
2CF1D
06235
15FFC
17708
0EA16
03168
1F1D8
0EF4A
25C98
33920
05231
1012C
1B992
11552
2982F
33837
053B7
032A4
26F28
0678A
0885B
1DB10
1F6CA
05794
3526B
08AF8
1154C
014A2
011FB
02F77
22C0D
0434B
0515A
092EC
03B5F
2D517
0248C
2D394
FFFD3
270E3
31A2F
36DB5
266C4
1D038
0A3D9
03673
2DD52
0189B
04ABB
1EFAD
04D56
25997
0234F
041F9
FE939
1D5CD
01516
2F7AF
1CB2A
23168
184EE
1A870
0ECC2
02270
0C84C
23D6B
1B494
01A13
20F47
2B1F8
04667
01E2A
021B3
20936
23CE4
08185
32666
029C1
0571C
22761
25A7F
01121
034F7
02507
1B97B
0ECF2
07CFB
01FD1
1E2BD
1026E
00246
31895
166FC
43503
13A09
05D85
369DC
256B8
2D74F
35026
02A80
2CAB8
0081A
191BF
2AC4F
02DDE
023A7
26349
053C4
079BB
1A205
FEADF
2C118
FA2AF
FD754
0A164
19901
0F32E
FD2FC
03C4E
2EF42
02CD6
0402E
33B49
21114
3123C
1D458
1F22E
1D1EC
2ED26
FD958
02026
2BB45
1970F
021E5
0E632
FF69D
0023A
3249E
1EBFD
2DD64
FF20D
0802E
FDD3F
16CD7
10431
FF743
14323
0C743
FE760
06326
2CF3C
26970
02F4A
02355
22E75
00D6A
21584
1F432
2B3D9
32E16
FEE1D
18F5B
048F2
21249
2BAB8
2F71E
1CE1F
06381
060B4
217C1
FE3D5
05506
FFB8F
03094
06926
031B8
01D97

