11FDA
177BF
31104
0FFED
0D18C
0D65E
350CB
10EBC
2E612
26108
19EA1
0E3C9
086C1
135BF
272B0
3C793
17E87
0D95A
3B991
0CDE4
3796A
0ED1B
428DF
14635
1E49E
22562
1AA9C
13EA5
2D74D
1D70F
380E7
4A7F5
15321
18DAE
27EBA
194ED
3D3A3
4BAA0
18C42
0FB21
39157
17AD7
180DC
291E9
2E771
16605
4AD7B
13348
1AC5E
0FBF4
11320
1016E
31EA2
1BCAA
127E3
173C6
1217F
41EAF
0EB56
42272
17CC5
34C34
46196
4B59F
36BAD
292BF
177EF
0E7E1
4166E
07B65
10AC8
2D8A1
0F7DF
389C5
1249D
160D4
0C44D
28B96
0D01D
443E1
272EA
33353
224CC
23805
153C9
10850
1693B
3565D
27028
11070
2FBD5
3CEC3
13702
12929
15556
2EBD6
35212
159D8
476CE
0C8BF
19ACC
30DBF
38A27
14C26
10518
1026C
27D24
17DA2
10935
0E82C
2CE81
18F78
0E544
49771
2124C
5DE41
1B606
12AFC
4FD34
36BFE
425C5
4A2B0
151B2
41CB8
13683
25B5D
3CB2E
0AAC4
13981
35A7C
0EA23
12464
1E209
0FD6B
3CB9B
0FA94
0FF14
14A22
237D8
1F577
0CB7D
13A26
45448
147FA
110D7
4C766
2FCBE
43882
2B384
2E845
297EA
44C56
0CBE7
0FE08
3EC9F
25186
141FB
18910
11423
12C78
48F6C
2D58A
4442E
0C153
17994
119C3
21B2A
1D87A
0ABDE
1E9CD
2048A
0DF1B
1A6AF
420F7
37876
1277D
15D86
33FEF
0E0D5
307AA
2CA23
3DEB7
4A2F0
0E64A
24E4F
1114F
2F935
404E9
45617
28735
13D3F
1486B
2FB52
133C2
18BE1
0F1D7
176F7
10817
111C4
11737

