778FF
03190
1DF99
7B6EA
79EDB
7DACD
1D288
7FE7D
1D6A0
163EB
0DF6C
7F910
7B102
7BF31
15F0B
2294B
0B5B6
7BA9B
24CB9
7FEA2
21180
003D5
25831
01285
1258F
13C53
0A6E5
7D193
1A403
0BBCD
1F80E
2B9AD
00321
0CA37
17843
0E9EE
23861
2B973
7E334
7E9C3
20B84
004BE
0315A
1995A
1A81E
7F6A5
2CDEE
04FCA
0DE53
7C633
7B490
7E443
1D6BC
7C022
00673
03C24
7E672
2656A
7DDFD
2614B
77536
21814
2A852
2F944
21097
185FC
05D0A
7F82E
26D0B
7F21E
004C6
199F7
0125A
1F23E
7C619
7D9CC
79620
1952D
7D230
283C5
182EC
1DB2C
145A4
165EC
0B0B8
7CEFC
08F7B
1DCE4
17446
7C0EF
1C0BD
24E88
7F13E
7BEE4
7B1AE
1BE17
1DC33
03966
2B57E
7F26F
7E4B4
1DBBD
1F161
79EC5
7E9CA
7D6DB
17B31
0B7ED
0490B
7DB92
19929
0CF52
7AF48
29625
12D67
3A3FE
1039E
00C42
2E1BB
1F854
265C9
2D9B5
7BF73
259A5
79B0E
14DCC
24A80
00205
7BEFE
21029
01EE4
03C73
16219
7877A
2635C
7251E
7697B
0629A
15959
098E7
7799E
7E064
2742B
7C440
7F709
2B736
1BB8E
2A700
18ED6
19BFE
187D9
27558
7839C
7CFE3
24D5F
157BC
7BC6A
0AE85
79158
7984B
2ABE7
1A704
2644D
7A90C
02798
76C6B
13461
0C609
7C006
11189
053CF
78F6A
7F0EB
25C7D
20939
7D660
7B1B2
1CE22
7C0DC
1C3DF
1A6DF
25283
2AE87
79487
15428
0020B
1C2C8
248D3
27F32
18986
015D8
00E86
1CBA3
76BC7
7E2A4
7A373
7BB8B
02FA0
7E40B
7C75E

