69DAC
796C9
14837
70AA9
7050E
75D22
11444
77BBF
151A2
0E43B
08A3D
78451
741BB
7050D
0E57B
15C49
05AC4
727D6
197F1
79465
1641A
78E2F
1737E
77945
0B535
0CB6D
025AF
71947
10E55
058C9
136B4
1C494
76B17
06088
0FAAB
0967B
18025
1C5AB
70AD6
75D9D
14BE7
746BD
78A0A
11AFD
110D4
73C3D
1CF24
7DDFC
0749A
72F5E
700E9
753A3
132AB
6C3E7
7766A
79540
74321
18EA7
7564D
18585
66AA6
16D4B
1CD5B
21956
16ADC
0F738
7D4DF
78070
19521
7A818
77E3E
0F522
7A0EC
12B7E
712D8
71176
6F654
118E6
75188
1A4DD
0F7FD
13556
0CBEE
0E602
03D42
72E7E
02238
12342
0F89C
71584
129B4
18F50
74D78
707AC
6DA42
12D9F
12241
7AEB4
1DC5E
7880B
708B1
14A46
1273A
6C2D9
75939
74086
10369
051F9
7E52A
75854
10BAA
06D0A
70FAE
19B50
0BEAC
28D1B
09AF7
76FFC
1DBF0
142D0
18B79
1F5EF
6F197
18031
6C959
0CB21
18E68
7ADB1
6FD6A
1704C
7B936
7C69B
0E72C
6C857
1AF1B
633A4
6963D
7E9DA
0DEEF
7EB4B
6CDC1
72FA4
18774
6FB1F
76A5F
1B938
11714
1D8C8
1092C
0F63F
0F965
18EF3
6DEBC
7358B
17A07
0DDF4
6F943
04374
6CE98
6CC94
1C3C2
1225F
17B6F
71CA7
77D3C
69373
0C7CD
04E81
755CC
0B227
775CB
6E644
7153E
17FD4
15032
72B63
6D72A
114E4
72DA5
126DE
1122C
19754
1B939
6E841
0E250
779B3
129E3
16DCD
19895
1059A
7807F
7707E
13941
684E8
706AE
6FA04
6DA79
7C102
74EAB
7218E

