6F46E
5F621
7166B
58446
50701
42442
85CBB
4A8D0
672C2
5BFF3
3F5C3
416B4
378DD
64444
5DA42
93C0F
423B6
4BF73
8842E
3AEDC
8291B
40C93
A432D
5653E
4B3FA
52BF5
52A49
64022
6DF13
4D572
8A850
B283B
5DA6A
4452C
5E609
3D483
8F933
B5319
75403
4B738
8AB1F
68E7B
60D2F
5E888
7090B
65D94
B4072
43D64
4784F
5286F
5DA97
4DE15
77A12
89DB5
507FB
5C2DA
552B5
9E084
4907E
A011F
898E1
7A531
A2E99
A9E3C
7E819
649A2
44E7F
42818
9C389
26A93
48EBC
72785
40A44
8E0B5
5E5C6
6B3D1
4EC1D
5CFBC
445A7
A3847
5F058
7AA97
54568
55B88
47C84
547C9
44B75
84CA5
5BFB9
5A521
70D7B
8DCD1
59D21
60E9D
70C75
6D13E
844B8
56FA5
A4FCE
3A994
7822D
70090
8F2DF
729F2
4E3EB
5127A
5B9E5
42EE0
3A213
48298
6B84B
4242A
51D83
B50AA
50D98
D4E5B
46353
50D8A
C0983
847D1
A007B
AA4D3
6CB8F
9FC94
6CD71
5DE3F
8D140
2FF24
660FD
7A66B
3B339
444D2
486A5
61B4A
88EFE
76604
690F5
4D22F
55882
6AA21
56335
5EA10
AA1C3
69909
4D4A8
BA64B
74A6F
99C7F
659D6
74D67
64E03
A764E
5503F
51B0B
97A69
599F7
687D9
469E6
64DC5
6A796
ACBC8
689F7
A86DF
490CC
60A70
6F2D5
50A21
48A0B
42078
48645
7DA98
56EAA
79426
A0BF4
85981
5BDCD
731D2
82C3D
4D23F
74256
6B2FA
8F39A
B350D
57B0E
56A92
4A405
70DDF
9DCC0
A83EB
5FACB
518FC
585D5
6F172
776A7
74C78
5830A
77AFE
3FF79
52453
5A0B6

