23A78
25192
3D3EF
1DAE1
19D90
1768A
4456B
1BD55
39221
3046D
21013
17ED9
1158B
22ADD
317B8
4D000
1FEC1
19657
4A1D3
1596F
45C93
1847B
550B1
20DFA
26CD4
2B80C
25435
2314B
39AAB
2682D
47ABB
5E316
22EA4
2115F
323B5
201EA
4CD1E
5FA56
2A472
1B02A
48896
270ED
25D53
333BC
3AFB3
256C9
5EC26
1C69D
233EE
1C645
1FAC9
1BCA1
3F1D7
30A1E
1E3BD
244A4
1ECB6
535C0
19C07
53EF9
2D568
41EF2
57AC6
5D408
44521
346CB
20182
18575
52993
0D928
1B52F
3A976
18CC6
48C99
20B15
262E9
18DBB
329E9
177CA
56485
31C16
40BCD
2BC65
2D02A
1ECEB
1D63A
1F503
446E4
310A4
1EE7C
3C111
4C3CA
20C3D
21680
26A61
3A8B1
441E9
21FDD
59242
15444
2B8F9
3CD25
49059
26883
1C0B5
1C75B
31A11
20024
1871A
196D5
38C31
20C92
1B1CF
5DD5A
2A2D3
746CC
237C8
1E74E
652D9
45783
5418D
5C5EF
25B23
53979
24575
30591
4BEB3
11BB1
23359
42AC2
17129
1BBF4
26226
1F571
4B27F
231C3
20D11
1F551
2CF73
2D991
1AA1C
21D5A
585CB
249B1
1C757
61472
3CD59
53DCF
3646E
3BD50
34BD1
5771F
1A6DB
1C56B
4F9D6
2F0A9
24194
21495
2116B
23626
5BDB1
3891F
573A6
17A07
256E7
2353B
2A95C
25B0C
1535E
26860
31F70
1BC2E
2C603
53FD4
464F7
205D8
27817
42E92
19FF6
3D4AB
387A5
4D509
5E172
1C45A
2E515
1BE82
3BF03
52026
5819B
32E83
1F846
215F1
3BB58
26344
2A2B6
1CF3A
29A91
197E1
1D72C
1F324

