15DAC
1A765
33BA8
12FD3
0FE2D
0F968
3864E
134EE
30BB5
284C6
1B772
105B4
0A5FD
16B5E
296CA
4016B
19A94
102B1
3EC5F
0EC6A
3AB1B
10E38
46995
171E8
2026A
24577
1CFB6
173B9
3020A
1F6CE
3B78D
4ECE4
18326
1AA7D
2A2D1
1ACC4
40A36
5008F
1C98C
122BB
3C76D
1B0AC
1B116
2B54F
31340
19AB0
4F330
15382
1CA06
12836
145CD
12A61
34CD5
2059C
150FA
1A177
14DF3
45BBB
111FD
460AF
1C829
37A4E
49F19
4F446
39B3E
2BA21
19607
10A59
4529E
08FE7
1300E
3064F
11872
3C263
15707
19949
0F05D
2AE38
0F4CB
48305
297EC
362AE
245F6
2594D
17549
1355B
187CF
38AFB
29343
14102
326FA
4045C
165A7
15D14
191F0
31526
38689
18529
4B4CF
0E744
1D966
3379D
3C382
18A5B
12E22
12D80
29F78
19A2E
124BF
10E61
2F800
1AAD5
11202
4DEBC
231E9
62D20
1D268
1542E
547F0
39F83
463D9
4E266
18BC3
45B02
171C8
28098
40073
0C378
17029
3880C
107AD
1458C
1FE0F
133AC
3FE1D
13EA6
13A23
16F95
25902
2275C
0FC30
16BD9
4971D
1805A
138C3
51041
32A60
471AB
2DA37
316DF
2BF45
48DB2
0FBCD
129A5
42783
27456
179E5
1A796
14B8B
16696
4D18B
2FCD3
48691
0E9BA
1A9FE
157C5
23A45
1F50A
0D082
2057D
2426C
10F77
1E589
45FB7
3AC32
15821
19B56
37423
10AA4
33482
2F398
41499
4E89C
116DD
26F4A
13732
3247A
442DE
4979C
2ABCE
16628
17560
32553
17626
1C8E0
12245
1B6C0
1278B
13CF3
14753

