2E64D
29CAC
43D1F
267F1
20610
1D179
4CB97
20973
3EA96
362AF
23429
1CC0F
16E1D
2A7C0
34548
55D51
2217E
205AC
51FD8
1A797
4C716
1DA6D
5EAFD
27781
2E6F9
2FFEC
2ABBE
2B2C3
3FABA
247DD
4FD72
68E11
2634C
270F5
36EA2
237B9
51952
68893
344AC
21A5E
509F9
2FCBE
2CE9C
392CF
40547
2E049
6C915
21703
28534
22189
28329
226BF
46703
3B10F
2469A
2D7B4
273B8
5C074
1FCBE
5D066
39F77
4C337
61431
678F9
4A780
3C10A
27DB7
1D729
5CCB4
11A34
21EE7
42D49
1D813
50D3A
2931C
2FB26
21552
3864B
1D4CD
5FF66
3AEA6
47283
32C7D
36595
27E8E
250F3
24487
4C36A
362EE
26E9E
41CE2
54B6B
28056
29BC5
30F60
3FFF6
4C3F9
26430
619FF
19BFE
354C0
42197
519FE
30E74
22C0F
2302F
35A51
24FBE
1D890
1E88A
3CF26
25876
22DAF
6817C
2E854
7FF88
2A639
27D5B
6F8E5
4CE65
5CF0C
668CB
2F6E7
5BF75
2E1E2
3587A
53AE0
15352
2C54E
48F9B
1B59B
213D4
34DCC
2840A
53464
2EB06
2B673
24599
34300
34F57
22912
2A367
62705
2E8C4
229B0
6AF2D
44D72
5DFE1
3A57E
432FB
3C1A8
60EEA
2171E
23945
59ABE
33ED9
2C907
25ACA
29C58
2C729
64C79
3B998
607C5
1DA9D
2D109
2D04E
2E6B1
2A429
168EE
28F13
3CBE3
23404
35F9D
5CF22
4ED54
28254
31BD3
4B318
20DBB
437E7
3F9AD
53F3F
683BF
245A2
31B88
2236D
4265C
5B4ED
619A8
39936
26B3B
286A9
4152A
30746
3527E
24933
33FD2
1EA1A
2398A
25E9F

