149F8
179B1
32086
12419
0E4EA
0E537
365E4
113A8
2F090
272A0
19404
0F092
09CEA
149CF
260C0
3DBE8
17684
0F1C0
3CBFA
0DFDC
3811A
0FD3F
43D09
15767
213BF
22BAC
1B8D3
15849
2E155
18DB7
391F3
4C148
14575
1AA45
28285
19AD7
3BEF5
4BE44
1ADE7
112E2
3A1BD
1978B
1940F
2A53E
2E8DA
181D6
4EA15
1410E
1BE73
105F8
1316B
116DC
33290
1D6DD
137CF
19DF3
140AE
42CB4
0FDA6
43338
1AA54
38224
47888
4D3FD
36FEF
2B4A5
17DB8
0F60A
436C9
08F0B
121FB
2F767
102D3
39795
1421D
18284
0E8E6
29CA6
0E2EF
45C56
2A975
33ABE
247AB
2751A
1A57E
1233A
1771D
3666D
27A71
12C59
300EF
3E3EC
14C71
14351
17A61
2F05C
36666
15F70
481CC
0D3FB
1B721
3101E
39DF1
17100
11C45
1158F
27921
19012
11CCA
0F1CE
2C522
19FAF
101A3
4A9EA
21827
5F33A
1E17A
1578F
50CBA
37925
4349D
4BC95
173E1
426A5
157A2
262D1
3D942
0B4CA
15961
36311
0F673
13648
266B3
11CB2
3E182
1250C
12950
16297
25CDD
208F4
0E5F8
1571B
469FF
16EA4
1213E
4D1AC
3183C
45C30
2AA34
2FB60
2B5D9
45DC7
0E126
1171A
40D6B
259E7
15A24
19181
12E37
1482C
4980B
2C039
451FB
0D2AD
190C2
13866
21A90
1C371
0A139
1DBC0
22A7D
0F604
1C2A0
4304A
3917A
140DF
180FC
356D7
0F8F6
310BA
2E21E
3DF57
4B693
101C1
24581
12319
306EB
41929
46819
2A133
15276
15D8F
301F7
1553B
1B4F7
10AA8
198B1
11A24
120B8
126E4

