566BB
4609F
5F728
45EED
3C729
3406C
6F729
38736
56EEB
4D78A
32CE7
320F7
2B30B
4C747
4A83D
7B3F0
32B0E
3B23C
72FB9
2DDCE
6C168
331F5
886CA
436FD
42F0A
44997
4250A
4CCE9
5AFCA
368FD
73205
959C0
41F42
3A58F
4DD5D
32B64
7334A
9506A
5BC76
3B39C
7397D
5278C
4B72B
503CA
5BF0C
5009A
9B111
36352
3B9E7
3D9F8
48FBD
3CD0B
64617
69193
3EB31
4BF06
4509B
8338D
388F4
85224
6A9D5
6B5E8
89393
906D7
68B6D
561E9
40B54
334D0
8432D
1F25A
3A7BD
60E97
3234A
75191
49E88
54423
3E7EE
4F12F
34C78
88A4A
54455
656C0
48FE2
4DB17
3CFB2
42595
38392
6E175
4CC07
4632B
5D5E8
779C9
45E8E
4B2C5
5846A
5A5CE
6E2ED
3F92F
89400
2D2A7
5D730
5CA57
76847
5909F
3D231
3E726
4B814
37973
2FC36
367C4
56C51
37773
3FFB8
95DEC
42BAB
B2DDF
3D7CF
445AD
9F553
6E06C
84C86
901E3
55005
83A6B
5463A
4D608
7601B
2498E
4FA8E
66267
2DE83
36BEF
4B4BD
4B22A
742BE
5AC22
51F47
3A630
4A873
54A48
41EEA
4A784
8DA38
5340F
3C46D
994D4
62DB4
83A0B
52BCB
616F6
5619E
8AFAA
3F88E
3FBF5
803DD
4A271
502E1
3936D
4D503
51A03
8F254
53CEB
8AFBE
3748F
4C27C
549DC
423BD
40130
29F1C
3A598
6542E
421F0
5E10F
85377
7099A
4759D
599F1
6CFFF
3BB9B
6025D
5ABE2
761D2
95009
43CAD
467F4
3B18D
5E4CF
8347C
8BB0D
51A6C
41F54
4541E
5C099
5A96C
5D4C9
437F5
5D106
32D1C
3EDB7
442CB

