6A3F5
78DA4
15A75
71348
70683
76DFD
12A61
785E6
162EF
0F166
09F61
786E5
7457A
70E3C
0FF5E
174A0
05E07
73020
1AEFC
793EA
17A4D
79880
18F46
784BA
0B225
0DB63
02D06
71CAF
11FBB
0908D
14EC9
1E2EA
7653C
06560
10B85
09FB5
1A24F
1EB46
715D4
763CD
16507
75126
790D2
125D0
124DE
7484A
1E07A
7E7C7
07B5A
734BE
709E2
75C3A
1436A
6CE66
78137
79DD3
75846
1AAC7
75DC7
1A240
67558
17208
1E8EC
23131
18268
0FDA2
04265
78553
1AB5B
7A86E
78B5E
102C2
7A8D7
14368
71E0F
71C26
6FF13
1275B
756D8
1BA6E
0F648
14C41
0CFB6
0E1B2
7FB3D
73903
02EB8
1392E
1070F
71CD4
1400D
1A772
7573D
71325
6E5FF
142E7
1366F
79C4B
1F907
78ED5
716E5
15F1A
13C36
6CC55
75EF7
74752
11C10
057FD
7EDF3
75F30
123B5
075FC
7190B
1BA24
0CD1A
2B30A
0920F
78345
1FC81
15A15
1A745
21363
6FC74
19C05
6D4E2
0DC68
1A745
7ACB1
7075C
185E0
7BA57
7CF61
0C1C6
6CF5D
1C41B
63E6B
69F9A
7C8FA
0E2BC
7F43C
6D697
73AF1
1A4E2
7041E
77639
1DA0C
12762
1EC96
12576
108EC
10324
1AC10
6DF42
73D69
18EE3
0EB78
702E4
04F26
6DA42
6D6B2
1E751
1417A
19961
721BD
7879B
69BF5
0DB3A
0B2B3
73300
0CD03
78805
6EDAF
72030
19B87
16453
73331
6E1C1
12700
732C9
13A68
11FBF
1B47D
1D64C
6F2A6
0FB13
78B9C
13C24
187A1
1B42C
10EC5
7986F
779FF
14B44
688DE
71880
6FFB9
6E6DB
7C491
75599
72860

