65575
57B9A
6A8C7
5091C
4943F
3CA2A
7D320
4469B
611FA
5640B
3B5F3
3BF7B
3288B
5BA64
57D6E
8A753
3DB96
45525
80188
3605D
7A954
3B76C
99CC7
4F4DF
4675C
4D975
4CAE3
5B7A5
6712E
483D2
81BC8
A76F9
55EF1
3FB18
5893C
39735
86CDE
A9F42
6B668
45163
8200B
6040F
5912C
58D82
69867
5D625
A8D32
3EA84
42C0E
4B6A1
55848
474C9
70345
7E224
49E51
54D5D
4E067
9438A
42D1A
96112
7D705
72EA6
9906E
9FD20
76DC8
5E45B
4011D
3CF75
928C4
235D5
42EE1
6B20D
3B682
84F1E
56423
622A5
47ACF
576AD
3E756
995EA
59130
730D2
4F023
505F4
42661
4D3F6
3FCD4
7C559
56573
5283A
69E89
852FD
52530
5891C
6709F
66703
7BDCF
50042
9B05D
35B19
6E133
694E7
85F63
689FD
47A63
4A3B4
561A0
3E577
35B43
42059
64D98
3DDCC
4AA74
A9957
4BC4B
C838E
41A55
4A39C
B4957
7C357
960DB
A0100
63640
95C67
63509
57E82
84846
2BF9F
5D474
73144
36746
3EF92
43E95
58FC7
80D1E
6B6F9
5F917
471E5
5033B
629D2
4E5FB
56A42
9F5EA
60812
46E00
AEAF4
6D518
90984
5F653
6D591
5E8D1
9CE3D
4D516
4AAE3
8E2FA
54073
5F813
41B6B
5BF4C
61224
A21C1
624F3
9DC2C
428E6
58DF2
65362
4BA25
44099
3C240
43F12
73B77
4F24F
6F287
96A98
7D479
540BA
692E1
7A601
466BC
6CF05
64861
8690C
A81E4
4FE25
515C3
44298
69E9B
93D6E
9DB71
59CAF
4AFC8
5123A
6856E
6CBEE
6AFA0
50682
6D6F7
3AE97
4B548
52500

