38A14
3543C
4BB65
2DEE3
28FD5
234BD
567EA
28CA9
45E73
3C674
296CA
236FB
1BF1B
34DF0
3DBB2
60A00
29705
276C4
5B5A1
1FF25
56A54
2383F
6AFFB
2FB34
30E94
36636
31D9A
35170
482AA
3147F
5A367
7594D
3334F
2ADC1
3E7A0
28356
5F560
775FE
3F12C
28725
5AE32
39527
36320
3F3E5
49D81
374B3
76691
27593
2D4E9
2B685
30DE2
29AEE
4ECA6
49617
2C2D0
33CAC
2DE06
68125
26DDA
690DB
46EA9
51934
6C8AE
72825
5475A
41C9B
2A4E1
24095
6704F
14880
27F8B
4A172
23D99
5BFF5
31CC3
39561
27CEF
3E5EB
23EE8
6BB49
3E4FA
50CDE
37069
384D6
2A2C3
2CABF
29B01
56484
3CF38
2F62A
4AB49
5E6C3
30972
33058
3B35D
488F6
55EB8
30B04
6E2DD
1F9F1
40CD0
4B06D
5C7B4
3BA32
29F7F
2B137
3D46A
29B1E
21C99
2663E
46D72
2A121
2A4B4
76060
34E74
8F2F0
2D1E0
2C6EE
7E88D
56F30
6928A
71FC9
39659
68B9E
38734
3CFAE
5DFDF
1A1C9
35C0A
52214
21180
26FEE
2FA49
31BF8
5C4AE
3A34B
34DAE
2C098
3837B
3E870
2B279
32B27
6F097
37BBB
2A00E
79FEF
4C511
6741A
43683
4BA4D
42172
6D9EF
2AADD
2B231
63987
3ADA3
37119
2BA43
33E30
371A4
724A3
45E61
6DC04
2555E
35DB9
385DA
35237
2F619
21A45
2FEAE
46F61
2C2B5
41B38
6947A
57DD1
30DE4
3C7A3
549F4
282EE
4C81B
468B0
5F98B
75BAC
2CC0D
3981F
28C2F
4A9E9
6707D
6E549
3F530
2D65E
309FF
49F5F
3CBAE
3EDD4
2D620
3F4D8
242A0
2C198
2F84F

