578A9
4D16E
61080
45E0E
3F4DC
34D08
71403
3BE34
58B8E
4E464
35D52
34657
2B8FD
4FAE4
4FC80
7D8BE
37769
3C17F
74C15
2F358
6F7DC
34128
8B5AA
458CD
3FCF2
466E0
44664
4FA13
5D88D
41273
7589B
980C7
4B373
39436
50857
34210
7A9F6
9A57C
5DB82
3C3F4
75EE1
543CE
4E4EF
50F16
5FBF3
51A0B
9943C
37769
3C225
41892
4A34B
3E288
65E43
6DDA2
40B8E
4AA30
441A4
86984
3A310
882C8
6C9C6
68A02
8B4C1
91D5E
6C3E5
557B1
395A2
35459
851CF
1EC95
3A9C0
60EE7
3422D
784E8
4B015
55905
3DD71
4FAFD
36457
8B46A
50D06
687B3
479B4
48F17
3AEBE
43318
38FA0
70970
4E812
47AC0
60472
7938F
47E9A
4CFB0
5982F
5D377
70270
4658D
8D2E9
2EE19
601A0
5FF5F
7928C
5ABD5
3E7D1
409D9
4E707
37F81
2F8E9
397E5
5B966
37C0F
40AA8
99AB8
44B62
B69E2
3B4F5
4107D
A3E6E
70B57
88327
91D77
566DF
87DF0
5615C
4F989
78A06
26767
51143
68E8E
2FDCA
3792A
3DA7D
4CE02
758BC
5C3DD
52629
3EC29
48CCA
5779E
4380F
4B8C2
9073C
53EBB
3DF6D
9E6C3
6321F
83D60
56C1C
62F20
55C45
8E4CF
42A07
40F1E
810A7
4C420
53064
3AE6C
4F96D
54295
9359B
598A6
8EF16
39899
4E109
575EC
44B0E
3DA97
33F64
3DC2F
65E73
44597
6120C
88A7C
71BB4
49303
5B620
6EB92
3D169
62EDD
5B454
7A89B
9890F
450A8
49FF8
3BB48
60412
86027
8F171
519FA
41DAA
471A9
5EF6A
5DED0
5D5CA
4598D
5F326
33E41
41B0F
4792E

