28E92
25EC3
40092
22309
1C88B
19F35
47F7C
1D527
3B564
32F9B
21216
19D5C
1419A
25D4B
314A9
50B51
1FD1E
1CAF8
4D788
17D18
481BB
1AB5E
58F82
23A35
2BA08
2D2C3
2780F
2690B
3BEDB
22042
4B01B
62C07
2267B
246AF
33C65
21658
4CFA1
62710
2EE20
1E24F
4BD54
2B0BE
28BAF
36043
3C8C3
295B9
6632B
1E97D
25AEA
1E534
23B4D
1ECE6
42562
34C2A
20CFC
294F2
23264
56A8D
1C678
5787D
334D7
47EE7
5BC9A
61F67
46535
387EF
2473F
1A743
57656
0FC99
1E917
3EB5A
1AAB4
4BDBA
24B69
2AB04
1D566
35494
1A157
5A63D
37714
4302D
2FBCD
3326A
2505F
210C1
218D2
47929
33177
22A0D
3E078
4FEEE
23ED4
2527B
2B935
3C62C
47998
22CB5
5C325
17170
2FCBF
3E767
4C921
2B67C
1F23B
1F40D
32A68
226F6
1B09C
1B40B
3968C
23125
1EDD8
61D26
2BC0A
78FFA
27C5D
23ED8
6902D
485C9
577B8
60DAF
2A48F
56879
28E00
32436
4EFA3
13197
277E0
44FA9
18CEF
1E4B0
31CA1
23795
4EC4A
28A6E
261F4
2154C
31209
309E5
1E453
25CB3
5C855
29850
1F16C
64994
40BA8
58D64
37007
3F0AE
388AD
5B2C2
1D52A
1FB88
54635
30E23
27AF8
22FF6
24E71
275AC
5EF9E
38489
5AAA0
1A275
28CE4
27984
2BB42
27459
13E70
268EB
37314
1F05B
307BE
576DF
4A351
23DEF
2C469
468FF
1D2D8
3F919
3BE32
4F45F
621A0
200B9
2EDFE
1ECE3
3E933
55D51
5BD69
36471
22F7E
24772
3DA9C
2AAEC
2FA82
2056D
2E5CB
1BDDB
1FDCA
21C4B

