38437
30C1C
4AA1E
2E3F7
274CC
22BF4
55494
26795
44A57
3BE9E
2717F
2201E
1BE3C
32DC5
39CCE
5F0EC
262FA
26F59
5A201
1F415
543EF
22F22
68FA7
2E5D8
337DD
35136
308C6
33775
4667F
28F27
588A8
73E89
2D0C4
2BD0D
3C90F
273CE
59DF9
73818
3E075
27F47
593F0
3858B
34714
3EDCA
47235
36680
78088
268F3
2D152
28E23
30482
28EE0
4DD24
466AA
2AE4F
34FDD
2E94E
65B15
25E70
66EA3
45F64
53E2E
6B1D9
71A33
51ED3
427D4
2DFC2
22D60
66829
14F80
27FC4
4A3F6
229BE
59C53
3142C
38B65
28860
3DFC6
2316F
69FE4
412AE
4E9E9
3841E
3C1AE
2D1B0
2C481
29332
54911
3BBF8
2EA0A
489A1
5D519
2F641
31FB0
3AA7B
467FA
549DA
2C80C
6B653
1E898
3F329
48A53
5AB8B
3ACCC
29425
29C6C
3B08F
29926
2207A
24709
43506
29F39
2A099
73616
3380F
8C854
2F193
2EDDF
7B562
55116
66C3B
70CCA
38B1F
65C05
378DF
3B68F
5C24D
19009
350AE
502B5
1FED1
268AD
3A64E
30DA9
5B62D
398E3
34E8B
29C8A
39B24
3CC57
2A4D0
322AA
6D174
37994
28EF7
7660C
4C3DD
6745C
405BB
4AA51
42839
6B4CC
28DD4
2A866
632E9
39687
3558A
2A7E1
32890
359D6
6F39E
41919
6AF6F
23FB2
34BB1
36C86
334DE
2FA38
1B56A
2D3C0
46BBD
2ADCE
3FDC7
66E03
5728B
2FD71
3B92B
53878
277BA
4A8F2
464BE
5C604
7345D
2C1AB
36D80
28598
49471
652A0
6BFB3
3F832
2D6C3
2F872
47E8F
3AD80
3F0DE
2C332
3E1DF
239C0
2A517
2D601

