48B68
3C5D8
55FC6
3B2AC
32D5C
2C2C1
638E6
30478
4E9ED
457D9
2D7B7
2AC37
243C4
40D23
42EAE
6E6EE
2D01C
31F78
67AF1
27391
61403
2BC4F
7A217
39DBD
3BEB0
3D8B0
3A3D4
4149D
51A1C
305F9
670AC
864A7
38737
33BDF
45FC5
2D7F2
67B0E
85CA2
4E418
32776
679E0
4698B
40FDB
4856D
527C2
44631
8B247
2F184
3502F
34323
3DC16
33C6C
5A206
59557
35B27
41822
3AD49
75CCB
30144
7765E
59F45
60B20
7B89B
826E9
5E5B3
4D325
38329
2BD11
76B42
1A854
32134
569C2
2B1DC
68AD2
3EB47
47BCD
34822
474E8
2CBD1
7AB61
4B966
5B0EA
4162C
45B2D
35C3D
38518
3164F
627D3
4505D
3B7BF
53EDF
6BA91
3BAC8
3FB8D
4ACFD
51556
628FB
36E7C
7BAE0
26843
4FB2D
538E1
69E20
4B4B3
341A0
350D2
4404C
3137F
29855
2E486
4DED2
3152A
3601E
86316
3BCEF
A16FD
36F28
3A967
8EF88
62AE8
77236
81E1D
48228
760F7
47485
4535D
6A403
1F53A
438FA
5C28A
278D5
2F616
439D0
3F307
68E7C
4BAA8
44C09
32D70
42E09
49CAC
3730D
3F6C4
7ED82
46AEE
337C3
896D6
5893B
76BD2
4A621
57137
4D32B
7C945
353AE
3619D
73085
428A9
43FB9
3285C
41243
44E4C
80A30
4B845
7C6E0
2E82B
41820
470E3
3B729
389A8
234E2
34636
57629
378C9
50563
776CE
65093
3CAA0
4BF68
616C1
32864
5655B
5172F
6A6A3
85ABB
39066
3F61C
32935
54BEA
75975
7D470
49680
389FB
3B616
52E37
4C28D
4F8D3
38E85
4EFF4
2BE7E
35857
39CFB

