0F3B1
155B6
2F290
0DDB7
0B1AC
0BD58
32A92
0F375
2CB2F
24780
18CE7
0CB8E
07072
10F72
258E7
39E42
16A7E
0BBD2
39546
0B816
355EB
0D573
3FAA6
126FF
1CF56
20E77
1901D
118BB
2B8C7
1C063
359DD
476B7
130D5
1791A
264F3
183E6
3ACA8
488AB
1607A
0DED8
36AB5
15464
15E6A
278A1
2C827
14066
47BB0
11C42
19730
0DC57
0EEED
0E42E
2FDA2
18890
10A88
15324
101BF
3F314
0CFBA
3F5FC
146EC
32B46
435A7
488DE
349B2
2769D
16270
0CF41
3EB71
06CBE
0F027
2B800
0E09B
36154
1009A
13881
0A4D3
272D9
0B5EA
416C7
2587C
31180
20D1C
2203F
13BDC
0E824
15363
330C8
25714
0EDBE
2DD03
3A87A
115B1
10414
12A0D
2CE53
32C99
13AE7
44A83
0B2F3
16E14
2EFD7
3612F
11FB8
0E7C7
0E3A7
2649F
1693D
0F58A
0CCE2
2B0DE
17BEB
0C54E
46484
1FBB6
5A5EC
1A1BF
10D90
4C7D2
34732
3F96E
4752F
12838
3F03A
10C2D
240C4
3A522
0991F
11278
339F1
0D50B
10CB6
1CE04
0D6AA
3A788
0C9F5
0D4E4
12F63
22028
1D1D3
0A8B4
116A6
4248C
11FB5
0F454
4935C
2DC26
40FAE
297DF
2C6FB
27BCE
41DA6
0A9B1
0DEE0
3C28E
238A9
11A0B
17344
0EC90
102F5
46031
2B97B
414C4
0A477
15700
0ED78
204F2
1C413
091B3
1D606
1D856
0BC90
179C9
3F424
35382
104BF
13160
31AA5
0C2F7
2E7A2
2AC87
3B83A
4712C
0C398
236C0
0F63F
2DA4D
3D8A8
4274A
26D11
12006
1284E
2DD51
10456
1604F
0CF40
14966
0F19F
0F2EC
0F4D9

