10E30
16A22
304D6
0F23E
0C4CC
0CC5C
34181
103D3
2DB51
256D2
1978A
0DA18
07DD4
1266D
2685F
3B70D
17684
0CD8A
3AB0D
0C52B
36B37
0E3A4
41662
139B9
1DC1B
21C37
1A003
12F7A
2CB17
1CDFD
37149
49443
14569
18573
2746A
18E1D
3C40C
4A6A4
17ABF
0EFD1
381E3
16B76
17315
287CC
2DAED
156F8
49990
12A12
1A3E5
0EF4F
104A5
0F5BB
3116E
1A7D3
11C25
166B9
114CC
40D3E
0E04B
410A9
1673B
33F08
45003
4A3B8
35E15
2877E
16F56
0DE07
4053C
07589
10021
2CB94
0EE91
37998
11635
150B3
0B7B6
281B1
0C5A2
431D6
26858
325CC
21B53
22E83
14A37
0FB72
1607E
34755
26620
1028F
2EF81
3BF72
129AE
11A54
14406
2E008
34315
14D77
46516
0C007
188E9
301C9
379C4
13A61
0F95E
0F61D
27355
1757A
10157
0DD42
2C2A6
187A6
0D87B
48312
20943
5C7B9
1ADE9
11F37
4E7DA
35D46
41409
4907C
1411B
40AEC
12594
250B9
3BBF6
0A3B6
129E4
34D78
0E1B3
11AEB
1DA07
0EDEA
3BD2D
0E721
0EE34
13F6F
22E5F
1E735
0BD93
12BF3
44130
137DF
10570
4B295
2EFB4
4282E
2A875
2DAF4
28CAC
439A9
0BE38
0F192
3DBCB
24794
13202
18058
1044F
11BDE
47C87
2CA51
43137
0B5C8
16BBF
1080B
21247
1D051
0A167
1E1E4
1F2DC
0D149
194B9
40F09
369AE
11998
14BDD
33105
0D4E2
2FADA
2BE4B
3CF51
48F08
0D869
244E3
1067C
2ECD8
3F335
4435E
27CC0
1318E
13B93
2EF51
120CA
17A73
0E401
164BD
0FF1A
1056D
10978

