14132
17380
31A78
11D35
0DEC3
0E031
35E48
10E6D
2EB3E
26D84
1909B
0EBE7
09876
1425D
25BE3
3D3B5
172E1
0EBE1
3C4BF
0DB9C
37A2A
0F88B
433E3
15145
20F41
22728
1B3A8
150E9
2DB58
189C1
38A37
4B77A
13F60
1A60A
27D7E
19780
3B797
4B483
1A53F
10D47
39A13
18FF1
18D5E
2A030
2E2CD
17A61
4DFE4
13C81
1BA38
0FFEF
12A3C
11113
32C00
1CCC6
1320C
19746
13A26
4241D
0F839
42A6E
19FAA
37B4F
46FC6
4CB08
3694D
2AEEF
17845
0F140
42E26
08C15
11C9A
2F0CF
0FE4A
38FA2
13AF2
17A80
0E282
297AD
0DDC9
4536B
2A3E6
3341B
242CD
26FFC
1A0DF
11CCE
172BE
35F01
2757F
1257E
2FAE5
3DC46
145E4
13BFD
171C3
2EA95
35EF6
159E3
4791D
0CFB9
1AE54
30A4D
395DB
16834
1167D
10F8C
27456
18BFE
118CB
0EC8E
2BF79
19BC1
0FB40
49FE2
213BA
5E812
1DD4B
1514F
50241
371E2
42BE2
4B379
16BA5
41DF2
14F3F
25D97
3D1BC
0B16B
151A3
35CAC
0F262
13191
261C8
1150D
3DA4C
11B63
120DD
15DC2
257F8
20203
0DF18
15009
46087
16699
11B9D
4C783
311A8
453F0
2A4DC
2F4BF
2B026
4548F
0DA8E
110ED
404F7
25508
15255
18D38
1266C
14006
48EC2
2BAEA
448AA
0CD10
189F1
12FB8
21638
1BEA9
09CFA
1D7F0
2219C
0EF40
1B9D7
42777
38A14
13A08
1783E
34F6F
0F313
30A73
2DC2C
3D7DA
4ACC3
0FADD
240F3
11DA4
300CD
41066
45EE0
29BEC
14C7C
1573C
2FC1C
14BFF
1AC2A
103E1
18FB0
115B7
11ABE
12042

