6FD43
5FCF0
71C82
58B1D
50D61
42944
86460
4AE45
67823
5C50E
3F94E
41B8D
37D53
64BED
5DF6B
94453
427B8
4C55B
88B70
3B338
83034
4114E
A4C6B
56B7C
4B83C
5308A
52F95
647B7
6E52E
4D9FB
8B01F
B3214
5E146
44949
5EB31
3D7EB
900FF
B5D16
75CC5
4BCE0
8B2D9
6962C
61412
5ED97
70F4D
6651A
B4A67
441FF
47C8B
52EC1
5E1D4
4E3EF
780AC
8A821
50DDA
5C961
5590F
9E93C
49603
A0A03
8A3A6
7ABC7
A3762
AA72F
7EEE5
64F43
452CC
42D05
9CC22
26D81
4940F
72E0C
40EEB
8E8CC
5ECFA
6BBE1
4F269
5D4AF
44AE5
A414C
5F5A2
7B15B
54A25
5604A
4814D
54E39
44FD3
85429
5C4BD
5AC11
713A5
8E479
5A3CA
61608
7151D
6D725
84C37
575D5
A58AA
3ADF0
78B1F
7068B
8FB11
732D5
4E9C8
518A1
5BECD
432F4
3A603
4880D
6BE39
42813
523E7
B5AD9
5121C
D59A0
46761
5136C
C1430
84F2D
A0959
AADED
6D3DB
A057A
6D5E9
5E391
8D8DC
302AB
668CC
7ACED
3B772
4498F
48AA6
6230A
89635
76FBD
69965
4D789
55D3F
6B141
56A2A
5F129
AAB4F
6A117
4DA5C
BB0B3
750F4
9A4A9
65F5D
7540F
653A2
A7FA4
55717
52146
982D2
59EF0
68FD5
46E42
655AF
6AFE3
AD53A
68F93
A905B
49691
6115B
6FBB1
50E92
48E20
425B4
48A39
7E36F
57592
79D21
A14EB
860E6
5C4BF
73AA6
833B2
4D838
748BE
6B8E7
8FB4D
B3F01
581FE
56F48
4A96E
7140E
9E59A
A8D47
60005
51ED4
58C41
6F772
78023
7552F
589F5
7841B
403F7
52A7E
5A795

