00E24
09AD0
24689
02C0D
00771
03041
253E9
05764
2310F
1BAC0
11959
04874
FFCAD
03DC4
1B1B4
2B4B2
0F38E
01E68
2C7A7
046E0
28769
053D5
2F3B5
07ABA
171F6
18919
0FEC2
04EE5
209CB
0FF22
27B88
36057
06A85
11215
1CDAA
122AC
2B5A9
35F38
07655
04911
28DD0
085F1
0A320
1EF47
20EFF
07568
37B2F
09D2D
12636
02CC4
02EB9
0469A
2464D
06BA7
06865
0ADA0
05581
2F773
03A42
2F6BE
02A79
28C36
33D38
39189
28149
1E710
0B9A2
0499C
2FFDE
02473
06041
20A0C
05F7C
27963
03FFD
06207
002CA
1E9B0
029AC
31B59
1E165
24BF0
19868
1BCE7
0FF3B
03C1E
0D9C7
25B1E
1C85D
03580
22771
2D090
0609B
03B7B
0442B
22054
25AA4
097B6
34923
03AC7
07A4F
23EA7
27AD8
03451
04C18
03D15
1CCA5
0FD42
08CF6
034D1
1F961
11228
01BCF
340B7
178B3
461A2
14AC7
07686
393BF
273C2
2FA3E
37497
04B70
2ED83
029A8
1A6A7
2CA67
03B5C
042A0
27CDD
06408
08C96
1B5B0
00974
2DDF0
FC952
FF920
0B4B6
1AC97
10EF5
FEE7C
05895
31522
04D04
056B0
363EC
22B65
3333B
1E9BA
20CB3
1E8B7
31203
FF3BA
038D8
2DD15
1AA8B
0411E
0F753
015C6
022D2
349C2
20136
302A7
00883
09B70
FFFF6
17E36
11751
00842
15266
0EAC8
00270
0864C
2F28A
2870A
04AA6
0464C
24C18
024F8
22EA3
20BFD
2D1CC
35555
009AD
1A192
05EC2
22AC0
2DDC3
31C04
1E33B
07B66
079FD
22F2D
008C6
07837
016AB
05497
07AD9
0499E
0381F

