18761
1A507
34AE9
15454
10FFB
10867
39B2B
13843
315CD
29661
1ABDE
11143
0BC12
17DED
282C9
4154F
18FFB
11AD9
3FE98
0FD9B
3B1A7
11E30
47D12
1824F
23335
24B49
1DD01
18BE3
30B3E
1A970
3C817
505E9
17008
1C7DC
2A5AF
1B234
3F28B
50286
1EA7C
13A20
3D764
1CCBE
1C2E8
2C8A0
31337
1B608
5316C
160EC
1DC0D
13033
163B9
13F5A
36080
21D7D
16024
1CCAE
16E69
468D6
123A4
470C2
1F4F7
3B1F6
4B5D8
512B0
39E56
2DC9E
1A3D8
11791
4733D
0A3C5
147A7
3258E
12296
3CF3B
1744E
1BA9C
115A4
2BF72
106F5
49AC0
2D05C
3692D
269C0
298EB
1C5D2
1502A
195B5
39A67
29D11
15C58
32B3A
41977
17A4C
1769E
1B6B3
318D0
39A76
18646
4BE98
0F1C5
1F4BB
338D9
3D68C
1AE94
144C0
13FA7
29AAB
1AC9E
138C1
1168D
2ECC0
1BB34
12E53
4F026
23729
64150
1FEC8
18351
55607
3ABF8
471BE
4FC5C
1AD86
46388
1925A
28768
40DEC
0CC67
18F95
38FD4
112EC
15747
2891E
15237
413FB
168A9
16476
18466
27F24
23991
11617
18899
4AC47
1A6F5
148A1
518CA
3464A
495EE
2CFA1
329C9
2DDBC
49E49
10F50
14251
44898
27C00
190C8
1AF7B
164BE
18137
4D90B
2E55D
4932F
0F9FD
1C075
17526
238F7
1E4E9
0BEF8
1F675
268A8
12560
20022
46E13
3C549
170BF
1BE2C
38AB6
1222F
33CB1
30BC1
413C0
4FB42
131FD
26561
14946
331BA
4567D
4A8AC
2C623
17C47
189CE
32AF4
195E0
1F28E
13A1A
1D7B6
1391D
14A8B
15551

