0780C
0F66A
29D49
07DEC
0586A
07745
2BF8B
0A712
27FE9
20004
15B46
087B7
031F9
0A435
210B3
32A93
13265
06923
32FA9
07B09
2F289
09339
3793A
0CF98
193BE
1CE4D
145EA
0AE92
2634E
180E6
2EC91
3ECD9
0D0CC
13F7D
21CC5
15437
33F83
3FCCC
0E5E5
08FA4
2FE89
0E8BA
0FDF6
231D5
2708A
0D710
3F046
0DBCD
15BE1
083D4
08993
09247
2A13A
0F6AE
0B859
0F7C3
0A8D7
378FC
0826D
37981
0B025
2CF13
3BAA2
40B90
2EA90
227D7
12640
08A50
37310
043B9
0A59A
25CA2
09F76
2F017
09BC6
0C798
04CB3
22D95
06C8F
3987F
20E79
2B2CB
1CACA
1DDAF
0F8DD
08E0D
1163C
2C78D
210DE
08C98
286B9
33D47
0B867
09C3D
0B0D8
27BB3
2C3AB
0E444
3CE80
075E9
0F0E0
29C1B
2EE79
0A34F
095B3
08D7E
21FF8
13025
0BE76
08078
25DE1
14530
06BD1
3D5EE
1BC7B
5082F
168FA
0BB2C
4325A
2E028
37D47
3F5C3
0B417
373A5
095A3
1F64E
33A98
067B8
0A529
2DED3
099F8
0CA67
195F7
06A27
34284
041D0
05EC6
0E47F
1DDD4
16E07
0474E
0B33F
39EE3
0AEF5
0A47C
401A7
280E2
39D5D
24A79
269C6
22D19
39AEE
049E6
087A5
34CC6
1F309
0AA39
1363A
07DC1
08EB9
3DBF3
26AE9
38FFF
053A8
0F62B
07174
1C6BD
18AF4
0486B
19EA6
15C91
05BD7
0FC14
376A4
2EC09
0A378
0B5C0
2B23E
06F58
28DF2
2599E
34C76
3E5D3
06271
1F4CA
0AA78
283C2
35CBD
3A440
223DE
0CE33
0CE64
2894E
07F8D
0E652
06E65
0C9D3
0B2B7
09C8E
094A1

