1EAFB
2144F
39D1D
19D4D
1642F
1497D
4009E
18C3A
361BD
2D678
1F02B
1533C
0ED62
1E5EC
2E94E
485A1
1DAB1
16130
46080
13230
41CAF
159E8
4FD7E
1D5CB
24685
28ECC
22482
1ED0C
363B8
23F5C
43477
58A74
1F0E7
1EC55
2F54F
1E343
486F4
5A06A
255A5
17D40
4430C
22BB7
21F52
30639
37760
21312
59286
19D2D
20DCE
18D5E
1B9A1
187FB
3B670
2AC55
1AEE7
209E6
1B38E
4E743
16A55
4EEF3
2747A
3E3AD
52BB1
5837A
407F8
31428
1DAD1
15923
4DC31
0BEC9
18542
36EBA
162E5
443CE
1CA43
21A53
15514
2FD62
148A2
51357
2EC82
3CEEB
291C2
2A560
1C1D9
19C50
1CDB3
4033E
2E381
1B008
38998
47EE0
1D044
1D3C0
21C76
37394
3FE74
1E82C
5428A
12D07
2687C
39750
4469B
21889
18BF1
18FF8
2EDEE
1DB6F
163B2
165B6
356D8
1E963
17848
581B1
27A2D
6E165
2134A
1B257
5F2C3
41546
4F1BD
57405
2107B
4E963
1F941
2D5B2
47A35
0FBEE
1ED15
3F02E
14B30
19153
23E1E
1AFAF
4718F
1DA3E
1C122
1C52C
2A4D0
29969
16B7F
1DD73
52FDE
20136
19403
5B6C6
392AD
4F451
332AC
38165
31938
52317
16946
18D57
4AE1E
2C3E7
1F9B1
1ED58
1CA2F
1EB6D
568AD
3569D
51E4C
14615
218A8
1E581
2815E
23653
12442
244C7
2CFDF
17E01
27533
4EF26
42273
1C74F
2289E
3EB74
16A35
39B02
35259
48FC2
587DD
185E5
2BAAD
18DCB
38761
4D07D
52D5E
2FF75
1C3AC
1DC23
38556
20DE7
2544A
190F6
2488E
16F70
19FA7
1B549

