1FCA5
221EC
3A94C
1AAFC
170EF
15380
40FE8
19723
36C7E
2E0AF
1F742
15CED
0F64F
1F53E
2F39E
49628
1E2B4
16D00
46F04
13AE9
42AE2
1635E
50FFB
1E247
24F08
297F7
22F1B
1FC36
36FEE
2486E
44414
59E27
1FE9F
1F490
2FF9E
1EA12
4968B
5B466
26728
18890
45280
23B19
22D19
31056
383E5
2221E
5A671
1A663
21647
19A03
1C81C
193AE
3C3A3
2C12D
1BAA5
216F4
1C042
4F8B4
17560
500BC
28A05
3F0D9
53D44
59561
4158F
31F69
1E36A
162FC
4ED63
0C4A5
18FE9
37BC7
16C34
453FB
1D8AB
22A74
161AB
30747
1531C
52561
2F714
3DC73
29B3B
2AEE2
1CB6C
1A92F
1D66F
41246
2ED89
1BDE9
395EC
48E30
1DD98
1E295
22DC6
37F61
40D72
1F48C
55441
135BF
27A5F
3A346
456FE
22A4F
197AA
19C47
2F7BD
1E397
16B90
170A0
362B3
1F134
18511
5960F
28336
6F7ED
21B66
1BE1C
6081D
423FE
50379
58639
22112
4FB2F
20A30
2E055
4896E
102FD
1FCB2
3FD33
153A0
19ACC
24620
1BF2F
47FFD
1EDB1
1D202
1CFDF
2AE49
2A7AB
17969
1EBA6
542F7
21151
19F6B
5CB97
39FB7
504A6
33DBA
38EB5
32476
535C3
176F6
199CD
4BEF2
2CDDA
209AA
1F610
1DA03
1FC08
57B92
361D7
53144
151A0
2267D
1F739
28A41
23E7C
12EBA
24CB0
2E18E
18BD2
28729
50113
4313B
1D534
23A47
3FA5E
17627
3A7D3
35E31
49F27
59BC5
193C6
2C419
1989F
393BE
4E230
54016
309EA
1CF5C
1E8FC
39157
220DF
265B8
19ECD
25AC7
1786D
1ABFD
1C308

