5F44F
530BA
665C6
4BDD9
44E1E
3931B
77F09
40A96
5D6D4
52BE0
38EF4
38A2E
2F775
56621
544B3
84C6D
3AF82
4142E
7B1B2
33065
75B3E
38363
93716
4B034
4388A
4A70A
49097
5643B
62E06
451F0
7C5E7
A0AA5
5137C
3CDD3
55085
371BE
8171C
A315C
65617
41328
7CB0D
5AF77
54563
555E1
65390
58361
A1FA7
3B7DF
3FD74
47115
508A5
4346F
6BAAA
76F84
45DBE
50591
49A8C
8E39C
3F05D
8FF44
7608D
6E635
92FC6
99AAC
72308
5A677
3D1D2
3994A
8CA30
2159A
3F44E
66A44
38353
7F625
514EA
5C9EE
43591
54041
3ADB2
932B2
55709
6E668
4BC06
4D1A7
3F1BD
48D2E
3CCC7
772AB
52E48
4DBE5
65ABC
7FEC3
4DBE3
53786
61163
62617
76B5E
4BC30
94EEC
32B23
67ED4
6531C
80542
6283D
439E5
46001
52BAF
3B89A
32FFD
3E44F
60C63
3B2CB
46425
A294E
48A9D
C079E
3EDBA
462E0
AD3E6
77261
8FF4E
99CE2
5DB01
8FA85
5D7E6
54400
7F490
298CE
57E92
6E9AC
338DC
3BB78
4128A
53A85
7BDC0
64C01
59C48
4370D
4CF1E
5DB69
49975
51C29
98CE5
5AF7B
42F44
A7878
68D63
8AFB2
5B982
68C55
5AAFA
96788
489D2
46659
8866F
509BF
5A036
3EB76
5683C
5B6D1
9B9D9
5E737
973DB
3E968
541DD
5F1F0
48944
413B7
388AC
41390
6DA38
4A650
68FC1
907FC
7832C
4F44A
631BF
753F9
42508
6888D
6073D
81460
A1467
4B1CF
4E1EF
4070E
65A9C
8DC11
9747B
5632C
46F7D
4CB94
6436C
66399
64FC7
4BA68
672BA
37D2A
4716D
4D966

