42AE7
381BE
51D2A
366E1
2E9B0
28B76
5E52E
2CAF2
4AF69
41FAA
2B23C
278D9
212CE
3BB3C
3F931
68CBA
2A818
2DEE4
62B66
244D2
5C7B7
2888B
73D76
35A50
38D41
3A703
36AFA
3C386
4D840
2DA68
61B99
7F8CF
34451
30D5F
42882
2B33A
629FE
7F15F
484E5
2E9CB
62590
415F2
3C63C
44DD4
4E530
3F42C
8422B
2BF71
321AB
300C5
38D0B
2FCCA
559D5
5265C
31BC7
3CEB4
3656D
6FE4C
2C590
715AA
529FB
5BFFA
75843
7C462
59CC7
49454
3473F
28861
70C42
187C2
2E603
5213C
27FF3
6335F
39C68
423A7
301D2
43E39
29336
7494D
47C45
567F2
3E09F
422E5
3296F
33E7A
2E63B
5D626
419F4
36C52
4FC6A
6666D
372B9
3AAEF
44E34
4D5C6
5D72B
33175
75B57
23973
49A5F
4F8E0
6452E
453EF
30204
30EAC
40B98
2E6A3
26C62
2AAC7
4A090
2E9EC
319E5
7F4B8
38C36
99C47
3411C
364A4
87C58
5DB0A
71227
7B9E5
42794
70149
41840
419DE
65140
1D020
3E3CD
57C34
24C18
2C23C
403BA
39EED
63F2C
45068
3EF16
2F84F
3F82C
45048
3276E
3A8FF
7855A
4126F
2F9DF
82715
540DD
71116
46B51
52849
4947D
763E6
30B22
31DB3
6D388
3F314
3E9DB
2F940
3BC93
3F4A9
7A40B
47DE8
7606A
2AA65
3CD2B
4116C
38762
35510
20625
31C3E
51479
32E5C
4A4BB
715B6
5FF2A
37F64
45F41
5C540
2E79D
52046
4D5C1
65447
7EECC
34499
3C405
2ED37
508A4
6F916
76EF7
45C74
34844
3708D
4EDCF
45CF7
4980A
343F7
48CED
28DD2
3169D
35406

