0288F
0B926
26677
04058
01F09
04A39
27ABE
075F7
24F84
1D210
13B5E
05C1B
009D0
05F45
1E249
2E035
10E55
033FC
2EE57
053CA
2B2A6
068A6
32607
09769
16D6F
1A50D
11637
06A53
22C5B
15816
2A64D
39438
0930F
11A73
1EE5E
13590
2F958
3A2E0
09717
05CBA
2B8FF
0A384
0BFF5
20451
23838
09358
396A5
0B25D
135C0
04AED
0486B
05DA1
265D3
098E5
08384
0BD04
06FB0
32A7F
050BB
3297B
04F37
293CE
36B8D
3BB02
2AD67
1F533
0FF8F
05DFF
325AE
0295A
075AD
221E7
07595
2A74B
05AF4
07F02
0140C
2010D
03D66
34750
1DEE4
275E9
1A027
1B2E5
0CDCC
05424
0EEEB
283E7
1E3BB
04E25
24F40
2F85C
07C6E
0597D
062ED
24695
28036
0AC93
37EC8
04EAB
0A063
26646
2A4BB
05355
060EF
0561B
1F3D5
10B70
09B0E
04F58
22887
12201
0324A
37A45
193D5
4A2C8
1447B
08635
3D244
29DEB
32D77
3A3DA
0696F
3238F
0496F
1C66F
2F61B
047F6
05EE4
2A440
073FE
09FC7
171EF
02466
30194
FEA4B
012D6
0B45A
1B331
12DE0
008B2
07358
348F6
0667A
07128
3A3FC
24637
353DF
218B7
22DDB
1FA81
346E6
00C52
04F91
3010F
1C648
06256
10EFC
03685
04400
386EF
23867
33AA6
01FB5
0B7EC
021BA
19EBF
1663B
0194F
17B0D
10D01
01DA9
0AB44
325F6
2A985
064EE
06648
26F20
03997
25449
22451
3072E
38C3E
023FC
1CA62
079C2
24C20
30D14
35003
1F4D0
09999
09496
2534D
02A31
097E6
03021
077D0
08A46
06509
056C7

