04B8D
0C626
270EC
05C48
03282
05371
2892F
07BFF
2564B
1DE81
13133
06925
01BD5
071E3
1D3BD
2EE19
10D05
04780
2FA45
0649F
2B7F6
074C6
333BE
0A5A2
1916B
1A8B5
122F0
08280
233B4
11ADB
2B1AB
3A4F8
09517
12FAC
1F0D5
13A0A
2E93F
3A37B
0B2EB
0704F
2C377
0BB24
0D1F9
212A9
2395B
0A99A
3C287
0BD0B
143D0
05700
06106
06F19
2743E
0B246
090BA
0DC5B
0833B
33395
06040
33447
0751D
2BC08
37A88
3D03C
2AFB0
20F09
0DFC3
06B23
33C52
0392D
085ED
23833
07F3F
2B109
0722E
09A1F
02F88
20C7C
04DB2
359C3
2084C
27A5F
1BA7C
1E0B8
11F8F
0690E
0F85F
28F18
1EAFE
06580
251BC
3061B
08E77
06EC8
0807D
248C7
28EB4
0BE8C
385EF
05891
0B7EA
26762
2B372
071E5
07493
0672D
1EE2F
119CE
0A8ED
05990
220FF
12DAD
04880
386F3
197B5
4AFB8
16815
0A248
3DD0D
2A696
3375E
3B45E
08514
32A66
06460
1CB3E
2FF12
052F9
078D4
2A9A0
08081
0AD95
1D81B
03EF9
31069
00CEF
03446
0D685
1CEDD
13F91
01E9B
08A13
35769
08555
07E12
3AB0B
25972
36CF9
20F27
23B1C
2109A
35285
021E4
0640F
31842
1CCA4
077C3
1154E
04C4E
05BDC
38AC2
2265A
343DB
02FD2
0CB23
03CB6
19C9D
138C9
02600
16D1B
128F3
031CD
0C3CE
33053
2BAD9
07A86
0837D
27FF6
04E31
25A99
235A0
30635
39A05
039EA
1C172
084F0
2558F
31B17
35C96
2082B
0A537
0A63D
2582A
0496B
0B5CE
0461C
0939C
099D2
07371
0668C

