3813F
34D6E
4B54E
2D80B
28975
22FBB
56045
28735
45913
3C159
2933F
23223
1BAA5
34647
3D689
601BD
29303
270DC
5AE5F
1FAC8
5633B
23384
6A6BC
2F4F6
30A52
361A1
3184D
349DB
47C8F
30FF6
59B98
74F74
32C72
2A9A3
3E278
27FEE
5ED94
76C00
3E86B
2817C
5A678
38D77
35C3C
3EED7
4973F
36D2D
75C9C
270F8
2D0AD
2B032
306A5
29515
4E60C
48BAC
2BCF1
33625
2D7AC
6786D
26854
687F6
463E4
5129F
6BFE5
71F32
5408F
416FA
2A094
23BA8
667B6
14591
27A37
49AEC
238F2
5B7DE
3158F
38D50
276A3
3E0F9
239AA
6B244
3DFB0
5061A
36BAD
38015
29DFA
2C450
296A3
55D00
3CA34
2EF3A
4A51F
5DF1A
302C9
328ED
3AAB5
48310
55739
304D4
6DA01
1F595
403DE
4AA72
5BF83
3B14F
299A2
2AB0F
3CF82
2970A
218AA
260C8
46785
29D38
29E50
75630
349F0
8E7AB
2CDD2
2C10C
7DDE0
567D4
689AC
716AF
38E0E
682B8
37EBD
3CA5D
5D843
19E42
3543B
51B92
20D48
26B32
2F649
31438
5BD76
39991
3453E
2BB3E
37EBE
3E14F
2AB84
3240E
6E70B
373AD
29A5A
79587
4BE8C
66BF0
430FC
4B3A4
41BD3
6D098
2A405
2ABF5
6311D
3A8AA
3691C
2B5E7
33645
36957
71B30
458C4
6D289
24F98
356CE
37CFE
34DC5
2F204
21509
2FABA
4668A
2BBCD
4123D
68B83
5766D
306F1
3BECE
5427F
27CF5
4C1B3
462C4
5F1D9
751B8
2C51C
39369
286C5
4A3BA
667A3
6DBED
3EFF6
2D086
30393
4995F
3C232
3E51D
2CF35
3EBBB
23E22
2BB6D
2F16F

