6FC47
7D1B6
1975E
757B4
74645
7A00B
176D4
7BC75
198B4
12475
0C2D5
7B75A
77219
75AD5
132F0
1C741
08618
76B2F
1F791
7BF86
1C14A
7C7CF
1EBB7
7C327
0DCB6
10938
06205
76883
15CC8
0BDE6
19CDB
24565
7A9D4
08E87
13F13
0C1C4
1F046
24F2F
76D63
79C60
1B24B
79E0D
7D5B7
15862
16372
79387
24410
015D2
0A5B7
773F8
75247
796BA
1856B
7369A
7BBEC
7DF19
797C7
201FD
794FF
1FB2B
6E10A
1B3E3
240CB
28AB2
1C65C
135E6
06D63
7B691
20157
7C5BB
7C09E
14404
7D75F
1944A
76614
76CCC
73E06
158D5
78B3E
214A1
12B26
18FE7
0FF15
1113D
02B18
7795C
05A66
18458
13936
76238
17DB0
1F405
799E0
75D50
73C92
17DEC
18162
7DA2D
2519B
7BA6F
77053
19AEA
18E26
72532
79998
784DD
14D1A
080C6
0154B
795C5
15EFC
09D15
758F7
21FFD
0FA45
323B5
0BA9C
7BE1F
26744
1A3AE
1FFF3
26E67
74F67
1F502
7298E
11198
1F35F
7CFFB
7556F
1C6F6
7E488
7FEBE
0E9CF
71CDF
20C42
69FA9
6F3F9
7FE79
1121C
03B84
71C29
781F1
2045B
754A7
7AF41
24220
16892
23E3E
15CBF
14B7F
13B5C
2096F
723AF
77BB8
1E305
11D32
752C4
07ABF
72969
729B8
245C6
17999
1F836
75B76
7CCC5
6F48A
107AA
0DB80
76758
0F491
7E06C
732C5
779FA
1F52B
1AE3B
778AE
73A0E
17193
76E83
17A79
15AF7
20177
239D5
7380B
12A31
7C1BC
179F5
1E024
211C6
1430D
7D2E1
7BA39
18746
6E7B7
76FA3
744E8
741FB
7F180
7934A
76D1A

