36F95
33FD1
4A91F
2CA5C
27CB5
225B9
550FB
27C4B
44E52
3B723
28C28
22872
1B1B8
336F5
3CC39
5F136
28AFF
2650C
59FDB
1F210
55508
22A0E
6943F
2E87A
301CF
35876
30DB3
33AB0
47059
306E5
58BFB
73BC2
31EBA
2A168
3D828
2791E
5DDFC
75805
3D6E8
2762C
59704
37E15
34E75
3E4BA
48ABB
35E21
748B1
267C3
2C834
2A38D
2F82B
28962
4D8D9
476D4
2B134
32917
2CAF9
666FC
25D49
6762E
44E5A
50573
6AE52
70D4B
532F7
40BB9
297FB
231CF
65684
13FB5
26F91
48DDF
22FA3
5A7B1
30728
37D2F
26A0C
3D714
22F30
6A03A
3D51D
4F893
36233
37692
29468
2B771
28DE6
54DF7
3C02C
2E159
498CB
5CFCA
2F575
31A18
39964
47742
5483C
2F873
6C84A
1ECDD
3F1FB
49E7C
5AF20
39F89
28DE8
29EC0
3C5B3
28EE2
210CC
255DE
45BAA
29567
29187
741D2
340E8
8D123
2C5B6
2B547
7C885
5591B
677EF
7047C
37D77
670EC
36DCE
3BFB9
5C90B
19733
3449D
50E8E
204D7
261B9
2EE47
304B7
5AF08
3861E
3345E
2B08B
37545
3D30D
29D9A
315DA
6D3F2
36392
28EF2
780B6
4B182
65B9B
425ED
4A654
41095
6BDEC
29656
29F7F
6204A
39EB7
35923
2AD2F
32671
358BC
7084C
44D8B
6BF91
2440D
348F9
36B46
344E2
2E9DB
20A91
2F2D1
454DB
2ADFB
40048
67995
567A5
2F90B
3AD25
53395
27103
4B4E3
456EC
5E273
73DD0
2B73B
389FC
27BF2
4975D
655F0
6C934
3E581
2C4D6
2F6BB
48D5E
3AF39
3D3B0
2C15F
3D982
23525
2AF16
2E3B0

