FC768
06E46
22377
FF514
FD8E7
0132A
226A7
039F3
2145F
199E5
1145E
026CE
FD8BB
00B03
1A98E
2854F
0E242
FF305
29E80
023D2
26490
0349C
2C056
052BD
13E9D
172A2
0DBEB
016EA
1E933
12633
2506C
327E4
0479A
0ED2E
1B5A8
11019
2A396
334FA
036C6
01E7F
26401
04EED
0742C
1CCB1
1F362
04095
3291B
07FB7
10727
00562
FF8C9
01D47
21D39
02645
042F1
07538
029D6
2CA91
013FE
2C7AC
FD8BF
24B5C
30AE5
3588E
262A7
1B74F
0D044
027D4
2C719
0091F
03B19
1DA1D
04265
24E53
00BBB
0264B
FCECE
1CAA1
003C2
2E418
1A4BD
22B7F
16C0B
17E98
09928
00D5C
0BEDE
23139
1AC90
001D1
20B73
2A422
03322
007E7
003B2
205AA
22DC4
06881
31D57
01EB6
03E04
2247B
24A9A
FF195
02071
01269
1BDE4
0DE93
06FC7
0134E
1E753
0F700
FEBFB
30A3C
16226
426D9
117E0
04579
35CD3
24CF5
2CBEA
33FBC
00E30
2C1AC
FEC4C
18BED
2A266
02124
00902
25CA8
04595
06BAD
145E4
FCF23
2B236
F7F53
FB607
07982
17F14
0DF77
FBC2B
0253F
2DFF1
00DE3
0326C
33180
1FE81
2FA0D
1DBE7
1E49F
1BCA9
2E030
FC10E
00B07
2A484
18F94
00A79
0DF07
FDF74
FE8AD
31F08
1FAAC
2D254
FE037
06BD8
FC049
16DDE
13959
FDFBB
14F8A
0ABC2
FD1AB
0487F
2C35A
25838
0187F
00526
21D18
FF7E3
20DD1
1E32D
2B282
31EC2
FD7A7
1968E
03E38
20821
2ABB8
2E90D
1BB4D
0594E
04DF1
2114A
FC1DC
0380D
FE407
01392
058D9
0212D
00B2D

