3436D
31DC8
48AAB
2A826
25CD4
20CB2
52AC2
26103
4336F
39D9B
27A6E
21037
19B69
310A9
3B270
5C7E5
276F6
24785
57B91
1DC42
5318A
21266
66606
2C943
2EC87
3418B
2F333
314C7
451D2
2F038
564F2
70A85
2FC6E
28CD4
3BE61
26816
5B701
72610
3AB20
259E2
57062
357A2
32C02
3CB71
46B70
33882
716E6
250BE
2B305
283F1
2D3F8
26C22
4B7D9
442BA
293D9
30874
2AB38
63B61
241AD
649B9
41881
4E485
68262
6E08B
510FD
3EF97
2827C
21930
62B86
1310F
254F1
46D3D
2185F
57F40
2E325
354DC
24A93
3BE57
214FD
67320
3BAAF
4D6BF
34A83
35ECD
27C7B
29745
2780F
52862
3A719
2BEA7
479F9
5A981
2D424
2F502
36E1A
459BF
522C2
2D982
69C00
1D710
3C544
48094
58628
3731B
27097
27FFB
3AD2E
27A7D
1FD20
23A93
43E06
281DB
27192
70EE5
32A52
898CD
2B16F
297DA
79324
5344F
64B98
6D6FA
353FD
6446E
34378
3A521
5A2FE
1858E
31D94
4EE03
1EFBE
24A0A
2DA42
2DDF6
58AF5
3557F
30A2F
295CC
35D94
3AF69
27AD1
2F25A
6A436
33B4D
2726E
74CAC
490EA
632C7
40A49
4850A
3F479
68F3C
27420
28058
5F639
385DA
33133
29762
2FEDE
32F39
6D911
4317B
69026
22730
32664
33EFC
32EAB
2D574
1F065
2DF0A
428A7
28B70
3D363
64CC2
542B1
2D64D
380FE
50E4B
25326
494DB
4394F
5BBF6
70C0B
29489
3726E
260E2
47875
629AE
69A68
3CB5D
2A79C
2D69E
46F5E
37FCD
3A81E
29EC7
3ABF2
21EAE
2903E
2C153

