4788A
40C06
55FDB
397A1
33BF8
2BBE1
63651
31FFA
4EFA0
45051
2F683
2B9D1
23796
41CC1
466F0
6E91C
30335
3163A
67999
274E2
629FF
2B7F8
7A994
3A3C3
38181
3E1F6
3ACB2
41E2C
52780
38EF0
67632
86331
3EC85
31CDE
472D4
2DF4B
6C7DF
883BF
4DD95
31FE4
67ED0
464CA
41D24
47C6F
54678
43FD9
87371
2F1E3
3474B
36139
3D159
338E2
59EDB
5AF71
36150
3ECE7
3897B
76C9C
302EF
780ED
59173
5CB05
7B5EE
819CE
5FED4
4B486
318F5
2C58A
75876
1979C
30F52
551A6
2BB3C
69A58
3DF38
46F22
326E4
46B81
2CC62
7AED4
473B6
5C385
3F052
40535
323F8
3787C
310F2
62F76
456A1
3B185
551B3
6B581
3BD5C
3F899
49D1E
52850
62915
3B218
7D208
26FA9
4FE46
551EB
6A4EF
4AA20
33DCB
35760
458D1
3093B
286D2
2F99C
50D7F
30AAF
3514A
8735D
3C867
A2324
33F5C
365D3
908D0
635E7
781FA
81586
47651
77BE1
46BD1
45F4A
6AD57
20110
42ED8
5D1CF
2836D
2EFCF
36662
3ED3D
6877E
4A9DA
4317B
35107
40366
4A8E6
36E4F
3EADB
7F25D
4552D
33A09
8B8F1
57513
75093
4CBC8
56E0E
4B93D
7D609
3639A
35A6C
71CAD
433E8
448C1
32FFB
413E4
451CF
823AD
4F5E7
7DC12
2F136
41876
47507
3CA31
36443
2A799
3697A
55E13
37D3E
50DA7
78684
6455E
3C980
4B60D
6134E
32433
57514
50896
6C961
86869
3876A
41756
31E52
550CF
75F78
7E201
4825A
3742C
3B768
54164
4CBC3
4D918
390EB
4EAE3
2BBF3
36828
3B1DF

