75498
015C8
1D447
79C21
78606
7D218
1C346
7F305
1CE79
15784
0E648
7E7CF
79EB9
7A76F
16683
219E3
0AE2A
7A63E
24025
7EB21
20847
7F71D
24829
00195
10747
1370D
09705
7B457
199D5
0EB40
1EAEE
2A7DF
7EE6D
0B7AF
172A2
0E3D2
23E3C
2B318
7C4F3
7D4F3
1FF8F
7EAF4
01A9C
18AF4
1A207
7DEC5
2A7A5
043DC
0D014
7B331
79AAC
7D13A
1C76B
79ECE
7F6A0
0205E
7D748
25932
7CC36
25415
74CBD
1F5BF
298A9
2E433
20A50
16E2A
09861
7E7CF
25752
7E308
7F5DF
18547
005E7
1E52C
7AE1A
7BD73
77CF9
18A4F
7BFA4
26ED5
16004
1D38D
12E75
140C9
05AF2
7B9B5
08615
1CF82
16B5D
7A79C
1BB53
24097
7DC82
7A77C
79325
1B8F1
1CC55
0180E
2AA30
7E608
7C9C1
1D6BA
1E015
77E0F
7D439
7C268
17E24
0A98F
03CA2
7CC5A
19A43
0C42D
798E2
285D5
1276F
39461
0E329
7F8F8
2D208
1ED48
258A1
2C96B
7A25A
24DFE
77E3A
146C8
23F78
7F344
7A383
2080C
00EBA
02E1B
111D8
76A61
25469
700E8
74859
033F7
1417D
082CC
761BA
7C8F2
263D4
7A531
7E849
2AA34
1A9C2
28FE6
19408
18E13
17394
266CE
7681B
7BA07
23726
14EED
7A2A3
0A659
7788F
77CBE
2A43C
1B1B7
2570C
7952E
011EE
74D20
13419
1044E
79BAF
11C1F
038D4
777DB
7D3C5
24ED0
1F824
7BE2A
7925B
1BC26
7AA3E
1BA89
19630
24E70
29D5D
77D70
1594E
7F7DC
1B7C5
238A7
26F5F
17756
00D53
7FA72
1C348
7468F
7C6C6
78A16
79D1C
01E6F
7D0FA
7B1D4

