79351
04423
1F1C3
7CB96
7B150
7E9E1
1E95D
00E2D
1E695
1733E
0E9A5
00713
7BE5C
7D587
16DA1
241E4
0C0A0
7CC37
2626A
00B62
2264E
011F3
273A3
024E8
1330B
149E0
0B666
7E7B0
1B5F9
0C7AF
20F41
2D716
01560
0D6E6
18755
0F3F1
24E7D
2D6B4
7FD2B
7FA95
22283
01B8A
0456E
1A884
1BA46
00D04
2EC81
05D72
0EB02
7D84D
7CA1F
7F59D
1EA6D
7DE67
017BC
0502B
7FA0B
27F2F
7EE46
27BAB
79533
22C92
2C299
31423
2247A
1971D
06D61
0068D
286F4
7FB00
014EB
1ADBE
01FF7
20A17
7DB9C
7F1D6
7A94D
1A417
7E1A0
29E85
19398
1EF12
1543F
17545
0BE92
7E23E
09C97
1F32A
1831D
7D581
1D2DD
2657B
004E5
7D4E1
7CB88
1CF6D
1F283
04A0B
2CF8C
7FF33
7FF1A
1ED31
209A3
7B929
7FB23
7E8E5
18991
0C429
05507
7EB52
1AA24
0DB1E
7C26F
2B43F
13AB1
3C575
1102D
01F03
30125
20E1C
27FFC
2F50A
7D828
273BD
7B438
15D7A
26112
00C23
7D639
22358
02B18
04A98
170D9
79E6A
278FE
74218
782D5
07117
16809
0ADBC
78E3D
7F59A
29092
7DC63
007EA
2D5B0
1CF4A
2BFBF
19EE0
1AFE2
198F1
290FD
79765
7E269
266BB
16659
7D3D5
0BB5E
7A8B7
7B0BD
2C7C2
1B6EE
2803F
7B9E5
03C09
78675
14169
0D461
7CCC5
11CFC
06E74
7A3B7
00B47
276F8
21F6D
7EAE5
7CBEB
1E45C
7D287
1D6B7
1B8B7
268F9
2CBF7
7A934
161D1
01268
1D521
2631C
29ADF
1995B
027C4
0217D
1DD34
7877C
7FD0A
7B7C9
7D68D
03CE7
7F5F8
7DB44

