55DF5
45A6E
5F119
4580A
3C102
33B66
6EF8D
381FB
56999
4D26E
3297E
31C4C
2AE97
4BFD5
4A360
7ABBD
3276B
3AC5D
7287E
2D98E
6BA79
32D40
87DA4
430DB
42A8C
44513
41FDF
4C58A
5A9CD
36507
72A49
94FF2
4192D
3A154
4D857
3280E
72BEC
946AA
5B3CF
3AE01
731D3
51FF2
4B07A
4FEBC
5B8FF
4F926
9A6E0
35EC5
3B5AD
3D3F0
4888D
3C742
63F87
6877C
3E56E
4B859
44A12
82AF6
38387
8495A
69F2C
6AF14
88AD1
8FDE2
684CC
55C33
405E2
33006
83A89
1EF64
3A25B
607FF
31EC1
7499E
4975C
53C20
3E18A
4EC37
34753
8815F
53EC6
6501D
48B04
4D5FA
3CB14
41F2A
37F33
6DA08
4C715
45C4F
5CFDE
77223
45801
4AB71
57BCC
5A007
6DB7D
3F3A2
88B51
2CE66
5CE63
5C486
76031
587D3
3CC69
3E123
4B34A
3755F
2F837
36284
566A8
37385
3F956
953E3
4273D
B22B7
3D39F
43F6D
9EADA
6D929
843CB
8F8C7
547C9
831B8
53DD7
4D0CE
75895
2462E
4F2CF
65C02
2DA71
36738
4AFD2
4AA85
73B88
5A279
516D3
3A15B
4A38D
54356
4180A
4A073
8D0C0
52C04
3BECD
98AAB
62720
831CB
52672
61055
55BEC
8A672
3F1F6
3F5C9
7FB69
49D92
4FB12
38F25
4CD39
511DD
8E90B
5379C
8A66E
36EF1
4BBAC
5412E
41F65
3FC68
29ADD
3A1C8
64B4D
41B2C
5D846
84AA3
70233
46EC6
59133
6C896
3B5B8
5FC15
5A5EF
75A55
94639
435C9
46367
3AC19
5DEB1
82BB9
8B1D4
51525
4195A
44DCC
5BABE
5A030
5CBFD
4312E
5C806
328B0
3E7BD
43C29

