2D09C
2C54A
43B7B
24F33
209F2
1CBA1
4C761
21A15
3ED89
35B3A
24C58
1D139
16167
2AD15
36F64
55C79
242DF
1FABE
51D36
1A391
4D541
1D4E7
5EDD9
2781B
2B531
305F6
2AE4E
2B233
40274
2B544
4FF74
68A7F
2A341
25755
37B5B
23BD0
551A7
6A42E
3394C
21057
50BF0
2F3A9
2D272
389B3
41A16
2D6B2
69571
214E3
27BF3
231C0
275DB
22015
4620B
3BB43
24789
2B39A
258AA
5CA02
1F9E5
5D622
38C7F
48EE8
61027
66C30
4B8A6
3A672
24A98
1D92C
5BBBF
10AF7
20FB7
41867
1DBE1
5161A
28584
2EC04
1F8BE
37E05
1D0DE
5FDDD
375F5
47ECE
30CED
320FE
23E45
2439E
23F46
4C6AC
365E6
26472
429D9
545F6
27D84
29497
2FD8E
40D06
4C153
28910
628D8
19E62
35102
432D3
51BA4
2FF95
22460
22FFA
36D6E
24579
1C9FB
1F39F
3F0F7
24F08
21E79
68A7E
2EF9B
80655
27CB8
24B59
70859
4D4A1
5D84F
660A8
2E827
5D0C0
2D566
35FFC
54011
157AE
2B814
49967
1B8E4
20C78
2A636
27934
52D28
2D714
29C80
25041
31FFE
352BF
22060
2960D
62819
2D29A
2284A
6C560
43C2B
5C8A0
3C26A
42E7D
3AB63
615DA
21B2D
22F57
588DB
34534
2C95D
25EB4
297F9
2C34A
65E45
3E887
614DE
1DC27
2CC7B
2CBD3
2F4E6
2A069
1AC5A
2AB9E
3B5BA
231A0
35EA8
5D839
4E29C
27BF8
30E34
4AD59
20580
44193
3EC53
557E5
68AA7
23A52
3352D
21A85
42819
5B69E
620BA
38765
25BA2
28320
4215B
30481
336D8
244D7
3357B
1E444
2400C
267FB

