0A434
11873
2BBBE
0A022
0784B
0904C
2E5C4
0C25A
29ACB
2198C
16CFF
09FF2
04849
0CA82
22A7C
353E4
1466E
086AB
353F4
090D7
31608
0AAE0
3A773
0EECF
1A907
1E537
1606A
0D47C
281D4
19792
3139A
41E16
0F318
15410
2368C
1653E
3667E
42EC0
111AC
0ABED
3252B
10F2E
12069
24B1D
28FD5
0FCAE
42210
0F2D2
1710F
0A371
0ADC5
0AF87
2C23B
12AC8
0D5B3
11865
0C898
3A497
09E09
3A5F6
0E5FE
2F001
3E692
43850
30C8A
243F9
13BBF
0A2F0
39E0E
0525F
0C03A
27D44
0B6BA
31888
0BFC8
0EFEB
06C2C
24652
086C2
3C598
228E7
2D49E
1E27A
1F575
110CA
0AE3A
12C13
2ED22
229F1
0AF4A
2A58A
36390
0D9B8
0C153
0DC22
29936
2E924
10335
3FACB
08BB5
11D98
2BA02
31771
0CFBE
0B303
0AC44
2387D
14489
0D221
09BC2
27B84
158BC
08BC7
408DB
1D310
54085
17D40
0D899
467BC
304F5
3A99E
42345
0DD91
3A023
0BFF9
210E6
360A5
0795D
0CC33
2FF5E
0AF11
0E215
1A9FC
090E8
36698
07270
088F5
0FF3E
1F585
191AB
06A17
0D6BF
3CE9F
0D73A
0C100
435B1
2A17A
3C631
2661E
28B10
24935
3C99E
06C1C
0A6CC
376D7
20BE7
0D228
14C06
0A554
0B83C
40B2E
286F9
3BF6A
07084
118C0
09DBE
1DCF4
19F5A
06297
1B26D
188C5
07E62
128F9
3A376
310FD
0C636
0E1E7
2D788
08D36
2ADFA
2773A
372F2
41797
08523
20C59
0C588
2A2AB
388FF
3D30D
23E03
0EB6C
0EE81
2A74F
0AEF9
111E3
090FC
0F763
0C92F
0BB66
0B6FF

