1AD29
1E4A8
3727A
16D67
1378E
12674
3CB1B
16608
33C19
2B2BA
1D75A
13151
0CE26
1B04E
2C534
44BCA
1BEA4
137D8
42DB2
113A9
3EAFE
138CB
4BCC8
1AA18
228B9
26EB7
1FF69
1B7F8
338FC
21F9E
3FDD1
54585
1C0E2
1CF86
2D138
1CB6B
45061
55A7B
2185A
155A6
40CF6
1F5E2
1EF18
2E2D3
34B92
1DE67
54CD0
17CF2
1F026
1611C
186F4
15F08
3883C
26364
185D0
1DC35
1871A
4AA37
143AF
4B0B6
22917
3B593
4EE2E
544D3
3D867
2ECC5
1BCB9
136AB
4A001
0AA46
15FFB
3410B
14253
40B2F
197D9
1E1DE
12904
2DABF
123F4
4D433
2C780
39F90
27098
28418
1A05A
16F45
1AF1F
3CEA0
2C066
17F76
35E73
44946
1A19F
19FD5
1DFDB
34A44
3C9FD
1BCDA
50488
10E82
229E2
36D72
40D40
1DA55
162E6
164E4
2CB9A
1BEE3
14828
13F81
32D59
1CE05
14B8A
53A66
25A8F
69286
1F6E7
18925
5A807
3E1C1
4B3A9
53450
1D66B
4AB18
1BDFC
2B077
444F0
0E33A
1B66D
3C29F
12DA6
1702C
22217
1796E
43F0D
1962C
18613
19FBA
283A6
26784
13ACC
1ABC0
4ED0A
1C8D6
16C17
56DEC
3650B
4BB29
30BF9
352CA
2F1DD
4E1BB
13961
161B9
4733A
2A118
1C1C7
1CED3
192C7
1B14F
5268E
32F55
4DBEA
11DAD
1E83E
1A77F
26243
219C3
0FF9E
22917
291FD
14DA4
23659
4B065
3EEB7
196AB
1EACF
3B741
14065
36E2A
328E4
459E0
54231
15552
299B2
167E8
35C1C
49287
4EBD9
2DADC
19AC2
1AF2E
35B55
1CB83
2174C
16089
208C4
14FFC
17478
1852D

