02875
0AD63
258B3
040B8
019E6
03F56
26ABE
06714
24104
1CA12
12392
05677
00A07
0541A
1C04A
2CD4C
0FE78
03005
2DD59
053A0
29C37
061F4
30F27
08D1D
17F71
196A5
10E44
06503
21BC1
10B03
292BB
37DC1
07CC3
11EC3
1DCBC
12CB0
2CBC5
37C79
0904C
059E2
2A4CF
09CBE
0B734
1FE71
22126
08BC6
399C3
0AAD5
132E6
03EDE
04448
057F5
259FE
089EB
079AE
0C1A7
0691A
31139
04A8A
3111D
04A76
2A0B5
3577F
3AC68
2952C
1F832
0C9F9
057FA
319C7
02D55
07066
21DD4
06D19
2913D
05580
07A11
015F7
1F89A
0391C
33619
1F211
25FD7
1A703
1CC41
10D16
04F60
0E6E4
27165
1D734
04A12
23991
2E783
07443
05177
05E05
231AA
270F4
0A85B
36331
0478B
094B6
2501C
2931A
04EB5
05D71
04F1F
1DB04
1097E
098F2
04491
20A5B
11DF3
02EF6
35ED0
185FD
48319
15756
08947
3B32A
2898B
31470
38FEC
06424
3079B
042D2
1B655
2E0F9
0457B
059DB
2900C
0703C
09ABA
1C470
02064
2F391
FE64C
0127A
0C333
1BB47
123CA
0031B
06DCB
33189
06527
06791
38267
23F22
34BFA
1F9C5
22097
1F9CF
32DA8
00783
04B5D
2F672
1B928
05889
1042C
02D25
03B44
3659E
21121
31E98
0195C
0AFE2
019FF
18B3E
125A9
01501
15DD8
1056D
016BC
0A0A8
30D05
29D3E
05F2B
06085
26253
036A3
2417A
21DD5
2E842
372C5
01E59
1AF3B
06F1F
23D19
2F80C
337B0
1F310
08D52
08CF4
240BE
0247A
0929D
02B00
06F99
0881F
05B8B
04C04

