72628
59C5D
72BF9
5BE55
500EA
440C9
87B4D
491EC
67E38
5DC07
3DAAE
40F22
3960C
64300
5A038
95627
3E496
4DDA4
8A084
3B689
82323
421F6
A5956
56F9C
5143E
52FE7
52CA2
644E1
6E122
432FA
8BC73
B4DC0
5556C
47D28
5DD92
3D5A1
8AB21
B41BA
775DA
4D185
8C062
6AB26
60C7E
60593
6F3AE
67CE1
BB8D5
44B7C
49193
50DAC
5FE39
4F412
794CB
89420
51107
6137C
59DC6
9E9AA
49DC2
A127C
8C9A0
8124F
A5244
ACFA6
7DD83
68526
5211D
42917
9FBA4
2895B
4BA2F
75ED7
40AB0
8E702
60C35
6DCD4
52DEB
5EEB7
452ED
A5105
65FC1
7A90D
5882D
5E00A
4BB3C
56CFC
46276
85C25
5C84D
5C0DD
70A05
8FFE1
5ACA8
6288A
73BE1
6CC85
85E40
51420
A4EF0
3ABB1
79803
6F316
904AC
75142
4F91C
519D4
5AC6F
4496F
3C7F7
47380
68CF8
43FF3
5454E
B5D9F
50D8F
D66CC
4AD4C
5847A
C0B60
852B7
A09E3
AD28B
6F3FB
9F605
6F207
5E09A
8DFD1
2F594
68574
7A885
3ADF0
45C55
5AF81
63817
8B278
798BF
6CE36
49C84
5A22C
6AC72
57D84
61018
ABD1D
6CE5D
4E361
B9AF8
77D3B
9DEBB
63C77
76916
68439
A85AA
548E8
536D3
9B301
59ADE
690FE
46DD8
6624D
6B998
ACBE7
64B83
A8ACB
492F5
61E05
7047B
5013C
4F508
377D0
4682E
81919
57B01
7A132
A159D
8830E
5D26E
757BF
849E3
4E7EE
742A8
6DB3C
8DFAD
B4475
59C1E
55032
4C7B2
71CB6
9F34B
A9181
6278B
54FFF
59682
6EB37
78068
79583
5919B
79C2B
40EC6
51E70
5950E

