52952
43548
5CCC5
42EB2
39C19
31D3D
6C1E3
3629A
549AE
4B3C9
3150D
30046
293E3
49328
48633
77A89
31197
38924
6FD1B
2C00F
690DB
31104
846C1
40C14
40F95
429FA
400DC
4994F
585E1
34D43
6FBE2
9151F
3F4AF
387F7
4BA32
31407
6FFB4
90C28
57FE1
38C5E
703D6
4F258
48852
4E069
594AF
4CC69
969B9
34375
39C4D
3AFBC
45D6F
3A48C
61827
64AF3
3C2DC
4904C
422E0
7F76B
362F6
8149B
65F32
68617
85643
8C824
65D06
539EF
3E533
31349
806B8
1DDA0
38211
5E070
30387
719EB
46C57
50C0B
3BB30
4CE63
32873
84BE0
51D6E
62851
46DCE
4B746
3AF5E
3F8A5
364FA
6AD7B
4A967
4332B
5AB9E
7443F
430B3
47F78
54818
57D5B
6AEDC
3D259
85735
2B4DD
59996
5A19D
72FAD
5530B
3A9B7
3BD0F
4968A
35CE7
2E03E
34305
544B3
35BEE
3D308
917B0
40CA9
ADFC9
3BA81
419EB
9AC05
6AD99
80F65
8C21C
51661
7FD88
50B82
4B172
72B71
231F1
4C45A
635A4
2C20A
34AEF
49252
47CA6
71045
56885
4E421
38460
4862C
519AB
3EECB
47607
897F1
4FBBE
39D0A
94DB6
5FFA7
8004D
5065E
5E88D
539BB
86F27
3CA64
3D0BE
7C8B0
48058
4CC3C
37573
49E7C
4E0F9
8B154
517C7
86E8A
34D40
492C9
50D1C
40556
3DFB8
2815E
38AE3
61604
3F293
5A38D
815AE
6D5CB
445BD
55CC0
69C21
39263
5D666
5823F
72D69
90B59
40C70
44814
38B60
5BA00
7F728
87A7B
4F57C
3F582
427DE
5979C
568C7
59732
40883
59201
30E23
3C3E3
4145E

