61EF7
4E2A2
67651
4EF9F
4485B
3A9FC
796FC
3F508
5DEA1
542CC
37475
38309
31084
563A2
50E59
86025
37773
42D85
7C794
3370C
75310
394C8
946E6
4B7B7
48D6B
4A86D
49194
567B9
62D84
3BC29
7D46F
A27A2
49EF9
3FE55
546DC
3717D
7CE0C
A1D31
67236
42956
7DA72
5C726
543B7
56DF0
63E21
59D30
A8716
3C2EB
412B5
458AC
526A5
44686
6CFE9
76572
4642F
54B37
4D9CB
8E7F3
3FAEF
90AC1
789BF
7455E
94B82
9C2F0
716A3
5D9D5
47DB6
39966
8F88B
23087
418BE
6990C
38292
7F884
5351A
5EC6C
46E29
55994
3B88A
94588
5B909
6E20D
4F61F
5468A
430AF
4AC65
3DF59
77D63
533E8
4F329
654C7
81A6A
4E820
54CAD
6395F
61F29
77F1E
46DB0
94A63
32C05
69000
64488
81216
6495B
44BA1
4656E
51CB2
3CF17
3501C
3D603
5E32D
3CA02
485C9
A309F
488AE
C1823
42FB7
4C8F2
AD13A
778E5
903E9
9C137
5FCF2
8F114
5F661
543CC
7FE1B
29063
59D29
6E8B0
333EC
3CEEC
51BFF
552B9
7DA29
676F9
5D0B8
40B9E
50F47
5DC1D
4AF47
53BFD
9A10F
5DD02
43A95
A6A2E
6B7DD
8E744
59C12
6A230
5D948
97131
4830E
47D9C
8B565
508BC
5A6CF
3ED5D
5789A
5C522
9B554
5AC57
9735A
3EA7D
55196
6001E
47EF1
46598
2F857
3F5B8
70EAD
4B006
69996
90CD2
7A506
5053F
65182
76B99
43745
68640
628CB
7FF0E
A1E17
4CD63
4C795
42415
6653D
8EC77
97CC4
5893C
49CC7
4D8DE
63B8F
66B5B
68D8E
4C648
68E15
38A08
46B30
4CE14

