63221
56060
6906A
4EDBE
47ABF
3B625
7B48C
430C8
5FC78
54F9E
3A7C4
3AC19
316B2
59BC0
568CD
88645
3CB8E
43D85
7E480
34EEC
78CEF
3A480
977CC
4DBE7
45655
4C720
4B5B0
59950
658C2
471AE
7FC8E
A4F95
54381
3EAA2
5749C
38995
84DAF
A774C
69362
43AC2
80123
5E54C
5759D
57947
67F5E
5B80C
A655C
3D819
41B1C
49D57
53B52
45D62
6E8DE
7B876
486D5
53341
4C700
920A7
41704
93D81
7ABF1
7144F
96D48
9D953
7529A
5CDDA
3EFEA
3BBC2
90660
22A1D
41994
697F3
3A3E5
82EC3
54754
60263
461A1
562E3
3D260
971D6
57C0A
715C3
4DD30
4F2EF
4133C
4BA39
3EB5B
7A749
55164
50C78
685E2
8345C
50A88
56B71
64DFE
64F67
79FD5
4E781
98CEE
349A8
6BD6E
67CFA
83E9D
66672
462F0
48B16
54E03
3D526
34B86
40A84
635E2
3CE28
490E3
A7099
4AA3B
C567C
40A1D
48C12
B1EA2
7A5E6
93D62
9DC98
61511
938CF
6132B
5693B
829D5
2B182
5B539
7173B
35666
3DCA0
42E91
570C6
7F041
69014
5D757
45C7F
4F048
60D4F
4CA28
54DDC
9CFB9
5E7DB
45730
AC153
6BB05
8E8DA
5E035
6BAEF
5D255
9A8E4
4B9B8
491F7
8C153
52C8F
5D820
409FB
59FA3
5F0EF
9FBF8
60E80
9B63D
411D0
57247
62FF3
4A85F
43047
3AD50
42F40
7181A
4D6AC
6CE9C
946BC
7B6E9
524EE
66F8F
7882D
44ED7
6B565
630B1
84A42
A5A14
4E263
502EA
42CF2
685E2
91A06
9B600
587C5
49867
4F889
66D6E
6A5FE
68CC6
4EAD6
6B284
39C9E
49C9B
50982

