3B8DA
33142
4CE72
30D4E
299B6
24A1D
5823E
286F5
46A42
3DD44
285F0
23C23
1D8F1
35A72
3B9FB
62220
278CD
29292
5CD65
20D94
56D8D
24B5E
6C68A
30A9F
352D4
36C4E
327C9
363B0
48A6B
2A6EB
5B70F
7795C
2F541
2D66A
3E733
287D5
5CA30
7729A
41462
2A0EA
5C1EC
3B325
36F3B
40C1E
49684
3933D
7BDAE
28443
2EAB1
2B256
32FA0
2B196
50484
4A333
2D0E1
377EB
31080
68EA0
27F01
6A362
49F5E
5672B
6E666
74FF1
54699
44A18
30070
24A1D
69BFB
16144
2A00E
4CB85
244F7
5CC06
33F32
3BB7A
2AEBA
3FD99
2504F
6D564
43406
511B6
3A154
3E061
2ED65
2EB05
2AD6B
5759F
3D9A5
3132F
4ADE0
602FE
31D8F
34BA9
3DE2F
48AA6
5767A
2E956
6EA6F
20221
427F7
4AD3C
5DC0F
3E193
2B6D7
2C080
3CD4F
2B19E
23872
26688
456FC
2B6D0
2C6E7
77249
352A2
90B42
30AB0
31361
7F436
57CA6
6A0A1
74374
3BC88
69036
3AB34
3D5EC
5EF71
1A446
37F24
52913
21738
284F5
3C3CE
33B88
5E170
3D2D7
3813E
2B984
3B885
3F601
2CE0F
34D15
70A43
3A9D9
2B0BA
7A301
4EB56
6A5DA
425CF
4D219
44A6A
6EC18
2B566
2CD71
665A2
3B3C1
38460
2C193
3574E
38ABA
72B54
438EF
6E753
26164
37494
3A099
34EED
316E8
1CEE8
2EAA4
4A106
2D667
43280
6A2F8
59EF3
3267A
3ED9E
564ED
29B10
4CEA1
4886E
5F2F1
76F3D
2EB04
388D2
2A651
4B923
68731
6F70C
417DB
2FA9B
31E5F
4A1B0
3E4E9
425A9
2EBDC
417E3
2544C
2C8F1
2FDCD

