45E0B
3F79B
54D95
3831A
328D8
2ACDD
61F62
30F9B
4DF7F
440FF
2EBE0
2AB47
22A33
405C7
45778
6D052
2F730
30482
663D3
267CD
614B3
2A9C7
78DD8
39108
374BC
3D436
39CCC
4076D
51530
38155
65EC6
845A6
3D7F0
31085
4635C
2D513
6B07C
865C6
4C351
30EEB
667A2
44DB8
40879
46D43
533B2
42947
85591
2E413
33A95
34E41
3BBA2
32755
58B0E
5902E
34FB4
3D952
3766E
75272
2F25F
76640
57123
5B743
79B92
7FEF4
5EA71
4A3A4
30C0F
2B6C4
73EAB
18ED2
2FF59
53E12
2AD46
68214
3C99D
456F1
31402
45CAA
2BCAA
793C5
463DA
5AF39
3E21C
3F6F2
3159C
3652E
303D7
618E9
44795
39CB4
53F36
69E88
3A95F
3E259
48325
5169B
61299
39F88
7B775
26295
4E372
53FFA
68C5A
48F78
32C34
344EA
44A1B
2FCFF
27B04
2E93C
4FBB6
2FEF5
33E1D
854CF
3BADA
A0157
33332
3542B
8E8C9
61FD3
7675F
7FA38
45D6E
7612F
4526A
44F55
69682
1F67A
4176B
5BE48
276C4
2E19A
35A60
3D5FC
671D8
48CAE
4182C
340FB
3F52F
49383
35970
3D58E
7D5B9
43D04
328ED
899B8
56185
73814
4BB32
55A15
4A85F
7BA06
34F14
347BB
70370
424FD
430CB
322E7
3FC25
438E7
80756
4E511
7BF9E
2DFE5
403B7
45A74
3BCDC
35806
297E5
35D9D
5438D
36884
4F2B8
76B9F
62F32
3B4A8
49B8F
5FCEE
31248
561DC
4F6D1
6B249
84A8D
37299
40933
30E15
53E44
744EA
7C5EC
472AB
362A3
3A424
52F64
4AF4F
4BEF4
37C2A
4CF8C
2AE78
355A7
39D41

