21724
23658
3BB92
1BF83
18410
16284
426D7
1A782
37C9F
2F000
201E5
16B77
103B2
20C39
30317
4AEF2
1EEB9
17EB7
484CA
147FE
4402E
1718F
52BB7
1F502
25BCD
2A5B7
23F02
212F6
3823F
25609
45B80
5BBB2
21333
200E9
30F16
1F44A
4ADEF
5D25F
2816C
19989
469AE
2522B
241C4
31F81
396AB
238B1
5C451
1B433
222FC
1ACFB
1DDD4
1A53B
3D770
2E070
1CC42
22A89
1D34F
512DE
185F1
51B68
2AA54
4049B
557A0
5B03B
429F2
3304A
1F050
171C2
5072F
0CD6F
19FE2
38F5B
17A29
46C3F
1EE46
242A6
1748D
3161F
162D5
54071
306F0
3F0BE
2A971
2BD25
1D9C7
1BC7C
1E38A
428D3
2FC95
1D2BA
3A869
4A529
1F195
1F8D5
247BF
39116
423EE
2071C
56ED4
142D3
29534
3B538
46F93
244F8
1A941
1AEBD
30673
1EFD3
1775D
18100
3747B
1FCEF
1983E
5B49D
290C2
719BA
22790
1CFC4
62824
43A12
51E14
5A187
239F5
515E1
22397
2F04A
4A042
10D93
2141E
410B9
16048
1A902
25222
1D670
495A3
20ADD
1EB52
1DFEB
2BC80
2BD0E
18E48
200F3
55F9B
2297A
1B087
5EAD0
3B345
51D25
34E50
3A2AE
33554
551C6
18B7D
1AC7E
4D82F
2DCC5
221A1
20325
1F1C2
214F0
597E8
372AD
54DB7
162F1
23B3D
211CC
29796
24ABA
13E6E
2588E
2FC13
1A08C
2A219
51BF8
44767
1EA0D
254C5
410BE
18812
3BB0B
36FF5
4B63F
5B9A1
1A898
2D23C
1A8DB
3A64A
4FCBE
55C2B
3199A
1E0E5
1FC40
3A357
23D53
27FDC
1B38E
2761E
185E8
1BE7F
1D7A7

