05453
0CC57
276FA
0632C
038A8
05878
290CC
0813A
25B9D
1E39C
1349B
06DD0
02049
07955
1D89A
2F64C
110A8
04D5F
30181
068DF
2BEE5
0797B
33CE4
0ABC4
195EA
1AD39
1281B
089DF
239B1
11ED1
2B967
3AEC6
09B2C
133E6
1F5DB
13D60
2F09D
3AD3B
0BB92
075EA
2CB21
0C2BE
0D8AB
217B7
23F68
0B10E
3CCB8
0C198
1480B
05D09
06836
074E2
27ACE
0BC5D
0967D
0E308
089C4
33C2D
065AD
33D12
07FC6
2C2DD
3834A
3D931
2B651
214BF
0E535
06FED
344F5
03C23
08B4E
23ECB
083C8
2B8FD
0795A
0A223
035ED
21175
052D7
362AE
20DDA
28101
1BF5A
1E5D6
1242D
06F79
0FCBE
29685
1EFF0
06C5B
257C6
30DC1
09504
0761C
0891B
24E8E
29624
0C418
38E9E
05CD2
0C0B7
26D33
2BB88
07AB1
07A5B
06D30
1F2F9
11DE2
0ACEC
05ED0
226A8
1319B
04EE2
390FB
19C23
4BAE0
16C45
0A888
3E785
2ADD8
3401A
3BD7A
08D50
33319
06CC3
1D078
30698
05658
08092
2B005
08492
0B24B
1DD06
0469E
3179E
01698
03CB9
0DB5A
1D3C3
14683
0257B
09125
360E1
08D61
083B3
3B533
26007
37538
21480
241BD
2164D
35BBC
0287D
06A3C
320B7
1D183
07F91
11996
05418
06402
3940B
22BA9
34D2B
03570
0D1F4
04564
1A0F5
13D91
02A40
170EC
131D4
03891
0CC97
33927
2C240
0815D
08C3A
2875F
05414
260E1
23B93
30DB2
3A3D5
040CE
1C600
08A64
25BAD
323DA
365D0
20D72
0AB31
0AC8F
25E05
052A7
0BE9B
04CE3
09C9D
09E3F
0796B
06D2E

