4942E
3CC09
565D4
3B990
33383
2C7C8
64082
309B3
4EF3F
45CF5
2DB20
2B0E3
24838
41495
4338A
6EF21
2D3BF
32556
6822C
277D1
61AF2
2C104
7AB3D
3A3DF
3C32F
3DD35
3A8FF
41BFC
52019
309EF
67868
86E75
38D4C
34019
464CB
2DB48
6826C
86662
4ECC0
32D11
6818A
47125
4168C
48A7B
52DCF
44DA6
8BC78
2F612
3546A
3492B
3E346
34235
5A896
59F6E
360EA
41ECF
3B3D2
76562
306B1
77F28
5A9EF
611F4
7C15E
82FDE
5EC54
4D8DB
3889B
2C1DC
773E5
1AB4A
32696
5705A
2B666
692C5
3F273
483D0
34E86
479E1
2D0F6
7B44C
4BEF5
5B78C
41B0A
4604B
360DB
38B83
31AAE
62F40
4554F
3BE9A
544EA
6C237
3C155
402E1
4B59B
51B1E
6306B
37408
7C38F
26C85
503FA
53EB2
6A636
4BD7F
34769
356D5
44517
31793
29C53
2E9C6
4E47B
31919
36681
86D1F
3C15D
A2225
37357
3AFA7
8FA01
6322A
77AF1
8273A
48A65
769AA
47CE9
45897
6AB89
1F89A
440B8
5C8EF
27CE6
2FACD
43EBB
3FAAC
695B2
4C451
4547C
33244
432EE
4A39D
379ED
3FDD6
7F6FA
472FA
33D64
8A0FF
58FD0
77412
4AB79
577D8
4D8DD
7D27C
35A46
367C9
738FA
42D88
44788
32CA4
41A0D
45672
81379
4BD94
7D031
2EDC8
41EF0
47991
3BB81
38E70
23922
34A07
57F0B
37F8D
50E2C
77FA1
657FA
3D177
4C826
61E2A
32E47
56BA3
51D21
6AE20
8648B
3974A
3FAAA
32EA9
55208
76238
7DDA9
49BC7
38FF4
3BC68
53412
4CBC9
5019F
3954C
4F8F5
2C2EB
35E50
3A39D

