6CE6D
55E74
6EF6B
5796E
4C365
40E85
82F32
45DA0
64906
5A8F3
3B89B
3E06F
36989
5F88C
56F99
90426
3C035
4A2EF
85834
38C0A
7DDC7
3F2E7
9FDDB
53250
4E74D
502BE
4F8F2
5FB29
6A543
40B5F
86F1C
AEBB6
5189B
452E1
5AB55
3B43F
86170
AE037
71F4E
49975
873BC
65F26
5C990
5D307
6B72A
63251
B52EB
41DF6
46749
4D156
5B65D
4BA39
7532A
82F3B
4D76A
5D0BA
55C72
993C2
4677C
9BA93
85EFF
7CDFF
9FAAE
A7614
79B38
64C0B
4EAA5
3F932
9A546
26BBF
4845F
71CE9
3DD51
89783
5C482
68CB1
4EE00
5BD00
41F76
9F7DB
6282E
766B8
5577E
5ACDF
48D0D
52CCA
436C2
811E4
596D6
57C4C
6CD9B
8B364
56B25
5DF40
6E5B5
692BB
813DF
4DCA5
9F816
38122
74002
6B8E6
8B3CF
6F94A
4BF48
4DDB2
57C85
420A7
3A003
43F01
6545F
418A3
50577
AF94A
4E144
CF73E
48370
545F7
BA2A9
80A1C
9B28F
A776F
6A1A3
99F0A
69E25
5AC55
89495
2D3D9
63805
76894
38544
42D32
57E56
5EBA3
86A5E
73828
679B6
46C37
57135
66700
538C5
5C964
A5E6E
67DE9
4AB1D
B3560
73B71
98C3E
60700
726C9
64B3E
A2982
506F4
4F916
95E78
56A28
642EE
44304
61467
6681B
A6F0B
61674
A2DA5
45ACD
5D9E0
6ADB1
4D5CE
4C538
34D53
44206
7C04A
53758
74953
9BD59
8390B
58E09
70055
7FFCB
4AD0B
703DB
69FC1
894CD
AE255
55735
522A8
49128
6DF8E
99BAF
A3542
5F2C6
51442
5574B
6B0AA
7240E
73D87
54DD5
74224
3E287
4E2B0
552BA

