68A73
5A472
6CD53
5322A
4BA80
3E832
800FF
46757
6323D
582AE
3CB38
3DC8E
34351
5E859
59C5F
8D8E7
3F3A0
47894
82D15
37A87
7D3EC
3D3CE
9D43E
51A54
480E6
4F4F5
4EAB0
5E524
695D0
49F07
84AA0
AB20F
58819
413C9
5A82B
3ABA4
89BA5
ADB34
6EAF1
47355
84E67
63233
5BA82
5ABD9
6BDF3
6034A
AC8F2
40624
44579
4DC90
583B7
497E2
72ADF
820AA
4C18A
57487
50681
977DD
44E3B
9966C
817A4
7562A
9C527
A32D4
7968E
6061E
41AE8
3ED01
95C5B
2476A
44ED5
6D935
3D26D
87FA6
58F59
65309
4A094
5945D
406C6
9CC09
5B0E8
75969
50C8F
5227A
44317
4FA92
4170A
7F273
5838B
551DC
6C384
880EE
54D2B
5B59D
6A491
68A6C
7EAC8
52563
9E583
37542
716DC
6B8CA
8908D
6BF4F
49D91
4C8A0
57F0D
3FDEF
372DE
44119
67129
3F541
4D0CE
AD672
4D765
CC728
432AA
4C6EB
B8965
7EF7F
99610
A379C
66805
991CC
667D7
59E6C
875EE
2D4CB
6034D
75851
38097
40BFD
4569A
5BE48
83869
6F152
62BB6
491FE
51FA8
65497
50FB9
594DC
A2F32
63865
49038
B2966
6FC35
93A82
6177E
6FD83
60A8D
A0643
4FE24
4D046
91574
55E4A
62800
43594
5EECA
643F5
A5A6E
6469F
A1512
44B88
5B771
68888
4D4CE
45914
3E1A8
456CE
77082
51BC2
72866
9A061
800D1
56A6B
6C7DC
7D2C0
48A92
6F575
66BEA
8973B
ABD9C
527C8
53208
46312
6C3B2
97289
A139A
5BC0D
4D2D9
538C3
6A96F
704D6
6E3E8
53005
70DA4
3C98D
4DA4C
54E3D

