63AF6
5672F
69681
4F496
4811F
3BB26
7BC31
4363C
601D8
554B9
3AB50
3B0F2
31B28
5A369
56DF5
88E88
3CF90
4436D
7EBC2
35348
79408
3A93B
9810B
4E225
45A97
4CBB5
4BAFD
5A0E5
65EDD
47637
8045D
A596E
54A5D
3EEC0
579C4
38CFD
8557B
A8149
69C23
4406A
808DD
5ECFD
57C81
57E56
685A0
5BF93
A6F52
3DCB4
41F58
4A3AA
54290
4633C
6EF78
7C2E1
48CB4
539C8
4CD59
92960
41C8A
94666
7B6B6
71AE5
97612
9E246
75965
5D37A
3F437
3C0AF
90EF9
22D0B
41EE8
69E79
3A88C
836DA
54E88
60A73
467ED
567D6
3D79E
97ADB
58154
71C87
4E1ED
4F7B0
41805
4C0A8
3EFBA
7AECD
55668
51368
68C0B
83C04
51132
572DC
656A6
6554E
7A753
4EDB1
995CA
34E05
6C65F
682F5
846CF
66F55
468CC
4913D
552EA
3D93B
34F76
40FF9
63BCF
3D211
49747
A7AC9
4AEBF
C61C1
40E2B
491F4
B294F
7AD42
94640
9E5B2
61D5D
941B5
61BA2
56E8D
83171
2B509
5BD08
71DBD
35A9E
3E15C
43292
57886
7F779
699CD
5DFC7
461D9
4F505
61470
4D11D
554F6
9D946
5EFE9
45CE4
ACBBB
6C18A
8F105
5E5BD
6C198
5D7F4
9B23A
4C08F
49832
8C9BD
53188
5E01D
40E57
5A78E
5F93C
A056B
6141D
9BFB8
41795
57932
638CE
4ACD0
4345B
3B28C
43334
720F1
4DD95
6D797
94FB3
7BE4D
52BE1
67863
78FA2
454D1
6BBCD
6369D
851F4
A6408
4E953
507A0
4325B
68C10
922E0
9BF5C
58CFF
49E3F
4FEF5
6736E
6AF7A
6957C
4F1C1
6BBA1
3A11C
4A2C7
51062

