66DEC
51A5A
6ACD0
52DA3
47FB9
3D73A
7DB7B
42419
60E82
570C4
39320
3AD10
33893
5A6A5
53A1C
8A9F2
39831
4625B
808A9
35D4B
7917C
3BF23
9993A
4EEE2
4B5DD
4D111
4C018
5AA11
66367
3DFCE
81A0A
A7FDE
4D5B5
42461
57413
38F88
8105F
A74F4
6C01A
45BCB
81F6D
60B8C
57FF2
59B6D
67498
5E04C
AE2D0
3EBE3
438C5
48EF8
56751
47A97
70AF9
7C040
49809
5874B
51496
93544
42BC8
959DF
7E9B6
782DA
99A56
A138D
7524D
60D3A
4AEBB
3C482
94645
24B2D
4492D
6D462
3AB68
84010
575A2
6348B
4A7B0
58652
3E6DB
995C7
5EB0D
71DC0
521F0
57497
45A40
4E62C
406AF
7C037
5606D
530DF
68B26
85F41
52316
58EA2
686EC
6532B
7C20E
49F9E
9988D
35252
6DF34
678E6
85ADD
69887
47FAC
49B8C
547D1
3F3CB
37411
40542
6161D
3ED64
4BF3D
A8AEC
4B08B
C7C89
45564
50135
B2F79
7BA3E
95280
A1337
6470E
93F5C
641E0
572D6
841D2
2AEBF
5E2D9
7223D
35886
3F958
54840
59789
81B0D
6CDE8
61CC4
43716
53B58
61A9D
4ED26
57B9F
9F646
6256A
46D39
AC59E
6F312
93181
5CC30
6DDDC
60C90
9C422
4BE69
4B52C
9017A
53493
5ED10
413E8
5BEB6
60E79
A08E7
5DC17
9C72F
41D07
58EEB
64E3A
4A608
490A0
31E95
4180E
75E9A
4ECEB
6E8AB
95C42
7E7A2
542CD
6A02E
7AE49
46C45
6BEC5
65E53
84271
A7666
50B68
4F091
4552A
69C48
93B50
9CFCA
5B8BA
4D28B
511C2
67041
6BE79
6DCBE
50348
6DF1C
3B1DB
4A0F6
509C5

