2C7C7
2BE7B
43564
2485B
20392
1C69F
4BFBC
214A1
3E829
3561F
248CC
1CC60
15CF0
2A56C
36A3C
55436
23EDD
1F4D6
515F4
19F35
4CE28
1D02C
5E49A
271DD
2B0EF
30161
2A901
2AA9E
3FC59
2B0BB
4F7A5
680A6
29C65
25337
37633
23868
549DB
69A31
3308B
20AAF
50436
2EBF8
2CB8E
384A5
413D4
2CF2C
68B7B
21048
277B6
22B6D
26E9E
21A3B
45B72
3B0D8
241AA
2AD13
25251
5C149
1F460
5CD3D
381B9
48852
6075E
6633D
4B1DB
3A0D2
2464C
1D43F
5B326
10809
20A63
411E0
1D73A
50E03
27E51
2E3F3
1F273
37912
1CBA1
5F4D8
370AC
4780A
30831
31C3C
2397C
23D2E
23AE7
4BF27
360E2
25D82
423AF
53E4E
276DA
28D2C
2F4E6
4071F
4B9D4
282E0
61FFD
19A06
34810
42CD7
51372
2F6B2
21E83
229D2
36887
24165
1C60C
1EE2A
3EB09
24B1F
21815
6804F
2EB17
7FB11
278AA
24576
6FDAC
4CD45
5CF71
6578E
2DFDC
5C7DA
2CCEE
35AAB
53875
15427
2B045
492E5
1B4AC
207BC
2A235
27174
525F1
2CD5B
29410
24AE8
31B41
34B9E
2196B
28EF4
61E8D
2CA8D
22296
6BAF7
435A6
5C075
3BCE2
427D5
3A5C4
60C84
21455
2291C
58071
3403B
2C160
25A58
2900E
2BAFD
654D3
3E2EA
60B62
1D662
2C590
2C2F7
2F075
29C55
1A71E
2A7AA
3ACE3
22AB8
355AE
5CF42
4DB38
27506
3055F
4A5E4
1FF87
43B2B
3E666
55032
680B3
23362
33077
2151B
421EB
5ADC4
6175E
3822A
255C9
27CB4
41B5B
2FB04
32E21
23DEC
32C5E
1DFC6
239E0
2611B

