69B20
786D6
1545E
70C71
70023
768FC
122BC
78071
15D8F
0EC4A
09BD5
7820D
74104
70693
0FA36
16C5C
05A05
72A38
1A7BA
78F8E
17334
793C5
18607
77E7C
0ADE4
0D6CD
027B9
7151A
119A0
08C04
146FA
1D911
75E5F
06142
1065D
09C4D
19A84
1E149
70D13
75E25
15D4D
74975
789EE
120C2
11E9C
740C4
1D685
7E32C
0771E
72E6C
702A5
75661
13CD1
6C3FB
77B59
7974D
751EC
1A20F
75842
1995C
66A92
16B72
1E022
2283E
17B9C
0F801
03E18
78066
1A2C2
7A580
7860B
0FC3B
7A430
13B51
716DB
71415
6F8C8
12269
7519B
1B169
0F0FF
1457E
0CAF9
0DCF1
7F674
73293
02A5A
131A9
1020C
715E4
139E3
19FCA
75093
70BBA
6DD57
13D00
12EF0
7961B
1F02B
78A79
70DF3
1591F
13405
6C372
7591B
7412B
11729
053E9
7EA04
759BB
11DC7
07214
712A7
1AFF4
0C896
2A7C6
08E01
77D63
1F1D4
152B9
19E66
20A4A
6F428
1931F
6CC6B
0D716
19FA9
7A929
6FF8D
17F5E
7B61E
7CAA5
0BDC5
6C79D
1BCE4
634B1
6972A
7C3A1
0DDFF
7ED1B
6CFA2
733D8
19B56
6FC10
77085
1CFA4
120DD
1E46C
11FEF
10243
0FD85
1A2BA
6D86B
7372E
1867A
0E67E
6FAE7
04AC9
6D258
6CE64
1DDDE
13BDD
18FE5
71BF8
780B0
69319
0D6C9
0AE9E
72DC4
0C90E
77F2D
6E6C6
71735
19290
15CEF
72C3E
6D8EC
11F8B
72CD0
13400
119D2
1ACCA
1CC58
6EBB6
0F65D
78632
135F6
17EC8
1AAD0
1098A
79297
77393
14544
67F62
70FCA
6F8CD
6DDBE
7C013
74F6E
72180

