3C1A0
33773
4D481
31432
29FDD
24F24
589DB
28C30
46F93
3E25F
28959
240CF
1DD64
361E4
3BED8
62A53
27C70
29871
5D4A0
211D4
5747C
25013
6CFB0
310C1
35753
370D2
32CF4
36B0F
49068
2AAE1
5BECB
7832A
2FB56
2DAA4
3EC39
28B2C
5D18F
77C5B
41D0A
2A685
5C997
3BABF
375ED
4112C
49C92
39AB2
7C7DF
288D1
2EEEC
2B85E
336CF
2B75E
50B14
4AD4A
2D6A3
37E98
31709
69737
2846F
6AC2C
4AA08
56E00
6EF28
758E6
54D3A
44FCD
305E2
24EE7
6A49E
1643A
2A56F
4D21D
24981
5D3F9
3465D
3C37D
2B51E
40292
25575
6DE4E
43995
51858
3A633
3E57F
2F204
2F171
2B1C9
57D0B
3DE98
31A0A
4B3EB
60AA4
3241C
352FD
3E6CD
4906D
57DEA
2EEE2
6F31F
20662
430C4
4B30D
5E425
3EA5F
2BCA0
2C684
3D219
2B5B2
23C71
26BC8
45CA5
2BABE
2CD49
77C51
35710
9166A
30EE0
319A1
7FEAF
583E9
6A95C
74C91
3C4C4
698E9
3B397
3DB26
5F6F8
1A7A6
386E2
52F78
21B49
289AC
3C8B9
3432D
5E8A6
3DC80
389B1
2BE59
3BD6A
3FCF3
2D4EF
35427
713BB
3B1E5
2B65A
7AD2A
4F1EB
6AE19
42B28
4D8BA
4501C
6F54F
2BBFE
2D39D
66E16
3B8A0
38C2F
2C5DB
35F18
392E0
7349D
43E3D
6F0A3
26701
37B65
3A946
35344
31BB0
1D328
2EE75
4A9E7
2DD2B
43B49
6ABCC
5A65A
32D51
3F65B
56C56
2A0F3
4D4E8
48E61
5FA6E
7790D
2F1E8
38D60
2ABC5
4BF40
68FF4
70045
41D22
30094
324B2
4A78B
3EE25
42E75
2F2A3
420E4
258B9
2CEEA
3046F

