6835A
78437
1360D
6F5FD
6F29A
74E0D
0FD6F
76C0F
141AD
0D4E8
08004
7764E
73460
6EEB7
0D6E5
143AF
04FDA
7163A
1823F
787A5
14F4B
78011
1580C
766E2
0A7BA
0BDE1
0162D
70329
0FC5F
04CE7
11F81
1A72A
758D8
053D9
0EB99
08C77
16A09
1A86A
6F0E0
74CCB
134E8
72FF1
775F6
10BD3
0FEAC
725DE
1B091
7D054
067EB
71D44
6EB5B
74249
11EFB
6A5A2
76521
78139
72F88
174E2
74605
16B25
64AA9
158CC
1B314
1FE77
156F9
0E616
7C488
77211
17B38
79F36
76E19
0E15B
7934F
113A5
6FD55
6F96B
6E327
109FC
74218
18A1E
0E751
1216F
0BD53
0D6A8
02F67
71B3C
0151C
10CFC
0E9C5
700F2
11794
1785D
739D0
6F1AF
6C068
11C49
10BF1
79E0F
1C250
77B46
6EE4A
138D2
10EF7
6A875
747E0
72E7C
0F50A
045BD
7D92D
74894
0FAAF
0613E
6FC87
17D36
0B162
26BA4
08E68
75D3B
1BC86
12D08
17146
1DA9A
6D8E2
16619
6B02F
0BB73
177D6
7A393
6E630
15D1D
7AD03
7B877
0D86C
6B167
19979
616A9
67CE4
7DB5D
0D03E
7D676
6B921
71A6E
16B0C
6E2FC
7597E
19ABD
10358
1C009
0F922
0E25B
0E84D
1734D
6CAF3
72305
160AB
0CF57
6E1D8
0369A
6B739
6B421
1A7E7
11274
15F7D
70BCE
768CA
67969
0BAC6
04029
7490D
0A6B5
75B26
6D1F8
6FAE2
16559
139FE
716DF
6BCF0
0FEAA
71BFA
11406
10054
180DE
19BC9
6D395
0D4A7
76956
1178A
15384
17CE8
0F5C5
76E93
75D87
127B0
66933
6EC48
6E5AE
6BF77
7B3BC
73CBF
70DA8

