2057A
228BA
3AF63
1B1D3
17750
15882
4178D
19C98
371DE
2E5CA
1FACE
161C6
0FAC5
1FCE7
2F8C6
49E6B
1E6B6
172E8
47646
13F45
431FB
16819
51939
1E885
2534A
29C8C
23468
203CC
37609
24CF7
44BE3
5A800
2057B
1F8AE
304C6
1ED7A
49E57
5BE64
26FE9
18E39
45A3A
242C9
233FD
31564
38A27
229A4
5B066
1AAFD
21A83
1A056
1CF59
19988
3CA3D
2CB98
1C084
21D7B
1C69B
5016D
17AE6
509A0
294CA
3F76F
5460D
59E54
41C5B
32509
1E7B7
167E9
4F5FC
0C793
1953C
3824E
170DB
45C11
1DFDE
23285
167F7
30C39
1585A
52E66
2FC5E
3E336
29FF8
2B3A3
1D035
1AF9E
1DACD
419CB
2F28D
1C4DA
39C16
495D9
1E442
1EA00
2366F
38548
414F1
1FABC
55D1D
13A1B
28351
3A942
45F30
23332
19D87
1A26E
2FCA4
1E7AB
16F7F
17615
368A0
1F51D
18B75
5A03F
287BA
70332
21F74
1C3FE
612CA
42B5A
50C57
58F53
2295E
50415
212A8
2E5A7
4910A
10684
20481
403B5
157D8
19F89
24A21
1C6F0
48734
1F76A
1DA72
1D538
2B306
2AECC
1805E
1F2C0
54C83
2195F
1A51F
5D5FF
3A63C
50CD1
34342
3955E
32A15
53F1A
17DCD
1A008
4C75B
2D2D3
211A7
1FA6C
1E1ED
20456
58504
36773
53AC0
15766
22D67
20014
28EB3
24290
133F6
250A5
2EA65
192BA
29023
50A0A
4389F
1DC27
2431C
401D4
17C20
3AE3B
3641D
4A6DA
5A5B9
19AB7
2C8D0
19E08
399ED
4EB0A
54973
30F25
1D535
1EF68
39757
22A5B
26E6E
1A5B8
263E4
17CEB
1B229
1C9E8

