6D8F3
7B67C
17F01
73C56
72CC4
78C05
15840
7A6A2
18332
11008
0B4A6
7A3F8
76040
73C32
11E4F
1A634
07611
7538F
1DA88
7AE14
1A4E5
7B4E2
1C6BD
7AA2F
0CBB0
0F6E3
04CD2
74A2E
1445C
0ABC3
17DA1
21E00
78E64
07E11
12A74
0B424
1D116
22738
74A5D
785BF
19363
77F4A
7BA28
14428
14A6A
7756F
21C3A
00367
094C5
75AAD
73552
77F54
16B04
70CEC
7A470
7C4FD
77E60
1DF1A
77EE9
1D79A
6B5F6
1998B
21DA5
266E5
1AB2D
11F64
05C30
7A2DE
1DEF2
7BA02
7AB51
129EA
7C4C2
173F0
74945
74C8A
724D8
1450B
77648
1F08D
11601
174D8
0EC22
0FE39
017F3
75F9E
048ED
16647
12527
74676
16508
1D564
77F38
73FA5
719F1
16650
16367
7C16C
22E2D
7A8FE
74C8D
182FD
16D5F
701A7
78225
76C3F
1397C
07076
0058E
77FF0
14746
08D71
73F65
1F73F
0E834
2F6A4
0AA64
7A695
23C90
1863E
1DC7A
249FF
72E39
1D169
707B0
0FC51
1D4EE
7C1DD
73634
1ACED
7D3A8
7EBCC
0D9CB
6FDDE
1EF66
678C4
6D23A
7E913
0FF29
01F01
70055
7658B
1DE2A
73470
79871
2187F
14E7F
21D94
146A2
130DE
124DF
1E416
70850
762CB
1C15E
1094E
732D1
0694E
709C0
70882
21FFE
16326
1D247
7445F
7B11A
6D11B
0F5E4
0CB2E
75268
0E4BF
7BD10
71722
75610
1D150
190AB
75CE2
716BC
153BE
7569F
160D9
14347
1E2AC
21204
71C49
11758
7AC15
1613B
1BCBD
1EC55
12E23
7BB80
7A088
16F45
6C1C7
74CC8
7293B
71D88
7DF87
77A9D
7519C

