2F7D9
2A90E
4493B
275B8
2125E
1DB87
4DAD0
213E8
3F539
36CE6
23AFA
1D566
17704
2B6A4
34F02
56DB8
228C5
2116A
52E4E
1B016
4D4F6
1E3D6
5FD49
283C4
2EFF6
308F4
2B614
2C182
406B3
24FC9
50CEA
6A1AC
26F75
27969
378AE
23E66
5280F
69C13
355FB
22595
5194E
30BF2
2DBFF
39CEB
41162
2EF33
6DD77
2201D
28DA9
22D9A
29188
23251
47423
3C53D
25220
2E50E
280C8
5D1A2
20799
5E1FB
3B4CB
4D0E1
625B5
68AE3
4B4C2
3CC76
2889C
1E0BD
5DDFA
12020
229AA
43A78
1E126
51D20
2A173
30B2D
2221A
3903C
1DF18
6113B
3B9C4
47FC7
33639
36FD0
287CB
25DCA
24D44
4D244
36CD2
27C55
428F7
55AB8
28D70
2AA6D
3209C
40B84
4D2D9
26F48
62B5D
1A481
3665A
42D3A
52A2A
3200C
2379F
23C35
363E6
257E6
1E08D
1F30A
3DA77
26052
23A74
6958D
2F130
815D7
2AE98
289DB
70DD6
4DCEA
5E083
67B04
3075F
5D0DA
2F2A9
362EE
549EC
15A11
2D4CB
49C65
1BDBE
21D41
357A2
29354
542D0
2FE57
2C759
24F42
34CCB
35D3B
236D2
2B18A
639F4
2F8DB
234F1
6C37E
45A9A
5F061
3B030
4403D
3CD0E
62159
2244F
2459E
5ABA6
34897
2D8A4
2635B
2ABEC
2D775
65F0B
3C434
61A66
1E5D8
2DEAA
2E1A9
2EF60
2ADB8
1716D
296B4
3DDA6
2418D
37130
5E0C9
4FC21
29002
32D4F
4C1EA
21982
44476
40592
54E38
6975F
2536A
324A3
22E55
43297
5C673
62C1B
3A3C4
2772E
2934E
420DF
319BE
36417
256C1
351D4
1F2F4
2457E
26BE2

