1E7E2
1E921
38D85
1A01F
153A7
13FB3
3EEE2
171CA
35051
2CE90
1D159
144A1
0ED08
1CFD4
2B846
46F83
1B7FF
15B6C
44E23
12C5A
3FDF2
151F4
4E1B2
1C5BD
264A4
27CF6
215DB
1DCFA
34D19
1D501
41D29
571C0
1B2ED
1F65C
2DCF2
1D6EC
4439C
56DC9
249B0
177CB
42BB4
22058
20C87
3003A
355C8
2080D
5A187
192FF
20A91
17291
1B2C4
17EFC
3A8B1
28C78
19F84
2161C
1B645
4C755
15F58
4D175
26A41
3FD1B
51630
57538
3E741
31B6F
1DFC2
14C41
4D23E
0C457
182D8
36E15
1547F
426AE
1C32D
212C2
15BF4
2F621
13F90
4FCD4
30D7D
3B224
29F4D
2D133
1F89F
196C7
1C5C8
3EC15
2D37B
1A7C5
36DAE
46D9A
1C25C
1C73C
2157C
35861
3EC47
1C34C
51E21
12095
2558A
378DA
42F7E
20F58
1845C
181CC
2CF5F
1D97A
164B3
1504D
32B03
1E673
1748C
55E84
267E2
6BC06
22CD4
1C814
5C937
3FBD6
4D1CD
56094
2081A
4C336
1EE9F
2C0E6
460AF
0F181
1E4C1
3D62B
13FA9
18B21
2BF34
1A651
4634B
1D2E9
1C169
1B987
2B500
285F4
161B6
1D65E
5146E
1FF75
18685
5888B
38EA8
4F0AA
30A71
372B7
31C6A
503A9
157DC
1863B
4A596
2B196
1E6A7
1DE97
1BA6F
1DAD9
53F30
31FBA
4F9A5
137C2
20B6A
1D49E
268BD
21981
0EDB5
2206D
2CA58
16FCE
260CA
4CF2B
416B2
1BBFC
21E54
3DC37
162F6
381C6
34D2F
4661D
56731
17DCB
29779
18544
37500
4B6DC
50E24
3002E
1BDFD
1CF57
36B5C
1FB76
25356
184A7
23ABD
169C9
18C44
19E47

