1C4CA
1D05E
3754C
18490
13B0B
12B97
3D071
15CDF
33B0A
2BA21
1C3B8
131F3
0DB3B
1B20C
2A4D3
44EB6
1A972
143F1
43137
11B5A
3E234
13F21
4BD1B
1AD38
252AA
26AE5
2012F
1BF7D
33527
1C52A
3FE3A
54A89
19A9A
1E574
2C8D9
1C992
42621
546C8
22711
1615E
40D0B
201F1
1F1C1
2EC02
33D93
1EA3A
578C3
180C9
1F9A7
15A6F
19606
167D9
38E71
2641D
18879
1FB68
19C23
4A4F8
149A2
4AE4B
23F9A
3E1C8
4F327
55163
3CCBD
30497
1C9F9
13919
4AFB2
0B87F
16D52
353B5
14258
406E2
1A67F
1F2B4
14263
2E23E
12AFA
4D92A
2F742
3979C
28BD4
2BCBC
1E626
17D1A
1B44D
3CE62
2BFB1
18C58
35584
44F02
1A828
1A9EB
1F304
34143
3CE87
1AD1B
4FB64
10F8F
23256
36194
40F26
1EC28
16D3B
169BF
2BC35
1C92A
154B8
13B4D
3145F
1D6B9
15B03
53662
2562A
68F67
21C15
1AF13
59F54
3DECB
4AEDF
53C22
1E72A
4A06B
1CD12
2ABFE
44297
0E403
1C5C8
3BC97
12F64
17846
2AB89
187BC
44674
1AC46
19F9C
1A636
2A16A
26A2D
14636
1BA16
4EE8F
1DF46
17003
55FE8
37457
4CFAB
2F50E
35832
3059F
4DECC
13D7B
16D89
483C5
29E19
1C76D
1CD76
19B46
1BA41
51A0B
30A81
4D463
1214C
1F028
1B1E7
2575E
20661
0DCB6
2112B
2A6D2
154BD
23DA5
4ABDC
3F918
1A0A0
1FB5D
3BE94
14B68
368A7
33564
4482A
53FF1
1623A
28542
16F73
35C8A
493D0
4E93E
2EB13
1A618
1B60E
353F0
1D685
23025
1698B
216BB
15816
1745E
183BF

