50F00
422B6
5BA9A
41A06
389A4
30E28
6AB0E
352EA
539B9
4A476
30AD4
2F244
28688
47CD2
4779D
761EF
306AD
37787
6E769
2B34F
67C0C
302E6
82B4F
3F9B0
4021A
41C6E
3F15B
48331
573EA
34161
6E4AE
8F7B6
3E271
37B48
4AB20
30A03
6E998
8EEE7
565EA
37B8D
6ECD8
4DB8C
4743E
4D13F
58288
4B60A
94B26
335CD
38F9E
39DA3
447E0
39332
60477
62CAE
3B193
47C45
40F47
7DDA6
352AE
7FA3B
63F35
67198
83BFD
8AD45
64922
528CE
3D4DC
304EA
7ECCF
1D4BE
371EC
5CCA8
2F5EB
70211
456D4
4F401
3A803
4BF79
31902
83120
50CC2
6146A
45F33
4A7ED
3A183
3E563
357DD
69734
49A90
41E99
5997E
72D4C
41D0C
4697C
52E3E
56C05
6988C
3C1B4
83D27
2A819
57F2F
59028
7176B
538A7
3985E
3AB05
4882B
350AB
2D442
33345
533B8
35023
3BFE1
8F996
3FF60
ABE51
3ADF2
4072B
98C9B
697D0
7F533
8A6C7
4FDAD
7E370
4F258
4A1C4
714DE
227D3
4AD1F
62275
2B5D7
33CCB
48392
465B6
6FAA4
54B8B
4CAC7
375E3
4777C
504D6
3DA2B
460D1
87B89
4E39C
38C29
92F3B
5EBEA
7E78E
4F653
5D4AA
528A3
85381
3B69B
3BE38
7AF54
471BB
4B4D1
36899
4871D
4C887
89579
507DC
85299
33C67
47E57
4F312
3F84E
3D160
2749F
37F71
5FB5F
3DE47
58931
7FB33
6BF97
43138
54287
685E6
380B8
5C38F
57067
716F2
8EDEA
3F7C4
43A6B
37B04
5A7A7
7DCDF
85ECE
4E5A7
3E396
414E8
5860B
54D13
57CCD
3F42E
576FF
300DD
3B1F7
40078

