505D9
478F0
5C150
4051B
3A1FA
30BF7
6B0A2
37746
545A8
4A203
32F3B
30758
27EFB
49750
4B974
76D52
34352
374B8
6EDBA
2BAA8
69B93
303A9
83D7D
407A5
3C59C
42B4B
4017E
4977F
5892F
3D77F
6F31C
900C1
45A46
35EB6
4C551
315C9
7449D
9239A
569AE
37A69
6FA6F
4DFD5
48B5F
4CD58
5AA99
4B83B
912C7
33B8E
38B13
3C661
4452E
3967B
60875
6562B
3BF3D
45556
3EF16
7F825
35B48
80F31
63DC4
63464
84286
8A903
66B8E
50E8C
35DBE
31455
7E209
1C67E
36486
5BA11
305AF
71BC2
45274
4F02D
38B9C
4BAAB
32038
83F27
4C84C
62FC2
43C1E
45148
37088
3DF71
356D6
6A7B9
4A6DF
4208B
5B451
73004
427FA
46F45
527A3
586BE
6A100
4151B
85FC2
2B56C
58D5D
5B19E
72808
5384F
39B99
3B9D8
4A747
34A7C
2C5C4
350F1
56C57
3493C
3B78F
91651
410AA
AD769
3803E
3C3FC
9B3A3
6ABAA
80FDE
8A726
4FB09
80A42
4F34A
4B464
72719
23987
4ABC4
639F2
2C6F0
33B97
3A671
46940
6FAF0
54572
4B87A
3A69E
44F33
51AF3
3DD9F
45C75
88B1E
4D609
39549
95F77
5DD61
7D339
5243D
5D894
51330
86B6E
3D114
3BE1E
7A349
4837A
4C88E
375BE
49288
4D6A6
8BACF
54FB1
873CD
34D90
48720
502C3
4114A
3A58C
2FB59
3A8C4
5EB86
3EBC8
59D52
815F2
6BB9F
438AE
54355
68A9F
383C4
5DB94
56757
7448A
907AA
3F672
462B8
374EB
5B3B6
7ED16
877C3
4D602
3D1B0
41E2B
5A167
56384
56483
3FF9D
57CB0
303D7
3CADC
41FD6

