6DFF9
56AD6
6FB88
58735
4CFB3
41893
83E6B
46815
653A9
5B32A
3BF6B
3E9C6
37270
60770
57952
9148C
3C77B
4AEAD
866AA
39489
7EBA7
3FC50
A1027
53E92
4F04A
50BC6
50349
609E7
6B13C
4134B
87E94
AFF51
524C4
45B56
5B562
3BAED
8702D
AF3B8
7309D
4A4AC
88311
66E59
5D6F3
5DD23
6C344
6413A
B674D
42711
46FBE
4DD67
5C4BC
4C5CB
7604A
84369
4E2F0
5DE14
56983
9A4F1
47257
9CC28
87453
7DBA8
A0C33
A87FE
7A87A
65777
4F58A
402C6
9B68C
271AB
48F22
72A19
3E664
8A769
5D2D9
69CB8
4FAC8
5C6F2
429C1
A09B0
6334C
773FC
5613A
5B71B
4964A
539A1
43F80
820BE
5A0BB
58A03
6D9B0
8C2B0
5783F
5EDE9
6F6F1
69E4A
822BF
4E7BE
A0975
389A5
7519C
6C48A
8C3FC
70AE2
4CAD9
4E9B8
5861A
428CF
3A801
44981
65FB1
42080
5123B
B0D5B
4EA20
D0D8E
48BCF
55278
BB79A
818A1
9C406
A89A8
6B21B
9B070
6AEEC
5B6C9
8A3A1
2DA98
64782
7755E
38D66
436A0
5882B
5FAED
878C9
74B79
68A9D
475E0
57B00
674E4
54685
5D788
A715E
68E00
4B65E
B49B1
74899
99CBD
611B1
7340C
656A3
A3BF0
51425
5056F
96F60
573E6
6528B
44B95
623FB
67868
A819D
62111
A4046
46608
5E781
6BF0D
4DE7E
4CEC8
355D2
449A8
7D20D
544E0
75AE6
9CF01
847D9
59BB7
711D1
80E9C
4B8D2
7106A
6ABA6
8A3C7
AF5F5
564FD
52BC4
49C11
6EBC9
9AD35
A47B5
5FD54
52034
563F0
6BC60
73687
74F1F
55B63
75425
3EB60
4EEA3
55FFE

