1D952
206B1
390EE
18F9D
1576F
13F7B
3F154
18150
356FC
2CC42
1E914
1498B
0E476
1D69B
2DEFD
4751A
1D2AD
15560
451FC
12977
40E7D
15072
4EB01
1C94F
23E02
285A1
219E8
1DDE2
35782
2364A
424DA
576C2
1E32F
1E41A
2EAFF
1DC73
4775C
58C6F
24422
171EF
43398
21C56
2118A
2FC1B
36ADC
20406
57E9B
193F8
20555
180B9
1AB27
17C48
3A93D
2977E
1A32A
1FCD8
1A6DB
4D5D2
15F4A
4DD2B
25EF0
3D681
51A1E
57194
3FA61
308E7
1D238
14F4A
4CAFF
0B8ED
17A9C
361AD
15997
433A0
1BBDC
20A32
1487D
2F37C
13E27
5014D
2E1EF
3C163
28848
29BDD
1B847
18F71
1C4F6
3F436
2D979
1A228
37D44
46F90
1C2F0
1C4EA
20B25
367C6
3EF77
1DBCB
530D2
1244E
2569A
38B5A
43638
206C4
18037
183A9
2E41F
1D347
15BD3
15ACB
34AFD
1E191
16B7F
56D52
27125
6CADC
20B2D
1A692
5DD68
4068D
4E000
561D1
1FFE4
4D797
1E852
2CB0F
46AFD
0F4DF
1DD77
3E32A
142BF
187DA
2361C
1A02F
46321
1C6CB
1B042
1BA79
29B56
28B28
15D95
1CF40
51CC6
1F11A
1889B
5A1F6
385A4
4E3FD
3279D
37414
30DF9
5106A
15B97
180E1
49D4B
2B9F5
1E9B7
1E4A0
1BA5A
1DAD2
555C9
34B64
50B55
13A89
20AD3
1D3CA
2787B
22E2A
119CA
23CDE
2BE31
1702F
2633E
4DD38
413AB
1B969
216F5
3DC8A
15E43
38E32
34681
4805D
573F5
17804
2B141
182F8
37B04
4BEC9
51AA6
2F500
1B7FB
1CF4B
37956
1FAEF
242DD
18320
23654
16673
19350
1A78B

