189D5
1C96E
35A1C
15209
11E0E
1126F
3AC87
15035
32697
29E4E
1C92C
11DEF
0BC4D
191AA
2B093
42ABC
1AE9D
12039
410A9
10238
3CE99
125DF
497CD
1911F
217B3
25C61
1EA36
199A3
32090
20D7A
3DE96
51E21
1A572
1BF10
2BC98
1BDCC
43131
53284
1F554
13F05
3EE0F
1D720
1D389
2CE98
3328A
1C04E
524FB
16A88
1DF34
147D2
169FF
147A1
36DD6
239B6
16E54
1C21A
16DB4
48755
12D99
48D25
1FE03
39B3B
4CB08
52106
3BD38
2D643
1AB86
122F8
47D9C
09E8E
14AAF
326F1
12FB6
3EAD5
17B0A
1C19C
10FD6
2C6F5
10EFE
4B01E
2B25B
38481
25DA5
27113
18D36
15588
19DA6
3B090
2AC56
163B4
345CB
42AA6
186F8
1822A
1BD3A
332A8
3AC03
1A41A
4E119
0FD11
2061D
35585
3EC7A
1B6C9
14B73
14C46
2B7FD
1AE92
1386B
129AC
315A3
1BE61
131F8
511A8
2487E
66575
1E6AF
1719B
57D52
3C450
49030
50FE8
1B53D
48780
19C1E
29B30
42680
0D51D
19732
3A896
11CC6
15D3A
21214
15A6D
42231
16F46
16453
18A54
270B2
24B00
11EF8
18F59
4C6D9
1A89F
15547
5444A
34AF8
49A7F
2F5DC
33829
2DB61
4BC61
11E03
148CD
45193
28D33
1A1D4
1BD62
1731E
1901A
500C6
318E2
4B5FB
10697
1CC93
18410
2507D
20971
0EAAE
21944
26EA0
13202
2126E
48C8A
3D126
17ADF
1C77D
3996C
12881
3548A
31134
43B16
51A61
13990
286D9
15242
34362
46F20
4C669
2C5F2
18361
1957D
34354
1A593
1F471
144DC
1E450
13E03
15BCB
169B0

