231A3
24AC3
3CDD8
1D40A
19730
17188
43DC6
1B7E0
38CC0
2FF51
20C88
17A00
11115
22334
31290
4C7BC
1FABF
1906F
49A91
15513
4557A
17FC0
54772
207BC
26893
2B377
24EE8
229B6
39490
263A4
472EC
5D93D
227C8
20D41
31E8D
1FE82
4C552
5F058
29BB1
1AA82
480DC
2693D
2566F
32EAD
3A971
24F43
5E231
1C203
22FB2
1BFF2
1F38C
1B6C8
3EB3D
2FFB2
1DDDE
23E1D
1E65C
52D08
19682
53615
2CAA3
4185C
571FC
5CB15
43E55
3412B
1FD36
18088
520FA
0D63A
1AFDC
3A2EF
1881F
48483
203E1
25AD8
18770
324F6
1728D
55B80
316CD
40509
2B7A8
2CB69
1E822
1CFCA
1F0A5
43F60
30BA0
1E78B
3BAE7
4BC22
20593
20F16
261B8
3A2CB
43A6A
219AD
58967
14FE8
2B008
3C729
48827
25FA1
1BAD8
1C134
31529
1FC10
1832B
19160
38644
208A9
1AB6B
5D32B
29E4F
73B87
233BA
1E16B
6482C
45027
538AF
5BCD5
252D8
53093
23CFD
3003F
4B716
11829
22B8A
42440
16CF1
1B737
25E25
1EDB0
4AB48
2280A
204A1
1EFF7
2CAB6
2D270
1A327
21640
57C3F
241A3
1C1A3
60A09
3C6D4
535A5
35EE6
3B6A7
34631
56DC9
1A003
1BF30
4F16C
2EBB0
23997
21039
20980
22DD9
5B43E
38383
56A2A
17442
24FFC
22C5F
2A4EA
256F7
14E22
2646C
31699
1B545
2BD09
536DD
45D93
1FEE5
26F42
4271D
199FD
3CE43
381B9
4CD57
5D77E
1BD69
2E05E
1B918
3B8D5
5174C
5783F
32949
1F26E
20F85
3B558
259C8
29A00
1C84F
29174
19362
1D101
1EC45

