676B2
5208B
6B2DE
53487
485E0
3DC41
7E317
42954
613D3
575E0
39688
3B1BC
33D07
5AE17
53EF9
8B225
39BD4
4683A
80FE4
3618B
7986C
3C3D7
9A260
4F503
4BA5C
4D595
4C543
5B171
66964
3E3C4
821C6
A89AC
4DBCA
4289B
57919
392DE
817BE
A7EB4
6C8C2
46166
82717
61326
586A4
5A07B
67AA5
5E7C0
AED01
3F071
43CFF
49501
56E81
48060
71189
7CA57
49DCC
58DF8
51B1E
93DDB
43135
962AA
7F45F
789AE
9A318
A1C82
758EE
612F0
4B42E
3C94C
94EE8
24E23
44E8F
6DAFA
3AFF2
84803
57CCE
63C8F
4AE14
58B4A
3EC00
99EB1
5F09C
72462
526CE
579B5
45EDE
4EC98
40B0E
7C7A4
5655F
537BA
69131
866E7
529A3
595F7
68F8A
658F2
7C97E
4A52B
9A13C
35694
6E801
67EB7
862F3
6A153
48575
4A190
54C9C
3F7DF
37810
40A82
61BC6
3F153
4C5A0
A94F5
4B4F9
C87B0
45993
50775
B39F2
7C180
95B3C
A1C53
64F4A
9480F
64A43
57810
84958
2B21E
5EA97
728A2
35C98
3FE0F
54D2A
59F2E
82243
6D791
62537
43BEA
5403E
6218E
4F406
582B1
9FFBE
62D76
472D9
ACFC7
6F9A7
939C1
5D189
6E47D
61243
9CD5A
4C501
4BB59
909EE
53972
5F4DE
41831
5C681
6169F
A1230
5E165
9D080
422A5
595BB
656E7
4AA5F
49568
322D5
41BDF
7677C
4F3AF
6F175
96516
7EF09
549A4
6A8EB
7B5B2
47228
6C50D
66446
849ED
A8036
5124C
4F51F
45A9F
6A266
94413
9D903
5BE01
4D885
51815
6761C
6C7B5
6E58A
50A0F
6E81D
3B647
4A6F0
51067

