09B5F
111A4
2B5A7
0994B
071EA
08B4A
2DE1F
0BCE5
2956A
21471
16974
09B19
043D2
0C2D9
22554
34BA1
1426D
080C3
34CB2
08C7A
30EEE
0A625
39E34
0E891
1A4C5
1E0A2
15B1D
0CCE7
27BB9
19309
30BCB
4143D
0EC3C
14FF3
23164
161D7
35EB2
424C2
108EB
0A645
31D71
1077D
11985
2460F
28993
0F528
4181B
0EE37
16CD3
09D1E
0A688
0A9AE
2BBA1
1205C
0CFD4
111DF
0C23E
39BDE
09883
39D12
0DB39
2E96B
3DDC8
42F5D
305BE
23E59
13772
09E03
39575
04F71
0BAE7
276BD
0B213
31072
0B895
0E7DA
065E1
2415F
08184
3BC93
2239E
2CDDA
1DDBD
1F0B4
10C01
0A7CB
127B5
2E59E
224ED
0A85A
29F60
35BE7
0D30E
0B9E8
0D379
2934F
2E1A5
0FD05
3F1EF
08759
114A6
2B407
30F3F
0C6DB
0AD26
0A61C
23395
14075
0CE32
0964D
27597
154D3
08563
3FEAB
1CE8C
53541
17932
0D2B6
45D0F
2FD98
3A0C0
41A2B
0D545
3973D
0B781
20B94
35909
075D6
0C464
2F8DC
0AAD9
0DD59
1A5FB
08928
35F61
068B6
08085
0F9E5
1F0C8
18A8A
06322
0CFA6
3C513
0CF2C
0BB4C
42B49
29AF5
3BE07
26096
28467
24396
3C047
06545
0A091
36E6D
206EE
0CA2C
147AA
09D6A
0AFEF
401BB
2815C
3B5EE
06ABE
111D6
094E3
1D883
19B46
05D5B
1AE79
17FEE
07779
11FFF
39A80
30999
0BF43
0D912
2D012
0873D
2A792
2714E
36B40
40DA3
07E33
207A3
0C01F
29C7C
38025
3C9B1
238C8
0E594
0E815
2A14F
0A57D
1092D
08A11
0EE46
0C4B0
0B53B
0B01F

