589D3
47962
60F60
47A7D
3DFC5
35488
7159B
39C21
58432
4EBF8
33A88
333A5
2C4D9
4E50F
4BBB0
7D4BD
3399B
3C9B8
74CA6
2EECE
6DD27
344C8
8AB62
44F82
44104
45BA7
439B7
4EA66
5C7BC
378D4
750F5
980F7
43795
3B677
4F175
338BE
750C4
9776B
5DF15
3CA09
75825
545F2
4D1F0
51802
5D741
51E6E
9D9D5
37588
3CAD2
3F21A
4AC7B
3E42F
66058
6B9EE
4023D
4D9BA
46ABC
855EA
39EAA
8754E
6D47C
6D13C
8B69C
92AAB
6A5F1
578C0
4211E
347F9
865B8
1FE32
3BD43
628F6
33570
7715E
4BB36
56431
4017F
50512
3610E
8ADF4
55A90
67148
4A35C
4EF8F
3E22C
43F43
3950D
6FF28
4DFD0
47E98
5EE13
79862
478C3
4D016
5A6E2
5BCEC
700AD
40F60
8B6BE
2E3AD
5FA64
5E19D
788A0
5B3CF
3E953
3FF34
4CB3E
389C3
30C31
37CC4
582F5
3872D
41941
9860E
43D62
B5A7E
3E88D
45EAE
A1F36
6FD77
86F74
92655
570F5
85D36
567C8
4EAF1
77E34
2570C
51986
67BFB
2EEC7
37EC9
4C868
4D0C0
75F96
5D2C5
54113
3B982
4BC09
5660F
43A69
4C3CC
90018
5543D
3DAEF
9BD78
64805
85B09
5412D
6317B
57869
8D486
412F0
414A7
825AE
4B5ED
5221A
3A48F
4F42C
53A9B
91779
55224
8D500
38B05
4DDBE
56C93
4351C
41450
2B01B
3B4DB
677B4
43D00
60435
876C5
72735
490F9
5BCE8
6EDA3
3D329
61B7C
5C3AD
77FC5
97748
4583D
47A2B
3C75E
5FD46
85787
8DFF3
52F87
43739
46D67
5D805
5CE5D
5F7FB
45311
5F509
33ECF
4059D
45D53

