0BD99
116A2
2BFA4
0B5DB
0827C
094CA
2EC1F
0BFFB
29B73
220E7
15D7F
0A5DA
055B2
0D2AE
212F3
358B4
13C50
093D2
35847
09BDE
31220
0B1F4
3AAAB
0F553
1CBD8
1E36B
16621
0E255
28189
14E58
31635
4246B
0E427
166A1
23223
1656F
3490C
4223F
1236D
0B930
3271B
11DF1
128FA
2545F
28807
10A88
44704
0F838
17ACA
0A56F
0BE71
0BA4D
2C98F
1356F
0DBA0
13323
0D828
3A342
0A6CF
3A690
0FFBA
314D7
3EC65
444AD
305DE
25946
12692
0A967
3AC99
05FAB
0CBE1
28DEA
0BA3B
31863
0CF64
1024C
082A1
24D1C
09098
3CDAC
2508A
2D09B
1F9C6
2233C
15B99
0BC83
13130
2EFA0
22B4C
0BEA3
2A046
3698A
0E3A0
0CE0E
0F082
293E7
2EF65
106AC
3F6D7
08FE4
12A52
2B306
31C91
0E440
0BFC0
0B559
22C78
14ED2
0DCDD
09DCF
26A93
160C8
09B7E
40962
1D149
540BE
19E80
0F38B
4652E
304F9
3A8E4
42ACF
0F021
39B79
0D16C
20F30
360E1
07ED2
0DD7D
2FCC1
0B560
0EADC
21807
0A25D
36E24
08A80
0A21F
1154F
20E85
199D8
077F9
0E5FC
3D280
0EDEC
0C737
42F1E
2AEF9
3D835
254A9
2914C
25AAD
3CA53
077A1
0B452
38628
20BF7
0DD3E
14CFB
0B193
0C5CB
40379
26B54
3BCF2
078D3
123BA
0AD89
1D513
176F1
05D3D
19EB5
19C66
089C2
13609
3A311
31B10
0D370
0F520
2E04A
09ABE
2AC3E
282F3
3678B
41994
0937F
1FCA5
0CBD6
2A511
38CFC
3D482
24CC5
0F2E0
0F86A
2A448
0C179
12830
09E38
108A5
0D358
0C11E
0BCC5

