4AD88
434DE
58467
3C0AE
36239
2D9E9
66430
340B6
50FE3
46EF4
30BC8
2D6E4
2525C
44AB7
485E2
71AB0
31B40
339A9
6A525
28F0C
65496
2D45B
7E10B
3C938
39B0C
3FD75
3CC7F
44BAB
54C22
3AA26
6A50A
89E47
415AD
3358F
491C3
2F3BA
6F6A6
8BFB1
5121F
341D6
6AD2C
492EE
4467A
49AC6
56C04
46CFE
8AF31
30D83
360B6
38728
3FCC9
35BFB
5C675
5EDF7
38489
41410
3AF95
7A0EF
32410
7B647
5D211
5F289
7EAA7
84F82
6279A
4D648
332C0
2E316
78C0D
1A931
32F46
578CE
2D727
6CAE0
40A6F
49F86
34CA9
48931
2EBD2
7E4F3
4936E
5EC1C
40CBE
421BC
340AE
39F18
32B28
65C8F
474B8
3DB27
576AF
6E372
3E557
4251A
4D110
54BB9
6560D
3D739
8072D
289D2
533EF
575CE
6D618
4DF72
360F8
37C4D
4763D
321B4
29E6C
31A5C
53110
32224
377A4
8B078
3E380
A66BE
357B1
38922
948DF
66210
7B730
84C22
4A816
7B146
49E9E
47F34
6DB00
2163D
45DB0
5F8DC
29CBE
30C3A
37E68
41BBE
6B2C8
4E433
4641B
37120
41FD3
4D3AB
3980D
41575
82BA6
48580
35C41
8F763
59C30
78191
4ECF4
59600
4DAF8
80E0F
38CA8
37FCF
74F28
451BF
478AE
34A24
44361
483A0
85C5A
51793
814F8
313D8
441F6
4AA2D
3E4DA
37CBF
2C701
38136
5931E
3A6B1
54387
7BC4D
671B7
3F332
4EB08
6400C
34809
59B84
52C1E
6F790
8A421
3B10D
4339B
33ECB
575E6
79493
81A2A
4A1B9
3973D
3DDF1
56565
504AB
50D60
3BA6E
5218F
2D6E8
38D2C
3DB1C

