01FAF
0A732
252A5
039D4
013BF
03A4F
26322
061D9
23BB2
1C4F7
1202A
051CB
00594
04CA8
1BB6D
2C519
0FAD4
02A26
2D61D
04F60
29548
05D3F
30601
086FC
17AF3
19221
10918
05DA4
215C5
1070E
28AFF
373F3
076AE
11A89
1D7B6
12959
2C466
372B9
087A5
05447
29D25
09524
0B083
1F963
21B19
08451
38F92
0A648
12EAB
038D5
03D18
0522C
2536E
07FD4
073EB
0BAFA
06291
308A2
0451D
30853
03FCD
299E0
34EBC
3A373
28E8B
1F27C
0C487
05330
31124
02A5F
06B04
2173C
0688F
2894A
04E54
0720E
00F93
1F3A1
033F7
32D2E
1EC82
25934
1A224
1C723
10877
048F5
0E285
269F8
1D242
04337
23387
2DFDC
06DB6
04A23
05567
22BE2
26984
0A2CF
35A82
0434A
08BE9
24A4A
28B04
045E9
057A9
0491C
1D63A
1056A
094F3
03F51
204B3
11A05
02894
354C8
1818F
477F2
15327
08307
3A8B1
28248
30BB5
386D0
05BE8
2FEE9
03A6F
1B11B
2D973
0421B
0521D
289A7
06C2B
09603
1BF85
018BF
2EC5B
FDCA3
00A06
0BE5F
1B662
11CD8
FFC3C
066B9
32811
05D1C
061F0
3783E
2388D
343BA
1F46C
219F6
1F41D
32471
000EB
04531
2EDFE
1B449
050BB
0FFE4
0255B
0331E
35C55
20BD3
31548
013BE
0A911
01151
186E6
120E1
010C1
15A07
0FC8B
00FF8
097DF
30431
295D8
05854
057C8
25AEA
030BF
23B33
217E2
2E0C5
368F5
01775
1AAAD
069AB
236FB
2EF49
32E77
1EDC9
08759
086A1
23AE3
01B3E
089D0
02439
06698
083B2
05591
04562

