1432D
192F9
32962
11B4C
0EB0D
0EA64
36F5F
1248F
2FB94
27575
1ACD0
0F72B
0989A
15463
28751
3E8A1
18E8F
0F0F9
3D699
0DF55
395CF
10007
44DD9
15F2E
1F5A5
237B7
1BFCF
15CF9
2EFB9
1E933
3A021
4CF59
16E91
19E24
29359
1A28D
3F2D3
4E296
1AF48
111C2
3B03F
1999A
19C6B
2A624
3007A
1841D
4D550
145B2
1BD50
1153E
13015
118D4
33908
1E659
13F5E
18DE2
13AE6
44191
1016C
44603
1A7DA
3668C
484BC
4D96C
386DB
2A940
18922
0FB93
438D3
0871D
12015
2F2BB
10A7C
3AA20
1416C
18117
0DD7A
29F60
0E513
467F5
28810
34E63
237BF
24B0A
166ED
1220D
17AB4
3746E
28437
12C31
3147C
3ED64
151A9
146D4
177F7
30371
3700D
17298
49A3C
0DA30
1BE91
325AC
3AAED
16FB2
11C8B
11B0A
290C2
18DF2
118F2
0FE01
2E637
19F1B
0FED5
4C02E
2245D
60B53
1C63E
14287
527E9
3896F
4493E
4C718
172E0
44050
15861
270A3
3E99F
0B8E2
158BC
37485
0FB04
13756
1F20C
11C6B
3E878
1217A
120D4
15F88
24ACC
211FA
0E751
1568C
47A79
16831
127A7
4F108
316D1
4592C
2C9A1
302E6
2AE67
471AF
0E746
116F4
40E46
2656B
161EE
19A81
133CC
14DAE
4B534
2EBFD
46A1D
0D86A
1953F
13D32
22CF0
1E8CC
0C0CE
1F9A0
227E7
0FABD
1CA99
444D3
39606
14349
180D8
35DC3
0F8B9
3214A
2E1D4
3FD81
4CAC0
1020C
26128
126F5
311EF
42851
47B87
29C1F
154A0
1621C
31353
159B2
1AEBB
10D84
19B6A
11A10
12A71
132B4

