4438C
3E32F
53B4F
36E93
315B8
29DD9
60873
2FF3D
4CF5D
431AE
2E13D
29CBE
21CD0
3EECC
447FF
6B787
2EB2A
2F2CA
64E0C
25AB8
5FF67
29B96
7721D
37E4E
367F7
3C676
38CE5
3F0AD
502DF
373BB
6475A
8281B
3C35C
3042D
453E4
2CADB
69918
847CD
4A90C
2FDF2
65074
436A6
3F3CE
45E17
520EC
412B4
837B1
2D643
32DE0
33B4A
3A5EA
315C8
57741
570EB
33E17
3C5BD
36361
73849
2E1CE
74B94
550D4
5A381
78135
7E41B
5D60F
492C3
2FF29
2A7FF
724DF
18608
2EF5F
52A7E
29F51
669D0
3B402
43EBF
3011F
44DD2
2ACF1
778B5
453FE
59AEE
3D3E5
3E8AE
30741
351E0
2F6BD
6025D
4388A
387E3
52CB8
6878F
39561
3CC19
4692C
504E7
5FC1D
38CF7
79CE2
25580
4C89E
52E08
673C5
474CF
31A9D
33274
43B65
2F0C3
26F37
2D8DC
4E9EE
2F33A
32AF0
83641
3AD4D
9DF8A
32708
34284
8C8C1
609BF
74CC5
7DEEA
4448C
7467D
43903
43F60
67FAE
1EBE4
3FFFF
5AAC2
26A1C
2D365
34E5D
3BEBC
65C33
46F81
3FEDC
330EE
3E6F9
47E21
34491
3C041
7B914
424DB
317D1
87A7F
54DF6
71F94
4AA9C
5461C
49781
79E03
33A8D
3350A
6EA33
41612
418D5
315D2
3E466
41FFE
7EB00
4D43B
7A32B
2CE94
3EEF7
43FE0
3AF88
34BC8
28831
351BF
52908
353CA
4D7C8
750BA
61906
39FCF
48112
5E68F
3005C
54EA4
4E50D
69B31
82CB1
35DC7
3FB11
2FDD8
52BB8
72A5D
7A9D8
462FC
3511B
390DF
51D63
492DB
4A4D0
36769
4B436
2A0FD
34325
388A3

