4A4B3
42E0F
57E50
3B9D7
35BD9
2D4E8
65C8B
33B41
50A82
469D9
3083C
2D20B
24DE5
4430E
480BA
7126D
3173E
333C1
69DE3
28AB0
64D7D
2CFA0
7D7CD
3C2F9
396CA
3F8E0
3C732
44416
54607
3A59D
69D3B
8946E
40ED1
33171
48C9B
2F052
6EEDA
8B5B4
5095D
33C2D
6A572
48B3D
43F96
495B8
565C2
46578
8A53C
308E9
35C79
380D6
3F58C
35622
5BFDB
5E38B
37EAA
40D89
3A93C
79837
31E8B
7AD62
5C74C
5EBF3
7E1DE
8468F
620CE
4D0A8
32E74
2DE2A
78374
1A643
329F2
57247
2D280
6C2C9
4033B
49776
3465E
4843E
2E695
7DBEE
48E25
5E558
40802
41CFB
33BE5
398A9
326C9
6550B
46FB5
3D437
57085
6DBCA
3DEAD
41DAF
4C867
545D2
64E8F
3D109
7FE52
28576
52AFD
56FD3
6CDE7
4D68F
35B1B
37626
47156
31DA0
29A7D
314E6
52B22
31E3B
3713F
8A649
3DEFC
A5B7A
353A3
38340
93E32
65AB4
7AE51
84308
49FCA
7A85F
49626
479E2
6D363
212B5
455E1
5F25A
29886
3077E
37A67
413FE
6AB91
4DA7A
45BAB
36BC6
41B16
4CC8A
39118
40E5B
82219
47D72
3568D
8ECFB
595AB
77967
4E76D
58F58
4D559
804B8
385D1
37994
746BE
44CC6
470B1
345C8
43B77
47B52
852E7
511F6
80B7C
30E12
43B0B
4A152
3E069
378AA
2C1C5
37D41
58A47
39FC9
53A8D
7B356
66A52
3EC3F
4E233
63897
34210
5951C
52632
6EFDE
89A2D
3AA1C
42EE4
33962
56FB7
78BBA
810CE
49C7F
39165
3D785
55F65
4FB2F
504A9
3B383
51873
2D26A
38701
3D43C

