5EB7A
529EB
65FAF
4B701
447BE
38E1A
77764
40521
5D174
526C5
38B68
38555
2F2FF
55E78
53F8B
8442A
3AB80
40E46
7AA70
32C09
75425
37EA8
92DD8
4A9F5
43448
4A275
48B4A
55CA6
627EB
44D67
7BE19
A00CC
50CA0
3C9B6
54B5D
36E56
80F50
A275E
64D55
40D80
7C353
5A7C7
53E7F
550D3
64D4E
57BDB
A15B1
3B344
3F938
46AC3
50168
42E95
6B411
76519
457DF
4FF0A
49432
8DAE3
3EAD8
8F65F
755C8
6DF9F
926FC
991B9
71C3D
5A0D6
3CD85
3945D
8C196
212AC
3EEFA
663BE
37EAB
7EE0E
50DB6
5C1DD
42F46
53B4E
3A875
929AD
551BF
6DFA5
4B74A
4CCE6
3ECF4
486BF
3C869
76B27
52945
4D4F5
65492
7F71A
4D539
5301C
608BB
62030
763DF
4B600
94611
326C7
675E2
64D21
7FD11
61F5A
43408
459DA
526C8
3B486
32C0D
3DEDA
60676
3AEE2
45DC0
A1F1F
48619
BFC5A
3E9AC
45CFE
AC939
76B05
8F670
993C8
5D2B5
8F19F
5CF6E
53EAE
7ECF4
29547
576C3
6E32A
334A4
3B6BC
40E89
532C4
7B689
64248
593D8
431B4
4CA61
5D448
49280
5150F
98359
5A76E
42990
A6E10
686DE
8A787
5B3FB
685AD
5A55B
95E31
482FB
4601E
87E05
504C6
5983A
3E71A
56052
5AE83
9B067
5E19B
96A5F
3E3A2
53AF3
5E915
484D2
40FA3
38370
40F9B
6D160
49F67
686C7
8FF05
77BC8
4ED58
628EA
74C84
41F0F
68225
60150
80CAD
A0A73
4AADF
4DD39
401A5
6546E
8D337
96B1F
55DF1
469A5
4C527
63D6C
65A1D
64710
4B37D
6699D
378AB
46B41
4D287

