73A19
0015C
1C201
7879A
772E5
7C314
1AC57
7E2A7
1BE57
14833
0DBA6
7D946
79156
79074
1570A
20119
0A225
79486
22A5F
7DE0C
1F2FB
7E8EC
22C6D
7EEDB
0FA82
1294D
0871F
79D97
18785
0DDA5
1D382
28A54
7D9D9
0AB56
1632A
0D99B
226D9
2951F
7AAAE
7C3FA
1E861
7D3E2
005F1
17BC8
18F41
7C832
289C5
0360C
0C35F
7A039
784F4
7BFAE
1B39E
77F8C
7E503
00CC9
7C43B
23F08
7BBA6
23968
72C6E
1E1FD
27E4D
2C959
1F5ED
15D49
08B7B
7D909
23D87
7DA3D
7E5E5
171B3
7F7F2
1CCE8
7987F
7A541
76A16
17B77
7AFEC
253C5
15028
1BF42
1203F
13285
04C97
7A667
078FA
1B8F5
15C52
792CA
1A8D5
2299E
7C885
7913B
7792C
1A73C
1B5D9
0057E
28F9D
7D8F4
7AEED
1C4C8
1C781
76367
7C2A3
7AFF1
16F6E
09D52
030D5
7BBFA
1887B
0B872
785B5
26748
119E2
37294
0D6FF
7E751
2B201
1D733
23E06
2AE1D
78978
2334C
764D3
136D3
228A3
7E8AE
78C16
1F485
00212
01FE5
105D6
75321
23EC4
6E3BC
72F09
023EB
13346
06D6A
74CDB
7B3A5
2472F
78D07
7D72D
28AFA
19634
27767
18372
17A1A
162B6
24ACC
75394
7A755
21DE9
14002
78AAD
09944
760D0
763D6
287E5
1A0E1
23A98
783DD
7FD2F
7328D
126C5
0F810
78BFB
11041
01E4F
76321
7B8D5
233EC
1E1F8
7A952
777DE
1A5C6
79853
1A751
1846C
23759
27F81
7689F
14B2C
7E79F
1A53A
21E19
2534B
167A6
7FBCB
7E72E
1B147
72A1B
7ACA2
77555
781C5
010F4
7BE78
79D36

