228CE
243F5
3C7C0
1CD32
190D0
16C87
43621
1B26B
38760
2FA36
208FC
17528
10C9F
21B8B
30D67
4BF79
1F6BD
18A87
4934F
150B6
44E60
17B05
53E34
2017E
26451
2AEE1
2499B
22220
38E75
25F1B
46B1E
5CF64
220EB
20924
31966
1FB1A
4BD86
5E65A
292EF
1A4DA
47922
2618C
24F8C
3299F
3A32F
247BD
5D83B
1BD68
22B75
1B9A0
1EC4E
1B0EE
3E4A4
2F547
1D7FF
23796
1E002
5244F
190FC
52D31
2BFDE
411C7
56933
5C221
43789
33B8B
1F8E9
17B9C
51861
0D34C
1AA89
39C68
18378
47C6C
1FCAD
252C7
18124
32004
16D4F
5527B
31183
3FE46
2B2EB
2C6A8
1E359
1C95B
1EC47
437DB
3069C
1E09B
3B4BD
4B47A
1FEE9
207AB
25910
39CE4
432EB
2137D
5808B
14B8C
2A716
3C12E
47FF6
256BE
1B4FB
1BB0C
31042
1F7FB
17F3B
18BEB
38056
204C0
1A506
5C8FC
299CB
73043
22FAC
1DB89
63D7F
448CA
52FD0
5B3BB
24A8C
527AD
23486
2FAED
4AF7A
114A2
223BC
41DBD
168B9
1B27B
25A24
1E5F0
4A411
21E50
1FC31
1EA9E
2C5FA
2CB4F
19C32
20F26
572B3
23996
1BBEF
5FFA1
3C04F
52D7A
3595F
3AFFF
34092
56473
1992C
1B8F5
4E902
2E6B7
2319A
20BDD
20196
2258B
5AACC
37DE6
560AF
16E7C
24912
22384
2A079
252E3
148E6
26077
30DC1
1AE5D
2B40E
52DE6
4562F
1F7F3
2666E
41FA8
19404
3C7DB
37BCD
4C5A4
5CD8A
1B679
2DBA8
1B3AF
3B2A6
50E72
56EE3
3240E
1EC95
20918
3AF57
2504C
29149
1C164
28857
18EE4
1CAD6
1E565

