18100
1C29F
35405
14B31
117AE
10D6D
3A4E2
14AC1
32137
29933
1C5A0
11916
0B7D7
18A01
2AB6B
42279
1AA9B
11A51
40967
0FDDC
3C780
12124
48E8F
18AE1
21371
257CC
1E4E9
1920E
31A75
208F1
3D6C8
51448
19E96
1BAF3
2B770
1BA64
42966
52886
1EC92
1395C
3E655
1CF6F
1CCA5
2C98A
32C48
1B8C8
51B06
165ED
1DAF8
14180
162C2
141C8
3673C
22F4A
16876
1BB93
1675A
47E9D
12813
48440
1F33D
394A6
4C23F
51813
3B66C
2D0A3
1A73A
11E0C
47503
09BA0
1455B
3206A
12B0F
3E2BE
173D6
1B98B
1098B
2C202
109C1
4A719
2AD11
37DBD
258E9
26C52
1886D
14F18
19948
3A90B
2A752
15CC4
33FA1
422FD
1804E
17ABF
1B492
32CC1
3A484
19DE9
4D83E
0F8B5
1FD2B
34F8A
3E448
1ADE6
14596
1461E
2B315
1AA7E
1347C
12436
30FB6
1BA79
12B94
50779
243FA
65A31
1E2A1
16BB8
572A5
3BCF4
48752
506CE
1ACF1
47E9A
193A6
295DE
41EE4
0D196
18F64
3A214
1188D
1587E
20E13
152AD
41AFA
1658C
15BE3
184FA
26BF6
243E0
11803
18840
4BD4D
1A091
14F93
539E2
34473
49255
2F054
33180
2D5C1
4B30B
1172B
14292
4492A
2883A
199D8
1B906
16B34
187CC
4F753
31345
4AC80
100D1
1C5A9
17B34
24C0B
2055C
0E572
21550
265C9
12B19
20974
48393
3C9C2
173ED
1BEA8
391F7
12288
34E22
30B48
43363
5106D
1329F
28223
14CD8
33D34
46646
4BD0C
2C0B8
17D89
18F11
33D54
19C17
1EBBA
13DF1
1DB34
13984
155A0
162D0

