04BE3
0D461
27ED5
05BB6
03889
05E3E
29952
08BCA
26506
1E67C
1498C
06F7D
01BA9
07DE9
1F6EA
30142
11E5C
04B9C
30B5F
0653B
2CF0B
07B92
34B01
0B062
17E76
1B762
12B6A
088A8
244C7
16A39
2C587
3BB9C
0AE7F
12AE9
202FE
14330
31887
3CAD7
0BA1D
0735B
2D7E7
0C247
0DB84
2188C
25140
0B171
3BE7B
0C4C7
146B2
06437
06560
07507
2803A
0C294
09AFF
0D720
08917
34D62
066D1
34D0C
07A4C
2AE25
38EB3
3DECF
2C896
20BB5
110C1
071B1
34813
03512
08AFA
23C01
08832
2C7A6
077C3
09F45
02D3A
214D8
0525B
36B65
1F40A
290F8
1B31A
1C5E9
0E0F0
06DE1
10064
2A1F8
1F7CA
069E6
267E7
316FD
09716
07728
0858E
25E31
29E31
0C553
3A236
0601C
0C429
27E33
2C581
076E1
07862
06EB9
20773
11BC0
0AACA
0652E
2403D
131A4
04BDC
3A302
1A5E6
4CFDA
154B3
09DBF
3FCF8
2BB5B
350F0
3C841
08A9D
34727
06B4D
1DBB6
3148B
05613
07E1F
2BE48
084DF
0B2B9
181F2
04366
31E71
01131
03496
0C9C0
1C624
14A63
02485
08FBF
36F26
086B1
087F8
3CD9E
2604A
37489
22ED5
2487C
210FD
36C3F
027B0
0687D
322B6
1DA2C
08249
1206D
0562E
06536
3ACB8
24EDA
36095
036CC
0D397
04529
1B085
1768D
02E3F
18ADF
1305D
0394C
0CF2F
349D1
2C715
080B9
0899A
28CF5
0517B
26DE9
23C02
325F9
3B40F
03FBE
1DD3B
08F68
264DA
3307C
37573
209BA
0B0FA
0AE47
26B4D
05021
0BAC1
04BCD
09C43
09C40
07DB6
07244

