03A01
0B9C4
264D0
04E80
02634
04963
279F7
0718A
24BA8
1D44A
12A63
05FCE
012EE
062FF
1CA04
2DDB3
105BE
03BC3
2EBCF
05C1F
2AA17
06B5D
32172
09960
1886E
19FAD
1189A
073C1
227BB
112EF
2A233
3915C
088ED
12738
1E6C8
1335D
2DA82
38FFA
0A19B
06519
2B423
0ABF1
0C497
2088D
22D41
09AB0
3AE25
0B3F0
13B5B
04AEF
052A7
06387
2671E
09E19
08534
0CF01
0762B
32267
05565
322B2
05FCA
2AE5E
36903
3BE52
2A26E
2039E
0D4DE
0618E
32B0D
03341
07B29
22B04
0762C
2A123
063D7
08A18
022C0
2028B
04367
347EE
1FD2E
26D1B
1B0BF
1D67C
11652
05C37
0EFA1
2803F
1E119
057C9
245A6
2F6CF
0815D
06020
06F41
23D38
27FD4
0B374
37490
0500E
0A650
25BBF
2A346
0604D
06902
05B26
1E49A
111A6
0A0F0
04F10
215AD
125D0
03BBB
372E1
18ED9
49969
15FB6
095C8
3C81B
29810
325E7
3A225
0749C
31901
05399
1C0CA
2F006
04C3A
06958
29CD6
0785E
0A427
1CE45
02FAE
301FD
FF99D
02360
0CCDC
1C512
131AE
010DB
07BEF
34479
0753E
072D2
396B9
24C4A
35C79
20476
22DDA
20535
34017
014B4
057B6
3075A
1C2E6
06826
10CBD
03CB9
04B90
37830
21BBE
33139
02497
0BD82
02B5B
193ED
12F39
01D81
1657A
11730
02445
0B23B
31EAC
2AC0C
06CD9
07201
27125
0426A
24E0A
229BB
2F73C
38665
02C22
1B857
07A07
24954
30991
34A23
1FD9D
09945
09998
24C74
036F3
0A436
0388E
0819A
090F9
0677E
05948

