71F9A
7ECF1
1AFBB
77313
75FC5
7B410
19568
7D249
1AE36
138E2
0D103
7CABC
783F3
77979
14791
1E84F
09620
782CF
21499
7D0F7
1DDAF
7DABB
210B2
7DC20
0EDBD
11B8D
07738
786D8
17534
0D00A
1BC16
26CC9
7C545
09EFD
153B3
0CF63
20F75
27726
79069
7B301
1D133
7BCD0
7F146
16C9C
17C7B
7B1A0
26BE5
0283C
0B6A9
78D42
76F3C
7AE21
19FD2
76049
7D367
7F935
7B12D
224DF
7AB15
21EBC
70C1F
1CE3B
263F1
2AE7F
1E18A
14C67
07E95
7CA44
223BC
7D173
7D5EB
15E1F
7E9FC
1B4A5
782E3
78D0F
75734
16CA0
7A034
238B6
1404B
1AAF7
11208
12442
03E3C
79319
06BDF
1A269
14D46
77DF9
19657
212A6
7B487
77AFB
75F33
19587
19F5D
7F2ED
2750A
7CBDF
79419
1B2D7
1AEEC
748BE
7B10C
79D7B
160B7
09116
02507
7AB9A
176B2
0ACB8
77288
248BA
10C56
350C7
0CAD4
7D5A9
291F9
1C11F
2236C
292CF
77095
2189A
74B6C
126DE
211CF
7DE18
774AA
1E0FF
7F569
011B0
0F9D3
73BE0
2291F
6C68F
715B9
013DE
12510
05807
737FC
79E58
22A8B
774DE
7C611
26BC1
182A5
25EE8
172DC
16621
151D9
22EC9
73F0D
794A4
204AB
13117
772B7
08C30
74912
74AEE
26B8F
1900B
21E25
7728C
7E86F
717F9
11970
0EBD2
77C47
10463
003C9
74E67
79DE5
21907
1CBCB
79479
75D60
18F67
78667
19419
172A7
22041
261A5
753CD
13D09
7D762
192AF
2038C
23736
157F7
7EA42
7D3E9
19F47
70DA7
7927E
76094
7666F
00379
7ABF7
78898

