0B5DE
12610
2C7ED
0ADD2
0850B
09A4E
2F50F
0CD43
2A58C
223C2
17417
0A9A3
05135
0D9D4
234CD
3646B
14E72
0927B
36278
09990
3243A
0B456
3B9F0
0FB4B
1B18A
1EE62
16B03
0E3A6
28E0A
1A0A4
32337
431C8
100D0
15C4C
240DC
16C0E
37615
442BB
1232F
0B73E
3349F
11E8F
12E30
2553B
29C59
10BBB
435FB
0FC07
17988
0B016
0BC40
0BB3B
2CF6E
13F9F
0E171
12573
0D54B
3B608
0A914
3B7BF
0FB89
2FD2D
3F825
44A37
31A21
24F3A
14458
0ACC9
3AF41
0583C
0CAE1
28A51
0C008
328B6
0CE30
1000C
078C3
25037
0913C
3D7A3
2337A
2E226
1EBF3
1FEF7
11A5C
0BB19
134D0
2FC2A
233F9
0BD2B
2B1DE
372E0
0E70C
0D029
0ED72
2A503
2F822
10F95
40C82
0946E
12F7A
2C5F9
327D4
0E184
0BEBD
0B892
2424B
14CB1
0DA00
0A6AD
2875F
1608E
09890
41D39
1DC19
5570D
1855C
0E45E
47D16
313AD
3BB5B
43579
0EE28
3B1EF
0D0E8
21B89
36FDD
0806C
0DBD0
30C62
0B781
0EB8E
1B1FD
0A069
37506
085E3
099D5
109F1
1FEFE
19FED
07801
0E4F2
3E1B7
0E755
0CC68
44A82
2AE84
3D686
2712C
29860
25474
3DC4A
079CC
0B343
387AA
215D9
0E222
154BF
0B528
0C8D7
41E12
29232
3D261
07C0F
12695
0AF76
1E5D7
1A784
06D0F
1BA56
19A74
08C33
13AEF
3B564
31FC5
0D41B
0F390
2E672
09928
2BACA
28312
38258
42B7F
09304
215C5
0D05C
2AF07
39AB3
3E5C5
24878
0F71C
0FB59
2B350
0C1F1
12351
09ED2
1099D
0D22B
0C7BD
0C4BD

