77039
02B5F
1D98A
7B006
798B4
7D5C6
1CAEC
7F942
1D14E
15ED0
0DC04
7F465
7AC8E
7B7BF
15A2E
22117
0B213
7B4BC
2457E
7FA62
20A90
7FF21
24F0B
00C63
12111
137CF
0A1BA
7CA34
19E06
0B7D7
1F052
2AFDF
7FD0C
0C5FD
1733D
0E697
23103
2AFB3
7DA8D
7E428
203DA
7FD24
02AA9
1944C
1A211
7EF31
2C3BD
04B3C
0DA18
7C02B
7AD60
7DE7A
1D02C
7B60B
000B0
03577
7DFEA
25CD3
7D890
25881
76A8C
2113F
29F90
2F04F
209F6
18046
05798
7F364
26468
7EF28
7FF64
1935F
00DD1
1EA4A
7BEED
7D1C9
78FBC
19035
7CD0A
27ADB
17D5D
1D489
140C6
160CE
0AC19
7C890
08B1C
1D577
16F54
7BA14
1BAB3
246E2
7EAB1
7B790
7A910
1B84F
1D4C3
033DA
2ACCF
7EE2D
7DBE7
1D5EB
1E94B
795F9
7E402
7D0D8
17667
0B3D9
0450C
7D652
19380
0CB64
7A8E6
28C1D
128F9
398D6
0FF6E
00602
2D742
1F111
25D0E
2D098
7B737
250F2
792AB
14892
242FA
7FEA5
7B740
209C4
01AD3
037BD
15D2E
77FD5
25C27
71B75
76108
05DC5
15473
091F5
772BE
7D952
26AB3
7BC34
7F168
2AD0D
1B4F9
29EC0
1897E
1955D
18226
26C21
77D04
7C9B7
244EB
152DD
7B49C
0AA3D
7898E
79025
2A29E
1A1B5
25AFD
7A36E
020C7
763BE
13009
0C141
7BBC6
10DB9
04AEE
788A6
7E821
253AA
201D2
7CF89
7A8F4
1C6B9
7BAF9
1BD98
1A0EC
24B06
2A4B7
78DA3
14F9A
7FC97
1BCAA
24010
275F9
1843F
00FDE
00834
1C5C8
7628B
7D9D8
79CAC
7B28A
02B34
7DE12
7C0BC

