3F643
35C98
4F8D5
33D8A
2C4C6
26D4D
5B785
2AB91
48F7E
40105
29DCA
25CD4
1F819
38E90
3DC04
65B87
29244
2BBAA
60003
22B53
59E1A
26C4F
70693
33588
3724A
38BEB
34BF7
3974B
4B454
2C2A4
5ED32
7BDFC
31FD4
2F401
40A5E
29F33
5FDC6
7B6DD
450F7
2C828
5F793
3E858
39E15
42F80
4C0E1
3C76F
80505
2A421
3084B
2DC92
361ED
2DA14
53275
4E9D3
2F935
3A6A6
33E3B
6CAC2
2A4FF
6E0EB
4EA01
596FD
723B6
78EA4
57501
47211
32691
26BA4
6D870
175FE
2C5B9
4F9AC
264BA
603AC
37163
3F392
2DB78
42066
27455
713CE
45AED
54025
3C369
40432
30DBA
317F5
2CC02
5A999
3FC46
3432E
4D82B
63889
34B6B
37EF6
41A80
4B319
5AA8A
3102C
7273B
21FEB
46591
4D5F7
614A9
41F27
2DF52
2EA98
3EED9
2CE2B
2546A
28B48
47E9A
2D255
2F397
7B885
371A3
95959
327FE
33F23
83D84
5AF79
6DDC1
7833B
3F62C
6CD19
3E5EB
3FA82
6241C
1BBE3
3B558
555D6
233B0
2A5F4
3E639
3710D
613E9
41674
3BC64
2DB54
3DACB
4269E
2FE2F
37E93
74C8B
3E22A
2D81D
7EA20
51964
6DF98
44B3C
50082
4724D
72C9A
2E390
2F8A8
6A0CF
3D5DA
3BB05
2DF8E
38DD5
3C3C5
76C54
45E13
72887
288B3
3A448
3DD59
36D53
33860
1ECA7
30559
4DF30
305C4
47002
6E0C1
5D2C2
3565B
42ACE
598CB
2C448
4FA97
4B211
6275A
7B3EC
31B41
3A8B2
2CC7E
4E3F2
6C485
7379E
43CCB
3246C
34A9F
4CAAD
4258E
46340
31B4D
456E8
27345
2F2C4
32C3A

