128AF
17E8E
3171C
106C5
0D7EC
0DB60
35870
11431
2EB72
26623
1A22D
0E8A1
08B37
13D68
277D8
3CFD7
18289
0DF42
3C0D3
0D240
38083
0F1D6
4321D
14C73
1E8E0
229F7
1AFE9
1463A
2DD68
1DB98
388B5
4B1CE
159FD
191CB
283E2
19855
3DB6F
4C49D
19503
100CA
39911
18288
187C0
296F8
2EDB3
16D8B
4B770
137E2
1B09B
10247
11A5D
10748
3253B
1C716
12DC1
17A4D
127D9
42767
0F0DC
42B56
1878B
352CA
46A60
4BE92
37278
2985F
17C3C
0ECCD
41F08
07E53
1101B
2DF27
0FC86
391DC
12BD1
168E5
0CA98
29089
0D55B
44CE6
27834
33A17
22989
23CC6
15892
10EBF
16D99
35DE1
2752C
11760
301FF
3D66B
13DAC
13094
15DFF
2F1BD
35991
16008
47FA9
0CD1C
1A3BD
313BA
39258
15509
10AF5
10894
2820C
181B6
10D24
0EDA1
2D46F
19360
0EBA8
4A1A0
216D0
5E986
1BA14
130DF
507E1
3735B
42EA4
4ABCA
159FE
4259E
13EFB
260AE
3D2CB
0AE4C
14150
360FF
0EE5C
12921
1E609
1052B
3D2D3
1044E
10784
14F7C
23C95
1FC98
0D272
1413F
45DD4
15008
1168B
4D1CE
30343
440AD
2B90B
2EEED
29D89
455AC
0D2BF
10443
3F509
2567F
149F8
18D6D
11C0D
134C6
498DE
2DB27
44DAA
0C719
1807F
1229F
21F9C
1DC8F
0B11A
1EDC2
20D61
0E603
1AFA9
429EE
37FDA
12E70
1665B
34764
0E6CE
30E12
2D00F
3E669
4ACE4
0ED3A
25305
116B8
2FF63
40DC3
45F73
28C6F
14317
14ED7
30152
13D3E
19497
0F8C2
18013
10C95
117EF
11E16

