63083
4EF04
6826D
4FD67
454A8
3B40A
7A635
3FF7E
5E945
54D03
37B45
38C60
3196B
57286
51813
8708B
37EBA
43943
7D60A
33F8C
760EF
39E32
95931
4C3F9
49668
4B175
49BEA
57677
6397E
3C415
7E3E7
A3B3D
4AB22
406CA
550E8
3782A
7DCC9
A30B1
68385
4348D
7E9C6
5D659
55119
5780C
64A3C
5AC1A
A9B78
3CC06
41B2B
464BD
53504
45218
6DD09
779A0
46FB5
55891
4E6DB
8F922
405CA
91C56
79F12
75308
95D06
9D4DA
723E5
5E540
4889B
3A2FA
909D1
23673
42382
6A63B
38BA5
8086A
54372
5FC73
47AF2
56385
3C2D5
9575D
5C426
6EF51
4FFDC
550C6
439EB
4B93C
3E817
78C3D
53DCC
500E0
660DC
829B6
4F53A
55B55
64A9A
62AB7
78DFE
478C9
95BC2
33488
6A199
6502B
82243
65AF3
45732
47175
52647
3D73F
3581A
3E082
5EE7E
3D1DF
4928D
A44B0
4918A
C2E72
43816
4D573
AE62C
7876A
91560
9D370
60D6A
90279
60728
54E40
80D27
29722
5ACA5
6F57A
33C0E
3D859
525D4
56204
7E895
68A4B
5E19E
41547
51912
5EA00
4BD07
54A21
9B3FF
5ED19
445D6
A7E80
6C505
8F7C4
5A6C3
6AF73
5E4AD
983A0
4903E
489F5
8C64D
5127A
5B66B
3F5EE
5882F
5D56E
9C7E7
5B6F3
985FB
3F5B8
55F37
61179
487A1
46F28
300D7
3FD59
72070
4BD8E
6AB29
91E79
7B3D3
512ED
662FD
77A6B
4430C
692CF
634B0
80E07
A31B7
4DB2B
4D0B1
42EFD
67179
8FDFC
98F37
593CA
4A8BA
4E582
64745
67DD4
69F27
4D3D6
6A017
392E1
47723
4DB58

