4A5B9
3D86B
571F0
3C758
33FD1
2D1D6
64FBB
31428
4F9E3
4672C
2E1F0
2BA3A
2511E
42379
43D44
6FF88
2DB06
33114
690A3
28051
628D1
2CA6D
7BD89
3B021
3CC2C
3E63D
3B355
42ABB
52C12
311DB
687E0
88210
39976
3488E
46ED7
2E1F5
6912A
879E3
4FE0F
33847
690DE
48058
423EF
49497
539E9
45C90
8D0DA
2FF2C
35CDF
3553C
3F1A5
34DC7
5B5B6
5B39C
36C70
42C29
3C0E3
77690
3118C
790BD
5BF42
61F9E
7D2E2
841C9
5F996
4E447
39380
2CB70
7852B
1B136
33159
57D8A
2BF79
6A2AB
400CA
493D7
35B4F
483D2
2DB41
7C621
4CA12
5C4D0
424C7
46A87
36A18
3985A
3236B
63E1A
45F34
3CC51
550FF
6D183
3CE6F
4118A
4C6D7
526AC
63F4B
37F21
7D4EE
27508
51594
54A55
6B662
4CF17
352F9
362DC
44EAC
31FBB
2A451
2F446
4EFCD
320F6
37345
88130
3CA39
A3874
37BB7
3BC28
90EF2
640B0
78C68
83973
49ADD
77B0F
48DAF
4630B
6BA96
1FF59
45034
5D5B9
28508
3043B
44891
409F6
6A41E
4D7A2
46562
33BED
43CBA
4B181
387AC
40BFA
809EA
48311
348A4
8B551
59CF8
78491
4B62B
5851B
4E443
7E4EB
36777
37422
749E2
43746
45724
33535
429A2
466BE
8260B
4C830
7E2D2
2F903
42C91
48AED
3C430
39800
241A2
351A8
590CE
38D16
51FBF
79148
666C7
3DF25
4D9A2
62CFC
33A0E
57832
52907
6BD19
8782B
3A513
403C6
33992
55E43
773BD
7F01C
4A655
39BE7
3C90D
53FC8
4DE41
51338
3A2DA
50AF7
2CBC4
36A44
3B0E1

