66FF4
59006
6BB0D
51DA3
4A75F
3D92E
7EA10
456F9
6221B
5735C
3C095
3CE05
335EE
5D15E
58CE7
8C01D
3E79B
466DD
8174F
36D72
7BEA0
3C59D
9B882
5079A
47421
4E735
4DAC9
5CE64
6837F
4916C
83334
A9484
57385
40771
598B3
3A16D
88442
ABD3B
6D0AC
4625C
83739
61B21
5A5D7
59CAE
6AB2D
5ECB7
AAB12
3F854
438C3
4C999
56DFF
48655
71712
80167
4AFED
560F2
4F374
95DB3
43DAB
97BBF
7F754
74268
9AACB
A17FA
7822B
5F53C
40E02
3DE3B
94290
23EA0
43EDB
6C5A1
3C478
86762
579BE
63AD7
48DB1
58585
3F70E
9B0FA
5A10C
7451E
4FE59
51437
434BC
4E744
409EF
7DBE6
5747F
53D0B
6B107
869F6
5392D
59F5D
68A98
678B7
7D44B
512D2
9CAF0
3682D
6FC08
6A6D8
877F8
6A4A6
48BFA
4B62A
57056
3F1B3
36710
430B9
65F60
3E986
4BDA1
AB7E4
4C9D8
CA55B
4267F
4B544
B695E
7D96B
97B75
A1C4E
64F22
97719
64E70
58E77
85F1A
2CA35
5EBE0
744CB
373EF
3FDC7
44A97
5A707
822C3
6D426
61266
481F1
51172
63F34
4FADA
57F8F
A128E
6203B
47F1C
B0A2D
6E8A7
92203
606E9
6E98A
5F9AF
9EA40
4E99D
4BD95
8FC37
54F5E
61009
42880
5D70B
62B0D
A3E17
635C9
9F89F
43A37
5A2B1
66DF5
4C77A
44CD7
3D1F4
44AF0
755FC
50709
70D77
9857D
7EAA5
55592
6AD5E
7BC61
478A7
6E23D
65A25
88024
A9FC0
512F6
523E5
452D5
6B127
957FC
9F785
5AC5E
4C151
5257E
6976F
6E862
6C9C4
51B44
6F24E
3BC12
4C7CA
5399E

