FD912
07BE3
22FA5
002C3
FE5A8
01D2D
235F1
044DC
21F20
1A41C
11B76
0307F
FE1A7
01A55
1B3DF
295D6
0EA45
FFED5
2AD04
02C8B
272C2
03E12
2D2D4
05F39
14720
17BCD
0E684
02615
1F569
12F45
26009
33B96
05552
0F569
1BFF7
116E9
2B32E
348F5
04849
029CF
27375
05E4E
081F3
1D6CE
1FFE6
04FA1
33D05
088EC
10FA0
01207
00743
028FA
22A6C
03B1D
04EAE
08246
03689
2DC02
01F09
2D975
FEE49
25888
31C78
36A75
2703E
1C290
0D8DD
031AD
2D84C
00EFB
045C0
1E72B
04BB4
25E80
01A22
0366C
FDB65
1D486
00E3D
2F622
1AF50
23907
17584
1881A
0A2BA
01A3A
0C79B
24041
1B698
00FB1
217C7
2B372
04076
016BC
01502
21178
23CC2
074E1
32F0F
0276E
04FE7
23071
25AFD
0035B
02C2B
01EB8
1C7B3
0E6BC
077A5
01E39
1F32E
0FED1
FF8C3
31E9B
16B2F
43D61
11FFC
0513E
3722D
25BAE
2DDA7
351F0
01EC7
2D378
FFD3B
19690
2B19E
02833
018A0
269AC
04E05
07526
14DE6
FDEA4
2C0A4
F92C6
FC6E7
08435
1888D
0EDB8
FCA15
03372
2F309
01DFE
03DD4
34651
20B8B
30A62
1E6F6
1F1F0
1C7E8
2F2DD
FCEBD
0177D
2B557
19986
01A73
0E7BF
FEF49
FF948
331EC
205E5
2E54C
FEBC2
079AD
FD200
176C1
14182
FEA33
15774
0BD70
FDF7C
05A74
2D548
26700
02665
016CF
22C02
003D6
21AA1
1EF05
2C1E7
332AA
FE588
19FFB
0490C
2147E
2BD6B
2FBC5
1C5C2
064FF
05AC9
21D4B
FD4D4
0497A
FF1DD
025CC
061D6
02D83
018EC

