5BF51
507E2
6413A
494CB
427DD
37513
7512B
3E9DA
5B692
50D3D
379AE
36D1B
2DCB0
5382C
525C2
81AD9
39777
3F0BE
78625
3163B
730A6
36701
8FF9F
48ABF
41F00
48B8A
470CA
536BC
60965
436BA
79710
9CF8F
4EA54
3B522
53196
35D4F
7E855
9F56A
6218E
3F136
79CB1
58153
51C0D
5378A
62E04
5563C
9E3E7
39C3E
3E409
44B26
4DD35
41155
69310
730FF
43A85
4DE67
47472
8AF48
3CF3C
8C9EA
71FEF
6BEB1
8FB0D
964F8
6FA42
584B4
3B806
37BBE
89699
20406
3D45A
6431C
36767
7C59D
4E9B3
5998A
40FCC
52291
38E42
8FC93
53751
6BDD2
49F9A
4B520
3D507
46692
3B292
74592
51031
4B243
635C1
7D0D1
4B3E8
50B06
5DD72
602AE
73E65
4970F
919C7
310FB
6492B
62F39
7D419
5F2EC
416B8
43B15
50E43
3A022
31862
3C38F
5E8D2
39B56
43DCA
9EC32
46F83
BC404
3D565
43F91
A93D7
74638
8CA19
96647
5A93C
8C521
5A519
52416
7C6E7
283A2
54FB9
6C29F
31F8B
39F0D
3FA85
50C04
79275
611A8
569A8
416F5
4B2B1
5B0A4
46FB7
4F18F
9539C
57F29
40D0C
A3A06
66646
87EB3
59856
66463
5893F
92F82
460C4
440F7
853F5
4EBE9
5704A
3D14D
538BE
58500
9812C
5C58B
93AF4
3C6C6
5185E
5BCCA
46E9A
3FB3C
36944
3FBD4
6A52D
47CDC
659E2
8D233
756D4
4CA99
5FCC4
7273B
40132
6621D
5E3B4
7E630
9D8AF
4882C
4C5AA
3E695
63586
8A6F6
93C52
543CD
44C6C
4A50B
61F6B
62AB1
61B7F
490E6
63C0D
36234
44C69
4B02A

