3B014
32B11
4C864
3066A
2938F
24516
57AA2
281BB
464F0
3D828
28288
23778
1D47D
352FF
3B51E
619EC
2752A
28CB3
5C629
20954
5669D
246A9
6BD64
3047E
34E56
367CA
3229E
35C51
4846E
2A2F5
5AF53
76F8E
2EF2C
2D230
3E22D
2847F
5C2D2
768DA
40BBB
29B4F
5BA42
3AB8B
3688A
40710
49077
38BC8
7B37D
27FB6
2E677
2AC4D
32870
2ABCD
4FDF4
4991C
2CB1E
3713E
309F8
68608
27994
69A97
494B5
56057
6DDA4
746FC
53FF8
44462
2FAFE
24553
69358
15E4E
29AAC
4C4EE
2406E
5C413
33806
3B376
2A855
3F8A1
24B2A
6CC79
42E78
50B14
39C76
3DB43
2E8C7
2E49A
2A90C
56E32
3D4B3
30C53
4A7D6
5FB58
31702
34455
3D591
484DF
56F0A
2E3CA
6E1C0
1FDDF
41F2A
4A76A
5D3F9
3D8C7
2B10F
2BA7D
3C884
2AD8A
23473
26148
45153
2B2E2
2C084
76840
34E34
9001A
30681
30D21
7E9BE
57563
697E5
73A58
3B44C
68783
3A2D0
3D0B2
5E7EB
1A0E7
37766
522AE
21327
2803E
3BEE3
333E3
5DA3A
3C92E
378CB
2B4B0
3B39F
3EF10
2C730
34603
700CB
3A1CD
2AB19
798D9
4E4C2
69D9A
42077
4CB78
444B7
6E2E0
2AECE
2C744
65D2E
3AEE2
37C92
2BD4B
34F83
38294
7220B
433A0
6DE02
25BC6
36DC4
397EB
34A95
31220
1CAA8
2E6D4
49824
2CFA3
429B6
69A24
5978D
31FA3
3E4E0
55D84
2952C
4C859
4827B
5EB74
7656D
2E420
38444
2A0DD
4B305
67E6E
6EDD2
41294
2F4A2
3180D
49BD5
3DBAD
41CDC
2E515
40EE3
24FDF
2C2F7
2F72B

