6294C
55991
68A52
4E6E6
4745E
3B123
7ACE7
42B53
5F717
54A83
3A439
3A741
3123B
59417
563A5
87E02
3C78D
4379D
7DD3E
34A8F
785D6
39FC5
96E8E
4D5A8
45214
4C28A
4B063
591BB
652A8
46D25
7F4BF
A45BC
53CA4
3E685
56F74
3862E
845E3
A6D4E
68AA0
4351A
7F969
5DD9B
56EB9
57439
6791C
5B086
A5B67
3D37F
416DF
49705
53415
45788
6E244
7AE0A
480F7
52CBA
4C0A6
917EF
4117E
9349D
7A12C
70DB9
9647F
9D060
74BCE
5C839
3EB9E
3B6D6
8FDC7
2272F
41441
6916C
39F3E
826AD
54020
5FA52
45B56
55DF0
3CD23
968D1
576C1
70EFF
4D873
4EE2E
40E73
4B3CA
3E6FD
79FC4
54C60
50588
67FB8
82CB4
503DE
56407
64555
64980
79856
4E151
98412
3454C
6B47C
676FF
8366B
65D8F
45D13
484EE
5491B
3D112
34797
4050F
62FF4
3CA40
48A7F
A666A
4A5B6
C4B38
4060F
4862F
B13F5
79E8A
93484
9D37E
60CC6
92FE9
60AB3
563EA
82239
2ADFA
5AD6A
710B9
3522D
3D7E3
42A90
56906
7E90A
6865A
5CEE7
45726
4EB8B
6062E
4C333
546C2
9C62D
5DFCE
4517C
AB6EA
6B480
8E0B0
5DAAE
6B447
5CCB5
99F8D
4B2E0
48BBC
8B8E9
52796
5D023
4059F
597B9
5E8A1
9F286
608E3
9ACC1
40C0A
56B5D
62717
4A3ED
42C32
3A814
42B4B
70F43
4CFC4
6C5A1
93DC6
7AF85
51DFB
666BA
780B8
448DE
6AEFD
62AC5
8428F
A5020
4DB72
4FE34
42788
67FB3
9112D
9ACA4
5828B
4928F
4F21D
6676D
69C82
6840F
4E3EB
6A967
39820
49670
502A3

