70FB9
7E745
196EF
7643B
75508
79E7B
17734
7BFBB
196CA
126A1
0B689
7C106
77B98
765D8
124B1
1C6E3
08A0F
77428
1F5F2
7CBA3
1BE45
7CB5D
1EA6A
7C8F6
0EFA1
10622
068DF
7791C
15C2B
08C46
19B3F
24407
7BA27
0977C
13BFA
0C1DF
1DFF2
2446F
77B59
7A67E
1AF8B
7A98A
7E10B
15CB2
15F80
79D2B
253A1
01929
0AB94
77DCD
75E54
79ED8
187FC
74710
7C150
7EC08
7980E
1FE54
79CDC
1F7CD
6F543
1C61A
23F38
28DC7
1C10A
14175
01BAE
7BEB4
20568
7CE96
7C432
14AD8
7DBE8
192D8
7700E
779A3
7496C
15986
7946F
218C7
1403C
18B92
10B38
12886
0794C
781F3
05B09
183C9
138EA
76EA7
1783E
1F2BF
7A2A1
766F2
74A47
178BF
182F2
7F6D3
24D46
7BF5D
77B19
195EA
19058
73535
7A466
78EB3
141B3
086FD
0191A
79C93
1553E
0A025
762AC
21DBF
0F840
31E20
0D162
7C13F
26412
1A133
1FCFF
26C60
75CA3
1F144
73665
10F14
1F037
7D98B
76213
1C36D
7EE16
003E3
12718
72BBB
20CD6
6B135
70416
028A4
11E97
04592
7271F
78B8D
2028B
763B5
7B384
23D4B
16C9B
24404
14EAE
14C6F
14378
206C1
73478
785CD
1E7ED
11D48
75EBE
07B20
733DD
73682
23C79
16758
1F486
765A8
7D5D2
70446
10043
08CA9
78D09
0E3C1
7E93E
73E39
78779
1F292
1B069
7844D
748CD
17537
77A32
17882
15F7F
1F8AA
238C8
741D6
11D83
7C099
17964
1DFB1
21080
14A33
7CE28
7C2AB
1855F
6FCF6
7790F
7521F
74F82
7FA88
79C58
777C7

