6F567
7D4B3
184C4
74F90
74294
78F66
1605F
7B00B
186D4
1174E
0AC50
7B304
76E3E
74F82
1161B
1AE4A
07F25
7628B
1E041
7BEE4
1A976
7BD3E
1CEF9
7B692
0E226
0F896
0595E
762FF
14A35
08064
1840B
2269E
7A7E8
08ACE
12CE8
0B7DC
1C9D7
2272E
76162
795AC
1988C
792BD
7CCF7
14D88
14D58
786CD
2350E
00B81
09EE4
76BB3
748C6
78D7D
1744B
728CB
7B007
7D801
78475
1E48F
78C93
1DD6E
6D546
1B19B
224F1
272E8
1AD27
13053
00B57
7B056
1EB7F
7C5B4
7B40E
13711
7CE4B
17AFE
75A8C
76198
7363F
14A9C
784FE
1FE07
12F90
177AB
0FC9D
1192C
06B71
76EB0
04DEC
16D83
12A13
75A15
1661E
1DBCD
78EFA
750F5
7306D
16768
16CA2
7E62E
23338
7B299
760B2
18476
17816
71AD1
7930D
77CA8
13353
07AC1
00D1D
78CD3
14443
0945A
74F85
1FFA5
0EAF7
2FCA9
0C4D3
7AE7E
244A8
18B6B
1E2CC
2510B
743EF
1D72C
71D3B
0FF65
1D9A5
7CF6C
74AD9
1B03E
7E1E2
7F5BF
11858
714CB
1F735
6943B
6EABC
01A27
10FE6
030BD
7127F
77657
1E623
74B93
7A2A3
21ED1
158DE
22B45
13EA3
1388B
13260
1EB1B
720AF
77348
1CE91
10EAA
74752
06E47
71C7E
71E10
2209E
1576D
1D895
754CF
7C160
6EA3D
0F33B
07E51
7804A
0D84E
7CE99
729ED
76D1D
1D818
19A35
76FC8
72E93
15EFD
76888
165AB
14DA7
1E234
21B58
72D2A
10FDA
7B03D
1670C
1C569
1F4D4
13A5F
7BC3C
7AFB4
173CF
6E141
75EAA
73DCA
73480
7ED41
78A6B
763E1

