5ACEA
49226
62799
4960D
3F861
368A3
7340C
3B10C
59979
50066
34829
34653
2D6A7
502D7
4CF23
7F58A
34828
3E133
76992
2FFCD
6F8E5
3579B
8CFF9
46807
452FE
46DB7
44E63
507E3
5DFAF
388AC
76FE4
9A82E
44FE9
3C760
5058D
34619
76E3F
99E6D
601B3
3E075
776CE
56459
4ECB6
52C3A
5EF76
53C41
A0299
387BD
3DBBC
40A3D
4C939
3FB52
67A98
6E249
41948
4F46E
484DE
87847
3B460
89878
6FF22
6EC8F
8D9A5
94E7F
6C075
58F98
436E7
35B22
88844
20A09
3D2C9
64355
34796
7912A
4D7E4
5843F
41B11
518F4
375A4
8D19E
570CA
68BD1
4B6D5
50406
3F4A5
458F1
3A688
71CDC
4F39A
49A05
6063D
7B6FA
492F7
4ED67
5C959
5D409
71E6D
42591
8D97B
2F4B3
61D97
5F8E4
7A8F8
5D6FF
40074
41742
4DE69
39A13
31C2C
391C4
59998
396E7
432CA
9AE30
44F1A
B871D
3F94C
477AF
A4919
71A82
89262
94AC6
591E6
88001
58955
4FFD9
79C4C
2648A
5387F
6958F
2FF0C
391A4
4DC13
4EF55
77C6D
5F968
562DF
3CCD3
4CF9F
581D6
455E9
4E014
925F8
5746C
3F170
9E61B
66256
87C08
55690
64C00
58F34
8F963
42D51
42D59
8477E
4C969
54154
3B5B0
51355
55B34
93C9D
5675D
8FA43
3A17C
4F900
58F4A
4467B
42770
2C11A
3C41E
69B3A
45811
6275B
89A13
744CF
4AC55
5DFDF
70B46
3EAB8
6349B
5DB78
79DB8
99E88
473CE
48C62
3DD2F
615BC
87A92
904D9
544A3
44F1E
486B0
5EF70
5F34D
61B2D
46E2D
6190C
35082
41D83
477DB

