3009E
2AF3F
44F49
27C9C
21884
1E08D
4E26C
21923
3FA8B
37201
23E62
1DA12
17B78
2BE16
353DF
575EB
22C68
21749
53589
1B456
4DBE5
1E88B
6066F
289E5
2F474
30D78
2BB3F
2C8E1
40CB0
253BF
514A5
6AB7A
2758A
27DA3
37DB4
241BD
52F6E
6A5D4
35EA3
22B30
520F8
3138B
2E2B0
3A1F9
4176F
2F6A8
6E7A8
224AB
291E3
233A3
298B8
2381A
47AB3
3CF53
257E3
2EBBB
28751
5DA3A
20D07
5EAC5
3BF74
4D7B6
62E77
693D8
4BB63
3D22C
28E0E
1E587
5E69D
12316
22F0C
44110
1E5AF
52513
2A89F
31331
2287F
39534
1E43D
61A26
3BF52
48669
33B18
374EE
28C69
26435
251A3
4D9B1
371C5
28330
42F02
5625E
293FD
2B1C1
3293A
4114C
4DA49
274D5
6340D
1A8C3
36F27
4330B
53240
328D8
23D68
24239
368B1
25BFA
1E48C
1F84A
3E020
26441
240D6
69F95
2F59E
820FF
2B2C8
2901C
7184F
4E42D
5E93E
68420
30F9B
5D98D
2FB0C
36828
55172
15D71
2DC89
4A2CA
1C1CF
221F8
35C8C
29AF9
54A06
30800
2CFCC
25417
351B1
3642C
23DB2
2B89C
6436C
300E6
23A91
6CDA7
4612E
5F8A0
3B588
446DF
3D2C1
62A90
22AE7
24BCA
5B41B
34D76
2E073
267A3
2B3B7
2DF9B
66854
3C983
623B7
1EB76
2E57A
2EA57
2F3B8
2B280
175AD
29A85
3E687
24851
379F9
5E99D
50387
296D9
3360D
4C953
21F66
44ABE
40B85
555B5
6A12F
25A4E
32931
233C9
438B5
5CF36
63554
3A90A
27D27
299A0
426BA
322FA
36CE4
25D88
35AD4
1F761
24B77
27284

