4F4AE
41023
5A870
4055B
3772F
2FF13
69439
3433A
529C3
49524
3009B
2E441
2792E
4667C
46907
74955
2FBC3
365EA
6D1B7
2A690
6673E
2F4C8
80FDE
3E74C
3F49E
40EE1
3E1D9
46D14
561F4
33580
6CD7B
8DA4D
3D032
36E9A
49C0E
30000
6D37D
8D1A6
54BF4
36ABB
6D5D9
4C4BF
4602A
4C215
57060
49FAB
92C93
32825
382EE
38B89
43252
381D7
5F0C7
60E6A
3A04B
4683E
3FBAE
7C3E1
34265
7DFDC
61F38
65D1A
821B6
89266
6353F
517AC
3C485
2F68C
7D2E6
1CBDC
361C8
5B8E0
2E84E
6EA38
44152
4DBF6
394D6
4B08F
30992
81660
4FC16
60084
45098
49893
393A8
3D221
34AC1
680EE
48BB9
40A07
5875E
7165A
40965
4537F
51465
55AAF
6823C
3B10F
82318
29B55
564C8
57EB3
6FF29
51E43
38705
398FA
479CB
3446F
2C846
32385
522BD
34458
3ACBA
8DB7D
3F216
A9CDA
3A163
3F46A
96D31
68208
7DB00
88B72
4E4F9
7C958
4D92E
49216
6FE4C
21DB4
495E4
60F46
2A9A3
32EA7
474D1
44EC6
6E502
52E91
4B16E
36766
468CB
4F001
3C58B
44B9B
85F21
4CB79
37B48
910C1
5D82E
7CECF
4E649
5C0C6
5178B
837DC
3A2D2
3ABB3
795F7
4631E
49D66
35BC0
46FBE
4B014
8799D
4F7F1
836A7
32B8E
469E6
4D909
3EB47
3C308
267E0
373FF
5E0BB
3C9FA
56ED4
7E0B9
6A963
41CB3
5284D
66FAC
36F0E
5B0B8
55E8F
7007C
8D07A
3E318
42CC1
36AA7
5954E
7C297
84322
4D5D3
3D1AB
401F1
5747A
5315E
56268
3DFD9
55BFD
2F397
3A00A
3EC92

