6E2C4
5E884
70A3C
57696
4FA41
41A40
84D71
49DE7
66801
5B5BD
3EEAC
40D03
36FF0
634F3
5CFF2
92B89
41BB2
4B3A4
875A9
3A623
81AE9
4031D
A30B0
558C2
4AB77
522CA
51FAF
630F8
6D2DD
4CC60
898B3
B1489
5CCB2
43CF1
5DBB9
3CDB3
8E99C
B3F1D
74280
4ABE7
89BAB
67F1A
5FF67
5DE6B
6FC87
64E87
B2C87
4342F
46FD6
51BCA
5CC1C
4D262
76CDF
888DE
4FC3E
5B5CC
54602
9CF12
48573
9EF56
88356
79806
A1D06
A8C55
7DA82
63E62
445E6
41E3F
9B257
264B7
48415
71A78
400F6
8D088
5D75F
6A3AF
4DF86
5C5D7
43B2C
A263D
5E5C5
79D0F
53BEF
55206
472F2
53AEB
442B8
83D9D
5B5B2
59740
70127
8CD81
58FCD
5FFC8
6FB24
6C571
835BB
56345
A3E17
3A0DB
7704A
6F49A
8E27C
7182C
4D831
5062B
5B016
426B8
39A35
477AE
6AC70
41C59
510BA
B3C4B
5048F
D37D3
45B36
501C5
BF429
83919
9EEBE
A929F
6BAF8
9EAC8
6BC82
5D39C
8C208
2F815
65160
79967
3AAC9
43B59
47EA3
60BCA
88090
75291
68015
4C77C
54F09
69BDF
5554B
5DBDC
A8EAB
688EE
4C940
B917A
73D66
98C2A
64EC7
74016
642C5
A63A2
54290
50E95
96995
59005
677DF
4612E
63DF0
696FB
AB8E3
67EBD
A73E8
48540
5FC9B
6E11E
5013E
481E2
41600
47E5B
7C8EA
560D9
78231
9FA06
84AB9
5AFE7
72029
81D53
4C64D
73586
6A722
8E435
B2125
56D2D
56125
49931
70183
9CB0C
A7133
5F056
50D4B
578FC
6E571
763AF
73B0B
57534
768C4
3F67C
517FD
592F7

