46FB5
40538
559C4
390C9
33598
2B6E0
62EAC
31A85
4EA3F
44B36
2F2F7
2B4F8
23320
41518
461C8
6E0D8
2FF33
31052
67257
27086
622E5
2B33D
7A055
39D85
37D40
3DD60
3A765
41697
52166
38A67
66E64
85958
3E5A9
318C0
46DAC
2DBE3
6C013
879C2
4D4D4
31A3C
67716
45D19
41640
47760
54036
43853
8697C
2ED49
3430E
35AE6
3CA1C
33308
59841
5A505
35B71
3E660
38322
763E3
2FD6A
77809
586AD
5C46F
7AD25
810DB
5F809
4AEE5
314A8
2C09E
74FDD
194AE
309FF
54B1F
2B695
69241
3D805
46712
32099
4668F
2C724
7A5CF
46E6D
5BCC1
3EB95
40074
31F2F
3720D
30C94
627F2
4519D
3AA94
54B89
6ADD9
3B6B2
3F12F
49475
52269
62196
3ABE8
7C92C
26B4D
4F555
54BF0
69CBD
4A13D
337EE
35139
453EA
30527
282E2
2F427
50791
306C6
34AE5
8692D
3C3E2
A17E0
33B4E
35FF0
8FE23
62E8B
7791C
80C6C
46E05
772FB
46359
459F9
6A5BB
1FD89
42709
5CB4D
27F34
2EB13
36262
3E57D
68047
4A021
4290B
34BAD
3FEA9
4A1C5
3675A
3E3C1
7E8D1
44D1F
33455
8AE88
56E8E
74868
4C641
56766
4B39D
7CCB2
35CC3
35431
71444
42EEF
440C5
32B9F
40BFA
44982
81A3A
4F04A
7D296
2EB70
4118C
46C2B
3C5BF
3602F
2A25D
36586
5553C
37655
504AD
77D8D
63DFA
3C28E
4AD38
60BD9
31E3A
56EAC
502AA
6C1AE
85E75
38079
4129F
318E8
54AA0
7569E
7D8A5
47D20
36E54
3B0FC
53B64
4C247
4D061
38A00
4E1C6
2B774
361FD
3AB00

