566FF
4C3D0
60451
4505F
3E81C
34306
704B9
3B34A
580CD
4DA2E
3563B
33CA6
2B010
4EB93
4F22F
7C837
36F65
3B5AF
73D91
2EAA0
6E9A9
337B2
8A32D
44C51
3F46F
45DB5
43BCA
4EAE8
5CC57
40961
748FD
96D15
4A5BB
38BFB
4FE08
33B40
79A5F
99181
5C9FF
3B8A4
74F6D
5346C
4D728
504F8
5EF6F
50AFF
98051
36E34
3B9AC
40BED
494D1
3D6D5
65110
6C8CA
3FFD0
49D22
434F1
85813
39805
87100
6B43C
67CD6
8A32E
90B77
6B64E
54C70
38D09
34A80
8409D
1E6B9
39F1A
601DA
338DF
774BB
4A1AE
548E4
3D0DA
4F117
359DC
8A25F
50273
67A2C
4703A
48594
3A52C
42639
386E3
6FA68
4DE0A
46CDF
5F81E
7843F
47146
4C0DB
586DE
5C7A9
6F372
4592D
8C132
2E561
5EFBD
5F369
78229
59A0F
3DC17
3FD8A
4DD39
37759
2F10A
38CFB
5AD8B
3743E
3FDDF
9865A
44259
B5359
3ACD9
404B7
A2913
6FC9F
8716A
90B43
55648
86C24
5506D
4EEE6
77ACE
26058
501A6
68189
2F559
36FB1
3D27C
4BE82
74A4E
5B06A
51549
3E176
48350
5695C
42A25
4AA8F
8F423
52EA0
3D405
9D1F2
62516
82D0B
5610D
621CF
55107
8D223
41C58
402A8
7FFD4
4BA2E
5206A
3A5B3
4E998
531FA
922B7
58D6D
8DC1F
38D0E
4D334
56434
4422B
3D26E
334EC
3D446
64CC5
437C6
60017
8788E
70CEB
4851D
5A477
6DCA7
3C577
6220D
5A87B
79936
97527
442C7
4968C
3B075
5F7B5
84E73
8DEB9
50F85
411FA
464D1
5E369
5CBD8
5C45C
44BB7
5E0ED
33545
40EB8
46B70

