4D9B0
456E7
5A2DC
3E2E5
3821A
2F2F0
68A69
35BFE
52AC5
4887B
31D82
2EF1E
268AB
47104
49FAB
74401
32F49
35731
6C970
2A4DA
67815
2EC02
80F44
3E86E
3B054
41460
3E6FE
47195
56AA9
3C0D2
6CC13
8CF84
437FA
34A23
4AB8A
304C2
71DA1
8F1A6
53DE6
35E1F
6D3CE
4B961
468ED
4B40F
58B4E
4929D
8E0FC
32489
375E4
3A6C5
420FC
3793B
5E775
62211
3A1E3
434B3
3CF56
7CC8A
33FAC
7E2BC
607EA
61377
81696
87C43
64994
4F26A
3483F
2FBB5
7B70B
1B7D7
349E6
5996F
2EE6B
6F351
42E72
4C7DA
36C22
4A1EE
30605
8120D
4ADDD
60DEF
4246E
43982
3589B
3BF44
340FF
68224
48DCC
3FDD9
59580
709BB
406A8
44A2F
4FC59
5693B
67B87
3F62A
83378
29F9F
560A6
593B6
6FF10
50BE0
37E49
39B12
48EC2
33618
2B218
335A6
54EB3
335B0
39799
8E365
3FA15
A9F14
36BF7
3A68F
97E41
686DD
7E387
879A4
4D190
7DDC4
4C8F4
499CC
7010C
227E2
484BA
61967
2B1D7
323E9
3926D
4427F
6D6DC
514D2
48E4A
38BDF
43783
4F74F
3BAD6
438F5
85B62
4ADC4
378C5
92B6D
5BCC8
7AA65
50899
5B74A
4F714
83CBE
3AEDE
39EF6
77938
46A9C
4A09E
35FF1
46AF4
4AD23
88B94
533A2
84463
330B4
4648B
4D678
3FB12
39126
2E12D
394FD
5BF52
3C93D
5706D
7E920
696AB
415F0
5172E
66556
365E6
5BB8C
549BA
71E0D
8D5E6
3D3BF
44B29
359DB
594CE
7C0D5
848F6
4BBDD
3B476
3FE0E
58366
53418
538F1
3DD05
54F20
2ED60
3AC04
3FD79

