6C846
5D418
6F7F6
56210
4E721
40B3C
83682
48D88
657E0
5A66C
3E409
3FE7A
3628D
61DF8
5C079
912BF
40FAD
4A1EC
85FE3
3990E
8059D
3F4EB
A14F4
54607
49EB2
5150A
50FC9
61A38
6C08C
4BEC6
88147
AF6FE
5B81E
43098
5CC42
3C37C
8D238
B2124
7283B
49AEF
8847D
66808
5EABC
5CF3F
6E9C1
637F5
B0EA7
4265F
46320
508D2
5B664
4C0D5
75912
8699B
4EAA1
5A237
532F4
9B4E9
474E2
9D4A9
86307
78444
A02A9
A717B
7C61F
62D80
43900
40F79
9988B
25BED
4741C
706E4
3F300
8B844
5C1C3
68B7E
4CCA4
5B6FF
42B74
A0B2D
5D5E9
788C4
52DB9
543C3
46496
5279D
4359E
82710
5A6A6
5826F
6EEAA
8B688
57BCF
5E988
6E12B
6B3BC
81F3F
550B4
A2384
393C7
75576
6E2A8
8C9E8
6FD83
4C69B
4F3B5
5A160
41A7B
38E68
4674E
69AA7
4109E
4FD8D
B1DBD
4F703
D1606
44F0C
4F01D
BD422
82304
9D424
A7751
6A215
9D016
6A31B
5C3A7
8AB33
2ED7F
639F4
785E0
39E21
42D24
472A1
5F489
86AEA
73564
666C5
4B770
540D2
6867D
5406C
5C68F
A7207
670C5
4B824
B7241
729D7
973AB
63E31
72C1D
631E7
A479F
52E09
4FBE4
95058
58119
65FE9
45419
62631
67E13
A9C8D
66DE7
A5774
473EF
5E7DB
6C68A
4F3E9
475A4
4064C
4727E
7AE64
54C1F
76741
9DF22
8348D
59B0E
705AB
806F4
4B461
7224D
6955E
8CD1D
B0349
5585B
55303
488F5
6EEF7
9B07E
A551E
5E0A7
4FBC3
565B8
6D371
7473A
720E7
56073
74D6E
3E901
5057B
57E59

