76642
02365
1E076
7A9D0
792C6
7DC1B
1D290
7FDEF
1D93A
161BB
0ED5F
7F180
7A7A5
7B6C0
170D3
22A6A
0B62E
7B20E
24EA9
7F3DA
21679
00093
25AA6
00E11
10FCA
14038
0A19E
7C381
1A60B
0F451
1FA8B
2BB91
7FC25
0BFEA
17CF1
0EAA2
24DD4
2C713
7D676
7E044
20F03
7FA55
02863
19511
1AE8B
7EDD1
2BB90
04D12
0D88D
7BFD6
7A927
7DCEE
1D49F
7B3A6
0025D
02D6C
7E3FB
26AA3
7D741
265DD
76247
202EB
2AA3C
2F61A
217E7
1796B
0A0FA
7F1A9
26885
7E8E4
00085
19254
00F36
1F55A
7BC81
7CD94
78990
19434
7CA1F
280DF
16A96
1E115
137EE
14A4B
06484
7C693
08ED2
1DE8A
17565
7B57C
1C7A7
24FE7
7E9D6
7B651
7A476
1C4BE
1DB53
0246F
2BBE7
7EEC0
7DBA4
1E2B0
1F079
78FD5
7DFF3
7CEB7
187F3
0B1B7
04481
7D744
1A61E
0CBFF
7A5AB
29A34
13078
3AAE9
0EB45
004BD
2E762
1FC00
26A5E
2DB9F
7B2F2
25FCA
78F29
1516B
24EB0
7FA53
7B320
21510
0172B
03794
119DA
779E1
262D8
7145B
75938
03EAA
14AF6
0910E
76FA4
7D725
276EC
7B54C
7F3B1
2BF04
1B6CC
2A03B
19F17
19B63
17ED2
2797B
775CA
7C67D
247F9
158E0
7B29D
0AF11
78864
78D59
2B720
1BCF1
26A03
7A0B9
01FC4
75ED7
13CFC
10C77
7A627
12408
04A83
785AC
7E5BA
260BE
206EC
7CC10
7A404
1CB10
7B630
1C759
1A208
25DD6
2B145
78B51
162BB
002AF
1C422
24A5B
28218
181CA
01904
0074B
1CF48
75987
7D833
797ED
7AF55
0276C
7DD51
7BF93

