7A4DD
05085
1FDDF
7D95E
7BD9E
7F3EF
1F896
018A2
1F139
17D75
0F076
0106A
7C743
7E46B
1775B
2524B
0C7E7
7D7F5
270E1
013E1
2342E
01B5D
285EE
0312B
13C08
152E8
0C0BD
7F66F
1C1F3
0CF9B
21EB9
2EAB2
0218A
0DF5A
19161
0FA9E
25D3A
2EA34
00E7A
005CB
231D7
02ABE
052D1
1B2A0
1C660
01BEE
300E3
0668D
0F377
7E45E
7D87E
0012F
1F78D
7F294
02342
05D84
0071C
2905E
7F920
28D40
7AA86
23A3C
2D41D
3260D
231BC
1A289
07846
01021
2983A
000EC
01FAE
1BAEE
0290A
219FD
7E9F3
001DD
7B616
1AE08
7EBEB
2B05A
19EB5
1FC56
15DFC
17F81
0C7CF
7EF15
0A555
20204
18D02
7E338
1DEF2
274C7
011FF
7E389
7DCC4
1DAFB
20163
05523
2E0EB
007B6
010B4
1F8D5
219CF
7CAC1
006B4
7F4EC
19326
0CC51
05D05
7F5D2
1B576
0E2FB
7CF34
2C850
1438D
3DBC5
1188C
02B83
31617
21CA2
29173
30743
7E8A0
28523
7C4FF
167EF
2701E
012E2
7E5B6
23022
0333A
05405
17AAF
7ADB5
2876A
75569
793BB
07AC0
171D4
0BBA0
79BFD
003BE
2A382
7EC7A
0132B
2EA02
1DC73
2D03F
1A992
1BD24
1A457
2A36C
7A496
7EEC2
277A4
17017
7E372
0C3EF
7B84B
7C109
2DA55
1C18B
292E0
7C520
049AA
797D0
14A18
0DDF1
7D545
1249D
08037
7B13F
01CDA
2889F
22E3A
7F893
7DD67
1F32E
7DE4E
1E346
1C49D
277F3
2DF96
7B6FC
16AED
01D50
1E15C
274A1
2AD52
1A3E8
033B6
02E22
1E8EA
799F4
00EA2
7C557
7E88E
045C0
001EB
7E887

