FFC98
08E6E
23A6D
01E45
FFB23
02633
244B1
04CEE
2266B
1B089
11288
03F1D
FF3C6
02EE0
1A7FA
2A44C
0EC47
012AA
2B931
03E60
27989
04A6C
2E169
06E77
168F9
18011
0F46C
04027
1FDD2
0F736
26C10
34CBC
05E5B
109A0
1C39E
11BFF
2A6EC
34BB8
06506
03DDB
27E7C
076BE
095BE
1E52B
202E4
0667E
366CD
09412
11DC1
020B3
0205A
03B09
2392D
05779
05CE0
0A046
04870
2E645
02F67
2E529
01526
27E8C
32BB4
37F9F
27406
1DBA4
0AEBE
04007
2EE98
01E87
0557E
1FCDD
05669
2697D
031A6
05200
FF601
1DFBF
01F61
30984
1D648
23EAC
18EAB
1B2AB
0F5FE
02F47
0D109
24C45
1BE79
027CA
21B5C
2C144
05381
02CD3
032EF
214C5
24BC4
08C9E
337C5
03244
068B6
23304
26AAC
022B9
04088
0310E
1C310
0F51A
084F8
02A51
1EE0F
10A4B
00F0B
32CA6
16FD8
44B52
14268
06A06
37ECE
2653D
2E8C6
3625E
03AF8
2DC1E
018E1
19C33
2BB5B
0349D
03324
27013
05BE6
08328
1ABDA
FFA29
2CF84
FB600
FE83A
0AB0D
1A2CC
10111
FE0BC
04A71
30232
03CED
04B6F
34F9B
21E3D
322BC
1DF09
1FF71
1DD52
2FF94
FE689
02C7F
2CC2D
1A0CD
03182
0EEC2
00632
01286
33730
1F69A
2F006
FFD48
08DCF
FEE9A
17587
10DC1
FFFC2
14AC4
0D906
FF4E8
074B9
2E0E3
2783D
03CF8
034D1
23D47
01931
22214
20018
2C2D2
341B6
FFBE5
19876
053DA
21E85
2CC3E
30991
1D8AD
06F73
06D58
22377
FF64E
0669F
0091D
04295
071FF
03DAB
02ADB

