5A4D2
4F377
62EF4
48044
414BD
3660F
73A3C
3D97B
5A670
4FDEC
36F0C
35E91
2CF4D
52131
51649
8020F
38B72
3DF07
7705F
30926
71B5A
358D0
8E3E3
47804
4123B
47DCA
460E4
51FFD
5F714
4291F
77FA4
9B204
4D5BF
3A8CA
5221F
35317
7D0F2
9D771
60749
3E03D
78583
56A41
50762
5285E
61B3E
53FAA
9C607
38E6E
3D754
4382F
4C77E
3FFC8
67F43
711BC
428E8
4CAD2
46165
8951F
3BEAB
8AF3D
6FF9F
6AAEF
8E0B1
94A1E
6E5E0
573D3
3AB21
36CF8
87CCD
1FB3B
3C461
62F88
35972
7AD59
4D418
58158
3FCEA
513B9
37E8A
8E183
52775
6A986
49164
4A6DC
3C6AB
45344
3A577
72F05
50125
49D72
62343
7B9D9
49FEB
4F4C6
5C379
5F0F9
727E9
4847E
8FF34
303E6
62E57
61D47
7BB84
5D843
40521
4289E
4FF8C
393E6
30C94
3B330
5D70A
38F9B
42A9D
9CDA5
461F7
BA237
3C93B
42DE9
A73CF
73024
8AF7E
94AF9
59059
8AA6F
58BB2
51421
7B013
2790B
5384D
6AF19
312E3
390D8
3EE82
4F4C3
77CD0
5F47C
55058
406E8
4A47A
59B42
45AD8
4DC42
936F8
56700
3FBF1
A1ACD
652B8
86634
587C1
6506A
57861
9137F
44C3E
42E45
83AB8
4DCFD
55854
3C438
52100
56C18
964D6
5B4B5
91E81
3B575
5039E
5A237
46146
3EEFE
35990
3EFF6
68AA7
46823
63EF2
8B74E
740A8
4B5C1
5E246
710DB
3EF47
64EE5
5D1F0
7CF18
9BAD3
4735B
4B787
3D658
622FA
88C68
9203E
5341E
43AE3
491C6
60D6B
60E3D
6015B
47C25
620B7
354B9
439E7
49B8C

