0FC86
15C85
2F8A7
0E48F
0B80C
0C259
33237
0F8E9
2D090
24C9B
19073
0D067
074E8
1171B
25E0F
3A686
16E80
0C1BA
39C88
0BC72
35D05
0DA2E
403E4
12D3D
1D398
2130C
19569
12050
2BEE1
1C4EC
361AC
48091
137B1
17D38
26A1B
1874D
3B474
492A9
1693C
0E480
3726F
15C15
1654E
27DAF
2CE69
147EC
485A6
120DD
19B6C
0E2AA
0F62A
0EA07
3043B
192FC
11067
159AB
10819
3FBCD
0D540
3FEE1
151B1
331DC
43E71
491D1
3507E
27C3D
166BD
0D42E
3F40A
06FAC
0F57B
2BE86
0E542
3696B
107CE
14092
0AB1F
277CC
0BB28
41FCC
25DC5
31844
211D9
22500
140A5
0EE93
157C2
3384C
25C18
0F4AE
2E32D
3B022
11C5A
10B7E
132B5
2D43A
33417
14117
4535F
0B74F
17706
2F5D2
36961
1289B
0EDA4
0E9CE
26987
16D51
0F979
0D257
2B6CB
17FD4
0CBB3
46EB4
2003B
5B130
1A5CD
11372
4D27F
34E8E
4024C
47E49
13084
3F920
114A5
24616
3ACBE
09CA7
11A46
34074
0D943
11172
1D205
0DE6A
3AEBF
0D3AE
0DD54
134BD
224E5
1D8F3
0AFA9
11DBF
42E18
127C3
0FA08
49DC5
2E2AB
417D9
29D67
2CDA3
2816D
426FD
0B089
0E51B
3CAF8
23DA2
12208
177A0
0F47A
10B43
469A3
2BF17
41E3F
0AA3C
15DEA
0F654
20964
1C828
096EF
1D9FB
1E12D
0C378
182C4
3FD1B
35AE6
10BB2
13A34
3221B
0C8F0
2EE0A
2B273
3BFEC
47B20
0CA88
23B76
0FBA8
2E07B
3E182
430A6
2724B
125DE
12EBB
2E351
10DD2
16906
0D62B
15283
0F61E
0F917
0FBB9

