3D991
39180
4F237
31C77
2C936
261C9
5ACB7
2BDC4
48ED7
3F468
2B6B2
26298
1E744
392E1
40A1C
6545F
2BB15
2ABEB
5F6F4
22664
5AA37
262D2
7032E
33364
334E3
38F76
34D4C
395AF
4B99C
33D50
5E9AB
7B1EE
3710B
2D2CA
41606
2A1FD
63B8A
7CFE9
43FFA
2BA0F
5F3BC
3DA5D
3A121
42169
4D5D3
3B86A
7C031
29F03
2FB0A
2EF6B
34F0A
2CF95
5280D
4F3E0
2F7A5
3776A
3172D
6CFA2
29F8B
6E0E1
4CF97
5547A
717C4
778B3
58483
44F3E
2CB92
26CE7
6BDB1
162DE
2AF78
4DC2E
2677A
608C1
35D95
3DDF7
2B596
41273
26E10
70C77
4148E
549C0
39B0C
3AFA0
2CDD5
304A9
2C251
5A82A
3FC5B
3349E
4E2C1
62BAD
3456B
37318
40148
4BE14
5A22C
342B5
73296
2212F
45D4C
4E642
61173
40A2C
2D443
2E89A
4008C
2BFD2
24001
2975D
4A2CC
2C451
2DE3B
7BC09
3771A
95857
2F65F
2FBE5
848A3
5B16D
6E25A
771B3
3E101
6DBB5
3D369
3FF8D
6245C
1C18C
3A24E
55CA8
23779
29A8F
31E52
361B9
6059E
3FAD0
3999D
2F0BD
3AE1F
42897
2F116
36B0E
74683
3C436
2D362
7FD9A
4FFBC
6BD98
46845
4F638
4540B
72DF7
2E871
2EA44
6853E
3DA65
3B8FC
2E180
3856C
3BC5D
779A6
490E3
7315E
28950
39BF8
3D593
37A35
31AD2
24961
32248
4BEF1
300E3
46C08
6E528
5C055
34C6D
4171B
58D12
2B8B0
501C4
49DFC
63ED2
7B540
30A81
3C286
2BCE5
4E18B
6C026
73986
4243E
30AF8
343CD
4D561
4210A
43C40
31464
446DC
26B11
2F91E
33629

