54C69
44E0C
5E4FD
44A42
3B4B4
33158
6E055
37785
55EF5
4C837
322AE
312F4
2A5B0
4B0F1
499A7
79B56
32024
3A09F
71A07
2D10F
6AC9A
323D7
86B58
42499
4218F
43C0A
41589
4B6CC
59DD3
35D1B
71AD2
93C56
40D03
398E0
4CE4A
32161
71D2E
93329
5A280
3A2CB
7227F
510BF
4A317
4F4A1
5ACE4
4EA3C
9927E
355AA
3AD38
3C7DF
47A2E
3BBB0
63267
6734E
3D9E8
4AB00
43D02
819C8
378AC
837C5
689D8
6A16A
8794C
8EBF8
6778A
550C7
3FAFD
32672
82944
1E978
39798
5FACF
315AE
739B8
48905
52C19
3D4C1
4E245
33D08
86F8A
533A9
642D9
48147
4CBBE
3C1D7
41253
37675
6CB2E
4BD30
44E99
5C3C8
762D7
44AE7
49CC9
56A90
59478
6CC9C
3E88A
879F2
2C5E3
5BCC9
5B8E3
75005
5763B
3C0D8
3D51C
4A9B4
36D37
2F039
35805
55B56
36BA8
3EC91
93FD2
41E61
B0C68
3CB40
432EC
9D5E8
6CAA4
83254
8E68E
53751
82053
52D10
4C65A
74989
23F6F
4E353
64F38
2D24F
35DCA
4A5FD
49B3B
72D1D
58F28
505ED
397B2
499C2
53572
40A4A
4924F
8BDD0
51BED
3B38C
97659
619F8
8214C
51BC0
60312
55086
89404
3E4C5
3E970
7EA81
493D4
4EB76
38694
4BDA4
50191
8D679
52D00
893CD
363B6
4AE0B
52FD3
416B5
3F2D8
2925D
39A26
6398A
40DA3
5C6B3
838FC
6F366
46119
57FB7
6B9C5
3A9F1
5EF85
59A0A
74B5C
93299
42801
45A4B
3A131
5D276
81A33
89F60
50A97
40D68
44128
5AF08
58DB8
5BA64
4239F
5B604
31FD6
3DBCA
42EE5

