57847
46D01
60344
46CB5
3D377
34A7A
70662
391AB
5798F
4E1C1
333B7
32A4E
2BBF2
4D62B
4B1F6
7C456
33255
3BDFA
73E2F
2E64E
6CF48
33B5F
89916
4433F
43807
4529F
42F60
4DBA8
5BBC3
370E8
7417D
96D5C
42B6B
3AE03
4E769
33211
74207
963EB
5CDC6
3BED3
748D1
536BF
4C48E
50DE6
5CB26
50F84
9C573
36C6D
3C25D
3E609
49E1C
3D89D
65338
6A5C0
3F6B7
4CC60
45DAB
844BC
393CF
863B9
6BF28
6C392
8A517
918C1
698AF
56D55
41639
33E64
85472
1F846
3B280
61BC6
32C5D
76177
4ACDF
5542A
3F4B7
4FB21
356C3
89C1F
54F72
66404
4999F
4E553
3D8EF
4326C
38C4F
6F04F
4D5EC
470E1
5E1FD
78916
46BA9
4C16E
595A6
5B15D
6F1CD
40447
8A55F
2DB2A
5E8CA
5D5FA
77874
5A237
3DDC2
3F32D
4C1A9
3819B
30433
37244
577A3
37F50
40C7D
971FD
43486
B442F
3E02E
4522E
A0A44
6EEF1
85DFD
9141C
5607D
84BD0
55701
4E07D
76F27
2504D
50A0A
66F31
2E6A5
3755C
4BE93
4C175
7512A
5BF74
5302D
3AFD9
4B23E
5582B
42CAA
4B5A8
8ED28
54426
3CFAE
9A926
63ADD
84A8A
5367C
62439
56D04
8C218
405BF
4084E
814C6
4AC2F
5127D
39BFE
4E498
52A4F
904E7
54787
8C25F
37FCA
4D01D
55B38
42C6C
40AC0
2A79C
3AD3A
665F1
42F78
5F2A2
8651E
71867
4834B
5AB6C
6DED1
3C762
60EEC
5B7C7
770CB
963A9
44A75
47110
3BC76
5F10A
84601
8CD80
524FA
42B46
460C3
5CC4F
5BBE5
5E662
44583
5E308
335F6
3F9AA
4500F

