266A1
2739B
3F264
1FD17
1BD71
18F90
46BA4
1D89C
3AD03
31DF4
221CD
19713
12BDB
2512A
33181
4F951
212CA
1B3DF
4C61D
16F3D
48011
19C23
57EEA
22D31
2821D
2CEF6
26EB4
25735
3B931
27ED9
4A1C4
61453
250F0
225F2
33D7D
212F1
4F419
62C4A
2D03A
1CC74
4AF38
29761
27FC6
34D05
3CEFD
27C68
61DF1
1DDA3
2491D
1E5E1
21EFC
1D9E1
412D7
33E38
20117
26547
20C76
5615B
1B7A3
56B6F
30B42
43FE0
5A6B5
600C9
4671B
362ED
21701
19E14
55491
0E7CE
1CFD0
3CA17
1A40A
4B50A
22F17
28B3C
1AD35
342A6
191FD
5919F
33685
42DA0
2D414
2E7F0
204D8
1F666
20ADA
46C79
329B8
2112E
3DFE2
4EA13
22D8E
23B96
295AA
3C634
46762
23ECE
5BE8D
16A11
2E5B0
3EB0D
4B951
294F2
1DE05
1E620
33296
21488
19AC5
1B21F
3A9D5
2201E
1D1C5
61047
2B968
77F21
24C0F
204BA
6883B
47C4F
56DE4
5F371
2849D
565F7
26FCB
32029
4E4BF
12D56
25A63
44B4D
18642
1D3A2
2762B
21C32
4D693
26262
23741
21010
2E723
2FD35
1CCE5
240DA
5B588
271F6
1E3DB
6487B
3EDF1
566A3
38012
3DE99
367ED
5A5CF
1C911
1E492
523E6
30987
26984
22A62
238FE
25FA9
5ECEB
3A52F
5A311
196E4
2797C
26186
2BF94
26F73
16D8A
27C27
34BA4
1DEB9
2F2E9
56CA6
489EC
22896
2A43D
453DC
1BDD4
3F4B3
3A542
4FB86
61336
1E70C
2FCA3
1D992
3DDEC
54C67
5B068
348A8
2157F
2360E
3D959
292B0
2CE48
1F1D2
2C821
1AE58
1F605
21581

