4DA5D
3FD90
59645
3F0AF
364BA
2EFFF
67D65
33389
519CE
485D1
2F662
2D63F
26BD3
45026
45A70
730BC
2F0DA
3544E
6BC06
299D0
6526F
2E6AA
7F46C
3D4E9
3E723
40155
3D258
456F6
54FFE
3299E
6B647
8BCE3
3BDF3
361EB
48CFC
2F5FC
6BD61
8B465
531FD
359EA
6BEDB
4ADF2
44C16
4B2EB
55E38
4894D
90E00
31A7D
3763E
37970
41CC3
3707C
5DD16
5F025
38F02
45437
3E815
7AA1B
3321D
7C57C
5FF3B
6489B
8076F
87787
6215C
5068A
3B42E
2E82D
7B8FD
1C2FA
351A3
5A519
2DAB2
6D25E
42BCF
4C3EC
381A9
4A1A5
2FA22
7FBA1
4EB6A
5EC9D
441FD
4893A
385CD
3BEDE
33DA4
66AA7
47CE2
3F575
5753F
6FF68
3F5BE
43D83
4FA8B
54959
66BEC
3A06B
8090A
28E90
54A61
56D3F
6E6E7
503DF
375AC
386F0
46B6B
33833
2BC49
313C6
511C2
3388C
39993
8BD63
3E4CC
A7B63
394D4
3E1A9
94DC7
66C40
7C0CD
8701D
4CC45
7AF3F
4C004
48268
6E7BA
21396
47EAA
5FC17
29D6F
32083
46611
437D6
6CF61
51197
49815
358E8
45A1B
4DB2C
3B0EC
43665
842B9
4B356
36A67
8F246
5C471
7B610
4D63F
5ACE2
50673
81C36
38F09
3992D
77C9B
45481
485FB
34EE7
4585F
497A2
85DC2
4E806
81AB5
31AB5
45574
4BEFF
3DE3F
3B4B0
25B20
3688D
5C617
3B5AE
55478
7C63E
6932F
4082F
50E14
65971
35D63
59DE1
54CB7
6EA06
8B30A
3CE6B
41F18
35A4B
582F5
7A84E
82775
4C5FE
3BFBF
3EEFA
562EA
515AA
54803
3CB84
540FB
2E651
38E1D
3D8AC

