7926B
0456E
1FEEB
7CC06
7B2A7
7F522
1F8C9
01936
1F41C
17B42
0FF19
009BB
7BDF5
7DD0D
18A9D
253BB
0CA37
7CF96
272F4
009A8
239F8
0183A
288DF
02D48
12513
15722
0BC1E
7E96B
1C492
10AFE
22194
2ECCE
01E72
0D47D
196B9
0FBAA
274CF
2F908
0023D
7FC8D
235A5
020C9
04AD6
1AE5A
1CDD5
01370
2ED5B
06417
0EDBC
7DF72
7CD59
7FA2E
1F59F
7E7C0
01FB8
04E0F
003BB
2963E
7F2DD
29253
79821
223D8
2D62C
322DA
239E1
1958D
0B679
00A48
29383
7F78A
01B26
1B2F5
0267A
21DCB
7E084
7F5E7
7A909
1ACF1
7E452
2ADF9
18505
202E8
14F9E
16211
07C72
7E6C0
0A4A9
2041F
18E79
7D82E
1E678
27631
00B27
7DB67
7CFC0
1E241
200CC
04360
2E831
0048D
0085B
20098
21970
7BC44
7FD44
7ED7C
1A078
0C61B
0582C
7F28F
1C3C2
0DF8B
7C5A0
2CD21
1470D
3E33F
0FF8B
0222A
31CC4
220CD
296B5
30920
7DC6B
28C48
7B97F
16C03
274BD
00BF8
7DA2A
2359B
02C43
04F42
12DDF
7A0A2
286EB
744FA
78368
05969
162A7
0B4B2
7926D
7FAA5
2A6A8
7DD91
01035
2F30E
1D764
2C90F
1BABB
1BCAD
19AEE
2A82B
79800
7E5A4
2720A
171BD
7DA8D
0C4DE
7AFF7
7B6DC
2E65B
1D900
2996E
7BD95
04258
78B22
15334
120DD
7C053
137CF
076B7
7A837
0129F
28D91
22BE0
7EECE
7D02B
1F059
7D40D
1E761
1BFA4
28453
2E30A
7AE04
17A49
01DBF
1E30A
2769C
2B0E4
19BEF
0363D
02767
1ED49
788F4
003C5
7BA84
7DCE6
03DE3
7FC29
7E1F0

