35DEB
33233
49CF1
2BCAD
26FF4
21BB6
541B1
27162
44391
3ACEC
28511
21EC1
1A8CC
327A4
3C1E8
5E0AF
282FC
2593C
59157
1E957
546D5
22097
681C2
2DBFE
2F94C
34F4B
3031A
32B86
46423
2FDD3
57C5E
72810
31102
2992D
3CDD8
2724E
5CE65
74409
3C565
26ADB
58790
36EB4
340AD
3DA9D
47E36
34F14
734C6
25E8E
2BFBB
296E8
2E9B0
27DAE
4CBA6
461FD
2A576
31C09
2BE45
6558A
2523E
66465
438D0
4F847
69CBF
6FB65
52560
40079
28F62
227F6
64551
139D9
264EA
480D1
22655
59784
2F8C0
36D0E
25D76
3CD2E
224B5
68E2F
3CA8B
4EB0B
358BA
36D10
28AD6
2AA92
2852A
53EEF
3B625
2D379
48C77
5C07A
2E821
30B42
38813
46B74
5393E
2EC13
6B693
1E425
3E018
49285
59EBD
38DC3
2822E
29271
3BBE5
286BA
208ED
24AF3
44FCF
28D95
284BF
72D73
337DF
8BA9A
2BD99
2A982
7B32B
54A63
66633
6F248
36CE0
65F20
35CDF
3B516
5B9D3
19024
33500
50189
1FC67
25840
2E645
2F537
5A09A
372AB
3237E
2A5D9
36BCB
3C4CC
28FB0
307A7
6C0DA
35376
2838A
76BE5
4A478
64B46
41ADF
49903
40556
6AB3F
288A7
29309
60F76
394C5
34929
2A476
3169C
34821
6F568
44251
6AC9A
23881
33B24
3598F
33BFF
2E1B2
20019
2EAE7
4432D
2A02A
3EE53
667A7
558DD
2EB26
39B7C
524AB
26511
4A813
44B14
5D30E
729E7
2A95A
38090
2711F
48B00
6443C
6B67C
3DB0C
2B925
2E9E3
4815E
39C41
3C243
2B388
3C748
22C29
2A2C0
2D5F1

