59BFD
4ECA8
628DD
4796C
40E5C
3610E
73297
3D407
5A110
4F8D1
36B80
359B9
2CAD6
51988
51121
7F9CB
38770
3D91F
7691D
304CA
71441
35414
8DAA5
471C6
40DF9
47935
45B97
51868
5F0F9
42496
777D5
9A82B
4CEE3
3A4AC
51CF7
34FAF
7C926
9CD73
5FE88
3DA95
77DC9
56290
5007E
52350
614FC
53824
9BC11
389D4
3D317
431DC
4C040
3F9EF
678AA
70750
42309
4C44C
45B0B
88C66
3B926
8A659
6F4DA
6A459
8D7E7
9412B
6DF14
56E33
3A6D4
3680B
87434
1F84D
3BF0D
62902
354CA
7A543
4CCE4
57948
3F69E
50EC7
3794C
8D87E
5222B
6A2C2
48CA7
4A21B
3C1E2
44CD5
3A119
72781
4FC22
49682
61D19
7B230
49941
4ED5B
5BAD0
5EB12
7206A
47E4E
8F658
2FF8A
62565
6174C
7B352
5CF60
3FF44
42277
4FAA5
38FD1
308A5
3ADBA
5D11C
38BB2
42439
9C375
45D73
B96F3
3C52D
42807
A6922
728C8
8A6A0
941DF
5880D
8A188
5833A
50ED0
7A877
27584
5307E
6A896
30EAB
38C1C
3EA81
4ED03
77598
5EAC3
547E9
4018F
49FBD
59421
453E3
4D528
92D6C
55EF2
3F63D
A1065
64C33
85E0A
58239
649C1
572C2
90A29
44566
4280A
8324E
4D804
55057
3BFDC
51916
563CA
95B64
5AF19
91505
3AFB0
4FCB4
5995B
45CD4
3EAEA
35454
3EC02
681D0
4613A
635F7
8AE57
73944
4AECE
5D972
70966
3E94E
6487D
5CC04
7C766
9B0DF
46C6A
4B2D1
3D0EE
61CCC
8838E
916E2
52EE3
4350B
48B5A
6076A
604C1
5F8A4
4753A
6179A
3503B
433BC
494AC

