2D4C1
2904A
43103
25A29
1F9C2
1C76B
4BC5E
1FEFD
3DFF2
35877
22D59
1C2B8
16536
298DC
33B8F
54CEB
21A38
1F9EF
51162
19F17
4B937
1D103
5D8B1
26B3F
2DDFC
2F6E4
2A168
2A405
3EEC0
23FF1
4EDFA
67A75
25722
26880
36496
2310C
50A95
67512
3335D
20F28
4FAA5
2ED8B
2C13A
388B3
3F92D
2D160
6B4B3
20DE8
27CBF
21578
274CA
21B2D
459E3
39CE1
23B14
2CA5A
266A7
5AF46
1F1E3
5BED1
38A24
4B58E
602AC
6670F
49A3E
3B59E
272D2
1CD94
5BB6E
11448
21424
42019
1CF00
4FD54
284C5
2EB20
20889
37C59
1CA82
5ED91
3A389
4653E
322C0
35B59
27551
2441C
23BC9
4B490
35909
260E8
410CD
53C1F
2733C
28D1D
2FE24
3F467
4B518
25917
608A0
1937B
34327
415F4
509D2
2FCDC
2207E
22428
350BC
24796
1D092
1DE0A
3C3D4
25099
220EB
66D6B
2DF79
7E938
29DDA
270DA
6E3F3
4BFDF
5BD94
65692
2E66F
5AE0F
2D11B
34E06
52BD3
14C93
2B5D2
482D1
1AD79
20A66
343F7
274BF
525F9
2D7B4
2A58D
23BF0
33935
34174
21B52
29543
61415
2D8AC
21E70
69ADB
44049
5CF62
39ACD
425B8
3B643
5FC7C
209ED
22CEC
589D6
3351B
2B96B
25239
28CC3
2B6DD
639E7
3AEFB
5F524
1CF62
2C368
2BEF2
2DE01
29A99
1606E
28771
3BA20
2267C
34E0A
5BD7B
4DE86
274A6
30A58
4A446
201F4
42B57
3EDC8
53045
6701F
237D9
3126C
21884
41A20
5A368
60735
38EA8
25F49
27A04
40974
2F4CE
340E6
23BA5
32DD1
1E141
22D97
2515B

