1BED3
1F246
37EA8
17B16
1444F
13077
3DA65
170F2
346DA
2BCF1
1DE71
13B02
0D713
1BFA0
2CF84
45C50
1C6A8
143A8
43C36
11C62
3F931
14241
4CF45
1B694
2313D
277E1
20A02
1C722
34532
228B0
40D6E
55937
1CE9B
1D7C1
2DB87
1D23B
45FF8
56E76
229DD
160F6
41C6A
20544
1FCDF
2ECF0
35816
1ED73
560BB
18628
1F89F
16DC2
1956F
16ABB
39570
2783B
1918D
1E943
193CE
4BBA9
14EBA
4C27E
23EA1
3C2BF
4FFC1
556BA
3E5FE
2F806
1C552
14084
4B133
0B022
16AA2
34E19
14BA1
41B5C
1A640
1F200
1359B
2E4A5
12E6F
4E63D
2D213
3AD18
27A12
28D9A
1A9EC
17C23
1B7DB
3DDA9
2CA6E
18D56
36AC7
45897
1AEF3
1AEAA
1F12C
35611
3D8FB
1C93B
5163F
1173A
23BC5
37968
41DA3
1EC1B
16EA0
17132
2D569
1C70B
15006
14A6B
33934
1D5D6
15852
54EC4
26398
6A90F
1FF03
194EA
5BD61
3F079
4C566
54684
1E702
4BCE4
1CEEB
2BB1A
45429
0EA49
1C60B
3CFA3
13617
179A5
22A19
188EE
44D7C
1A99F
196F2
1AA6C
28D1F
275C5
148B6
1B9F3
50022
1D8F1
1777F
582BD
37215
4CB7E
31707
3601B
2FD1C
4F467
14710
16E2F
4840E
2AB0A
1D1C1
1D78B
1A29B
1C1EA
53973
33A8E
4EEE2
12938
1F613
1B936
26B26
221EC
10A16
23100
2A3AB
15B76
2484E
4C253
3FD7F
1A491
1FC78
3C62B
14C57
37AFA
334BC
46945
55619
16333
2A31E
172BC
36879
4A43B
4FE91
2E551
1A673
1BC06
36755
1DE7B
228B9
16E5F
21AFD
158F9
180CF
192EC

