76F17
02A34
1E68D
7B0A8
79926
7E11C
1DA35
00363
1DE9A
166D6
0F0EB
7F659
7AC1C
7BE69
175FC
232AD
0BA30
7B7F6
255EC
7F836
21D93
0054E
263E5
01450
1140C
144CD
0A6EB
7CB16
1AC26
0F8DA
20259
2C56A
00301
0C407
18219
0EE0A
255A0
2D111
7DF37
7E5EC
216BD
00206
02F47
19A1F
1B4CD
7F557
2C585
051AC
0DCCA
7C628
7B064
7E2C7
1DB38
7BE11
0083C
033F3
7EA55
2735C
7DCC7
26EC2
76D0C
20981
2B306
2FF0D
21EB3
17F0B
0A546
7F695
2711E
7EBD2
005D9
198DB
013DD
1FD70
7C3B5
7D5A5
78FDB
19927
7CF5C
289E4
16FE0
1E7D9
13CAB
14F0C
0694D
7CD03
09330
1E60F
17A69
7BC6D
1CDD0
25790
7F080
7BDBC
7AD1E
1CAA5
1E2D1
02A9F
2C4C3
7F31C
7E495
1E8AB
1F8AA
798B8
7E5D0
7D4DE
18CDA
0B5CB
04870
7DCBA
1AC0C
0CFE7
7AC0F
2A463
134FC
3B62E
0EF53
00AA0
2F20F
2035C
2733C
2E4B8
7BB3D
268B0
797A0
156BD
2564C
7FDDB
7BAEF
21B92
01B63
03C50
11DDB
781A2
26A0F
71E14
761A8
04403
14FB3
0982F
77699
7DE3E
28078
7BD5A
7F965
2C96D
1BD51
2A865
1A49E
1A20C
18471
282D1
77CA2
7CCB8
25063
15DD9
7BA9A
0B36D
7904E
795A6
2C092
1C28D
2737F
7A67F
026AE
767B3
1416E
1108B
7AB63
127FD
0535A
78C95
7EEB5
269B5
20E50
7D303
7ACD9
1D285
7BC29
1CDC1
1A7F4
26588
2BB39
79242
16771
00818
1CA51
25335
28B74
18705
01EDC
00DB7
1D549
76303
7E0EA
79ED8
7B872
02BEA
7E37C
7C673

