44C61
3E9FD
54167
3756B
31C18
2A2DB
61018
304B2
4D4BE
436C9
2E4C9
2A196
22146
3F675
44D27
6BFCB
2EF2C
2F8B2
6554F
25F14
60680
2A051
77B5B
3848C
36C39
3CB0B
39232
3F842
508FA
37844
64F29
831F4
3CA38
3084A
4590C
2CE43
6A0E4
851CB
4B1CE
3039B
6582E
43E56
3FAB1
46326
5272E
41A3A
841A6
2DADE
3321C
3419C
3AD27
31BA2
57DDB
57B57
343F6
3CC44
369BB
74101
2E753
75478
55B99
5AA17
789FF
7ED0E
5DCDA
49864
30376
2ACEB
72D78
188F6
2F4B2
53105
2A3F8
671E7
3BB36
446CF
3076B
452C4
2B22F
781BA
45947
5A1B2
3D8A2
3ED6F
30C0A
35850
2FB1B
609E1
43D8E
38ED3
532E2
68F38
39C0B
3D384
471D4
50ACD
6039B
39328
7A5BD
259DD
4D18F
53403
67BF7
47DB2
3207A
3389B
4404C
2F4D7
27326
2DE52
4EFDB
2F723
33154
84070
3B1D1
9EACF
32B16
34866
8D36E
6111B
755A3
7E804
44CD7
74F63
4417B
444B2
6874A
1EF6C
407CE
5B144
26E54
2D821
3525E
3C67C
6636A
4793B
4074C
33648
3EBB6
48542
34B86
3C75B
7C2A1
42CE9
31D85
884E7
5547B
727BF
4B024
54CC4
49D21
7A759
34164
33B45
6F29D
41B0B
420D2
31A2E
3EC51
4284C
7F472
4D9D7
7ACA7
2D45A
3F5E2
448BC
3B3F9
34FDD
28D6D
355B3
531DF
35AB3
4E0C2
759B1
6206A
3A6C2
489E6
5EE04
30656
5550C
4EAF9
6A2E4
836A5
364B8
3FFC7
30342
531E7
73337
7B334
46836
356F3
3974B
52363
49C57
4AD87
36E54
4BD52
2A57B
34950
38F82

