3122A
2BBA0
45B66
28A64
224D2
1EA9B
4F1A4
22399
4052F
37C38
24533
1E369
1845F
2CCFA
35D98
58652
233AF
22307
54400
1BCD6
4E9C4
1F1F4
618BA
29628
2FD71
31681
2C595
2D79F
418A9
25BAA
5241D
6BF16
281B4
28618
387C0
2486A
53E2B
6B954
36FF2
23666
5304C
322BE
2F013
3AC15
42389
30591
6FC0A
22DC5
29A59
23FB4
2A717
243AC
487D3
3E381
26369
2F915
29461
5EB68
217E2
5FC5A
3D4C7
4E560
63FFC
6A5C2
4C8A5
3DD97
298F3
1EF1C
5F7E3
12902
239CF
44E40
1EEC2
534FA
2B6F6
32338
23547
39F26
1EE88
62BFB
3CA70
493AD
344D4
37F2A
295A6
2710C
25A61
4E88A
37BA9
290E7
43B17
571AA
2A117
2C06A
33A76
41CDA
4E929
27FED
6456B
1B145
380C1
43EAF
5426C
33A70
248F8
24E40
37246
26422
1EC89
202CA
3EB72
26C1E
24D9B
6B3A7
2FE7A
8374E
2BB27
29C9C
72D40
4F2B2
5FAB5
69659
32013
5EAF2
30BD3
3729C
5607E
16430
2EC05
4AF94
1C9F1
22B65
36662
2AA44
55871
31B51
2E0B3
25DBF
35B7C
37210
24B72
2C6C0
6565C
310FD
245D2
6E1F9
46E57
60920
3C03A
45421
3DE26
63CFE
23818
25823
5C503
35734
2F00F
27034
2C34B
2EFE7
67AE7
3D41F
63658
1F6B1
2F31B
2FBB3
2FC68
2BC10
17E2D
2A226
3F84A
255D9
38B8C
5FB44
51255
2A487
34788
4D824
22B2D
4574D
4176B
564AE
6B4CE
26816
3324D
23EB2
444F0
5E0BC
647C7
3B398
2891A
2A644
43270
33573
37E7D
26B16
36CD6
2003A
2576A
27FC8

