08030
0EB4C
29541
0859F
0576B
0719A
2B6D9
09B60
27636
1FD26
145A5
0852A
0368A
09E8F
1F0EA
31F4D
122D9
06ABA
325A8
07E1E
2E193
09103
36AA1
0CA6A
1AC62
1C3CE
141F3
0AEBB
257A0
1329F
2E012
3DFCB
0B994
1490A
20EF9
14E11
31576
3DDFC
0E6D8
091F2
2F174
0E8BE
0FA21
230FD
25DAA
0D657
3FFAD
0D85B
15D30
07B33
08C24
091CE
29B9E
0EED0
0B34C
10469
0AA6E
36720
080D1
36906
0B516
2E505
3AF15
405FA
2D776
2314D
10071
087E0
37024
04AF1
0A636
25FC3
09A78
2E0BC
09D34
0CA34
055E2
22A50
06C92
38F43
229A4
2A22C
1D7B2
1FF6B
13B45
08F93
11298
2BBA6
208AC
08EA4
275FB
33400
0B5C5
09AC1
0B430
26B73
2BB55
0DFD6
3BA0B
0721A
0ECB8
28A4B
2E3F6
0A6AD
09745
08B41
20AEE
13246
0C0E6
07910
242F5
14543
06ECD
3C326
1B248
4F2A7
18133
0C7CA
41BE1
2D226
36BC4
3EB08
0B67C
35E96
096B4
1EA9A
32C36
06736
0A749
2CFFE
098E8
0C9DD
1F59B
06CD9
33BAC
046E3
066F9
0F380
1EC3E
1693C
047DA
0B47F
39039
0B59B
09FD5
3E800
280EC
39E77
22F3C
262E4
232CA
389D0
04976
0891A
34AFB
1E9DE
0A699
12F00
07B0B
08CC1
3C279
24630
37BBE
05184
0F406
070C9
1B6AC
15579
03F7F
183FF
15E3C
05A65
0F887
36548
2E741
0A390
0B7EF
2AC6C
07186
28048
25950
33322
3D4E4
06342
1DCC5
0A5A9
27A41
34FA8
393EF
227D4
0C90F
0CC2A
27B4B
080D4
0EA99
06EC7
0C9A0
0B45F
0974B
08E58

