01FBA
0B258
26060
03980
018A9
04537
27319
07082
24A24
1CCF5
137D2
05742
0055A
0579C
1DD21
2D7F1
10A53
02E14
2E715
04F6E
2AB8C
063EB
31CC8
0912B
1692E
1A077
110EA
062BE
22640
1538D
29E7E
38A5F
08C33
11656
1E936
13228
2F18C
398E3
08E56
05711
2B145
09BD4
0B911
1FF43
231F6
08BD2
38CB0
0ADC2
13184
0449B
0412E
057C7
25F3A
08E7A
07DA5
0B67E
06956
321C7
04B35
32097
04472
28D38
362C3
3B20F
2A69B
1EF93
0FB42
05912
31D15
0266C
0705A
21B60
070EE
29F35
053C0
076F1
00DC0
1FC1B
03828
33E4B
1D99B
26F25
19B6A
1AE23
0C902
04DB4
0EA8D
27C63
1DEB7
04734
24916
2F0B4
075C4
05212
05A45
240AF
278B7
0A662
375EC
04A4F
09772
2604B
29C89
04A72
05B12
04FF4
1EEEE
1075C
0971E
049E3
2229A
11E18
02BE6
37015
18F51
49784
1406D
08053
3C797
2968F
32499
39AC0
06124
31AA9
040F8
1C11D
2EE7F
0446E
05716
29DBD
06FC6
09B0A
16DEE
01CA5
2FA5D
FE092
00A67
0AF00
1AE74
126BF
001BD
06C3F
33F6A
05E6C
06B74
39994
23FB2
34BB5
21330
22733
1F4E1
33D8F
0057A
04956
2F8A5
1C14F
05A59
10AA0
02E9A
03BB3
37D7D
232CB
3312A
019F0
0B102
018DE
19A4D
16226
01413
17718
1042A
016C1
0A24A
31CFF
2A221
05DFB
05D73
267AB
0339E
24DE1
21E65
2FF7C
3824A
01D0C
1C5AC
07458
245F2
3043B
346A7
1EF96
093C1
08E2A
24D4C
020B5
08F2F
02936
06EB3
085C8
05EDD
04FE7

