6C5A7
55843
6E95D
5728A
4BD3E
4097E
82796
45865
643B4
5A3D8
3B532
3DBC3
36516
5F11A
56ABC
8FBF3
3BC91
49D10
850F9
387CA
7D6D8
3EE32
9F4B5
52C2E
4E2CE
4FE3A
4F3C7
5F3C9
69F46
40769
86761
AE1E8
51286
44EA7
5A64F
3B0E9
85A11
AD677
716A6
493DA
86C12
6578C
5C2DF
5CDF9
6B11C
62ADC
B48BA
41969
4630E
4CB4E
5AF2D
4B470
74C9A
82525
4D1A7
5CA0D
555EA
98B2B
4620E
9B1C8
85456
7C72A
9F1EC
A6D1F
79497
64655
4E533
3F467
99CA3
268C9
47EFD
71651
3D8C7
88F90
5BD56
684AE
4E79B
5B808
41A51
9EEF0
622A0
76016
5529F
5A7C1
4886F
5265F
43263
80A77
591E4
57571
6C791
8ABBE
56498
5D7EC
6DD17
68CF4
80C6F
4D719
9EF67
37CE1
73735
6B315
8ABB9
6F07E
4B980
4D7AE
577BB
41C93
39C05
439C1
64EB6
414B4
4FF14
AEF41
4DCD6
CEC16
47F40
53FB7
B9830
802D9
9A9D4
A6E52
69967
99658
695C2
5A71B
88D0E
2D07A
63047
7622F
38132
4287B
5796B
5E3FD
86328
72E7F
67143
46763
56C4F
6600E
531E5
5C252
A54F6
675DE
4A57D
B2B37
734DC
983FE
601A7
72028
6458B
A204B
5005C
4F2E9
95603
56549
63B20
43EBC
60C9D
65FF5
A65C2
61126
A2455
4552F
5D310
6A503
4D176
4C070
34913
43E36
7B769
53094
7408A
9B486
831A5
58732
6F797
7F862
4A728
6FD93
699CE
88D50
AD886
55051
51E1B
48BB4
6D970
992EC
A2C09
5ED7F
50E48
550F9
6AACF
71AD2
734BA
5470E
73923
3DE1A
4DCB6
54C18

