5B5B0
49857
62DA7
49CF1
3FE87
36DAA
73BA8
3B647
59ECB
50582
34B91
34AFF
2DB1A
50A49
4D400
7FDBD
34BCC
3E712
770CE
3040D
6FFD5
35C50
8D91F
46E28
4577D
4723B
4538E
50F42
5E5AC
38CA2
777A0
9B1FC
455FE
3CB9A
50A93
3496F
7759D
9A82D
60A5B
3E611
77E78
56BF2
4F367
53148
5F583
543B6
A0CCA
38C4B
3DFF7
41045
4D069
4011B
68128
6EC60
41F0B
4FB1B
48B66
880DE
3B9CD
8A143
709CC
6F364
8E267
95774
6C717
5954E
43C59
35FEC
890E7
20CFF
3D82B
649ED
34C20
7991D
4DF10
58C42
42175
51DED
37AC9
8DA89
57659
69273
4BBB3
50924
3F943
45F5C
3AAE7
72449
4F88C
4A0E1
60C48
7BEA0
49984
4F4BB
5D1F7
5D9D0
725DD
42B1D
8E22A
2F8F4
62664
5FEB5
7B10E
5DFCB
4063D
41D45
4E333
39E27
3202B
39704
59F41
39AD5
4392D
9B838
45388
B9245
3FD7B
47DEF
A5391
721C4
89B1E
953E3
59A22
888B3
591B9
50513
7A3D2
267E9
5403E
69BF4
3031D
3965B
4E0FE
4F6FA
783A3
60311
56B53
3D1A8
4D484
588C8
45CC9
4E726
92F70
57C77
3F711
9F044
668EA
88448
55BE9
652A1
594E7
9029B
433EA
43386
84FF3
4CE48
54922
3B9F9
51B1F
5635A
945E7
56CAB
90393
3A719
4FFD1
597F8
44AD3
42C38
2C55A
3C7EF
6A41B
45ED5
63024
8A2E7
74C36
4B32C
5E89C
712AF
3F09B
63AE2
5E16A
7A535
9A858
47AB2
490F0
3E2A3
61BDA
88355
90E12
549EA
45517
48D03
5F54B
5FC8A
623F9
474F4
6220D
354EF
4237D
47E7D

