1B5FE
1EB77
37891
1743F
13DEE
12B75
3D2C0
16B7D
3417A
2B7D5
1DAE6
13629
0D29C
1B7F7
2CA5C
4540D
1C2A6
13DC0
434F4
11806
3F218
13D86
4C606
1B056
22CFB
2734C
204B5
1BF8D
33F17
22427
4059F
54F5E
1C7BE
1D3A4
2D65F
1CED3
4582D
56478
2211C
15B4E
414B0
1FD93
1F5FB
2E7E1
351D4
1E5ED
556C6
1818D
1F463
1676F
18E32
164E1
38ED6
26DD0
18BAF
1E2BC
18D74
4B2F0
14934
4B99A
233DC
3BC29
4F6F8
54DC7
3DF32
2F265
1C105
13B97
4A89A
0AD34
1654F
34792
146FA
41346
19F0D
1E9EF
12F4F
2DFB2
12931
4DD38
2CCC9
3A654
27555
288D9
1A523
175B4
1B37D
3D625
2C56A
18666
3649D
450EF
1A849
1A740
1E884
3502A
3D17C
1C30A
50D64
112DE
232D4
3736D
41571
1E338
168C3
16B0B
2D082
1C2F7
14C17
144F6
33347
1D1EE
151EE
54495
25F14
69DCB
1FAF5
18F08
5B2B4
3E91D
4BC87
53D6A
1DEB6
4B3FE
1C674
2B5C8
44C8D
0E6C2
1BE3C
3C921
131DE
174E9
22618
1812E
44644
19FE5
18E82
1A513
28863
26EA5
141C1
1B2D9
4F696
1D0E3
171CB
57854
36B90
4C353
31180
35972
2F77D
4EB11
14039
167F4
47BA4
2A611
1C9C4
1D32F
19AB1
1B99D
53000
334F1
4E566
12373
1EF28
1B05B
266B5
21DD8
104DA
22D0B
29AD4
1548D
23F54
4B95C
3F61B
19D9E
1F3A3
3BEB6
1465E
37492
32ED0
46192
54C25
15C42
29E68
16D52
3624B
49B61
4F535
2E017
1A09B
1B59A
36155
1D4FF
22002
16774
211E1
1547A
17AA3
18C0D

