FF3D2
0883D
2345F
01761
FF4FC
0212D
23D14
047B3
22119
1AB6D
10F20
03A71
FEF52
0276E
1A31E
29C18
0E8A4
00CCB
2B1F5
03A20
2729A
045B7
2D843
06856
1647A
17B8C
0EF41
038C8
1F7D5
0F340
26454
342EE
05846
10566
1BE98
118A9
29F8D
341F7
05C5F
0383F
276D2
06F24
08F0C
1E01E
1FCD7
05F09
35C9C
08F85
11987
01AAB
0192A
03540
2329D
04D62
0571D
09999
041E8
2DDAE
029F9
2DC5E
00A7D
277B7
322F1
376AA
26D65
1D5EE
0A94B
03B3D
2E5F5
01B91
0501C
1F645
051E0
2618A
02A7B
049FD
FEF9D
1DAC6
01A3C
30099
1D0B9
2380A
189CD
1AD8E
0F160
028DC
0CCAB
244D8
1B986
020EE
21552
2B99E
04CF4
0257E
02A51
20EFE
24454
08712
32F15
02E03
05FE9
22D32
26296
019ED
03ABF
02B0B
1BE45
0F106
080FA
02511
1E866
1065D
008A8
3229D
16B6A
4402B
13E39
063C6
37455
25DFA
2E00B
35942
032BC
2D36B
0107E
196F9
2B3D5
0313E
02B66
269AE
057D5
07E72
1A6EF
FF284
2C84E
FAC58
FDFC7
0A638
19DE6
0FA20
FD9DC
0435F
2F8BA
034E2
045CE
34572
217A8
31A7C
1D9B0
1F8D0
1D79F
2F65D
FDFF1
02652
2C3B9
19BEE
029B3
0EA7A
FFE67
00A60
32DE7
1F14C
2E6B5
FF7AA
086FF
FE5EC
1712F
108F9
FFB83
146F4
0D024
FEE24
06BEF
2D80F
270D6
03621
02C13
235DE
0134E
21BCC
1FA25
2BB56
337E6
FF501
193E9
04E66
21867
2C37B
30057
1D366
0697A
06706
21D9C
FED11
05DD2
00256
03995
06D93
037B1
02439

