FF391
0904F
241EB
0174A
FF8C8
02C31
24CE0
0553B
22F41
1B36D
12618
03F08
FEF0A
0314F
1C357
2AEA0
0F64B
0108D
2C2CA
039A0
2880E
04C43
2EE8F
071F4
153E5
1898D
0F66B
03CD4
207BA
13CE0
27775
35922
069E6
101C2
1CF6F
12121
2CA91
366EE
0628E
03AC8
28AA3
07560
0969E
1E5FA
212AC
06634
35AE5
096BD
11C55
024FE
01CFB
03A87
23E39
05A60
0604B
095DB
04996
2F62C
02F9A
2F421
00E99
26C4A
336D4
3854F
284A1
1D371
0E5C3
04073
2F217
017C5
055B9
1FABF
059AA
276C4
02FBD
04E9E
FEE47
1E35E
01DF5
31131
1BF2C
24D52
183BA
1965E
0B115
02D88
0D4B6
256CE
1C5A3
02482
22A45
2CA6B
05473
02CFD
02EFB
2232C
2533E
08772
349A2
03483
06ABB
24263
27392
01E04
03DC1
0312E
1D669
0F2F8
08373
02E99
204F6
10A8C
00BF0
33D29
178BB
45F2E
12C26
062E6
39235
271C2
2F841
36D3E
037AA
2EE2B
016A2
1A685
2C872
032C9
0300C
27D33
05AAD
0835C
159E9
FF5E4
2D64A
FAFF2
FE037
09441
196C4
1031B
FDEF4
048BF
30FAD
03628
04EF0
3658A
21F19
322E1
1F78C
205E9
1D8C5
30EE0
FE344
02A2E
2CE95
1A871
03269
0F4D3
00707
01230
34E42
216BB
301BF
FFD13
08E6D
FEC93
18415
14DBF
FF9E7
16351
0D7F6
FF436
07564
2F02D
27D2C
03B3D
0314D
24261
015C1
22DD9
200C9
2D8FF
35086
FFA59
1AE1D
05948
22709
2D7F9
317DA
1D572
07687
06E0D
22F4B
FF148
0639E
0069E
04123
06F51
04005
02D8A

