20234
1FBB4
39FAF
1B4CB
1661C
14EC7
405B7
1817A
36046
2DDE2
1DB92
152A4
0FA63
1E62A
2C6DC
4881C
1C2E9
16D09
463D5
13919
412C1
16012
4FD24
1D821
27220
28A82
2255C
1F318
35F10
1E0E3
4345D
58F2A
1C52C
2030B
2EC04
1E0F0
459B7
58B0A
263A6
1889C
442B2
23725
2209A
30F64
367F0
21E6B
5C01A
1A0A7
21741
184AB
1C853
19057
3BC61
2AABD
1B0CD
22A23
1C9DE
4E11A
16FA1
4EBD5
28A3D
4119A
53077
59017
3FB25
32C90
1F019
15AA0
4EC27
0CD39
192FD
381DC
1621B
43E88
1D8B0
22ACC
16F21
3050B
14F00
51793
31E29
3C60B
2ADE8
2E08C
2067A
1AA0A
1D2E5
4025C
2E252
1BC57
37FCE
4848C
1D603
1DD39
22F56
369B7
40297
1D3F1
5382F
12D59
26FF0
38A4F
447C0
229BC
195B5
193D6
2DDBF
1E5B6
170B0
1600C
33BFD
1F23E
187B3
57C9E
2752B
6DD7D
23963
1DAD5
5E8A2
4119E
4EBFF
57BE9
220CE
4DD4E
207CA
2D095
47742
0FBA0
1FBFC
3E95A
14BDC
19945
2CDF5
1BD41
478EC
1EFE3
1DAC2
1C805
2C3B1
29AC9
17655
1EB94
530D6
21797
19766
5A706
3A264
50969
31A7B
3869A
32D82
51F4E
16BA5
198C0
4BEF2
2C033
1FE12
1EB70
1D1CE
1F34B
55B0B
32FA5
51597
1489B
21FDC
1EEA7
275C5
227D9
0FA74
22BE0
2E4FC
1841A
27B27
4E9A5
42CE6
1D080
2388D
3F272
174A0
3949D
35F07
47C93
584A1
19277
2A522
195A0
38759
4D124
529D1
31003
1CFE9
1E24E
37CED
2172A
26DBC
198FC
255C0
1770F
19E31
1B22C

