41763
3C126
51CDB
34C5D
2F5D7
284D2
5E23A
2E3F5
4B47B
41826
2CF83
28483
20680
3C87F
42E36
68E36
2D721
2D543
629C2
244EA
5DBE8
283EF
743E4
35F17
352AF
3AF8B
37266
3CAC3
4E458
35D0E
62051
7F6DE
3A110
2EF99
43A1D
2B9D4
6721D
815D9
47D45
2E1A9
629D2
41032
3D15B
444CF
501A1
3ED15
805E6
2BF3E
318B1
31BAD
381B7
2F888
55641
53CD1
320BD
3A51B
343A1
70CAE
2C632
71F1E
51AFB
58294
75546
7B75A
5B414
476A1
2E9AA
28F5F
6F9E1
17761
2D4BF
509DD
2880C
6415F
38FFF
4166B
2E1A6
43515
292BE
74B9C
4398F
5791B
3BC35
3D0E8
2EF54
331B4
2E0E5
5DCC7
41F76
36531
50DE7
66146
37410
3A703
43DE2
4E764
5D6A3
36E07
77097
23FB4
49BE6
51020
64ACE
44860
2FD4D
313AE
422E0
2DC5F
25B8B
2BD92
4CC4A
2DFAE
30AFA
80354
396B8
9A735
312C1
32517
8935F
5E4F2
7206E
7B169
41B12
719FF
40EAD
424C8
659A1
1DA3F
3D8F5
58A37
25503
2BBB6
33A58
397FB
6381F
43EE2
3D4AC
3162F
3CF49
45A7D
321C8
39CC1
78958
3FC96
2FB4E
84675
52D5E
6F6C0
48EF8
524D2
47B65
76F54
31857
315E2
6C022
3FD34
3F0E5
30006
3BCD3
3F67B
7BBC5
4B82B
773C0
2B1B8
3CC62
41396
39950
33761
26E05
33DF8
4FCD4
3313F
4AAE2
723E8
5F412
37D11
454EB
5C146
2E27F
52E9C
4C771
674B4
7FAED
33B15
3E382
2E2C8
50CD0
6FE1B
77B0B
448D8
333E2
370C2
4FF62
4636E
4793F
344D1
486A5
28A85
3244C
36645

