00E10
0A4BB
25431
02BD1
00BE8
03B35
263CF
06599
23F63
1C2BE
130BB
04D91
FFC6D
0484A
1D2D0
2C76A
10250
02244
2D891
046B5
29D5A
05A75
30A4B
084AE
160AA
1974D
10651
05394
21A0B
14A7B
28EE1
376AD
07E7B
10E1B
1DEE7
12B58
2E1F5
384E7
07CD3
04BC1
2A1D1
08C72
0AB4A
1F526
22572
07CC6
378C5
0A48D
1290B
037F6
032B3
04C14
25206
079A2
071E7
0A970
05CA3
31056
0402A
30ECE
02EE8
2800C
35131
3A028
29904
1E452
0F2A9
04F39
30BE3
02090
065B3
20E53
0679F
28F08
04559
066D0
00129
1F236
02DAE
32C41
1CF08
2619D
191F1
1A4A1
0BF70
040D6
0E1D1
26D5A
1D4AF
03954
23CC2
2E164
06871
0433D
048F4
234E1
269BA
09A02
36435
04197
0858F
25454
28C26
038AC
04F58
043A5
1E51F
0FF34
08F40
03EF9
216BF
11646
01F1D
35BB7
18648
480FB
13851
0748E
3B23C
287D6
312DC
3888C
0508D
308DD
03008
1B67A
2DF47
03D60
04778
290B9
06756
09191
165EC
00D25
2EBEF
FCD1F
FF987
0A44D
1A4FA
1187D
FF3D3
05E0C
32C52
04E51
0600C
384C3
232A8
33B60
20822
219E2
1E9A3
32AE3
FF7CB
03CE0
2E7D2
1B75C
04A5F
101E8
01EC6
02B18
36A99
22791
31E32
00E64
0A32D
00727
1916A
159FD
0099B
16F2F
0F27B
008F0
09054
30B11
29359
05016
04BCA
258C1
027AC
24111
2128D
2F017
36E62
00F2B
1BC40
06985
23995
2F287
333EE
1E521
08810
08152
2414C
00DBC
07DC2
01B5F
05C79
07CCC
05287
04228

