0D05D
13A7C
2DA32
0C259
0982B
0A952
30BFE
0DDA2
2B5AD
23314
17EB9
0B82C
05E98
0F0CF
24446
37D35
15A77
0A433
3783E
0A6A5
33986
0C287
3D5AC
10E06
1BE4F
1FC22
17AEA
0FA66
2A05B
1AE3F
33AA3
44F53
11564
168A4
25053
17646
38D79
460B4
13D74
0C837
34BCD
135A1
142DB
26466
2AF1F
1224D
453DB
109D7
1863E
0C30D
0D1F8
0CCC7
2E33B
15EE2
0F30D
13908
0E858
3D032
0B9A4
3D26B
11BD8
310EF
41281
46511
32E84
2601B
1513E
0BB8F
3C90C
06106
0DADA
29DE5
0CDFE
340F9
0E3CB
1183E
08BA5
25F0F
0A0F5
3F2B2
24356
2F671
1FA29
20D3B
128B8
0CE66
141EA
312B7
24305
0D1FC
2C45C
389D9
0FB09
0E669
1076B
2B6B8
30E9E
12226
42715
0A182
14A4F
2D7EA
34069
0FC2C
0D054
0CB09
25102
158ED
0E5CD
0B70D
29928
16C48
0ABBD
43BC7
1E9A5
578DA
19187
0F606
49D1E
329C1
3D5F5
450C7
1070A
3CCA1
0EA4F
22B7E
386B1
08B02
0F33D
31FE9
0C42A
0F9C4
1BE00
0B7A9
38AAB
0A30F
0B325
119FD
20D35
1B54F
08CE0
0FA3F
3FE5C
0FF7F
0DD84
469BB
2C212
3EF05
281C2
2AC59
26551
3F84D
08E53
0C5F4
3A0E7
224C4
0FA18
161D3
0CCE7
0E1C0
43A68
2A308
3EED5
08D60
13B55
0CA09
1F32C
1B3C1
07CC3
1C634
1B4F9
0A0ED
155DF
3D049
335F2
0E8F4
10E0E
2FCD1
0AB13
2CE02
294D7
3996F
4495B
0A7D6
223E8
0E098
2C193
3B540
401D9
25827
108A5
10E9E
2C550
0DE66
13D75
0B393
124F3
0DFA6
0DA3E
0D95C

