3D32C
343D5
4E09D
321FA
2AC2B
25932
59913
296A6
47A37
3EC96
29029
24A26
1E64B
370C8
3C891
63ABA
283B7
2A42F
5E316
21A54
5825B
2597C
6E1FC
31D03
36050
379DB
3374A
379CE
49C61
2B2CD
5CE43
796C5
30780
2E319
3F646
291D9
5E04C
78FDB
42E59
2B1BB
5D8EB
3C9F2
3834F
41B48
4A8AC
3A99C
7DC41
291EB
2F761
2C46F
3452F
2C2F0
51835
4C178
2E229
38BF2
3241A
6A865
28F49
6BDC1
4BF5B
57BAA
700AD
76AD0
55A7D
45B39
310C7
2587C
6B5E4
16A26
2B032
4DF4D
25294
5E3DF
354B4
3D384
2C1E7
40C83
25FBF
6F024
444B2
5259D
3AFEF
3EFBA
2FB40
2FE47
2BA87
58BE5
3E87C
327C1
4C000
619F0
33136
361A6
3F809
49BFC
58CCA
2F9FB
7047D
20EE5
4425D
4BEB0
5F451
3FBF7
2C831
2D28A
3DBAE
2BDDB
2446E
27648
467F7
2C29B
2DA0E
79063
35FEC
92CBA
3173F
32622
813A1
5926E
6BAD3
75EC9
3D53C
6AA4E
3C45E
3E59A
60604
1AE65
3965F
53C42
2236C
29319
3D28E
35278
5F712
3EFD1
39A97
2C802
3C735
40AD7
2E2AF
3624B
726AB
3C1FC
2C19B
7C17C
4FF13
6BE99
435D9
4E5FD
45B82
707BD
2C92F
2DFF6
67EFE
3C25E
39BCC
2CE6C
36EAC
3A32C
74730
448DA
70344
2723D
38906
3BAA2
35BF4
32540
1DBA7
2F617
4BBAA
2EAB3
44CDC
6BD73
5B527
33AFF
407D7
57B27
2ACBA
4E178
49A46
60967
78CAD
2FFB0
3967B
2B6AD
4CB7C
6A17A
712B8
427B0
30C87
33156
4B341
4009E
4400E
30031
432E5
26192
2DADD
311B3

