47116
3B345
54D9C
39E00
31AE7
2B3AD
62211
2F4C8
4D9F8
44886
2CD7F
29E35
2366A
3F6CD
42017
6CE54
2C532
30DDB
66540
266D1
5FF34
2AE31
786A6
38B5A
3B135
3CB24
39453
3FE7F
50826
2FA17
65979
8473E
374F8
32F30
450B3
2CDEE
664F2
83F61
4CA22
316A4
662E1
452BF
3FBC7
47643
5159A
42FD3
893B4
2E3DC
3437F
33109
3C688
32B11
58E56
57713
349DE
4041B
399B0
74305
2F0FC
75BFE
57F48
5F6A1
79E55
80C0A
5D1D0
4C203
372D2
2AEB3
75159
19F72
3110F
555FA
2A43F
672F8
3D5C4
463C2
334F5
465FE
2BC61
790A2
4A8BA
59D03
40791
44BD4
34E62
371D5
30932
6118D
44186
3A32D
52CBF
6A39E
3A721
3E591
49323
50400
612AB
35DD7
7A0D2
25B7F
4E0C6
5276C
685DE
49A4F
33047
33EC7
431EC
30743
28C58
2D4C7
4CDD7
3095F
34CF7
844FC
3AFA6
9F585
36299
396A6
8D01E
6151F
75803
802C8
46974
746DF
45B5B
443AF
68D71
1EB1C
421BF
5AF5C
26CA1
2E7F2
42B10
3DC17
678DB
49DAE
432AF
31EF2
41F58
487D6
35E6D
3E18E
7D11A
452CC
326E2
8785C
5757F
75313
49616
55D53
4C213
7AD9F
33FE5
34F17
71729
41A0C
4284E
31B83
3FAE5
435D9
7EE54
4A85B
7AAEF
2D752
403AE
456DA
3AA21
37B50
22823
33AC4
55B85
3647D
4EB06
75C53
63A5F
3B61C
4A52F
60087
316B9
55284
50557
6902D
83D4B
37BBA
3E873
318D8
53991
73F2D
7B8C3
486AB
3780F
3A31F
51CA6
4A6D8
4DE6D
37A30
4D4F2
2B138
3466A
38915

