66EF7
764CD
135E9
6EA3A
6E043
74FF5
0FC83
76529
142AC
0D2C3
08A1C
769D2
72AB4
6E046
0E06C
1430B
045FC
70CB0
18370
779C0
14FB5
77C1E
157CE
75F45
0989B
0BFE3
00D39
6EF30
0FB19
07558
11FF1
1A7D4
73C13
04CAF
0EC96
08B45
17388
1AF54
6E14B
741DC
136AB
72302
7677B
10779
0FF52
71B25
1A4BA
7CC27
061EF
70ECF
6DE72
73921
11BD0
68FE1
75DFE
776AA
7322C
17674
73CA6
16CE7
634B9
14A84
1B433
1FB7E
159A2
0DBDF
02899
767C7
177C5
796D9
76B6B
0DB9A
78CEC
112E0
6F2D8
6EBC2
6D94F
109AC
73767
1844F
0D690
123AB
0B349
0C52B
7DE87
71267
01482
10C14
0E8F8
6F332
11B12
17981
72F42
6E6A5
6B20D
11F7E
10977
7772A
1C3E1
774AC
6E13C
13B37
10B0D
69704
73BCA
72266
0FEA4
03F85
7D659
73E71
10024
05E87
6F2B1
17D08
0B201
26F70
079BB
75FF6
1BC72
12DEC
1720F
1DCC8
6CAAF
166A1
6A215
0BC7E
1799D
79785
6D883
15ED3
7A106
7B2F6
0A9C0
6A0DC
198D0
60412
66CFB
7A8E1
0C64F
7C977
6ACD9
71057
16B99
6D3CC
75401
19B9A
10045
1BB98
1044A
0E0FA
0E169
1740B
6B635
71806
15C69
0CDA1
6D2F7
034FD
6AAC5
6A4E1
1AEA4
11FCE
1607A
6FF1B
75E1B
666CE
0C091
09A37
71398
0B548
752FA
6C43B
6EA50
165BD
137FA
70980
6ACC6
0FA41
70EF2
113F8
0FC36
1864D
19A94
6C903
0DECE
76B22
1170D
15286
17C04
0EF66
7755E
75376
12743
64FF6
6E438
6D636
6B02E
7A99B
73095
6FF23

