3EB3B
39F1D
4FE66
32A27
2D5F6
26BCC
5BC01
2C8AE
49998
3FE9F
2BDCA
26C49
1F031
3A232
4146C
664E6
2C318
2B7BB
60578
22F1C
5B86A
26C48
715AB
33FE0
33D67
398A0
357E6
3A4D9
4C5D2
34661
5F948
7C5A0
37EC3
2DB05
42056
2A8CC
64B22
7E3E4
4517D
2C560
60330
3E9BF
3AEE9
42B86
4E257
3C777
7D41C
2A838
30383
2FC11
35D85
2DB48
53540
508B7
30363
38478
323E0
6E113
2AA97
6F2A9
4E521
561A6
72956
78A9A
5921A
45A7F
2D42B
276C0
6CEE4
168BB
2BA1E
4E93C
270C8
618EE
36BFC
3EE18
2C22D
41C58
2788B
71E82
41F21
55748
3A486
3B923
2D767
31187
2CB0E
5B732
40663
3427F
4EF15
63AFD
352BF
381EE
41298
4C9E2
5B12A
34F16
7444D
229E7
46F2F
4F238
621D6
41BF2
2DFFC
2F4E9
40A5B
2C7FB
247DF
2A248
4AEA7
2CC22
2EB04
7D068
38023
96EDF
2FE7B
307AA
85DFE
5C025
6F416
783E7
3F198
6ED81
3E458
40A30
63395
1C89A
3B1EC
569AC
23FEA
2A408
32654
3713A
6140C
40E43
3AA7D
2FB70
3B798
436D9
2FEFF
37941
7599C
3D452
2DECA
8126B
50CC6
6CDEC
47353
50389
45F49
740A4
2F621
2F6BB
69612
3E457
3C8F5
2EA39
39540
3CCF8
78C8A
49C1C
74456
294DC
3A9CD
3E74B
38318
322FB
253D9
32A31
4D0A0
30EB4
47DFD
6F715
5CF1E
35A53
428C4
59BFC
2C4A2
50E94
4A9D5
64E37
7C928
31862
3CBF3
2C7B8
4EDE8
6D1DA
74C3E
42EB3
316A9
350A5
4E161
43402
44DAD
3223A
45915
2740E
30574
343E8

