70618
603BE
72299
591F5
513C2
42E45
86C05
4B3BA
67D83
5CA2A
3FCDA
42065
381C9
65396
5E493
94C96
42BB9
4CB43
892B2
3B794
8374E
41609
A55AA
571BA
4BC7E
5351F
534E2
64F4C
6EB49
4DE84
8B7ED
B3BED
5E822
44D67
5F059
3DB53
908CB
B6714
76586
4C289
8BA93
69DDC
61AF6
5F2A5
7158F
66CA0
B545C
4469A
480C8
53514
5E912
4E9C9
78746
8B28C
513B9
5CFE8
55F68
9F1F5
49B89
A12E7
8AE6B
7B25D
A402C
AB022
7F5B1
654E3
45718
431F1
9D4BB
2706F
49962
73492
41392
8F0E3
5F42E
6C3F2
4F8B4
5D9A1
45022
A4A51
5FAEB
7B81E
54EE2
5650B
48616
554A8
45432
85BAE
5C9C1
5B301
719CF
8EC22
5AA74
61D73
71DC6
6DD0C
853B6
57C05
A6186
3B24C
79410
70C86
90343
73BB7
4EFA5
51EC9
5C3B4
43708
3A9F2
48D83
6C426
42BFC
52A4B
B6508
516A0
D64E4
46B6F
5194F
C1EDE
85689
A1237
AB707
6DC26
A0E60
6DE60
5E8E2
8E078
30633
6709B
7B36F
3BBAA
44E4B
48EA7
62ACA
89D6C
77977
6A1D5
4DCE2
561FC
6B862
5711F
5F843
AB4DC
6A925
4E010
BBB1B
75779
9ACD4
664E5
75AB8
65941
A88FB
55DEE
52781
98B3C
5A3E9
697D2
4729E
65D99
6B831
ADEAC
69530
A99D7
49C57
61845
7048D
51304
49234
42AEF
48E2E
7EC46
57C7B
7A61C
A1DE2
8684A
5CBB2
7437B
83B27
4DE31
74F26
6BED3
90300
B48F5
588EF
573FE
4AED8
71A3C
9EE74
A96A3
60540
524AC
592AD
6FD72
7899F
75DE6
590E0
78D38
40875
530AA
5AE75

