6EB99
5EF52
71053
57D6E
500A1
41F41
85516
4A35B
66D62
5BAD8
3F237
411DC
37466
63C9C
5D51A
933CC
41FB4
4B98C
87CEB
3AA7F
82202
407D8
A39EE
55F00
4AFB9
5275F
524FC
6388D
6D8F8
4D0E9
8A081
B1E62
5D38E
4410E
5E0E1
3D11B
8F167
B491B
74B42
4B190
8A365
686CA
6064B
5E379
702C9
6560D
B367C
438C9
47412
5221C
5D35A
4D83C
77379
89349
5021D
5BC53
54C5B
9D7CB
48AF8
9F83A
88E1B
79E9B
A25CF
A9548
7E14E
64402
44A33
4232C
9BAF0
267A5
48969
720FE
4059D
8D89F
5DE92
6ABC0
4E5D2
5CAC9
4406A
A2F42
5EB0F
7A3D3
540AC
556C7
477BB
5415A
44717
84521
5BAB5
59E30
70751
8D529
59677
60733
703CD
6CB57
83D39
56975
A46F3
3A537
7793C
6FA95
8EAAE
7210F
4DE0E
50C52
5B4FE
42ACC
39E24
47D23
6B25E
42042
5171E
B467B
50914
D4317
45F44
507A7
BFED6
84075
9F79D
A9BB9
6C344
9F3AE
6C4FA
5D8EE
8C9A4
2FB9D
6592F
79FE9
3AF01
44016
482A4
6138A
887C7
75C4A
68885
4CCD6
553C5
6A300
55C40
5E2F6
A9837
690FB
4CEF4
B9BE2
743EB
99455
6544F
746BF
64864
A6CF8
54968
514D0
971FF
594FE
67FDC
4658A
645DA
69F49
AC256
6845A
A7D63
48B06
60385
6E9F9
505AF
485F6
41B3C
48250
7D1C1
567C1
78B2C
A02FD
8521D
5B6DA
728FD
824C8
4CC46
73BEE
6AD0E
8EBE8
B2B19
5741D
565DC
49E9B
707B1
9D3E6
A7A8F
5F590
51324
57F68
6EB72
76D2B
743C2
57C1F
771E1
3FAFA
51E28
599D6

