38CFD
3124D
4B02C
2EADB
27AF3
230FB
55C31
26CCF
44FA8
3C3BA
274E7
224CA
1C2AF
33537
3A1AB
5F91F
2669D
27538
5A93D
1F854
54ADF
233D7
698CD
2EBF9
33C5C
355BA
30DF1
33ED4
46C7B
2931D
59064
74857
2D6D9
2C147
3CE15
27725
5A557
741D9
3E91C
284E2
59B9A
38D25
34DC5
3F2D8
47842
36DF5
78AB9
26D81
2D58D
2942B
30BB2
294A9
4E3B4
470C1
2B412
3568A
2EFD7
663AC
263DE
6776D
46A0E
54503
6BA9B
72328
52574
42D8A
2E534
2322A
670CC
15276
28526
4AA8E
22E48
5A446
31B58
39368
28EC4
3E4BE
23694
6A8CF
4183D
4F08B
388FD
3C6CC
2D64E
2CAEC
29790
5507E
3C0EA
2F0E6
48FAB
5DCBF
2FCCE
32704
3B319
46DC1
5514A
2CD99
6BF02
1ECDA
3FBF6
49024
5B3A1
3B597
299EE
2A26F
3B55A
29D3A
22478
24C49
43AAF
2A328
2A6FB
7401E
33C7C
8D37B
2F5C2
2F420
7BFDB
55859
674F7
715E6
3935B
664B8
38143
3BBC9
5C9D3
19369
3586D
5091A
202E2
26D63
3AB38
3154E
5BD63
3A28B
356FE
2A15E
3A009
3D349
2ABB0
329BC
6DAEB
3819F
29498
77035
4CA71
67C9B
40B14
4B0F3
42DEC
6BE03
2946C
2AE92
63B5D
39B66
35D59
2AC29
3305A
361FC
6FCE7
41E67
6B8C0
24550
35282
37534
33935
2FF00
1B9A9
2D791
4749F
2B492
40691
676D6
579F2
30448
3C1E9
53FE0
27D9E
4AF3A
46AB0
5CD81
73E2D
2C88F
3720D
28B0C
49A8F
65B63
6C8EC
3FD79
2DCBC
2FEC4
4846A
3B6BD
3F9AB
2C9F9
3EAE0
23E2C
2AB11
2DCA3

