0313B
0B394
25EC2
0479C
0200D
0445C
2725B
06C4F
24656
1CF2E
126FA
05B22
00E7B
05B8D
1C527
2D57F
1021B
035E4
2E494
057DF
2A327
066A8
3184C
0933F
183F0
19B29
1136F
06C62
221BE
10EF9
29A77
3878F
082D8
122FE
1E1C2
13006
2D323
3863A
098F4
05F7E
2AC79
0A457
0BDE6
2037F
22734
0933B
3A3F4
0AF63
13721
044E6
04B78
05DBE
2608E
09402
07F71
0C854
06FA2
319D0
04FF8
319E8
05520
2A789
36041
3B55D
29BCD
1FDE8
0CF6C
05CC4
3226A
0304B
075C8
2246C
071A2
29930
05CAC
08215
01C5B
1FD92
03E41
33F03
1F7A0
26679
1ABE1
1D15F
111B4
055CC
0EB42
278D2
1DC27
050EE
23F9C
2EF29
07AD0
058CC
066A3
23771
27864
0ADE7
36BE1
04BCD
09D83
255ED
29B30
05781
0633A
05523
1DFCF
10D92
09CF1
049D1
21004
121E2
03559
368D9
18A6B
48E41
15B86
08F87
3BDA2
290CD
31D2C
39909
06C60
3104E
04B36
1BB8F
2E87F
048DA
06199
29671
0744D
09F71
1C95B
02809
2FAC7
FEFF5
01AED
0C808
1C02D
12ABC
009FB
074DD
33B01
06D33
06D31
38C90
245B6
3543A
1FF1D
22738
1FF82
336DF
00E1B
0518A
2FEE6
1BE07
06058
10875
034EF
0436A
36EE7
21670
327E9
01EFA
0B6B2
022AD
18F96
12A71
01941
161A9
10E4E
01D81
0A971
315D8
2A4A5
06602
06943
269BC
03C86
247C2
223C8
2EFBF
37C95
0253E
1B3C9
07493
24336
300CE
340EA
1F856
0934B
09346
24699
02DB6
09B69
031C7
0789A
08C8C
06185
052A6

