604A5
4D00F
66426
4DAF4
435E6
39AE8
78027
3E558
5CEAC
5337A
36A3C
37506
30329
54D4C
4FFC3
8478B
36C89
41BE8
7B1E2
32A4C
73E41
386AA
92B74
4A553
47FEF
49AE0
48212
5519B
61B8E
3B047
7BD3B
A0A38
48CBA
3F1A6
537CA
3677A
7B7F0
9FFF0
6583F
41885
7C373
5B059
52FA3
55EC6
62BFA
586D1
A6883
3B543
40606
44692
51116
4352C
6BC39
7472E
452E6
53730
4C631
8CE2E
3EAA6
8F061
769C2
730E0
9313B
9A811
702C0
5C8B3
46D5F
38B07
8DEA2
227A5
4089A
68544
374F6
7E0AA
51F98
5D462
45AFC
54AAA
3A91A
92AC8
5A85D
6CE26
4E784
53731
422D4
49923
3D23D
7671C
52511
4DE97
642A7
80377
4D479
536B0
61F85
60DD2
768CE
45D0B
93055
31F41
67599
63313
7F9D4
62EF7
43A48
45364
50E52
3C2DB
34420
3C643
5D232
3BE37
472A2
A1285
47B65
BF6AB
42328
4B632
AB1D0
7631D
8E9B6
9A5E2
5E43E
8D6FC
5DD37
5341E
7E789
28645
585EE
6D581
327B8
3C0C8
50D3F
53BC9
7C487
659FF
5B75F
3FD20
50096
5C747
49AA8
526C7
984A7
5C4DF
429B4
A4BB4
6A420
8CE85
58C07
68E4D
5C82F
9558C
46F45
46B16
89C08
4FA1F
58F63
3E084
5613C
5ACB0
99979
59C6C
95768
3D9A4
53D25
5E614
471EA
45740
2EB98
3EA46
6F409
49BBA
67F3A
8F257
78ED2
4F0BA
63748
7555F
4259B
67368
616F3
7E898
A00A7
4B8B7
4B9EC
413B8
652E4
8D22E
96118
57968
48ADB
4C5E7
629FE
64FA7
67329
4B1F3
67313
37CC2
45943
4BA2E

