328EE
3095C
47865
2939F
249B4
1FDAE
513D3
250A5
4234E
38E49
26FCB
201AE
18E06
2F9AE
3A2F7
5AF1B
26AF1
235CD
565CA
1CF2D
51C3E
20435
64A4A
2B689
2DFC2
333CB
2E34D
2FE07
43F81
2E29D
54D86
6ECFA
2E7DA
2807C
3AEE9
25DDF
59F9E
70817
390DC
248EA
55934
34090
31757
3BC45
458AA
321EF
6F906
242EE
2A650
270F9
2BE40
25A95
4A40C
42378
2823D
2F4DF
2982B
62137
2311D
62F0C
3F831
4D0C3
66806
6C5B1
4FC9A
3DEB6
27596
20A6A
611BA
12844
244F7
459A9
20A69
566FC
2CD8A
33CAA
237B1
3AF7F
20544
65811
3AAD3
4C274
33C4D
35089
26E1F
283F7
26AF4
511D6
3980D
2A9D6
4677C
59288
2C026
2DEC2
35421
4480B
50C46
2C6F2
6816D
1C9FC
3AA70
46EA2
56D93
35872
25F01
26D85
39E78
26E41
1F152
22A34
42C3E
27620
25E65
6F057
31CC6
87700
2A545
28632
7731C
51E3A
630FD
6BBAC
33B1B
629BC
32A11
3952C
58C2A
17AF8
30627
4DA7C
1E316
23BD5
2CE3F
2C6B6
5754F
33853
2F0DF
285C0
34F5E
39A07
265F2
2DD0D
68792
32324
26152
72D73
47D5B
61A48
3F9B3
47111
3E39B
67339
25F99
26DA6
5DCFC
376EF
3193C
28A4D
2E71F
31651
6BCBB
420A5
673B3
215E0
311A5
32468
32156
2C937
1E0B1
2D32C
40E22
276B7
3B873
631DE
52C85
2C175
36681
4F7EC
2413B
481A3
4278B
5A4DF
6EE2F
27FB7
3644B
250A5
465EA
60F20
67E53
3BBAD
29614
2C35A
45D5D
36359
38DFA
28A06
3909B
21133
27DBC
2ACB5

