677CC
76B9B
13C00
6F112
6E6A3
754F7
10428
76A9E
1480D
0D7DE
08DA7
76EAB
72F2B
6E7EF
0E595
14B4F
049FE
71298
18AB2
77E1D
156CF
780D9
1610D
76583
09CDD
0C478
01286
6F6C5
10134
079E1
127C0
1B1AD
742EF
050CC
0F1BD
08EAD
17B54
1B952
6EA0D
74784
13E65
72AB3
76E5F
10C87
10594
722AB
1AEB0
7D0C1
0662C
71522
6E5B0
73EFA
1226A
69A4C
763DD
77D31
73885
17F2C
7422C
175CB
63F7E
1511A
1BCFC
20471
1606D
0E180
02CE6
76CB3
1805E
799C7
770BE
0E221
79193
11AF7
6FA0C
6F3D3
6DF9A
10E9E
73CA5
18D54
0DBDA
12A6E
0B806
0C9EC
7E350
718D6
018E0
11399
0EDFC
6FA22
1213C
18129
735EC
6EE10
6BAB5
12565
110F5
77D5A
1CCBD
77908
6EA2D
14132
1133E
69FE7
741A7
7288D
1038B
04399
7DA48
743E6
10611
06270
6F915
18737
0B685
27AB5
07DC9
765D9
1C71F
13548
17AED
1E5E2
6D2FA
16F87
6AA8D
0C1CF
18139
79B0C
6E052
16555
7A53E
7B7B3
0ADC1
6A89C
1A008
60DCB
6756B
7AE3B
0CB0C
7D098
6B3CE
71771
17526
6DBD9
759B5
1A603
106CA
1C3C2
109D2
0E7A2
0E708
17D61
6BD0C
71E41
164D3
0D29A
6DAF4
03959
6B2AF
6AD2E
1B816
1256B
169F6
704E1
76506
66FAA
0C502
09E4C
718D4
0B93C
75BD1
6CB24
6F34B
16EB4
13F5F
71073
6B59A
101B6
714EB
11A60
10222
18E00
1A488
6CFF4
0E384
7708C
11D3C
15B60
18560
0F4A0
77B36
759E2
12D43
65972
6ECEF
6DD21
6B94B
7AE1A
736C1
70603

