405B9
3B389
510AC
33EAE
2E917
27AD0
5D2F0
2D90C
4A9BA
40DF0
2C86C
27AD2
1FD94
3B92D
423E5
67DB0
2CF1E
2C973
61B3E
23C32
5CDB6
27A79
73167
3529B
34A2C
3A660
367CC
3BB99
4D822
353FC
610B4
7E32B
39358
2E75E
42FCE
2B304
66285
801DD
46BC2
2D659
61A5E
400D1
3C394
43AB1
4F51D
3DE09
7F1FC
2B609
31038
30F08
3733D
2ECD5
5490D
527FA
31500
3980D
336ED
6FB3D
2BB27
70D56
50571
57568
743B3
7A573
5A67D
46B60
2E111
28586
6E8AF
17185
2CA18
4FCD0
27EBE
63132
38198
4064A
2D50F
42B30
28844
73991
42EFD
56B93
3B2BC
3C766
2E5C2
324D5
2D829
5CDBF
4156F
35750
50193
651F6
366BC
3982E
42C91
4DB97
5C7A6
361A6
75EE0
236FB
48A04
5042A
63A6A
4369B
2F193
3075F
41911
2D437
253AD
2B2A7
4C06F
2D7DD
2FE31
7EEF6
38DB0
990AC
30AA5
31952
87E05
5D63A
70EB1
79F35
40A7B
70833
3FDBE
41A25
64A69
1D330
3C958
57D33
24C92
2B23D
33256
3887A
629B1
42B6F
3C3CD
30B7C
3C5CF
44C3B
313DE
38E8E
77640
3EC7B
2EFE6
831A4
52054
6E66C
483E9
51782
47027
75CA7
30AA7
3096C
6AF4F
3F342
3E0EC
2F74D
3ACFF
3E5E0
7A8E1
4ACF2
760C9
2A62C
3BE8D
401DE
3906D
32F38
2638D
3360F
4EB25
3236E
498ED
711FA
5E54A
36F2C
44342
5B25B
2D68D
521CC
4BB99
6654F
7E704
32D34
3DA15
2D7F5
50073
6EC68
76853
43E63
32831
363EA
4F362
45076
467D1
336FB
4746C
28189
317F6
35887

