2A01E
26B25
40CAE
230D1
1D4D8
1A942
48EB4
1DF9C
3C007
339D2
218E7
1A6B3
14A81
26C2F
31E62
51BB7
20464
1D6B5
4E5FE
18597
48F9A
1B4C7
5A1CE
24677
2C305
2DBCB
28265
277CA
3CAD4
2282D
4BF93
63FA2
232A4
24F23
34671
21D05
4DE5E
63A90
2FF6F
1ED85
4CCA8
2BFF1
29912
36A5F
3D4DE
2A4A3
6778D
1F298
2635F
1F145
249AC
1F878
43282
36058
21882
2A24C
23F75
57BBB
1D153
58A12
34A2A
48C91
5CE1F
63151
47278
3935B
25224
1B0D7
5879C
10285
1F3DA
3F88A
1B3C7
4CDA1
259C0
2BB0B
1E22F
35E86
1ABA2
5B812
38231
43D71
3058A
33CA6
2599C
21D97
22190
48803
33B5B
237C3
3EC8D
50E3A
24BEE
26124
2CA71
3D1BB
48878
237CE
5D484
179F3
30E59
3F30B
4D94D
2C814
1FDCC
20014
333FD
22F1E
1B89A
1BE8B
3A1DE
23902
1FA9D
63137
2C4E5
7A649
284BC
24B59
6A51F
4944F
5892F
61FE8
2B507
579DF
29EC7
32EAA
4FEAF
13856
2875C
45C73
19512
1EE1E
32676
246DF
4FAB6
29DC0
272DA
21EF5
31BD4
317C9
1F213
26AD7
5DB45
2A867
1FCAD
65DE6
418D0
59DE4
37AB8
3FDF1
39413
5C530
1E25B
207E1
5571D
317E1
28A94
23887
25E06
285F8
60230
38F26
5BD41
1ADB0
29A85
28AE0
2C3F2
27DE9
146F0
2708D
384D7
1FDE4
31951
58886
4B21E
24B9D
2D5E5
477D1
1DE9F
405A9
3CA17
50359
6353F
20E81
2F71A
1F7CB
3F56F
56ED7
5CFDC
36EFF
23B71
25417
3E652
2BD65
30C1B
212FB
2F7CC
1C6B4
209BE
2298F

