716C5
7E622
1A9A4
76C3B
75965
7AF0F
18DC3
7CCD4
1A8D5
133C6
0CD77
7C5E4
77F7C
771D0
14269
1E00C
0921E
77CE7
20D57
7CC9B
1D696
7D600
20773
7D5E2
0E97B
116F8
071EC
77F42
16F19
0CB81
1B447
262F0
7BE69
09AE0
14E8B
0CBFB
207A9
26D28
787A8
7AD59
1C979
7B51F
7EA62
1678E
17639
7AA1A
261F0
023A2
0B26D
786EF
767FF
7A847
19938
755DD
7CD88
7F2AE
7AAD4
21C26
7A58F
215D7
7015A
1C7A5
25B27
2A58C
1DABF
146C7
07A48
7C557
21B22
7CE85
7D098
15798
7E555
1AC8E
77BB0
784FE
750E8
167AD
79AF6
22FB1
13B02
1A433
10D4B
11F81
03973
78CAA
06781
19AE4
14842
77709
1902E
20AFD
7ADDD
77391
7568B
18FA1
197DE
7ECBD
26C2E
7C783
78B27
1ACDC
1A6BA
73FDB
7AB2F
79754
15BD0
08D02
02118
7A625
170C4
0A8CF
76C24
23E8A
107D2
34582
0C6C6
7CFC6
2874C
1B9C3
21A8E
289B5
7684A
20FB4
742F5
1218D
20A33
7DA91
76CDB
1DA7C
7F131
00CF4
0F5D2
73420
221E8
6BCD6
70D49
00E85
12053
050E7
73107
7973E
220FF
76CD0
7C05D
26159
17C21
256BD
16D55
15F78
14C39
22572
73836
78E69
1FC42
12C1E
76ABA
087D3
74127
742A0
2621D
18A6F
214A9
76CC6
7E184
70F1D
114FE
0E7BE
7770B
1006F
7FAF2
7477F
794EA
21010
1C467
78D86
7548C
187F2
7806E
18DB1
16CBB
2188E
257B1
74CDD
13853
7D1F9
18C80
1FAB2
22DDA
152BC
7E46A
7CD7D
19947
7042B
789C7
759A9
75D52
7FEFB
7A5CB
781B8

