68976
77939
1482F
6FEC1
6F363
75EF9
11372
77588
152CE
0E214
094BE
7785C
73817
6F741
0EFE5
15BD5
05201
71E68
19936
786D5
16501
78A4F
1738A
771FF
0A560
0CDA3
01D20
705EF
10D6A
082F2
1375D
1C55F
750A7
05907
0FC0D
0957D
18AEC
1CD4D
6FB90
752D5
14DD9
73A14
77C27
116A5
11218
731B7
1C29A
7D9F7
06EA5
721C7
6F42A
74AAD
12F9D
6AF23
76F9B
78A3F
74539
1909D
74D37
18793
65508
15E46
1CE8F
21657
16E05
0ECC0
0357F
7768D
19190
79FA3
77B64
0EF2E
79AE1
12B24
70874
703F4
6EC31
11884
74720
19F5E
0E66C
137F6
0C17F
0D36E
7ECE2
725B5
0219D
122A1
0F804
70803
12D8F
1907A
74340
6FCE5
6CC06
13133
11FF3
789BA
1DE74
781C1
6FC10
14D29
123A1
6B1AD
74D61
734DC
10D5A
04BC1
7E226
74ED0
111EC
06A42
705DE
19B96
0BF8E
2913D
085E5
7719E
1DC79
14401
18CAA
1F816
6E391
18153
6BB7C
0CC73
19071
7A21B
6EFEF
1725A
7ADAE
7C12C
0B5C3
6B81D
1AE76
6213E
6864B
7B8EE
0D485
7DED9
6C1B8
725A4
1883E
6EBF5
7651D
1BAD3
113D3
1D417
114E0
0F4F3
0F246
1900E
6CABC
72AB8
175A6
0DC8C
6EAEE
04211
6C284
6BDC9
1CAFA
130A4
17CEE
7106C
772DB
68161
0CDE6
0A675
7234C
0C125
76D7F
6D8F5
70540
180A2
14E27
71E59
6C743
110A0
720DD
12730
10DFA
19D65
1B870
6DDD5
0ECF0
77B5F
12999
16D14
19818
0FF15
786E6
766BA
13944
66C6A
6FE5C
6EAF7
6CB85
7B716
74317
713C2

