706F3
7E114
190E1
75D57
74EE1
79974
16F98
7BA80
19178
12185
0B320
7BC5B
77724
75E66
11FD5
1BEB0
0866B
76E49
1EEB7
7C763
1B755
7C6A8
1E145
7C2D4
0EB23
1019E
063B4
771BD
1562E
08850
19383
23A39
7B412
09342
136F4
0BE89
1D894
23AAF
772B1
7A0E2
1A7E0
7A1F1
7DA59
157A4
15972
795B7
24970
0149C
0A759
777C4
75725
7990F
1816C
73CF9
7BB8D
7E55B
79186
1F5BD
7976E
1EF03
6EA99
1BF45
23675
284D2
1BA69
13BBF
0163B
7B9EA
1FCC5
7CBA0
7BED1
14441
7D75E
18AE4
768E3
7719F
74308
1548D
78F49
20FDC
13AAD
184F0
1065A
12368
074AE
77B87
056AA
17C5D
133F8
767CC
17233
1EB19
79C14
75F9E
741A9
172F7
17B82
7F147
24496
7BB1C
7724C
19019
18842
72C69
79E9D
788AF
13CE8
082E9
0151B
79753
14F95
09C37
75C4A
213B6
0F3D3
312F9
0CD32
7BAFF
25999
199F1
1F443
26344
75467
1E892
72E02
109D9
1E8B1
7D62B
75A55
1BD08
7EA04
7FF2C
1222D
72416
205A1
6A78C
6FBA3
023D0
119B1
03EA0
7203F
7847B
1F913
75BAA
7ADE4
23322
16607
23BC4
14955
145CE
13DC6
1FD8A
72DE0
77FA1
1DF79
11869
756EF
076D8
72C13
72E5C
23330
1620A
1EB36
7600B
7CF01
6FB98
0FBEB
087E1
788C9
0DFF0
7E05C
73775
77EB0
1E9BF
1A902
77D76
7400F
16DCE
7744F
1723B
1598C
1F12D
22EF8
73AF2
118F5
7BB25
17347
1D6EE
20747
144ED
7C82F
7BC59
17F84
6F3BA
77043
74B58
74681
7F61B
7965F
77125

