6E1C8
7BD4A
18518
7432E
73324
79107
15FE5
7AC17
18893
11524
0B832
7A8D1
764B6
743DA
12378
1AE77
07A13
75977
1E1CB
7B271
1ABFE
7B99E
1CFFC
7B06D
0CFF1
0FB78
0521F
751C3
14A77
0B04C
1856F
227D9
79540
0822F
12F9C
0B78C
1D8E2
23136
7531F
78B67
19B1D
786FB
7C10C
14936
150AC
77CF5
22630
00801
09902
76100
73C8F
7852D
1719E
71757
7AA4F
7CB84
784BA
1E7D3
7846E
1E07E
6C0BB
1A021
2266E
26FD8
1B1F9
12504
0607D
7A7CB
1E78C
7BCF0
7B0A5
13070
7C96A
17C06
75079
7549A
72B24
149FD
77B86
1F992
11B4A
17B9C
0F0DF
102FA
01CBC
7660E
04D4C
16DCB
12A2B
74D67
16B32
1DD0C
785E2
74710
72299
16C37
16AE6
7C79C
23709
7AD5A
7557F
188F8
17591
70A8A
78802
77267
13E64
0748A
0097D
78565
14D33
0915A
745CA
2016F
0ECB8
301E9
0AE72
7AC77
2473D
18D9A
1E558
25319
73685
1DA4F
71027
101A3
1DC8A
7C564
73E03
1B36F
7D7E0
7F089
0DDCC
7059F
1F69D
6827D
6DAAA
7EE6C
103E6
02622
7074A
76CA5
1E7B7
73C7E
79E25
222E7
15504
225BF
14C29
13786
12A7E
1ED6D
70F28
76906
1C9C7
10E47
73ACD
06DAB
711AA
710D0
22970
168C3
1DBC3
74A25
7B805
6D9F7
0FA55
0CF42
757A4
0E8B3
7C5E7
71E0B
75F0A
1DA47
1980F
763D5
71F91
15B33
75C98
16741
14933
1EA5F
21BF8
7233A
11C0E
7B17F
16769
1C597
1F5B1
1335E
7C159
7A6F4
17546
6CB43
7557F
73026
726A5
7E405
780C8
7587C

