4AE7F
3DE9B
577FF
3CE3B
345F8
2D6DD
65757
31963
4FF35
46C47
2E559
2BEE5
25592
42AEB
44221
707BB
2DEA9
336F3
697DE
28491
62FC1
2CF22
7C6AF
3B642
3D0AA
3EAC1
3B880
4321A
5320F
315D0
68F9C
88BDE
39F8B
34CC8
473DD
2E54C
69888
883A3
506B7
33DE2
69888
487F2
42AA0
499A5
53FF6
46405
8DB0B
303BA
36119
35B45
3F8D5
35390
5BC46
5BDB3
37233
432D6
3C76B
77F27
316FA
79988
5C9EB
62673
7DBA4
84ABE
60037
4E9FD
398F2
2D03A
78DCE
1B42C
336BB
58421
2C402
6AA9F
407F5
49BDB
361B3
488CA
2E067
7CF0C
4CFA1
5CB72
429A5
46FA5
36EB6
39EC5
327CA
64587
46426
3D32C
55709
6D929
3D4FC
418DE
4CF75
52C74
646BB
384AD
7DD9E
27949
51E61
55027
6BE78
4D7E3
358C2
368DF
45376
323CF
2A850
2F986
4F576
324E4
379A7
88B38
3CEA7
A439C
37FE6
3C268
9196B
647F3
79524
8428F
4A319
783C2
49613
46845
6C21C
202B8
457F3
5DC1E
2891A
308F1
44D7B
4119C
6AB54
4E14B
46DD5
340C2
4419F
4B873
38E8C
4130C
81361
48B1D
34E45
8BF7A
5A38C
78CD1
4BB83
58BBC
4E9F5
7EE22
36E0F
37A4F
75256
43C25
45EF3
3397D
4316C
46EE4
82F54
4CD7F
7EC22
2FEA1
43362
4939B
3C888
39CC8
245E1
35579
599AF
393DA
52889
79A1C
66E2E
3E5FC
4E25F
63465
33FF2
57E7A
52EF9
6C496
881FB
3ABF7
40853
33F06
56461
77C80
7F956
4AB9C
3A1E0
3CF5F
545A3
4E77D
51C04
3A9A1
513F7
2D031
3703D
3B783

