63949
4F535
6887B
5044B
45ACF
3B911
7ADD1
404B8
5EE97
5521F
37EAE
3910B
31DDE
579F9
51CF0
878BE
3825D
43F22
7DD46
343CC
767DF
3A2E6
96257
4CA1B
49AE6
4B5F9
4A115
57DD6
63F7B
3C80B
7EBA2
A450B
4B137
40B04
555EE
37B81
7E428
A3A72
68C2D
43A28
7F170
5DDF2
557CA
57D1A
65049
5B38F
AA5AA
3D093
41F65
46AC5
53C33
457E1
6E399
783B7
47578
55F3E
4ED64
901B9
40B37
92520
7A9BC
759DD
965C8
9DDCF
72A86
5EAF6
48E0D
3A7C4
91274
23969
428E3
6ACD3
3902F
8105D
54A9D
60476
48156
5687E
3C7FA
96047
5C9B5
6F5F3
504BA
555E4
43E8A
4BFA8
3EC76
793AA
542BF
507BB
666E7
8315C
4FBC8
562A9
65338
6307F
7956E
47E55
96471
338CA
6AA66
655FC
82A59
663BF
45CFA
47778
52B12
3DB53
35C18
3E5C2
5F427
3D5CD
498F0
A4EB9
495F8
C399A
43C46
4DBB3
AF0A4
78EAD
91E1B
9DC8C
615A6
90B2C
60F8C
5537A
814AD
29A82
5B463
6FBDF
3401F
3DD10
52ABF
569A9
7EFCA
693F4
5EA11
41A1B
51DF7
5F0F2
4C3E7
55133
9BD77
5F525
44B77
A88A9
6CB99
90003
5AC1C
6B614
5EA60
98CD7
496D7
49021
8CEC1
51759
5BE3A
3FA36
58FF9
5DD95
9D130
5BC41
98F4C
3FB56
56608
61A27
48BF9
473F0
30517
4012A
72951
4C452
6B3F2
9274D
7BB3A
519C3
66BBB
781D4
448F0
69917
63AA3
81584
A3B87
4E20F
4D53F
43471
67796
906BF
99871
59911
4AEB3
4EBD5
64D20
68710
6A7F3
4DA9E
6A918
3974E
47D1D
4E1FA

