6ECA1
7CE82
17EB6
748AC
73C6D
78A5F
158C3
7AAD0
18182
11233
0A8E7
7AE58
769CA
74810
1113E
1A616
07B82
75CAC
1D906
7BAA4
1A286
7B88A
1C5D3
7B071
0DDA7
0F412
05433
75B9F
14438
07C6E
17C4F
21CD0
7A1D3
08694
127E2
0B485
1C278
21D6E
758BB
79011
190E2
78B24
7C645
1487A
1474B
77F58
22ADD
006F4
09AA9
765AB
74196
787B4
16DBB
71EB5
7AA44
7D154
77DEC
1DBF8
78726
1D4A3
6CA9C
1AAC6
21C2F
269F3
1A686
12A9D
005E4
7AB8C
1E2DC
7C2BE
7AEAC
13079
7C9C2
1730B
75360
75995
72FDB
145A4
77FD9
1F51C
12A01
17109
0F7BF
1140E
066D3
76845
0498E
16616
12521
7533A
16013
1D427
7886D
749A1
727CF
161A1
16532
7E0A2
22A88
7AE58
757E5
17EA4
17000
71205
78D44
776A5
12E88
076AD
0091E
78794
13E9A
0906C
74923
1F59D
0E689
2F181
0C0A4
7A83E
23A2F
18428
1DA11
247EE
73BB3
1CE79
714D8
0FA2B
1D21F
7CC0D
7431A
1A9D9
7DDD1
7F108
1136D
70D26
1EFFF
68A92
6E249
01552
10B01
029CB
70BA0
76F45
1DCAC
74387
79D03
214A8
1524A
22305
1394B
131EA
12CAE
1E1E4
71A17
76D1B
1C61C
109CB
73F84
069FF
714B4
715EA
21755
1521F
1CF44
74F32
7BA90
6E18F
0EEE4
07989
77C0A
0D47E
7C5B8
72329
76453
1CF44
192CE
768F2
725D6
15794
762A4
15F63
147B4
1DAB7
21188
72646
10B4C
7AAC9
160EE
1BCA6
1EB9A
13518
7B643
7A962
16DF4
6D805
755DE
73703
72B7F
7E8D5
78472
75D3F

