FACEA
059DA
21131
FE08D
FC5C7
00426
20FB8
02995
2043E
18A94
109BC
01844
FCB58
FF408
19A15
26C85
0D63C
FE14D
288BA
016BD
24F44
0266B
2A49B
04003
131D8
164E2
0CC05
0002B
1D6E2
11899
23900
30A59
03306
0E0D6
1A630
105E1
28C32
31701
01C82
00D86
24CD3
037DB
05F81
1BD85
1E09B
02A02
30B3B
071E7
0FA71
FF26A
FE311
00BBA
2096C
00703
03154
061A3
016C9
2B068
0036E
2ACFF
FB870
2379A
2F088
33DB4
24E44
1A66E
0C35E
0190E
2AD4E
00055
02B1F
1C689
03470
2360F
FF61F
00E19
FBBEB
1BBC9
FF40A
2C908
194E1
21734
15DD4
17054
08ACD
FFA0E
0B1C4
21AAC
19D84
FECFF
1F8F6
28D29
01F24
FF1A7
FE9B9
1F3F5
21748
055F0
302C4
011A1
0232F
2128A
23205
FD6EC
00EDA
FFFF2
1AF2E
0D257
063FA
002EF
1D58A
0EB45
FD8CE
2EBAE
1549A
4050C
10BB6
033D2
33CCC
236E1
2B150
3246E
FF54E
2A6FA
FD2E5
17BF8
28B91
0168E
FF196
24921
038EC
05D78
139E2
FB7E3
29C91
F6227
F9CB8
06976
170DD
0CA14
FA74C
00FF2
2C34D
FF5BA
02150
31247
1EAF3
2E18E
1CB51
1D0A6
1ABCC
2C42D
FAC87
FF856
28B47
180A8
FF283
0D1F2
FC7B5
FCFC4
302B1
1E9D6
2B5E1
FCEE6
05718
FA5B5
16089
12D1B
FD007
143AD
0913C
FBCF1
02D8F
2A875
2420C
003A6
FEAA8
206B9
FE5F8
1FA99
1D168
29B6A
300E6
FC2D5
1886C
02DFC
1F596
2912A
2CCF9
1AB9E
047C6
03AAC
1FF4A
FA568
01DE9
FCF45
FF83C
04B5E
00EAB
FF68F

