21C85
20E47
3B1DA
1C977
17891
15DDC
41C8C
1912B
3703C
2ED35
1E5CB
160A6
107BD
1FC80
2D572
4A0B6
1CDD3
17EA6
47987
145D9
42790
16E30
51896
1EA85
27F9B
2980E
234DE
20936
37106
1ECC5
44B91
5AC93
1D76B
20FBA
2FB16
1EAF3
46FD3
5A84B
27D9D
1996E
459B0
24DF1
234AE
31E8E
37A17
234CA
5DEAD
1AE4F
223F1
196C5
1DDE2
1A1B2
3D011
2C901
1C216
23E2A
1DD77
4FAE0
17FE9
50634
2AA3A
42618
54ABD
5AAF6
40F08
33DB2
20071
168FF
50610
0D61B
1A322
395A4
16FB8
45661
1EE33
242D7
1824E
313F5
15E71
53253
32ED5
3D9F1
2BC83
2EFE6
21455
1BD4C
1E001
418A2
2F129
1D0E9
391EE
49B7F
1E9AA
1F335
24930
37B0D
418E7
1E496
5523D
13A1D
28A57
39BC3
46003
24420
1A70E
1A5E1
2EC1E
1F1F2
17CAC
16FCC
34CF8
1FE0A
19ADA
59AB7
28275
6FEF5
245F2
1ED95
6080C
42766
50632
5973E
23982
4F766
220F4
2E043
48DD4
105BE
21337
3FC89
15810
1A769
2DCB5
1D430
48E8E
20CDD
1F41B
1D682
2D261
2AF9F
18AF5
200CA
54D3E
22FBA
1A847
5C581
3B621
52228
32A86
39A7E
33E9A
53AF4
17F6E
1AB46
4D84F
2CED0
2157D
1F84A
1E92C
20BBE
576E7
33F8F
53188
15974
2344D
208B1
282CC
23631
10734
23752
2FFA1
19866
29583
50420
4431A
1E505
252C6
408AC
1864B
3A774
370DF
49309
5A211
1A723
2B2CB
1A5FD
399B2
4EB6D
5457D
31FD8
1E1D5
1F545
38E7E
232DF
28821
1AD51
270C2
18455
1B01E
1C612

