392E9
35B0B
4C17D
2E5BB
29635
239BE
56F8F
2921E
463D4
3CB8F
29A56
23BD4
1C392
35599
3E0DA
61244
29B06
27CAC
5BCE3
20381
5716D
23CFA
6B939
30173
312D6
36ACB
322E6
35905
488C5
31908
5AB36
76326
33A2B
2B1DE
3ECC7
286BD
5FD2C
77FFB
3F9EE
28CCD
5B5EC
39CD8
36A04
3F8F4
4A3C3
37C39
77086
27A2E
2D926
2BCD7
31520
2A0C8
4F340
4A083
2C8AF
34333
2E45F
689DE
2735F
699BF
4796E
51FCA
6D178
73119
54E26
4223B
2A92D
24582
678E8
14B6E
284DE
4A7F9
24240
5C80C
323F7
39D72
2833A
3EADE
24425
6C44E
3EA43
513A2
37526
38997
2A78C
2D12E
29F5F
56C08
3D43C
2FD1B
4B172
5EE6B
3101C
337C3
3BC05
48EDD
56637
31134
6EBB9
1FE4E
415C1
4B669
5CFE6
3C315
2A55C
2B75E
3D951
29F32
22088
26BB3
47360
2A50A
2AB19
76A8F
352F8
8FE34
2D5EE
2CCD1
7F33A
5768C
69B68
728E3
39EA5
69484
38FAC
3D500
5E77B
1A551
363D8
52896
215B8
274AB
2FE4A
323B8
5CBE5
3AD04
3561E
2C5F1
38838
3EF91
2B96E
33241
6FA23
383C8
2A5C2
7AA58
4CB95
67C44
43C0A
4C0F5
42711
6E345
2B1B4
2B86C
641F1
3B29C
37916
2BE9F
3461A
379F2
72E15
463FD
6E580
25B23
364A3
38EB5
356A9
2FA2D
21F81
302A3
47838
2C99E
42433
69D70
58535
314D7
3D077
55169
288E7
4CE84
46E9C
6013E
765A0
2D2FD
39CD5
29198
4B017
67957
6EEA5
3FA6B
2DC36
3106C
4A55F
3D52A
3F68B
2DD0B
3FDF5
2471F
2C7C3
2FF2E

