69348
5AB41
6D36A
53902
4C0E0
3ED34
808A4
46CCC
6379D
587C9
3CEC4
3E167
347C7
5F002
5A188
8E12A
3F7A2
47E7C
83457
37EE4
7DB05
3D889
9DD7D
52092
48528
4F98A
4EFFC
5ECB9
69BEB
4A390
8526F
ABBE8
58EF5
417E7
5AD53
3AF0C
8A371
AE532
6F3B2
478FD
85621
639E4
5C166
5B0E8
6C435
60AD0
AD2E7
40ABF
449B5
4E2E3
58AF5
49DBC
73178
82B15
4C768
57B0E
50CDA
98096
453C1
99F50
82269
75CC0
9CDF1
A3BC7
79D5A
60BBE
41F35
3F1ED
964F4
24A58
45428
6DFBC
3D715
887BC
5968D
65B1A
4A6DF
5994F
40C04
9D50E
5B631
7602D
5114C
5273C
447E0
50101
41B68
7F9F7
5888F
558CC
6C9AE
88897
553D4
5BD07
6AD39
69053
7F246
52B93
9EE5E
3799E
71FCD
6BEC5
898BE
6C832
4A36D
4CEC8
583F4
40203
376CD
4468E
67716
3F929
4D733
AE0A2
4DBE9
CD26C
436B8
4CCCE
B9413
7F6DC
99EEE
A40B6
67050
99AB2
6704E
5A3BD
87D8B
2D853
60B1B
75ED3
384D0
410B9
45A9B
5C608
83FA0
6FB0C
63426
49757
52465
65BB8
516AE
59BF6
A38BE
64072
495EC
B33CF
702BA
942AD
61D06
7042B
6102C
A0F99
504FB
4D681
91DDE
56343
62FFC
439F1
5F6B4
64C42
A63E0
64C3B
A1E8E
4514E
5BE5C
69164
4D940
45D29
3E6E4
45AC2
77959
522AB
73161
9A958
80835
5715D
6D0B0
7DA35
4908B
6FBDD
671D6
89EEE
AC790
52EB8
536BE
4687B
6C9E1
97B63
A1CF6
5C148
4D8B1
53F2F
6AF70
70E52
6EC9F
536F0
716C1
3CE0B
4E077
5551C

