68C20
78A68
13C1B
6FCE1
6F8C0
75314
1050C
77149
146FE
0DA04
0836C
77AFA
738D4
6F629
0DBC2
14BE2
0537D
71C19
1897B
78BE5
1563B
784C6
16132
76D03
0AC38
0C265
01B59
70A88
1025C
050DD
1273D
1B0F8
75EED
05813
0F09F
08FCE
17168
1B22A
6F987
75266
13C93
7378A
77CA7
110E1
104B9
72D53
1BAC2
7D4E1
06C25
7234D
6F28A
74812
1258B
6AFB9
76AE4
787E6
73610
17D79
74B72
173F0
65552
15FA1
1BBD6
2076C
15D9A
0EBCC
7C9FA
776DB
183DB
7A22C
7737A
0E7F2
797D9
11B98
70481
7016F
6E98B
10EF5
7473E
19308
0ECE0
12812
0C231
0DBC6
03405
721A7
0197A
11469
0EEB7
707CD
11D9F
18003
7405E
6F903
6C906
12210
11361
7A39B
1CAFF
77F88
6F717
13EA3
1170D
6B141
74DA8
73480
0F9D4
049D1
7DD2C
74DD4
10058
0652D
702EA
1873F
0B5D0
276CC
09298
7637B
1C6FF
1344B
17A02
1E3B6
6E11F
16ECC
6B892
0C0AD
17F5C
7A6F2
6EDEE
16382
7B114
7BD2E
0DD57
6B90C
1A0AF
62052
68557
7E031
0D524
7DD67
6C001
72180
17484
6EB08
75F1E
1A4E6
109EC
1C849
0FE7B
0E8FC
0EE00
17C85
6D18B
72932
1691F
0D436
6E9A6
03AE3
6BF04
6BC47
1B130
117C2
168CE
7116C
76F9B
68217
0BF1D
044F1
74D4D
0AA86
76408
6D8BC
703AB
16E2D
14165
71DB5
6C5AE
10612
721DE
11A4E
10646
1885A
1A599
6DA79
0D934
76ECB
11DA8
15C47
18622
0FB0C
7748C
763D9
12D8B
67270
6F515
6EC75
6C877
7B828
742B8
7144A

