16D0F
19275
338BF
13FA9
0FD86
0F953
38456
12893
305D7
2870E
1A1A5
10340
0AEB8
16797
27433
3FCB5
18511
1093C
3E8E7
0F0DB
39CD8
11012
461A0
16FEC
225B9
23DBC
1CD7F
175C5
2F947
19D8E
3B0E3
4E87F
15DC9
1BB2D
2969D
1A831
3DC70
4E545
1D085
1294F
3C066
1B5F1
1AED4
2B976
3010F
19FA9
512D9
15344
1CF5D
11E1A
14E2A
12DFF
34CD0
1FF38
14EDB
1B8A7
15AD0
44F11
1135C
45662
1D4FA
39D77
49B91
4F7D1
38A73
2CB7C
19381
10933
45954
09AE3
13782
311C7
114F9
3B762
15ECB
1A292
10277
2B088
0F784
48000
2BFB0
35546
25B25
28991
1B7F7
13CE7
18899
38421
28E3A
147C6
3191A
40285
166A5
160A2
19CD9
3077A
38426
175A1
4A48A
0E500
1DA55
32765
3BE4A
19430
13367
12D9D
28C4B
1A062
12CC5
106CE
2DBC6
1AF69
11B2C
4D20C
229DF
61FD9
1F239
17090
5369D
39630
4578B
4E107
194D1
44970
17930
277BA
3F75A
0C248
1785A
37CA5
106B8
14923
27A5E
13B47
3FE59
14BAF
14B1D
175E9
27073
224BB
10177
17363
48FDF
18ED3
137BF
4FA4F
3328D
47D2F
2BF97
315E5
2CCA4
482A4
0FB87
12FCC
42F3B
26D63
1795D
1A2A2
14D60
168C4
4BD30
2D572
4773D
0E924
1AC04
15B1D
22BF0
1D691
0B238
1EB03
24E03
11114
1E5C6
45399
3AF15
15C3B
1A3F3
3747B
11084
329D9
2F9E9
3FD4A
4DDD2
11D51
257B8
138E9
31F61
43C34
48CFF
2B64E
16A5B
176D8
31963
17A2C
1D828
125C4
1BCB3
12BD7
1389E
1416C

