5C826
50EB1
64752
49BA2
42E3D
37A15
758D0
3EF4E
5BBF2
51258
37D3A
371F3
2E126
53FD5
52AEA
8231C
39B79
3F6A6
78D67
31A98
737BF
36BBC
908DE
490FD
42341
49020
47617
53E51
60F7F
43B43
79EDE
9D968
4F130
3B940
536BE
360B7
7F021
9FF67
62A4F
3F6DF
7A46B
58904
522F1
53C99
63446
55DC3
9EDDC
3A0D9
3E846
45179
4E473
4172F
699AA
73B6A
44063
4E4EE
47ACB
8B801
3D4C2
8D2CE
72AB4
6C547
903D6
96DEC
7010E
58A55
3BC53
380AB
89F32
206F4
3D9AE
649A3
36C0E
7CDB4
4F0E7
5A19B
41618
52784
3937F
90598
53C9A
6C495
4A457
4B9E1
3D9D0
46D01
3B6F0
74D16
51535
4B933
63BEB
7D879
4BA92
51271
5E61A
60895
745E4
49D3F
922A2
31557
6521D
63534
7DC4A
5FBCF
41C95
4413C
5132A
3A436
31C51
3C905
5EEC0
39F3F
4442F
9F662
47408
BCF48
3D974
44573
A9E84
74D94
8D2F7
96F61
5B187
8CE07
5AD90
52968
7CE84
28729
55788
6C921
323C3
3A3CA
3FE86
513C4
799AC
61B62
57218
41C4E
4B76E
5B7C5
476AC
4F8A8
95D28
58737
412C0
A446E
66CCB
886DE
59DDE
66B0B
58EDE
938D8
4679C
44732
85C5E
4F0E2
57847
3D5A9
540A9
58D4D
98A9F
5CB28
94470
3CC8C
51F48
5C5A6
4730C
3FF50
36E80
3FFC9
6AE04
483C5
662DC
8DB2A
75E38
4D18C
60598
72EB0
4072B
66885
5E9A0
7EDE3
9E2A3
48F1D
4CA60
3EBFE
63BB4
8AFD0
945AE
54908
45244
4AB77
6256B
6342D
62436
497D1
6452A
366B2
45294
4B709

