66526
51429
6A6C2
526BF
47992
3D233
7D3DE
41EDE
60930
56BA9
38FB7
3A865
33420
59F33
5353F
8A1BF
3948D
45C7C
8016E
3590B
78A8C
3BA6E
99015
4E8C1
4B15F
4CC8D
4BAED
5A2B2
65D6A
3DBD8
8124E
A7610
4CFA0
42027
56F0D
38C31
80901
A6B33
6B773
45630
817C3
603F2
57941
59660
66E8B
5D8D7
AD89F
3E756
4348A
488F0
56021
474CE
70469
7B629
49246
5809E
50E0E
92CAD
4265A
95115
7DF0C
77C05
99194
A0A98
74BAC
60784
4A949
3BFB7
93DA3
24837
443CB
6CDCB
3A6DE
8381D
56E77
62C88
4A14C
58159
3E1B5
98CDC
5E57E
7171E
51D12
56F79
455A1
4DFC1
40250
7B8CA
55B7A
52A04
6851C
8579B
51C89
5874E
67E4E
64D63
7BA9E
49A12
98FDE
34E11
6D667
67314
852C7
68FBB
479E4
49589
54306
3EFB7
37012
40002
61074
3E976
4B8DB
A80E3
4AC1D
C7161
45134
4FAF4
B2500
7B2FB
949C5
A0A1A
63ED2
936AA
6397D
56D9C
83A4C
2AB5F
5DB1A
71BD8
35475
3F4A1
54355
58FE3
813D8
6C43F
61451
43241
53673
613AB
4E646
5748D
9ECCE
61D5E
46799
ABB75
6EC7E
92942
5C6D7
6D73A
606DD
9BAEB
4B7D0
4AF00
8F906
52FB4
5E542
40FA0
5B6EC
60653
9FF9D
5D6C9
9BDDF
4176A
5881A
6458C
4A1B0
48BD8
31A55
4143E
755B9
4E627
6DFE2
9536F
7E03B
53BF6
69770
7A6E0
46661
6B87E
65860
83AF4
A6C97
50484
4EC03
44FB6
6962A
9328D
9C690
5B373
4CC92
50B70
66A66
6B53D
6D3F2
4FC81
6D61B
3AD6E
49AFD
50323

