431E2
3D592
52F21
360E4
308F7
293D6
5F929
2F454
4C49C
42778
2DA26
2930D
213E3
3DF7A
43DAE
6A701
2E327
2E6FA
63F88
251FF
5F134
29220
75F9F
371D1
35F74
3BD4B
3824C
3E183
4F6A9
36AA9
637BD
81469
3B5A4
2FBF2
44995
2C40C
68981
833D2
49789
2F2A2
64100
42744
3E606
453FA
51468
403A8
823C6
2CD0E
32567
32EA5
3976F
30A15
56A0E
55C14
3325A
3B8AF
356AE
726D8
2D6C3
739CB
53B4A
59656
76FA2
7D234
5C877
48782
2F690
29E25
713AD
1802B
2E4B8
51D71
29602
659A3
3A59A
42E9D
2F489
443ED
2A277
766AB
4496B
58D66
3CA6C
3DF2C
2FDAF
34502
2EE00
5F354
42E82
37A02
52064
6783F
3880D
3BD44
457DB
4F919
5ED1F
38097
78B2A
24CC8
4B6BB
52212
66362
46309
30EE4
32625
43196
2E89B
26759
2CDF2
4DE13
2EB69
31E27
821E2
3A445
9C902
31EEB
336BF
8B367
5FB06
73B08
7CCB7
433F5
734B1
42814
434BD
67076
1E4D5
3F062
59DBD
261AB
2C9EC
3465B
3AF3B
64DC5
45C0F
3EDFC
3263B
3DD7F
46FDF
336A7
3B20E
7A5FC
414BF
30C69
865AE
540EC
70F40
49F8E
538CB
48C43
78B56
32CDE
32893
6D960
40C1F
408DB
30D1A
3D492
40F64
7D81B
4C901
79034
2C309
3E122
42E29
3A6A5
3439F
27DB9
349D6
51759
345F9
4C5D2
73ECD
60A3E
391EA
46F68
5D7A5
2F46A
541D4
4D935
68BCC
818C9
34FE6
3F1A4
2F305
51F5B
718A9
79720
45887
3456A
38407
51163
47FE3
49363
35993
4A1FC
29800
336CE
37AE4

