54C81
4AF65
5F20B
43BD8
3D4FB
33402
6EDCA
3A2EC
570AB
4CADC
34B98
32E1C
2A2AD
4D498
4E2B6
7AF6D
36360
3A3F8
727CA
2DD8B
6D45D
32981
88772
43996
3E7AA
44FF5
42BE4
4D429
5BA07
3FBC6
73191
94F8A
49127
37FA2
4EE90
33108
782FB
97388
5AFBA
3A7AB
7383F
51D5A
4C27D
4F5CD
5DCA9
4F46D
96271
36064
3ACF7
3F8F5
47F19
3C548
63D43
6A988
3EE34
4898D
421E4
83DE9
38774
85653
693ED
66914
888D2
8F09D
6A1EB
53B8F
38023
33BBA
826D2
1DDEE
38F20
5EE46
32AE9
75C77
48C12
530B2
3BDF7
4E240
34A24
88750
4F297
665E0
46204
47751
396D1
412EB
379C8
6E3DB
4CEFF
4580E
5E5A1
76D46
45D48
4AA9B
56CE5
5B5F5
6DCF6
4469D
8A69F
2D84D
5D4E9
5E177
76994
57F66
3CA80
3EB14
4CE82
36B1D
2E53D
37C9B
59BC3
36883
3EAB2
967CC
434CC
B318C
3A0AE
3F310
A090C
6E68B
856D0
8EFF5
53D66
85172
53706
4DEF1
763FA
255C2
4EA3A
66E03
2E8B1
3617B
3C679
4A741
734A8
5933D
4FBF9
3D16A
4751A
553FA
41546
49542
8D77F
51677
3C2E9
9B2B9
61187
8148C
55077
60DD6
54029
8B620
407D1
3EFF6
7E696
4AB42
50874
3989F
4D1D9
51911
90660
57C97
8BFAB
37BBD
4BE74
549A1
434D6
3C631
32538
3C868
6323F
4230C
5E527
85DA9
6F6BF
47045
589F9
6C648
3B38C
60ED5
596B7
7821F
9574A
42DF6
4886A
3A038
5E52A
833E5
8C2A4
4FFD5
40071
4518C
5D169
5AF64
5AA38
436F6
5C596
327CA
3FC37
456D1

