3BF12
37D14
4DFF1
307F1
2B616
252C5
595C8
2AD66
47EB6
3E517
2AC10
2540E
1D9E1
37BE6
3FAA3
63B95
2AF0F
29A33
5E12E
2194F
594EC
254A1
6E772
320A9
3281E
381B6
33D66
37EEF
4A74B
32FB5
5D23F
79463
35C77
2C672
4068F
297C5
62427
7B1F0
425B5
2A916
5DC8E
3C34B
38C76
4123D
4C30D
3A1D8
7A251
29133
2EE54
2DC74
33952
2BE08
51440
4D49D
2E609
363D5
30420
6B578
28EFB
6C634
4AF48
540B8
6FD67
75DD9
57020
43E5D
2BEAC
25E21
6A3E6
15A14
29F7E
4C89A
25984
5F07D
347FA
3C5C5
2A2B4
4039B
25E58
6F168
404B2
53575
38CD6
3A15D
2BF79
2F15B
2B537
5919D
3ED4F
31FCD
4D044
614B4
3316E
35CD8
3E74F
4AC60
58BB0
33025
71803
2141A
44278
4D450
5F8DE
3EF83
2C2AC
2D624
3F1D6
2B396
23434
286FD
49103
2B896
2CB0E
79D7B
3698E
9368A
2EA34
2EA3E
8289C
59B59
6C7BF
75665
3C81F
6C103
3BA02
3EF98
60D88
1B6F5
38AE2
54921
22AD1
28C59
3124F
34A79
5EFF8
3DDA4
3804D
2E0B0
39FE8
41335
2DC37
355C1
729DF
3AC0D
2C246
7DE61
4EC2E
6A518
457AF
4E23F
4432D
711F5
2D3EA
2D793
66C01
3CB79
3A105
2D46C
36DAD
3A375
75D4F
4800D
714EB
277FF
38738
3BB00
36CE0
30E94
239AD
3166A
4A46C
2EC29
45118
6CA43
5AA29
33795
3FC9E
576B3
2A6C5
4EE8C
48C38
627BB
79764
2F5B0
3B464
2ACA8
4CEFF
6A599
71D72
4148F
2F96F
33088
4C360
40496
4221C
2FFA2
42B85
25D96
2E69C
3218B

