42038
3C7F4
522F2
35335
2FC37
289D4
5E9DF
2E96A
4B9DB
41D41
2D30F
2895C
20AF7
3D028
4335E
6967A
2DB23
2DB2A
63104
24947
5E302
288AA
74D22
36555
356F1
3B420
377B2
3D258
4EA73
36197
62820
800B7
3A7EC
2F3B7
43F45
2BD3C
679E9
81FD6
48606
2E751
6318C
417E3
3D83F
449DD
507E3
3F49B
80FDC
2C3D9
31CEE
32200
388F4
2FE62
55CDA
5473D
3269C
3ABA1
349FA
71567
2CBB8
72803
525C0
5892A
75E0F
7C04D
5BAE0
47C42
2EDF7
2944C
7027B
17A4F
2DA12
51064
28CB4
64976
39733
41E7C
2E7F2
43A07
297FC
754A1
43ED9
57FDF
3C0F2
3D5AA
2F41D
33823
2E543
5E44C
4247A
36C21
51411
668EF
37ABA
3AE6E
4468A
4ED4B
5DE22
37437
77973
24410
4A4D8
5161B
652FF
45143
3032A
319D6
427C7
2E073
25F7A
2C307
4D238
2E397
3115E
80D84
39B3C
9B279
316CF
32AF9
89E0D
5EC4E
7294C
7BA83
4235D
722E5
41725
42A1A
6613D
1DDC7
3E0C4
590B9
2593B
2C073
33E59
39FBB
63F57
4489C
3DD1C
31B88
3D405
4619E
328BD
3A3DB
792E4
404A4
30101
850DD
533E3
6FEEB
4947F
52B7B
48105
778AA
31F2E
31C1D
6C88C
4022D
3F8E2
30462
3C4BE
3FEC9
7C537
4BDC8
77D3C
2B77D
3D34D
41C71
39DC1
33B76
27341
341EC
505AB
33828
4B3DD
72CDF
5FB76
38404
45DBF
5C8BB
2E878
53504
4CD5D
67C67
804E1
34205
3E838
2E832
512FE
706F5
78467
44E12
339BA
3772E
50562
46CEA
481F5
34BBC
48FC2
28F04
32A78
36D25

