407CF
368FA
504F2
34B51
2D114
2775B
5C6BD
2B606
49A22
40B3C
2A49B
2662B
20100
39D74
3E5BE
66BED
2998B
2C768
60E79
233D3
5ABF9
275B9
718DF
341CB
37B47
394F3
3564D
3A609
4C04D
2CA90
5FCAA
7D198
32BFD
2FC76
4146A
2A5E0
60C83
7CA5D
46247
2D35E
606E8
3F78B
3AB77
4399C
4CCFB
3D659
81967
2AD3C
310C1
2E8A3
3704C
2E5A6
53F95
4FE01
304BB
3B400
34B4C
6DBF0
2AFDA
6F280
4FF55
5A4A7
7353A
7A08E
58243
47D7D
33175
27539
6E9B6
17BEA
2D07C
506DC
26DCD
61392
37FBA
40399
2E841
42A57
27EA0
725A3
4660A
54D6A
3CD25
40E6D
316F6
324CC
2D4C0
5B872
4062A
350E5
4E440
647D5
35885
38D9F
42BBC
4BEA8
5B96A
31B44
7389A
2286E
4772B
4E19A
624D5
430BF
2EAE3
2F69F
3F86E
2D653
25C67
295C8
489EC
2DA32
3005C
7CC96
37A7F
96FA8
3305D
34BA3
85275
5BDFF
6EF38
79574
406A4
6DE7E
3F6B2
404F6
63328
1C2A2
3C4D4
562A0
23BD3
2AF62
3F00F
38058
62255
429C5
3CD4A
2E4FD
3E496
43481
30BEE
38CB7
75F7B
3F241
2E35D
7FE71
5268C
6F017
455EE
50DC4
47DB2
73F09
2F0C1
30501
6B1B7
3DF98
3CAA2
2E81E
39D6A
3D411
77EE7
468AF
73B28
293EE
3B1E9
3EEB5
37603
341F0
1F526
30CFB
4F0F3
3134C
48195
6F268
5E18F
36409
43C4A
5A79D
2D00F
50727
4BDF6
63654
7C78C
32909
3B1CE
2D766
4F02E
6D60B
74A11
44759
3305F
35744
4D663
43807
474D8
328DB
468EA
27C1F
2FEB7
3397E

