292C9
295A4
410D8
21F4D
1DD52
1A897
491DD
1F3E4
3C7E6
3377C
23387
1AF4D
1422A
27776
34B4A
522A2
226D3
1D166
4EA67
1850B
4A390
1B3CA
5AD23
24C68
29765
2E5E1
28934
27D1F
3D7B8
29586
4C8CD
64590
2733C
23A86
35744
223F9
51B14
65E3E
2FC02
1E8BD
4D5DA
2BDD4
2A238
3664D
3EE47
2A207
64FBB
1F4A8
25E4B
2057E
2432E
1F721
433D8
37252
21E71
285EA
22C36
58CF6
1D33F
597E4
3411B
460CE
5D2A5
62D89
48915
37F0F
22C80
1B6B3
57F8F
0F675
1EA70
3EAB8
1BB4F
4DD7B
2531A
2B38F
1CCAE
35B63
1AC30
5BEB9
350F3
44F73
2EBC4
2FFB6
21CC5
21693
220B2
4920E
342CB
233E0
3FEB4
5105C
24EDF
260AC
2C0F4
3E3B6
48CDC
25DBF
5EAD7
17FDD
31268
408F4
4E249
2C161
1FB56
204E6
34B1B
228EC
1AE71
1CD6A
3C778
233AA
1F1BB
64333
2CFFE
7B777
26055
22227
6BD9D
4A11C
59A3B
620F3
2AE17
59275
29A21
33AC1
50ACC
13EFA
2816D
46BD7
19B5B
1EB51
28A2F
242F2
4FAA6
29302
26170
22ACF
2FED4
320D9
1EFAE
2645A
5E544
29A3A
2005F
67C85
40E89
58F77
39BB7
3FFE3
38409
5D47E
1EB47
203BA
54DF7
32264
29173
2402F
26091
2892C
61C26
3C13E
5D27C
1B3C0
29C11
28DD1
2D5CB
283D9
187B6
28FEE
377D8
20144
31FCE
59979
4AEE0
24B55
2D064
47925
1DBB1
414BB
3C2DE
52203
644FA
209BF
31432
1F4A2
3FCD4
578A8
5DF35
362CC
232B8
2562B
3F75A
2C21C
2F9D9
21469
2F5B1
1C4D0
214DD
237DF

