0BEB3
12CDE
2CE04
0B4A9
08B6B
09F50
2FCB4
0D2B8
2AAEC
228DD
177A2
0AE7B
055AC
0E17D
239F5
36CAE
15274
09863
369BA
09DEC
32B54
0B911
3C32E
1018A
1B5CC
1F2F7
17050
0EB3C
29425
1A52D
32B06
43BA1
107AC
16069
24604
16F76
37DE1
44CB9
12BF1
0BCE6
33C59
12640
13514
25A49
2A29B
11341
43FF0
100A2
17DC5
0B668
0C37D
0C114
2D608
14A0B
0E750
12BFA
0DBA5
3BEC1
0AE99
3C0A3
1064E
303C3
400EE
4532A
320ED
254DA
148A5
0B1B6
3B7DA
05B2A
0D034
290D8
0C4B0
330CC
0D564
1081D
07F0F
25529
0967A
3E0A8
238C3
2E8EA
1F0B0
203B8
11F25
0C188
1392E
303AF
238FD
0C41B
2B808
37A88
0EDB5
0D793
0F61B
2AAEA
2FFA0
115C6
4155E
098CA
1386C
2CBF4
33006
0EA67
0C49A
0BEBA
24733
150C5
0DDEF
0AC22
28D4D
16477
09EF4
42769
1E09D
56252
1896B
0EA40
487C3
31B09
3C439
43E93
0F673
3BAD5
0D960
220DB
37779
083F3
0E39F
312E4
0BBB9
0F04B
1B5FE
0A829
37C3D
08F9C
0A245
10F4A
203BB
1A70E
07EF6
0EC0C
3EB43
0EF63
0D21C
454EA
2B509
3DEB0
276B4
29F09
25A13
3E5A1
080A3
0B97E
39014
21AD2
0EA1F
1591B
0BD13
0D125
42784
297CF
3DBDD
081D5
12D80
0B852
1EA49
1AB98
0724B
1BE4B
1A34B
0931C
143E9
3BE5B
32729
0DB0E
0FC65
2EDE7
09F21
2C132
288FF
38A0A
43573
099F5
21A7B
0D5C5
2B536
3A38C
3EF21
24DB2
0FCF4
101C5
2B950
0CB6D
12C07
0A5BD
112BA
0D6AA
0CDE8
0CB9D

