6AB55
545B1
6D733
55DDE
4AAC9
3FA6A
810C1
448B5
633BE
59485
3AAFA
3CDC1
357BC
5DAC3
55C26
8E359
3B1A8
48B73
83B47
37B0A
7C209
3E014
9D944
519CB
4D553
4F0AE
4E446
5DDAC
68D50
3FB88
8502D
AC47E
50047
441F9
5973D
3A6E5
843F5
AB936
6FCAF
48309
85514
640BF
5AECB
5BECF
69EF5
6147D
B2A27
40BC1
4565F
4B934
5999E
4A315
738EA
806E0
4C05E
5B606
54250
97166
451C6
99769
83459
7B2AB
9D7A5
A5240
780B4
63533
4D4DC
3E609
982BA
25FE7
46ED8
70289
3CB2B
877B6
5A7D3
66CA3
4D46E
5A91E
40AE1
9D431
611F4
74C2F
54404
59868
47A94
5131C
42547
7F431
5830D
560DF
6B571
894CB
550F1
5C1F0
6C33E
67B9E
7F61F
4C674
9D559
3701C
71CCE
6A1A0
89377
6D61A
4A827
4C5A4
5695B
41057
39008
42A01
63DBB
408E9
4EBEE
AD128
4CF8D
CCA9F
472B1
52CF6
B78C6
7ED11
98FA1
A52FD
680B3
97C3F
67C98
5976D
8767C
2C65B
6190C
74F00
374FF
41A57
56AAB
5CD0E
84D86
71185
657EA
458E5
55D9F
64B39
51D45
5AD1C
A388E
65DBB
4949C
B0CBC
72120
96B3F
5F19D
70C44
63473
A04A5
4EC93
4E064
93CA7
556AC
623B5
431E3
5F53E
64783
A49E7
6013B
A0863
44457
5BE9E
68AFA
4C46E
4B218
33C53
432C3
79CC5
51C47
7262D
99A0B
81B71
572AD
6DD5E
7E227
4957D
6EABC
687F6
876DA
ABB16
53BA5
51071
47B58
6C718
978A4
A105C
5DDAB
4FC5C
53E02
6993E
6FF1E
71A55
532B9
71E21
3D0D4
4CAC9
53833

