054B8
0DB2F
284EC
0628E
03EE9
0633F
2A0F7
0913F
26A67
1EB98
14D17
07455
02020
08592
1FC12
30985
1225E
05184
312A1
06998
2D624
0804D
35440
0B6A0
182B8
1BBF7
130B7
0903D
24AE2
16EC2
2CD56
3C575
0B55B
12F07
20825
14697
32053
3D4D5
0C2DF
07903
2DFA1
0C9F8
0E267
21D9A
25782
0B8F7
3C870
0C962
14AEF
06A8A
06C9E
07AE1
286D4
0CCFF
0A0DE
0DDA7
08F71
3561A
06C57
355F0
08511
2B4BB
3977C
3E7C3
2CF61
21155
1150E
0769E
350AC
03800
0904D
24288
08CD9
2CFBD
07EF7
0A755
03385
219CA
05799
3746A
1F953
297BC
1B7D7
1CAAA
0E5B9
07450
104C3
2A97C
1FCCE
070D7
26E11
31EA6
09DBF
07E93
08E37
26418
2A5B0
0CB84
3AB12
06478
0CD1B
2842E
2CDB3
07FC4
07E3F
074E0
20C5A
11FD4
0AEB9
06AA3
2462B
1358D
05240
3AD31
1AA6A
4DB1E
158C1
0A3A2
407A5
2C2B7
359CE
3D15B
092E9
3500D
073C5
1E107
31C28
0599B
085EE
2C4CA
08917
0B775
185F3
04B26
325A8
01AEB
03D06
0CF19
1CAE1
15184
02B7A
096D9
378B2
08EBE
08DAC
3D806
266CF
37CB3
2345C
24F25
2169D
37595
02E88
06EB9
32B1F
1DF25
08A46
124C9
05E18
06D84
3B62A
25477
36A10
03C91
0DA81
04E05
1B4F6
17AA2
0337B
18ED4
13935
04035
0D82A
352C8
2CE79
087AC
0926E
2946A
05774
27452
241EE
32DAB
3BE03
046AF
1E1F1
094D2
26B08
33956
37ECF
20EF5
0B6D2
0B4B3
2714E
0599D
0C377
052B8
0A560
0A0BE
083E1
07924

