289F5
28ED5
40AC1
21876
1D6F1
1A396
48A38
1EE6F
3C285
33261
22FFB
1AA75
13DB4
26FCD
34622
51A5E
222D1
1CB7E
4E325
180AE
49C77
1AF0F
5A3E4
2462A
29323
2E14C
283E8
2758A
3D19D
290FD
4C0FF
63BB7
26C60
23668
3521C
22091
51349
65441
2F340
1E315
4CE20
2B623
29B54
3613F
3E805
29A81
645C6
1F00D
25A0F
1FF2C
23BF1
1F148
42D3E
367E7
21892
27F63
225DD
5843D
1CDB9
58F00
33656
45A38
5C9DB
62496
48249
3796F
22833
1B1C7
576F6
0F387
1E51D
3E432
1B6A7
4D565
24BE6
2AB7E
1C662
35670
1A6F3
5B5B4
34BAA
448B0
2E707
2FAF4
217FC
21023
21C53
48A8A
33DC7
22CEF
3F88A
508B4
24835
25941
2B84B
3DDCF
4855D
2578F
5E1FB
17B81
30976
402F9
4DA17
2B87E
1F579
1FEBE
34633
224D8
1AA82
1C7F5
3C18B
22FC1
1EB56
63904
2CB79
7AC32
25C47
21C45
6B2EF
499C0
5915D
617D9
2A5CB
5898F
291A9
3356F
50330
13B73
2799E
46555
19723
1E694
2862F
23B32
4F36F
28948
25900
22576
2FA17
319B8
1E8B9
25D40
5DBB8
2922D
1FAAB
6721D
40804
5874D
3962F
3F93B
37E69
5CB28
1E470
1FD7F
5458D
31D6B
28977
23BD3
258A7
280DF
612B4
3BBA1
5C900
1ADFA
29526
284F5
2D15A
27FC5
1827A
28BF9
36F00
1FA5C
316D3
59082
4A77C
24462
2C790
471B0
1D5B8
40E53
3BCF2
51A50
63B06
202CE
30F7C
1EF38
3F6A5
56FCE
5D5D9
35D91
22CE0
24FBE
3F15A
2B8A0
2F122
20D7E
2EC94
1C052
20EB2
230FF

