3A493
368A8
4CDAB
2F36A
2A2F5
243C1
57ED9
29D08
46E95
3D5C5
2A16D
24585
1CC7E
364EB
3EB2A
622CA
2A30A
2887C
5CB67
20C3A
57FA0
24670
6CBB6
30DEF
31B59
373F6
32D80
36830
494FA
3221A
5BAD3
776D8
347E3
2BA19
3F717
28D8D
60CC3
793F7
40B71
2981D
5C560
3AC39
377CB
40311
4B047
38B45
78471
28363
2E19F
2C97C
3239A
2AC7B
50073
4B55A
2D46D
35040
2F113
69B4F
27E6A
6AB87
48EF9
52CF6
6E30B
742FF
55BBD
42D7C
2B1C6
24F5B
68A1A
1514A
28F84
4B506
24B8E
5D839
3325E
3AD93
28FD1
3F4C3
24EA0
6D659
3F4D6
52129
37EA0
39319
2B11E
2DE0D
2A81C
57B11
3DE44
30AFC
4BDC6
5FDBB
31D70
34698
3CD56
49AAB
57534
31D94
6FD70
20706
427A4
4C25F
5E049
3D4DB
2B115
2C3AD
3E320
2A75A
22866
2769D
47F3B
2ACDC
2B7E1
77EED
35C01
914BD
2DE0A
2D896
80894
58544
6AD24
73B17
3AF3C
6A650
3A09B
3DFA3
5F6B4
1AC5F
37376
5359B
21E28
27E24
3064C
33338
5DA53
3C077
366FE
2D0A4
391B2
3FDD2
2C758
34074
70D3B
393E4
2B12A
7BF28
4D89F
68C99
44719
4CE46
43250
6F5F2
2BF64
2C4E2
652C4
3BC8E
3890F
2C758
355EE
38A8D
740F9
46F37
6F878
266AE
37279
3A06D
35F8C
30256
229F9
30A8C
489E6
2D76F
43628
6AF5E
593FD
322BC
3E220
56053
294D9
4DB54
47A74
610A3
77988
2E0DE
3A641
29C6B
4BC74
68B0B
7015D
404E0
2E7E7
31D44
4B160
3E822
407F8
2EAE1
4102F
2501B
2D41A
30CED

