06EA4
0DEEA
28925
077D7
04B1D
0678C
2A7A1
090EA
26B93
1F2EF
13ED4
07BD3
02DA3
08FAB
1E730
30EE6
11B92
05EFC
31732
0759F
2D3B4
08799
35856
0BE27
1A365
1BAC6
1379D
09FFC
24BA7
12AB3
2D09A
3CC2F
0AD6B
14095
204ED
14764
306B9
3CA7C
0D589
086BC
2E220
0D98B
0ECBF
226E1
25190
0C76D
3EB4B
0CF40
154BB
06F22
07DC5
0863D
28E7E
0DAA2
0A7C6
0F70F
09D5D
355F2
075F6
35771
09FC3
2D75B
39D90
3F410
2CA34
225E1
0F58C
07E4C
35EDE
04505
09B73
25293
09165
2D0D6
08EDC
0BA2D
0491A
2205F
06247
37D6D
21E86
294E8
1CDF5
1F530
13208
082BC
109DA
2ACCC
1FEC7
080ED
269E6
324B3
0A8AB
08C19
0A2F4
25FE5
2AC74
0D4BD
3A8AC
06997
0DB1E
27EA8
2D3CA
09515
08BB4
07F3A
20159
12A1E
0B8E8
06E90
237A3
13D67
06209
3AF15
1A96C
4DC58
178D3
0BB49
406F0
2C3A0
35A4C
3D8CF
0A604
34D31
085ED
1E026
31D2A
06077
097CD
2C334
090C5
0C070
1EBC6
05D8E
32D40
03392
05612
0E9D7
1E273
15B58
03A1B
0A65B
37D49
0A584
09494
3D3AE
273C3
38DF8
2248A
255A1
22765
37762
03C46
07CC1
33A13
1E020
096FC
1266F
06B77
07C75
3AFE7
23B94
3691D
04649
0E665
05F6D
1ADFC
14BE9
036FF
17C5E
14C79
04CDD
0E6F4
353A1
2D874
095E2
0A674
29D9A
065BF
273B8
24D6B
32428
3C145
0557A
1D3A9
09AC0
26E06
33E22
3817C
21D47
0BD1D
0BF86
26F95
06E5B
0D900
06138
0B79F
0AB85
08B58
08114

