5E2A5
5231D
65998
4B029
4415D
38919
76FBF
3FFAD
5CC14
521AA
387DC
3807D
2EE89
556D0
53A63
83BE7
3A77E
4085E
7A32E
327AD
74D0B
379ED
92499
4A3B7
43006
49DE0
485FD
55511
621D0
448DE
7B64A
9F6F3
505C4
3C598
54636
36AEE
80784
A1D60
64494
407D7
7BB99
5A016
5379C
54BC4
6470C
57455
A0BBC
3AEA9
3F4FB
46470
4FA2B
428BC
6AD77
75AAD
45200
4F883
48DD9
8D22B
3E552
8ED7B
74B03
6D909
91E33
988C5
71571
59B36
3C939
38F70
8B8FD
20FBE
3E9A7
65D37
37A04
7E5F8
50682
5B9CD
428FA
5365C
3A338
920A7
54C76
6D8E1
4B28D
4C825
3E82B
4804F
3C40B
763A3
52441
4CE05
64E69
7EF72
4CE90
528B1
60013
61A49
75C60
4AFD0
93D35
3226B
66CF1
64725
7F4DF
61678
42E2C
453B2
521E0
3B072
3281E
3D964
60088
3AAF9
4575C
A14F0
48194
BF115
3E59E
4571B
ABE8B
763A9
8ED92
98AAE
5CA6A
8E8B9
5C6F7
5395D
7E558
291BF
56EF4
6DCA8
3306C
3B1FF
40A88
52B04
7AF51
6388E
58B68
42C5A
4C5A4
5CD27
48B8B
50DF5
979CD
59F60
423DC
A63A7
68059
89F5D
5AE74
67F04
59FBC
954DB
47C23
459E3
8759C
4FFCD
5903D
3E2BD
55867
5A636
9A6F5
5DBFE
960E3
3DDDD
53408
5E039
48061
40B8E
37E34
40BA6
6C889
4987F
67DCC
8F60E
77464
4E665
62016
7450F
41916
67BBD
5FB64
804FA
A007F
4A3EE
4D882
3FC3B
64E3F
8CA5D
961C3
558B7
463CD
4BEBB
6376C
650A1
63E5A
4AC92
66080
3742D
46516
4CBA8

