52058
48D5C
5D396
419A2
3B51B
31AFB
6C791
387A4
555C9
4B155
339DE
315E2
28C5E
4AE4B
4C8ED
7861C
34F57
38670
70380
2C7BD
6B0DF
311DA
85939
41A60
3D261
4390B
41164
4AE3F
59B80
3E51A
70A88
91E4D
46EDA
36B0F
4D4C9
32001
75C00
94193
583F2
38B61
7119D
4F6E7
4A00A
4DC84
5BD5F
4CECE
930A7
3495E
397C8
3D959
45AE6
3A808
61C42
6756E
3D0DA
468EA
40223
8124E
36BD8
829DE
65E13
64826
85CE2
8C3DD
67FF1
51F6D
36AA4
3231A
7FBD4
1CF48
37480
5CDA4
313A5
73406
46810
5085F
39E7E
4C983
32FF1
85A36
4D828
6440D
44A54
45F8B
37EE4
3F2BF
363F1
6BE46
4B5EB
4355C
5C6CF
746FD
43BF7
48585
5419C
59872
6B77C
427AC
87A55
2C280
5A831
5C390
7409D
552F8
3AD30
3CC4E
4B5FE
356B9
2D191
36150
57E1F
354F7
3CABC
934DF
41E37
AF936
38C68
3D5A3
9D3AA
6C1BE
82A79
8C273
513EC
824F4
50CB0
4C459
73DED
2441D
4C330
64D78
2D398
349CD
3B274
48080
71095
5629E
4D1CA
3B6AA
45D6A
53055
3F27D
471C2
8A7C3
4EE32
3A665
97EB0
5F0EF
7EBB8
534D3
5EC8D
5240D
88770
3E59B
3D0CF
7BC86
49265
4E084
382D2
4AA46
4EF8E
8D726
56087
89041
35EE1
49BDF
51D56
41E9E
3B1CA
30B0C
3B4A1
6060B
40081
5B842
830D7
6D1CB
44D86
55DD2
6A0FF
395AF
5EECC
5791B
75BA2
92586
40B43
470DB
38528
5C641
807A4
893D8
4E5B1
3E338
4316F
5B368
57FF8
57EA7
4145E
59806
31152
3DD5E
43474

