03164
0BFF5
26C8F
0472F
02569
04F3A
28263
07B6C
254E5
1D72B
13EE9
060F3
00E47
066EE
1E771
2E878
11257
039E4
2F599
05826
2B9BF
06D61
32F45
09DA7
171B1
1A9A2
11B84
071E9
23276
15C9E
2AE1B
39E11
099EB
11E91
1F386
138F8
30124
3ACDE
09FD9
06262
2C0B9
0AB35
0C6D8
20960
23E7A
09ADF
3A09B
0B6F7
139FD
05140
04FA8
0637B
26C6D
0A351
08962
0C38B
0760A
33338
05641
3325F
059FC
29A63
37456
3C3F6
2B433
1FAD4
103DB
062EB
32E47
02C48
07B00
2286D
07A3C
2AF62
06228
08713
01A57
20600
042A3
35055
1E42E
27CAD
1A4E4
1B7A6
0D295
05A93
0F34A
28B6B
1E8BF
05515
2556A
30005
08318
060E8
06B95
24C7C
287B5
0B2C3
387A3
05308
0A955
26C41
2ACED
05C38
066CC
05C42
1F8BD
10F84
09EFD
054CE
22E75
125E9
038AF
38474
19859
4AE0D
14889
08C18
3DCF1
2A547
33655
3ACF4
071BB
32C75
051E7
1CBC1
2FDB7
04B7D
066B3
2AAC2
07837
0A483
175F0
02C26
308CB
FF405
01B46
0B9B3
1B7EE
13501
00FA7
07A72
35282
06E88
076DC
3AE64
24CBB
35C0A
21E3F
23483
20020
3503C
01329
055CC
30979
1CB41
06A52
11358
03E6F
04C4E
39062
23E04
34421
0257B
0BED7
02A96
1A330
16A4F
01E8B
17F01
115D8
02492
0B43F
32EED
2B0E9
06BE1
06F1C
27695
03F90
25AB1
22A3D
30EE1
39633
02AED
1CF19
07F2C
2524F
315EE
3595F
1FA0B
09F71
09B03
2594D
033AD
0A09D
0370C
080EC
08EC5
06B34
05DA6

