5D0FB
5157F
64D69
4A27A
4349D
37F16
76075
3F4C3
5C153
51773
380C5
376CC
2E59C
5477E
53012
82B60
39F7B
3FC8E
794A9
31EF4
73ED9
37077
9121C
4973B
42783
494B5
47B64
545E7
6159A
43FCC
7A6AD
9E341
4F80C
3BD5D
53BE6
3641F
7F7ED
A0965
63311
3FC87
7AC25
590B5
529D4
541A7
63A88
56549
9F7D1
3A574
3EC82
457CB
4EBB0
41D08
6A044
745D6
44642
4EB75
48125
8C0B9
3DA47
8DBB3
73579
6CBDD
90CA0
976DF
707DA
58FF5
3C0A0
38597
8A7CB
209E2
3DF01
6502A
370B6
7D5CB
4F81B
5A9AC
41C63
52C76
398BD
90E9D
541E3
6CB59
4A913
4BEA2
3DE99
47371
3BB4E
7549A
51A39
4C024
64215
7E022
4C13C
519DC
5EEC2
60E7C
74D63
4A36F
92B7E
319B3
65B0E
63B2F
7E47C
604B2
42272
44764
51811
3A84A
32040
3CE7A
5F4AD
3A327
44A93
A0091
4788C
BDA8D
3DD82
44B56
AA931
754F1
8DBD5
9787B
5B9D3
8D6ED
5B608
52EBA
7D620
28AB0
55F57
6CFA3
327FC
3A886
40287
51B84
7A0E3
6251B
57A88
421A7
4BC2B
5BEE6
47DA1
4FFC2
966B4
58F44
41874
A4ED7
67350
88F08
5A365
671B3
5947D
9422E
46E74
44D6D
864C8
4F5DB
58043
3DA05
54893
5959B
99411
5D0C5
94DEC
3D252
52633
5CE81
4777E
40365
373BC
403BD
6B6DB
48AAE
66BD7
8E421
7659C
4D87F
60E6D
73625
40D24
66EED
5EF8C
7F595
9EC97
4960D
4CF16
3F168
641E3
8B8AA
94F0A
54E42
4581D
4B1E3
62B6B
63DA9
62CEC
49EBC
64E47
36B30
458C0
4BDE9

