1782B
1BBD1
34DEE
14459
1114E
1086C
39D3D
1454C
31BD6
29417
1C215
1143E
0B360
18258
2A642
41A35
1A699
11469
40225
0F97F
3C067
11C69
48550
184A3
20F2F
25337
1DF9C
18A79
3145A
20468
3CEF9
50A6F
197BA
1B6D5
2B249
1B6FC
4219A
51E89
1E3D1
133B4
3DE9B
1C7BE
1C5C1
2C47B
32606
1B142
51110
16152
1D6BB
13B2D
15B85
13BEE
360A2
224DF
16297
1B50C
16100
475E4
1228D
47B5C
1E878
38E10
4B975
50F20
3AFA1
2CB03
1A2ED
1191F
46C6A
098B2
14008
319E3
12667
3DAA7
16CA2
1B17B
1033F
2BD10
10483
49E14
2A7C8
376FA
2542C
26791
183A4
148A9
194E9
3A187
2A24F
155D3
33978
41B55
179A4
17354
1ABE9
326DA
39D05
197B9
4CF62
0F459
1F43A
3498F
3DC16
1A504
13FB9
13FF7
2AE2E
1A66A
1308D
11EC1
309C8
1B690
12530
4FD4A
23F76
64EED
1DE92
165D6
567F8
3B598
47E74
4FDB4
1A4A5
475B4
18B2F
2908D
41748
0CE0E
18795
39B92
11455
153C1
20A12
14AED
413C3
15BD3
15373
17FA1
26739
23CBF
1110E
18126
4B3C1
19883
149DF
52F7A
33DEE
48A2A
2EACD
32AD8
2D022
4A9B5
11053
13C57
440C0
28341
191DB
1B4AA
1634A
17F7F
4EDE1
30DA9
4A304
0FB0B
1BEBE
17258
2479A
20148
0E036
2115B
25CF2
12431
20079
47A9C
3C25E
16CFA
1B5D3
38A82
11C8F
347BA
3055C
42BB0
50678
12BAF
27D6D
1476F
33705
45D6C
4B3B0
2BB7D
177B1
188A5
33754
1929B
1E304
13706
1D217
13506
14F74
15BF1

