0776A
0E51B
28F33
07EBB
05144
06C93
2AF3D
09625
270E4
1F80A
1423D
0807E
03216
0971D
1EC0D
31719
11F35
064DB
31E6D
079DF
2DAA4
08C4E
3617B
0C449
1A7E4
1BF4A
13CC8
0A75C
251A4
12EA9
2D856
3D5FD
0B380
144CF
209F3
14ABB
30E18
3D43C
0DE31
08C57
2E9CA
0E124
0F370
22BEF
2579D
0CEE2
3F57C
0D3CD
158F5
0752B
084F5
08C06
2950E
0E4B9
0AD89
0FDBC
0A3E5
35E89
07B63
3603C
0AA6D
2DE30
3A653
3FD05
2D0D5
22B97
0FAFF
08316
36781
047FB
0A0D5
2592B
095EE
2D8C9
09608
0C231
04F7E
22557
0676D
38658
22415
29B8A
1D2D4
1FA4D
136A6
08927
10E39
2B439
203B9
087C8
26FF1
32C5A
0AF38
0936D
0AB92
265AC
2B3E5
0DA49
3B15C
06DD8
0E3EB
2847A
2DBE0
09DE1
0917D
0853E
20623
12E32
0BCE7
073D0
23D4C
14155
0686B
3B91D
1ADDA
4E77F
17D03
0C189
41168
2CAE3
36308
3E1EC
0AE40
355E4
08E51
1E560
324B0
063D6
09F8B
2C999
094D7
0C526
1F0B1
06533
33476
03D3B
05E86
0EEAC
1E759
1624A
040FA
0AD6D
386C1
0AD8F
09A34
3DDD7
27A57
39637
229E3
25C42
22D18
38099
042DE
082EE
34287
1E4FF
09ECB
12AB8
07341
0849B
3B930
240E2
3726D
04BE6
0ED36
0681B
1B254
150B1
03B3F
1802F
1555A
053A1
0EFBD
35C75
2DFDA
09CB9
0AF31
2A503
06BA2
27A00
2535D
32BA5
3CB15
05C5E
1D837
0A034
27423
346E5
38AB6
2228D
0C316
0C5D8
27570
07798
0E1CD
067FF
0C09F
0AFF2
09151
087B6

