605F9
53E57
671F5
4CB88
45ADE
39D1E
78E53
41580
5E195
53616
3960B
393DF
30062
57573
54F04
85CF4
3B785
41FFE
7C036
3391E
76970
38CD9
94994
4BCB0
4410D
4B035
49B30
57366
63A3C
45B01
7D585
A1E57
52134
3D60F
55AD5
3788E
826B4
A4557
6679A
41E79
7DA81
5BED9
5532B
55FFF
66014
5926E
A3391
3C114
405ED
47DBB
51720
44022
6C7DE
7845C
4697B
5129F
4A73F
8F50D
3FB68
9110C
77617
6F361
94159
9AC93
7309F
5B1B8
3DA6B
3A323
8DB62
21B77
3FEF4
67751
38CA1
80652
52351
5DA0F
44228
54A26
3B82D
944BC
5619B
6F3F0
4C580
4DB29
3FB4F
49A0C
3D584
781B4
53850
4E9C6
66710
80E13
4E937
5465C
622B4
631E5
77A5B
4C890
960A4
333DC
690B7
65F12
815A5
63A03
4459F
46C50
5357E
3C0C2
337DB
3EF3A
6183E
3BA9C
470ED
A3DAD
493A5
C1E27
3F5D6
46EA5
AE940
78119
9110B
9AF16
5EB98
90C51
5E8D5
54EA3
803C8
29FDD
58E2F
6F6B0
3414D
3C4F1
41A8C
54A05
7CC2E
65F74
5AD27
441C0
4D898
5E9AB
4A75F
52A5C
99FFD
5BF97
43AAC
A8D49
69A6D
8C006
5C491
699A6
5B639
97A34
49781
472CF
89742
513B1
5B030
3F42E
57810
5C76B
9CCBE
5F271
986D2
3F4F3
54FB2
603A8
49227
41BE0
39324
41B79
6EBE6
4B421
6A1B7
919EA
791F4
50230
64368
762E3
430FA
6955D
61315
823C5
A2850
4BFB0
4EB5B
411E2
666F9
8EDC5
98733
56DA1
47B2E
4D86C
64F6D
67691
66134
4C83F
684F4
38626
47DC3
4E725

