FC7F4
06949
21618
FF4ED
FD63A
0080A
21707
02D8E
20680
191E3
0FE17
02318
FD911
00234
18ACE
27318
0D674
FEF71
28DCD
024E1
24FEC
02E30
2AA86
049B0
14E02
164F8
0D569
013EC
1D9E6
0DF72
23DA9
311E9
039DD
0F043
1A57A
107F8
27AB4
31136
03119
01C38
2507F
04924
06D96
1C6D8
1DE95
039C1
329A7
078C2
10462
FFC80
FF53C
01853
211CD
01AF0
03A4E
07838
0213E
2B2BA
00ED6
2B06A
FD52D
2558F
2F726
349E1
24C40
1B961
08E0F
0234A
2BAC6
00CC4
03534
1D54D
03B30
239CA
006A1
021EB
FCFA7
1C1EB
00080
2D405
1B4F0
216DF
17175
193F8
0DA48
008C3
0B6D0
21FB8
1A0CB
FFEA6
1F71D
2935F
02C33
000DA
FFF3C
1F219
21F23
06B54
303A8
018BB
033E8
2101B
23A27
FEDF1
01DD5
00CFA
1A650
0DCA2
06D00
00AD2
1CC19
0F2B4
FE8BD
2F072
15544
40864
1294A
04484
33FFA
239AD
2B461
32BB4
00990
2A7ED
FE68D
17CD7
28E36
02060
004AE
249B5
0437F
066E0
18E5A
FCC4A
2A441
F7C0C
FB587
08E12
1856A
0D767
FB77D
02006
2C962
00CA8
029AC
312A5
1F6C3
2F13D
1BEF5
1D7A9
1BB21
2C849
FBEF7
00774
29974
18393
002AB
0D510
FD774
FE1A2
2FF79
1D6C4
2B822
FDB96
064EC
FBA87
15B78
0F111
FE644
133E0
0A3BD
FCC4F
04000
2ABED
24BD5
013EF
0005E
210D1
FF5DC
1FC65
1DC67
295E6
306D6
FD28C
17D24
03321
1F9D3
297AD
2D238
1B904
04B9C
0476B
20055
FBEE5
031D4
FE073
00C91
05773
019D2
0030F

