3ED7E
35667
4F2C7
336A6
2BE9F
26846
5AFE8
2A656
48A2D
3FBE9
29A62
25828
1F3A5
3871E
3D728
65353
28EA1
2B5CB
5F8C8
22713
5972A
2679A
6FD6D
32F67
36DCB
38767
346CC
38FEB
4AE57
2BEAE
5E576
7B42F
319BF
2EFC7
40558
29BDC
5F668
7AD1C
44850
2C28D
5EFE9
3E0BF
39763
42A72
4BAD4
3BFFA
7FAD4
29F94
30411
2D689
35ABD
2D44B
52BE5
4DFBC
2F372
39FF9
337B3
6C22A
29F92
6D821
4DF58
59028
71AF3
785AF
56E60
46C5B
3211E
266DA
6CFCD
17308
2C057
4F315
26031
5FBB9
36A37
3EB8E
2D514
41B6D
26F30
70AE3
4555E
53983
3BE8A
3FF14
3091B
3118A
2C7A4
5A22C
3F753
33C53
4D220
630E3
344DE
377A2
411E2
4AD52
5A31A
30AA0
71E8B
21BA9
45CC4
4D025
60C93
4165B
2D98A
2E495
3EA0E
2CA17
2506B
28608
478F1
2CE67
2ED35
7AE7C
36D35
94E31
323CE
338E2
8330B
5A837
6D506
77A1F
3EDF0
6C466
3DD88
3F548
61C96
1B883
3AD99
54F71
22F9F
2A13D
3E14F
36968
60CB3
40CCB
3B3F0
2D67F
3D5E6
41FAC
2F74F
37781
74313
3DA1E
2D27C
7DFF7
512D0
6D758
445E4
4F9E0
46C9A
72363
2DCF8
2F27C
6985B
3D0FB
3B337
2DB45
3860B
3BB9F
7630B
458C4
71F36
28315
39D77
3D4AB
368FC
33398
1E867
30189
4D64F
2FEFF
46739
6D7ED
5CB5B
34F84
42210
59162
2BE65
4F44F
4AC1E
61FDD
7AA1C
3145D
3A425
2C70A
4DDD5
6BBC2
72E65
43784
31E73
3444D
4C4D2
41C52
45A73
31486
44DE8
26ED9
2ECCA
32598

