0928A
10AD5
2AF8F
09273
06B8A
08649
2D67A
0B770
2900A
20F56
165E8
09641
03F5C
0BB30
2202C
3435D
13E6B
07ADB
34570
0881E
307D5
0A16A
394F6
0E253
1A084
1DC0D
155D0
0C552
2759E
18E81
303FC
40A64
0E560
14BD5
22C3C
15E6F
356E6
41AC5
10029
0A09D
315B7
0FFCC
112A1
24100
28351
0EDA2
40E26
0E99D
16896
096CC
09F4B
0A3D4
2B507
115F1
0C9F5
10B58
0BBE4
39326
092FD
3942E
0D074
2E2D5
3D4FF
4266A
2FEF3
238B8
13326
09916
38CDC
04C83
0B594
27036
0AD6C
3085B
0B161
0DFCA
05F95
23C6C
07C47
3B38E
21E55
2C717
1D900
1EBF3
10738
0A15B
12356
2DE1A
21FE9
0A169
29937
3543F
0CC64
0B27E
0CAD1
28D68
2DA27
0F6D5
3E913
082FD
10BB5
2AE0C
3070E
0BDF8
0A74A
09FF5
22EAE
13C61
0CA43
090D8
26FA9
150EA
07EFF
3F47C
1CA08
529FC
17524
0CCD4
45262
2F63C
397E2
41111
0CCFA
38E57
0AF0A
20643
3516C
0724E
0BC95
2F25A
0A6A1
0D89C
1A1FA
08168
3582A
05EFD
07815
0F48B
1EC0B
1836A
05C2D
0C88C
3BB87
0C71F
0B598
420E0
29471
3B5DC
25B0F
27DBF
23DF7
3B6F1
05E6D
09A56
36603
201F5
0C22F
1434E
0957F
0A7A2
3F849
27BBF
3AC72
064F9
10AEB
08C07
1D411
19731
0581F
1AA84
17717
07091
11704
39189
30235
0B850
0D03E
2C89D
08144
2A12A
26B62
3638D
403AF
07742
202EC
0BAB5
2964E
3774B
3C054
2338E
0DFBB
0E1A8
29B4F
09C01
10076
08326
0E529
0C032
0AF10
0A940

