5EA53
4BD7C
651FC
4C648
42371
38BD3
76952
3D5A7
5BEB6
52427
36003
36704
2F5CF
536F6
4F12D
82EF1
3619F
40A4B
79C31
31D8D
72972
3788C
91002
492EF
47274
48D54
47291
53B7D
60998
3A465
7A607
9ECCF
47A7B
3E4F8
528B8
35D76
7A1D5
9E2AF
63E48
407B4
7AC75
5998C
51B8F
54F9C
619D2
57073
A49F0
3A79B
3F956
43478
4FB87
423D1
6A888
728E9
4419D
52329
4B298
8B469
3DA5E
8D602
749C5
71C61
916F4
98D32
6EEDD
5B791
45D08
37CA9
8C4B9
21EC3
3F875
6717C
36759
7C8D0
50A15
5BC57
447CF
53BC0
399AA
91008
597B1
6BA40
4D8E9
527D7
414F9
485E1
3C520
750D6
5163A
4CA05
63087
7EC85
4C0D2
520B4
605AB
5FC7C
7527D
44C67
91647
3127D
65B32
6219E
7E192
61493
428EF
44159
4FFF3
3B69F
33823
3B683
5C137
3B26C
45F7B
9F46C
46E1B
BD534
41699
4A371
A9266
74D55
8CF83
98A8D
5CB8A
8BCE4
5C40D
5246F
7D0F6
27C26
56EB3
6C252
31B85
3B2A3
4FE7E
524DA
7AEE6
63D05
59E05
3EEA3
4F1E6
5B272
48608
51192
9683F
5ACBD
418D3
A2D39
69063
8B5C6
57BFD
67A69
5B717
939E6
45B7C
45891
882AC
4EB82
577F8
3D3AB
549DD
5943E
97D9D
58C81
93B77
3C8CB
528B3
5CC0B
464E2
448E8
2DED9
3DED3
6D964
4876D
664DD
8D7DC
7789E
4DC35
61D0F
73F24
413F0
66091
6051B
7D221
9E338
4A40A
4AC43
4035C
6408C
8B7E6
9456B
56993
478EF
4B2F0
6186D
633F2
658C4
49D9E
65811
36F7B
44756
4A648

