6C0C4
7AF8D
16070
72638
71DAA
7713D
132B6
790AA
166E9
0F8A9
097DE
796FF
75389
722D6
0F8EE
17D16
06951
73F52
1B4DE
7A564
17FD8
7A102
19815
791CA
0C72F
0DD7D
03A5B
736C3
12648
068A1
155A4
1EBCB
7836A
07171
10EC4
0A3D5
19D9F
1ECAC
72D75
77409
16A8F
76524
7A4CF
12F35
12909
75A10
1F7E8
7F031
08585
74780
71DA8
76AC7
14CEB
6EC42
78D75
7AFF3
75D43
1B104
76C03
1A8AF
6954C
1889E
1F063
23D2A
18560
10E10
7EAA8
79399
1B7AD
7B3F0
793C4
10F82
7B312
14B4B
72F86
73183
70FE5
12CC9
7661E
1C888
10E38
14FDE
0DF67
0FA79
04FBB
7482C
033B3
140F6
10C65
730F1
141DE
1ADE8
767AC
724FC
6FCB9
144BC
14002
7C4E5
1FF1C
79910
72BE4
1618C
14792
6E609
7705A
75894
11693
06249
7F525
76D54
1224D
07CC3
72937
1C372
0D063
2B9BA
0ABB5
788FD
205D3
15FDB
1AE67
21A61
71287
1A2FC
6EAE7
0E009
1AC80
7BB2F
71C63
189E0
7C97B
7D976
0FAD7
6E6EC
1CBF2
65A47
6B80A
7FD2C
0F285
00712
6E940
74BEB
1AD54
71B4D
780E1
1E1DB
13165
1F9C7
11E8F
110C4
11030
1B3D0
6F91D
74E3D
19BD8
0F170
7187C
05495
6EDC1
6ED2C
1E8E7
13798
1A0B1
7331E
7987D
6B62A
0D92C
061A1
766CB
0C16A
79951
70154
73864
1A322
16DCD
746BF
6FA21
13288
74533
13FFD
129F6
1B547
1E079
703D1
0F487
78F84
1425A
190D8
1BD7B
11AB6
79864
789C7
150AD
6A9D8
729DF
71520
6FE7C
7D2B5
76692
73C15

