35859
2ED28
48BD7
2C183
2560A
212D2
52E87
24D6F
42FBE
3A515
26075
208C5
1A7FA
3088B
3847E
5C7EC
250C9
251FE
57DD9
1DED5
52141
2179A
661E9
2C732
32165
33AA1
2EEEE
31299
4488F
27B5A
561FC
70D84
2B25B
2A7EA
3AFF1
2631E
57920
70757
3B52F
2633F
56D9D
35F8B
3259D
3D484
453F3
34138
74D93
25230
2BC2D
26FF8
2E094
271F3
4BC54
43438
29180
32E7D
2C8A4
63021
2434D
642AE
42A14
51C06
6860E
6ED6A
4FDAE
40B47
2C486
2156D
63CFB
140B2
264DC
482FF
2130F
57493
2F053
36353
2686A
3C6EB
217B4
67350
3F6E5
4C8BF
36BC7
3A819
2BA98
2A467
27D57
523F1
3A33C
2C7C2
46B6C
5AEDB
2D580
2FB0B
37F65
44B15
524A9
2AC4F
68AE6
1D351
3C728
46D3B
5831C
380D0
2773B
27E5B
3989B
284C2
20C80
22CC9
418BA
28B91
280AD
703EB
321E9
8908D
2DCA4
2CE9E
78106
52CC8
64092
6DF3C
361F3
63088
34EEE
39C6D
59CAF
17F2C
329F7
4E2BC
1EA7B
2511B
38DB8
2E76E
59220
36897
3244B
28463
382A8
3A99E
28271
2FF50
6A21C
3515A
272D5
73340
4A2F8
64B1D
3EAFF
4892B
40BBC
686B8
26CDA
28987
608A4
37E2C
32E82
29277
3019D
33118
6C530
3FE92
680DD
2239E
3299F
34121
31F26
2E250
1A02B
2C0AC
43F56
28BFA
3D1D8
641E1
54D8A
2DB3E
38D76
5136B
25A49
4898B
44700
5A094
7034E
29F37
356BB
26A53
475DD
626D2
69193
3DDCF
2B8E5
2D8D6
46148
37F54
3C4E0
2A14E
3B4DB
223A0
28737
2B4D8

