16F56
1B502
347D6
13D82
10AED
1036B
39598
13FD7
31676
28EFC
1BE89
10F65
0AEEA
17AAF
2A11A
411F2
1A297
10E81
3FAE3
0F523
3B94D
117AE
47C12
17E65
20AEE
24EA1
1DA4F
182E3
30E3F
1FFDF
3C72A
50096
190DE
1B2B8
2AD21
1B394
419CE
5148B
1DB0F
12E0C
3D6E1
1C00E
1BEDE
2BF6D
31FC4
1A9BC
5071B
15CB8
1D27F
134DB
15447
13614
35A09
21A73
15CB8
1AE85
15AA7
46D2C
11D08
47278
1DDB3
3877A
4B0AC
5062C
3A8D5
2C562
19EA1
11432
463D1
095C4
13AB5
3135D
121C0
3D291
1656F
1A96A
0FCF4
2B81D
0FF46
4950F
2A27F
37036
24F6F
262CF
17EDB
1423A
1908B
39A03
29D4B
14EE3
3334E
413AD
172FA
16BEA
1A341
320F3
39586
19189
4C687
0EFFD
1EB48
34394
3D3E5
19C21
139DC
139CF
2A947
1A256
12C9E
1194C
303DB
1B2A7
11ECB
4F31B
23AF2
643A8
1DA84
15FF3
55D4A
3AE3C
47595
4F49A
19C5A
46CCE
182B7
28B3B
40FAC
0CA87
17FC6
39510
1101D
14F05
20611
1432C
40C8B
15219
14B03
17A47
2627C
2359E
10A1A
17A0C
4AA35
19076
1442B
52511
33769
48200
2E546
32430
2CA83
4A05F
1097C
1361C
43856
27E48
189DE
1B04E
15B5F
17731
4E46F
3080C
49988
0F546
1B7D4
1697D
24328
1FD33
0DAFA
20D67
2541B
11D48
1F77E
471A5
3BAFA
16607
1ACFF
3830D
11696
34152
2FF70
423FE
4FC84
124BE
278B7
14205
330D7
45492
4AA54
2B643
171D9
18239
33154
1891E
1DA4D
1301B
1C8FA
13088
14949
15511

