FE246
07BDB
22842
00999
FE8AE
0171F
22DDC
03D3E
21675
1A136
10850
0311A
FE66B
0188A
19964
28BB2
0E15D
0010E
2A37F
031A0
264BB
03C4E
2C5F8
05C13
15B7D
17284
0E4EB
02A09
1EBDC
0EB54
254DC
32F52
04C1C
0FCF2
1B48C
111FC
290D0
32E77
04B0F
02D09
2677E
05FF1
081AA
1D602
1F0BD
05020
3483A
0866A
11111
00E9A
00ACB
029AE
2257D
03934
04B97
08C3F
034D7
2CC80
01F1F
2CAC9
FF529
26A0E
3116D
364C0
26023
1CA83
09E67
031A9
2D4AF
015A5
04559
1E915
048CC
251A4
01C24
039F6
FE2D4
1D0D5
00FF1
2EEC4
1C59C
22AC5
18010
1A352
0E823
01C05
0C3ED
235FE
1AFA2
01338
2093C
2AA52
03FDA
016D6
01915
2036F
23574
07BF9
31DB7
02580
04E4F
2218F
25269
00855
02F2E
01F04
1B4B0
0E8DE
078FC
01A91
1DD14
0FE80
FFBE4
30E8C
1628E
429DB
135D9
05745
35F64
24F75
2CE94
34709
02244
2C206
FFFB7
18C85
2A4C9
02A7F
01BE9
25CE4
04FB2
07504
19D1A
FE33A
2B9E3
F9906
FCEE1
09C8F
1941B
0EC3C
FCC1C
0353C
2E5CA
024CB
03A8E
33120
20A80
309FC
1CEFF
1EB8D
1CC3A
2E3EE
FD2C0
019F9
2B2D1
19230
01A16
0E1E9
FEED3
FFA14
31B55
1E6AF
2D414
FEC6F
0795E
FD491
1687F
0FF69
FF303
13F52
0BE61
FE09C
05A5C
2C668
26209
02873
01A97
2270C
00787
20F3C
1EE40
2AC5C
32446
FE739
18ACD
0437D
20C2C
2B1F5
2EDE4
1C8D9
05D87
05A62
211E6
FDA99
04C39
FF4C8
02793
064B9
02BBE
016F5

