20AF9
201E5
3A5BD
1BBAF
16C43
153CE
40D53
186B5
36598
2E2FE
1DEFA
1574F
0FED6
1ED9C
2CBB9
49050
1C68C
172E8
46B10
13D59
419B1
164C7
5064A
1DE42
2769E
28F06
22A88
1FA77
3650C
1E4D9
43C19
598F8
1CB41
20745
2F10A
1E446
46116
594CB
26C4E
18E38
44A5C
23EBE
2274C
31472
36DFD
225E0
5CA4B
1A534
21B7B
18AB4
1CF83
19620
3C2F1
2B4D4
1B690
230D0
1D066
4E9B2
1750E
4F49F
294E7
4186E
53939
5990C
401C6
33246
1F58C
15F6A
4F4CA
0D02F
1985F
38874
166A5
4467B
1DFDB
232D0
17585
30A03
15426
5207E
323B8
3CCAD
2B2C6
2E5AA
20B18
1B075
1D744
409C8
2E744
1C333
385D9
48C33
1DC90
1E48D
237F4
36F7E
40A07
1D97D
540DE
1319A
278BD
39020
44FD7
23288
19B7E
199DA
2E289
1E9CA
174AE
1654C
341A6
1F62D
18E15
586A6
27999
6E8A5
23D92
1E115
5F31A
418E1
4F4BB
58505
2290A
4E601
2102D
2D5CF
47EC8
0FEFF
203BA
3EFBF
14FEE
19DFC
2D2DF
1C4E6
48022
1F98C
1E335
1CCD9
2C896
2A1BB
17D35
1F2A6
53A4E
21FA3
19D06
5B12F
3A8F9
511A9
31FD4
38D3C
33335
52886
1723D
19EED
4C766
2C512
205E0
1EFB9
1D998
1FB71
56454
334F3
51EE7
14E39
226AC
1F755
27A1D
22CA1
0FEB4
22FB0
2EDDE
18ADE
283F0
4F279
4344D
1D757
2414B
3F9DA
17A84
39AE5
364FA
48410
58E71
1995B
2A9B0
19B14
38D77
4D9E7
5330A
3154A
1D5E2
1E8A0
382C8
22066
27688
19FC3
25EC0
17B7C
1A42B
1B8CE

