643CB
56DFD
69C98
4FB6D
4877F
3C027
7C3D6
43BB1
60739
559D4
3AEDC
3B5CA
31F9E
5AB12
5731D
896CC
3D392
44955
7F304
357A5
79B21
3ADF6
98A4A
4E863
45ED9
4D04A
4C049
5A87A
664F8
47AC0
80C2B
A6347
55139
3F2DD
57EEC
39065
85D47
A8B47
6A4E5
44612
81097
5F4AD
58365
58365
68BE2
5C719
A7947
3E14F
42395
4A9FC
549CD
46915
6F611
7CD4D
49293
5404F
4D3B3
93219
4220F
94F4A
7C17B
7217A
97EDB
9EB3A
76031
5D91A
3F883
3C59B
91792
22FF9
4243B
6A500
3AD34
83EF1
555BB
61284
46E38
56CC8
3DCDB
983E0
5869D
7234B
4E6A9
4FC71
41CCF
4C718
3F418
7B651
55B6B
51A59
69235
843AD
517DC
57A47
65F4E
65B35
7AED2
4F3E1
99EA5
35261
6CF51
688F0
84F00
67838
46EA9
49765
557D1
3DD4F
35365
4156F
641BD
3D5FA
49DAC
A84F8
4B343
C6D05
41239
497D7
B33FC
7B49E
94F1E
9EECC
625A9
94A9B
6241A
573DF
8390D
2B890
5C4D7
72440
35ED6
3E619
43693
58046
7FEB0
6A386
5E837
46732
4F9C1
61B90
4D812
55C0F
9E2D2
5F7F7
46298
AD623
6C80F
8F92F
5EB44
6C840
5DD93
9BB90
4C767
49E6D
8D226
53681
5E819
412B3
5AF78
60189
A0EDD
619B9
9C934
41D5B
5801C
641AA
4B142
43870
3B7C8
43729
729C8
4E47E
6E091
958AA
7C5B1
532D4
68138
79717
45ACA
6C235
63C89
859A7
A6DFC
4F044
50C56
437C5
6923E
92BBA
9C8B8
5923A
4A417
50561
6796E
6B8F6
69E33
4F8AC
6C4BD
3A59A
4A8F2
51741

