23F9D
2270A
3CA12
1E506
1912C
171F7
43AFD
1A616
38583
301A3
1F36C
17354
1198B
21A49
2E8E6
4C183
1DC60
19621
49673
156D9
4434E
18103
53D2D
2030A
29195
2AA1E
2498A
226B2
388F8
1FC9C
46A80
5D3CA
1EFBE
220A3
30F2E
1F84D
48D4D
5CF4D
2A03C
1AFDB
47859
26C58
24F74
332C5
3924C
2529D
60772
1C085
234DB
1AEE7
1FAA0
1B8D6
3EA52
2F15D
1D922
258DE
1F798
51D3C
1959F
5295E
2D4E1
4416B
56DC6
5CECA
4298C
3548A
2163A
17C27
5289C
0E1F3
1B8A8
3B003
181DE
4762E
20AE1
262E5
19BDF
327D7
17306
555FD
34510
3F47A
2CFFC
3045D
226CE
1D6FA
1F17D
43656
304F2
1EC57
3AA18
4BA17
203DE
21086
26BA7
3922A
436A7
1FAC7
574FB
14B23
2AD8B
3B30A
4805B
26750
1BE30
1BDEE
2FF49
20242
18CA7
184CC
3639C
20DC3
1B463
5C2DA
2942C
72B94
256B0
20696
631EF
44471
52920
5BBB0
25A72
51A31
24281
2F52B
4ABEC
1133C
23230
4161C
16855
1BA44
2F060
1F2C5
4AB65
23380
215E8
1E9D4
2E5F7
2CB66
1A674
21D12
5731E
24FE8
1BEC9
5EE24
3D072
54327
33FE8
3B503
35565
55FD1
199CF
1C3F7
4FA1F
2E24C
234B6
2096B
20855
22C56
59C0B
354C9
556CB
16FEA
24F8F
22B68
2942C
24951
11833
24695
32327
1B377
2B8A9
5276E
460B5
20061
275BE
42650
19DD9
3C093
388AA
4B0FC
5C950
1C2B4
2C502
1BBCD
3B229
50E78
56A63
334F3
1F9BA
20E8E
3A5EA
257CF
2AB52
1C86D
294C5
19608
1C804
1E09A

