26B7A
245FF
3E859
2077A
1AFEF
18B19
4610B
1C03C
3A01C
31B2D
20475
18AAE
12FCD
23F83
30135
4EA84
1EE90
1B37C
4BA9B
16C18
465FC
1988B
56AEB
221B0
2A80E
2C0B3
26362
24B8E
3A6E8
2106A
4912B
604CF
20E27
235C6
3284D
208FE
4B226
6000E
2CB81
1CBE2
49EAB
29258
270EA
34C0B
3B08E
277E6
63A67
1D747
24A00
1CD11
21E8E
1D5C2
40B22
323CF
1F5F1
27A3F
21842
54830
1B0C2
55553
30A31
46394
59991
5FB93
44AB1
37117
23176
1941A
553CA
0F0C1
1D390
3D0FB
1988D
49DEE
22EBB
28AF6
1BBD5
340B2
18CC1
58292
360D9
415A5
2E854
31DF3
23DE6
1F713
20757
45B76
31DAD
20E9F
3C84D
4E056
224A0
2352B
296BD
3AF0F
45BD8
21684
5A067
1606A
2D98B
3D021
4A8C9
2934C
1DB1A
1DBFF
3173D
216A6
1A0A1
19F0B
37FE9
2216C
1D44F
5F504
2AA52
7635B
26B9E
225D8
6664A
468BF
554CA
5E93E
2839E
545AF
26C72
30F4D
4D18A
12419
258E7
43615
17CAB
1D1D6
308F6
21900
4CF72
263CC
24027
201FA
2FE73
2EE1E
1C8D4
2406B
5A275
27822
1DAEB
620F0
3F157
56C66
35AA4
3D629
371E2
58DE5
1BAC9
1E2D6
52464
2FAA7
25BBE
21ED5
22F48
25514
5CA79
36F50
5855D
18BFE
271A2
256CD
2A9E3
26139
12D71
259A8
34F8E
1D54B
2E498
55390
485B6
22293
2A172
44B5C
1BB4A
3DFFA
3A667
4D66C
5FA60
1E528
2DBC7
1D712
3D0BD
53A46
59883
34F56
21799
22E29
3C330
285FC
2D751
1EA51
2C1C8
1AC28
1E5E4
201C4

