64AD4
50197
69497
51213
4671D
3C31E
7BD0A
40F2E
5F93A
55C56
3857E
39A62
326C5
588DD
526A9
88925
389A3
44ADF
7EBBC
34C4B
775BE
3AC50
974A3
4D65D
4A3E3
4BF01
4AB6B
58C95
64B74
3CFF6
7FB1A
A58A7
4BD61
41378
55FFA
3822E
7F2E5
A4DF2
69D7C
4455E
800C4
5ED26
5652D
58736
65C63
5C278
ABA0C
3D9AE
427DA
476D6
54A93
46373
6F0B9
797E5
480FD
56C98
4FA74
912E7
41612
936B5
7BF0F
76786
9774D
9EFB9
737C8
5F662
498F2
3B159
923BA
23F55
433A6
6BA03
39942
82043
558F4
6147D
48E1F
5726F
3D245
9721C
5D4D2
70338
50E77
5601F
447C6
4CC7F
3F533
7A283
54CA3
51572
672FC
840A8
508E2
57152
66474
63C0D
7A44E
4896D
975D0
3414D
6BC00
6619F
83A85
67557
4688B
4837F
534A7
3E37B
36416
3F042
5FF79
3DDAA
4A5B4
A62CA
49ED4
C4FEA
444A5
4E834
B0596
79D33
92F92
9EEC5
6261E
91C92
62052
55DEE
823B9
2A141
5C3E0
708A9
34842
3E67D
53495
578F4
7FE36
6A745
5FAF8
423C4
527C2
5FED6
4D1A7
55F57
9D067
6053C
456B7
A9CFB
6D8C2
91083
5B6CD
6C357
5F5C5
99F46
4A407
49C7A
8DFA9
52117
5CDD6
402C7
59F8D
5EDE1
9E3C2
5C6DE
9A1ED
40691
573A9
62B82
494A8
47D80
30D96
408CB
73B14
4D1DA
6C585
938F4
7CA07
52771
67D37
790A6
454B7
6A5A6
64688
8247E
A4F27
4EFD8
4DE5A
43F5A
683D2
91845
9AAE4
5A39F
4BAA6
4F879
658D5
69988
6B98C
4E82C
6BB19
3A028
48910
4EF3D

