24C22
25F2F
3E01E
1E890
1AA51
1808C
454B5
1C83E
39CE2
30EA3
2172A
1888A
11E78
23A2F
32208
4E086
206C4
1A227
4B057
16228
46AC6
18DF2
5632E
21A77
27558
2C136
25ECE
24075
3A6E0
2713E
48A58
5F6C8
23C5C
2199A
32E05
208B9
4DCB6
60E51
2B5F6
1BB7B
4980A
2804F
26B1A
33DD9
3BC37
265D6
60011
1CFD3
23C67
1D2EA
20944
1C855
3FF0A
31EF5
1EF7B
251B2
1F969
54731
1A712
550C2
2EAF2
42C1E
58C59
5E5EF
452B8
3520C
20A1B
18F4E
53AC6
0DF04
1BFD6
3B683
19615
49CC6
2197C
2730A
19A52
333CE
18245
57690
326A9
41955
2C5DE
2D9AC
1F67D
1E318
1FDC0
455EC
31AAC
1FC5D
3CD65
4D31B
21990
22556
27BB1
3B47F
450E6
22C3D
5A3FA
15CFC
2CADC
3D91B
4A0BC
27A49
1CC6E
1D3AA
323DF
2084C
18EF8
1A1C0
3980C
21464
1BE98
5F1B9
2ABDC
75D54
23FE5
1F313
66833
4663B
55349
5D823
26BBA
54B45
25664
31034
4CDEB
122BF
242F7
437C6
17999
1C56D
26A28
204F1
4C0ED
24536
21DF1
20004
2D8ED
2E7D2
1B806
22B8D
598E3
259CD
1D2BF
62942
3DA62
54E24
36F7C
3CAA0
3570F
589CC
1B48A
1D1E1
50AA9
2FA9B
2518D
21D4E
2213F
246C1
5D095
39459
5869E
18593
264BC
246F3
2B23F
26335
15DD6
27049
3311E
1C9FF
2D7F9
551C1
473BF
213BE
289C0
43D7C
1ABE8
3E17B
3937E
4E46E
5F55A
1D23B
2EE81
1C955
3CB60
531D9
59454
338F8
203F6
222C9
3C758
2763C
2B424
1DD11
2ACCB
1A0DD
1E383
200E3

