0E977
13597
2DDEB
0D84E
0A13E
0ADEC
3122D
0DA21
2B60C
23A71
16E88
0BD34
06BF4
0F7E8
22B43
381B4
14E80
0B12C
37C6F
0B11D
334CE
0C97B
3D868
113F9
1E250
1F9FF
17FF8
10731
29F79
16226
33CE1
45570
1028F
17BC4
24B42
1761F
36DE5
45300
14EB3
0D538
34D6E
143F1
14A71
26DA5
2A649
12FD1
479F9
10EFB
18FEF
0C39A
0E25F
0D73A
2EA5F
167E2
0F86F
15484
0F8D2
3CE36
0C1F2
3D285
1350A
336FF
41830
47176
32703
275D4
141CE
0C15A
3D7C8
06E79
0E6CA
2AEE1
0D0EA
34022
0F33E
12A5E
0A296
265F7
0AA53
3FA41
26C54
2F1C6
2121E
23CD1
172B0
0DC9C
1470A
314C0
24407
0E0EC
2BE7B
38FC9
10462
0F2B3
11B98
2B0CB
31495
12269
42243
0A52B
15653
2D01E
344FF
1103C
0DCA9
0D36A
2446D
16336
0F0D7
0B80F
286E0
17471
0BB69
43B8C
1E76F
57884
1B36E
112CD
4998A
32947
3D48E
4585D
1194D
3C6F7
0FB5D
22953
3867F
08FB0
10434
31CBA
0C9B6
1026E
2309D
0C898
39232
0BACC
0CC5E
12D76
22700
1BC91
09A59
10956
401D8
11625
0E359
461EA
2CFDE
40173
26F64
2B273
2772B
3F867
0989A
0D330
3B06D
22452
10446
16265
0D886
0EE89
431E7
285DB
3EB85
094E7
145CC
0D8EE
1EACA
18ED9
0727C
1B1C8
1C8CD
0AB97
161F8
3CF33
34011
0F5A3
120D4
30556
0B830
2CBA5
2A0B1
38CFB
44AA3
0B5F4
2136A
0E71B
2C3A5
3B8CA
402A1
26727
110BF
11806
2C18F
0EFA5
1542E
0C01B
135A9
0E977
0DEFE
0DDEF

