34C41
32496
490C2
2AEFE
26334
211B3
53267
26678
438D0
3A2B6
27DF9
21510
19FDF
31852
3B798
5D029
27AF8
24D6C
582D3
1E09E
538A3
21721
66F45
2CF81
2F0C8
34621
2F880
31C5C
457ED
2F4C1
56CC1
7145E
3034A
290F2
3C389
26B7E
5BECD
7300E
3B3E2
25F8B
5781C
35F53
332E6
3D07F
471B2
34008
720DB
25558
2B742
28A43
2DB35
271FB
4BE72
44D26
299B8
30EFB
2B192
64419
24733
6529D
42346
4EB1B
68B2C
6E97E
517C9
3F538
286C8
21E1D
6341F
133FD
25A44
473C4
21D06
58757
2EA59
35CED
250DF
3C349
21A3A
67C25
3BFF8
4DD83
34F40
3638E
28144
29DB4
27C6D
52FE7
3AC1D
2C598
48023
5B129
2DACE
2FC6D
376C3
45FA6
52A41
2DFB2
6A4DC
1DB6C
3CE36
4868F
58E59
37BFE
27674
28622
3B216
27E91
2010F
24009
443F4
285C3
277F6
71914
32ED7
8A411
2B57D
29DBC
79DD1
53BAB
65476
6E014
35C49
64D54
34BF0
3AA73
5AA9A
18915
32562
4F485
1F3F7
24EC7
2DE43
2E5B6
5922C
35F38
3129E
29B26
36251
3B68A
281C6
2F974
6ADC2
3435B
27822
75715
4976F
63AF1
40FD0
48BB2
3FA18
69893
27AF7
28693
5FEA3
38AD3
3392F
29BBE
306C8
33786
6E283
43718
699A2
22CF6
32D4F
347D7
3331C
2D989
1F5A1
2E2FE
4317E
29259
3DC5D
655B9
54A15
2DD40
389D3
515C0
2591F
49B43
43F3B
5C3A9
715FF
29B79
37724
2664B
47EA3
63288
6A3C4
3D097
2AD75
2DD0A
4755E
38949
3B0D5
2A5B2
3B50F
2232C
29669
2C833

