259EE
2399D
3DC3D
1F9B2
1A3A1
1810C
451D2
1B5C6
39579
310F6
1FDA5
18157
126E6
2309F
2F77C
4DA1D
1E74A
1A7BE
4AC25
16398
4581D
18F21
5589F
2156D
29F11
2B7AB
2590C
23CD0
39AEF
2087E
481B4
5F134
201FD
22D51
31E41
20251
4A369
5EC8E
2BA32
1C0AC
48F57
28325
26387
341EF
3A474
268FC
62605
1CE2D
2418B
1C100
2102F
1CA31
3FE02
30FA1
1EA6B
26CE5
20B32
53702
1A5E7
543BE
2F4DE
455EA
5880D
5E9A9
43D6F
365AB
22691
18A86
54284
0EAD5
1C8CD
3C3CB
18F7A
48E07
22063
27AEF
1AF0C
336C1
18277
570BD
355BC
40860
2DE97
313B7
234A9
1EA3C
1FE99
44C9C
313C9
200E9
3BC38
4D10A
21785
22682
28581
3A380
44CF8
20B6C
58F09
157E7
2C7F2
3C47E
4989D
281B4
1CF89
1CFF8
30DA8
20E7E
198A3
1948B
37497
2198F
1C78A
5E0F3
2A176
74D0B
2633F
21957
65159
45A39
54353
5D705
27326
53449
25BAC
304D9
4C27E
11D5A
2496A
4294B
17488
1C868
2FF20
209B5
4C107
2507A
22F41
1F852
2F4A8
2E03B
1BB14
23248
58F86
2680B
1CFAA
60C9F
3E42E
55BE6
34FF3
3C8E7
3667D
57B77
1AD98
1D67D
5137C
2F0E9
24C21
21644
21FB4
244C8
5B7E7
364B3
572BC
180C3
26401
24571
2A133
257A9
124F2
25207
33DCB
1C7C3
2D305
541E9
476E9
214E6
28FF7
43C8A
1AF83
3D36B
39A82
4C773
5E6C0
1D760
2D2AC
1CC2A
3C481
528C0
58610
344C8
20BA6
22185
3B77A
27384
2C5B8
1DCC2
2AFC7
1A34F
1D9F1
1F480

