042C7
0BFF5
26ADE
05564
02C5B
04E6A
28193
076C5
250F9
1D965
12DCB
06479
01762
06A71
1CEE1
2E5E6
10962
041A1
2F30A
0605F
2B106
07012
32A98
09F81
18CED
1A431
11DC5
07B20
22DB7
116E5
2A9EF
39B2A
08F02
12B72
1EBCF
136B3
2E1E0
399BA
0AA43
06AB4
2BBCD
0B38B
0CB48
20D9B
2334E
0A225
3B856
0B87D
13F96
050F8
059D7
06950
26DAE
0A830
08AF7
0D5AE
07CB3
32AFE
05AD3
32B7D
06A73
2B533
371C5
3C747
2A90F
20953
0DA51
06659
333B0
03637
0808B
2319B
07AB5
2A916
06B03
0921C
02924
20783
0488C
350D9
202BD
273BD
1B59E
1DB9A
11AF1
062A3
0F400
287AC
1E60B
05EA4
24BB1
2FE75
087EA
06774
077DF
24300
28744
0B900
37D40
05450
0AF1D
26190
2AB5C
06919
06ECB
06129
1E964
115BA
0A4EE
05450
21B56
129BE
0421D
37CEA
19347
4A491
163E5
09C08
3D294
29F53
32EA3
3AB41
07CD8
321B3
05BFC
1C604
2F78C
04F99
07116
2A33B
07C6F
0A8DE
1D330
03754
30933
00346
02BD3
0D1B1
1C9F8
1389F
017BB
08301
34DF1
07D4A
07872
3A0E2
252DE
364B9
209CF
2347B
20AE7
3494E
01B4C
05DE3
30FCE
1C7C5
06FF5
11105
04483
053B6
38179
2210C
33A8A
02A35
0C453
03408
19845
13401
021C1
1694A
12011
02B09
0BB04
3277F
2B372
073AF
07ABF
2788E
0484D
25452
22FAD
2FEB8
39035
03306
1BCE4
07F7B
24F72
31254
3535D
202E4
09F3E
09FEB
2524F
0402F
0AD02
03F55
08A9B
09565
06D78
05FEA

