43AB7
3DC60
53538
367BB
30F58
298D8
600CE
2F9C8
4C9FD
42C93
2DDB2
297E5
2185A
3E723
442D7
6AF44
2E728
2ECE2
646CA
2565C
5F84E
296DB
768DE
37810
363B6
3C1E0
38799
3E918
4FCC4
36F32
63F8C
81E42
3BC80
3000F
44EBD
2C773
6914C
83DCF
4A04B
2F84A
648BA
42EF5
3ECEA
45909
51AAA
40B2E
82DBC
2D1A9
329A3
334F7
39EAC
30FEF
570A7
56680
33839
3BF36
35D07
72F90
2DC48
742AF
5460F
59CEB
7786C
7DB27
5CF43
48D23
2FADC
2A312
71C46
18319
2EA0C
523F8
29AA9
661BA
3ACCE
436AE
2FAD4
448DF
2A7B4
76FB0
44EB5
5942A
3CF29
3E3ED
30278
34B71
2F25E
5FAD8
43386
380F2
5268E
67FE7
38EB7
3C4AE
46083
4FF00
5F49E
386C7
79406
25124
4BFAC
5280D
66B94
46BEC
314C1
32C4C
4367D
2ECAF
26B48
2D367
4E400
2EF52
3248B
82C11
3A8C9
9D446
322FA
33CA1
8BE14
60262
743E6
7D5D1
43C40
73D97
4308C
43A0F
67812
1E85D
3F830
5A440
265E3
2CEA8
34A5C
3B6FB
654FC
465C8
3F66C
32B95
3E23C
47700
33D9C
3B928
7AF88
41CCD
3121D
87016
54771
7176A
4A515
53F74
491E2
794AD
333B5
32ECE
6E1C9
41119
410D8
31176
3DC7C
417B1
7E18E
4CE9E
799AF
2C8CE
3E80C
43705
3AB16
347B4
282F5
34DCA
52030
34CE2
4CECD
747C3
611A2
398DD
4783D
5DF1A
2FA63
5483C
4DF21
6937F
822BD
356D7
3F65A
2F86E
5258A
72183
7A07C
45DC1
34B43
38A73
51763
4895F
49C19
3607E
4AB19
29C7E
33CF9
381C3

