2B61D
2B0DE
42935
23AAC
1F6D2
1BC9C
4B072
209B7
3DD68
34BE9
241B5
1C2AF
15404
2961A
35FEB
543AF
236DA
1E906
50770
1967C
4BFF5
1C6B6
5D21D
26561
2A86C
2F836
29E67
29B73
3F024
2A7A9
4E808
66CF4
28EAD
24AFC
36BE3
23198
53A44
68635
31F08
1FF5E
4F4C2
2DC97
2BDC7
37A88
40750
2C01F
67791
20713
26F3D
21EC8
26023
20E88
44E3E
39C01
235EC
2A005
2459D
5AFD8
1E955
5BB75
36C2F
47B26
5F5CB
65156
4A443
39591
23DB2
1CA66
5A1F3
1022D
1FFBD
404D3
1CDEB
4FDD6
26FE9
2D3D2
1E5DC
36F2D
1C126
5E2CE
36619
46A83
2FEB7
312BA
22FEA
23050
2322B
4B01F
356DB
24FA1
4175B
52EFD
26986
27E56
2E395
3FB52
4AAD7
27680
60E46
1914E
3362D
420E1
5030F
2E4EC
212C9
21D84
35EB8
2393C
1BE2E
1E33F
3DF2E
2434D
20B4C
66BF0
2E20F
7E488
2708E
239B1
6E851
4BE8D
5BDB4
6455A
2CF45
5B60D
2BBFF
35007
5293C
14D18
2A0A8
485E0
1AC3C
1FE43
29A33
261F3
51783
2B9E8
28330
24035
311C7
33D5C
20B81
280C0
60B74
2BA71
2172E
6A627
4289C
5B021
3B1D4
41A84
39A85
5F9D8
206A6
21CA6
56F9E
33648
2B166
2519F
2803A
2AA62
641EF
3D7B1
5F86B
1CAD6
2B7BB
2B140
2E792
2942B
19CA6
29FC0
39B34
21CE7
343B8
5BD54
4CC70
26720
2F3B6
496FA
1F395
42E5B
3DA8E
540CD
66CCA
22581
3270B
20A48
4158E
59C10
604A5
377B6
24A19
26FDB
40F5B
2E80C
31CB4
23016
31A24
1D6C9
22D8A
2535C

