17E9B
19ED6
344DB
14D71
109D4
10360
3938E
13309
3107B
29145
1A875
10C97
0B79F
1767B
27DEC
40D1B
18C58
114FA
3F75D
0F95B
3AAB7
1197C
473EC
17C2E
22EB6
246C5
1D7D6
18484
30541
1A57A
3C05B
4FC1B
169F3
1C3A2
2A0A9
1AEDE
3EB2D
4F8C6
1E1D4
13485
3CFBA
1C524
1BC37
2C392
30D2A
1AE93
5273B
15C5F
1D7D2
12A2B
15C89
13991
359F0
21366
15A61
1C601
167E0
4603F
11E37
467F7
1EA4D
3AB21
4AD15
509BB
397B5
2D6E8
19E66
112C7
46A9A
0A0CF
14245
31EF7
11E0C
3C748
16D23
1B298
10F40
2BA7A
101CF
491D5
2CACD
3628A
264E1
293CD
1C134
149BE
19156
392FB
2981F
1557D
3252F
411D1
173BF
16F4A
1AE15
31308
39306
180B9
4B5E9
0ED83
1EBEE
33308
3CE76
1A5C8
13EF8
139A4
295E0
1A88A
134C2
1114D
2E718
1B746
127F0
4E61E
232BB
63629
1FA98
17D11
54B8E
3A4B5
46902
4F33F
1A549
45AD5
189F7
2822E
40666
0C907
187D6
3896F
10EDA
15290
28433
14A91
40CC5
15F00
15C03
17F92
27A3E
2329F
10F37
18187
4A2CF
19EEA
14300
50EA1
33FB5
48DAE
2CA49
32328
2D809
49512
108B8
13C25
44024
27721
188FA
1AB33
15CF4
17910
4CFC2
2E00E
489DE
0F45F
1B9A5
16C79
2349F
1E021
0BAB8
1F2A5
25FC6
11E9C
1F759
46540
3BDE2
169E9
1B56F
3834D
11C4C
33669
305CE
40C44
4F172
12B19
260D4
143D2
32B9D
44DBA
49F72
2C0DC
1764D
1837C
32519
18CA4
1E9C1
13353
1CEB5
134B0
14491
14EAF

