262B4
23FCE
3E24B
20096
1A9C8
18612
4596E
1BB01
39ACA
31611
2010D
18602
12B59
23811
2FC59
4E250
1EAED
1AD9D
4B360
167D8
45F0D
193D6
561C5
21B8F
2A38F
2BC2F
25E37
2442F
3A0EB
20C74
48970
5FB02
20812
2318B
32347
205A7
4AAC8
5F64E
2C2DA
1C647
49701
28ABE
26A39
346FD
3AA81
27071
63036
1D2BA
245C5
1C709
2175F
1CFF9
40492
319B8
1F02E
27392
211BA
53F99
1AB55
54C88
2FF87
45CBF
590CF
5F29E
44410
36B61
22C03
18F50
54B27
0EDCB
1CE2F
3CA63
19404
495FB
2278F
282F2
1B571
33BB9
1879C
579A8
35B4A
40F02
2E376
318D5
23947
1F0A7
202F8
45409
318BB
207C4
3C243
4D8B0
21E12
22DD6
28E1F
3A947
45468
210F8
597B8
15C29
2D0BE
3CA50
4A0B3
28A80
1D551
1D5FC
31273
21292
19CA2
199CB
37A40
21D7D
1CDED
5EAFC
2A5E4
75833
2676F
21F97
65BD2
4617C
54C0E
5E021
27B62
53CFC
2640F
30A13
4CA04
120BA
25129
42FB0
1789A
1CD1F
3040B
2115A
4C83D
25A23
237B4
1FD26
2F98E
2E72D
1C1F4
23959
598FD
27016
1D54A
616C8
3EAC3
56426
3554B
3CF88
36C30
584AE
1B431
1DCA9
51BF0
2F5C8
253F0
21A8C
2277E
24CEE
5C130
36A02
57C0D
18661
26AD1
24E1F
2A58B
25C71
12932
255D8
346AD
1CE87
2DBCF
54ABD
47E4F
21BBC
298B5
443F3
1B567
3D9B2
3A075
4CEEF
5F090
1DE44
2D739
1D19E
3CA9F
53183
58F49
34A0F
211A0
227D7
3BD55
27CC0
2CE84
1E389
2B8C7
1A7BB
1DFEA
1FB22

