3AD68
36F77
4D3C3
2FA41
2A956
248C2
5867E
2A27C
473F5
3DAE1
2A4F9
24A5D
1D0F5
36C94
3F053
62B0E
2A70C
28E64
5D2A9
21096
586B9
24B2B
6D4F5
3142D
31F9B
3788B
332CD
36FC5
49B15
326A3
5C2A2
780B1
34EBF
2BE37
3FC3F
290F5
6148F
79DF4
41432
29DC6
5CD1A
3B3EA
37EAF
40820
4B689
392CC
78E66
287FE
2E5DB
2CFCF
32AD8
2B255
5070D
4BFC6
2DA4B
356C7
2F76C
6A407
283F0
6B46C
499BE
5338C
6EBD4
74BF2
56289
4331C
2B613
25448
692B4
15438
294D8
4BB8D
25036
5E050
33992
3B5A4
2961D
3F9B6
253DD
6DF5E
3FA1F
527ED
3835C
397DB
2B5E7
2E47C
2AC7A
58295
3E348
311EC
4C3F0
60564
3241A
34E03
3D5FE
4A092
57CB3
323C4
7064C
20B62
43095
4C85A
5E87B
3DDBE
2B6F2
2C9D5
3E807
2AB6E
22C55
27C13
48528
2B0C4
2BE46
7891D
36085
92001
2E218
2DE78
81342
58CA0
6B603
74431
3B788
6AF36
3A913
3E4F5
5FE50
1AFE7
37B45
53C1D
22261
282E0
30A4D
33AF8
5E18A
3CA31
36F6D
2D5FE
3966E
404F3
2CE4D
3478E
716C7
39BF2
2B6DE
7C991
4DF24
694C4
44CA0
4D4EE
437EF
6FF48
2C63B
2CB1D
65B2E
3C187
3910C
2CBB4
35DD8
392DA
74A6B
474D3
701F3
26C74
37963
3A949
363FD
3066B
22F35
30E81
492BE
2DE58
43F23
6B855
59B61
329AF
3EAF5
567C8
29AD3
4E1BC
48060
61855
7837C
2E7CF
3AAF8
2A1D5
4C2A2
693E5
70ABA
40A1A
2EDBF
323B0
4B760
3F19E
410AF
2F1CC
4194C
2549A
2DA45
313CC

