5D8C8
4B11B
645DF
4B880
41723
381C5
75A1A
3CB32
5B413
519F0
35933
35DAD
2ECE8
52812
4E773
81E8A
35A59
3FE8E
78DBA
3150D
71B93
36F22
8FDB7
486AD
46977
4844C
4683B
52CBF
5FD9F
39C7A
79690
9D933
46E51
3DC83
51EAC
356C9
79318
9CF2E
62CF9
3FC7D
79D21
58A59
50E2C
54580
60DB8
56189
A358E
39E80
3F0E1
42867
4ED28
4183F
69B68
714BC
43617
515CF
4A588
8A33A
3CF83
8C46D
73472
70EB7
90570
97B48
6E19B
5AC25
45223
37314
8B373
218D7
3EDB2
6644D
35E46
7B8EA
4FBBE
5AC50
43B06
531CF
38F5F
8FE33
58C94
6ACFC
4CF2C
51D9B
40BBC
4790A
3BC62
741FC
50C55
4BC4E
62472
7DD39
4B3B8
5120C
5F46F
5F0EE
7439D
4414E
904E8
309FA
64998
615FB
7D166
602FB
41D5E
43553
4F65D
3AE77
33026
3AC03
5B5E5
3AA8F
452B6
9E05B
4653F
BBEE4
40E3A
496F0
A7D74
73ECF
8BE0C
97854
5BB12
8AB7E
5B346
519FB
7C1EA
27567
55F37
6B588
31362
3A936
4F4A9
5158F
7A07A
629B4
58D1F
3E4FA
4E81B
5A48F
47848
5036E
9554F
59CA5
40D92
A18E7
6833B
8A547
5714C
66D26
5ABB2
92777
44E4B
44C38
871C3
4E1C4
5685C
3CB1A
53A48
583F2
96B0B
581E4
928D6
3BD90
51B12
5BAAF
45C32
43F58
2D659
3D732
6C7A1
479E5
6534A
8C635
769D1
4CE87
60B94
73052
40829
65401
5F935
7C328
9CF98
49642
4A327
3F874
63450
8A660
932F8
55F05
46CFD
4A64C
60CB7
6217A
6472B
49010
64610
366A2
43B63
49904

