60D6B
4D640
66A34
4E1D8
43C0D
39FEE
787C3
3EA93
5D3FE
53895
36DA4
379B2
3079D
554BE
504A0
84FBE
3702D
421C7
7B91E
32E8C
74531
38B5F
9349A
4AB74
4846E
49F64
4873E
558FA
6218B
3B43D
7C4F7
A1406
492CF
3F5E1
53CD0
36AD0
7BF4F
A09B0
660E7
41E20
7CB1D
5B7F2
53654
563D4
63207
58E46
A72B4
3B9D0
40A40
44C9A
51845
43AF5
6C2C9
75145
458A9
53DDD
4CCBA
8D6C5
3F014
8F92C
7746C
737B4
939FD
9B106
70961
5CE69
472D1
38FD2
8E745
22A9B
40DFB
68BDC
3797F
7E89D
526C3
5DC65
46160
54FA3
3AE3F
933B3
5ADEC
6D4C8
4EC62
53C4E
42772
49F8F
3D69B
76E89
52A03
4E572
648B2
80B1D
4DB06
53E05
62823
6139A
7703E
46298
93904
32383
67E66
638E5
801EA
637C3
44010
45967
5131D
3C6EF
3481E
3CB83
5D7DB
3C225
47904
A1C8E
47FD3
C01D3
42758
4BC72
ABC49
76A60
8F271
9AEFE
5EC7A
8DFAF
5E59B
53958
7EF0F
289A4
58DAC
6DBE6
32BC9
3C57E
51229
5436F
7CBBD
663A8
5BFD2
401F5
5057C
5CE39
4A188
52DD9
98E1F
5CCEB
42F55
A55DD
6AAB4
8D6C5
59160
694EE
5CDE2
95EC3
475DD
47143
8A47C
4FEFE
59732
3E4CC
56906
5B4D6
9A2C2
5A1BA
960B9
3DF42
543F5
5EEC2
47641
45C08
2EFD8
3EE16
6FCEA
4A27E
68803
8FB2B
79639
4F791
64006
75CC8
42B7E
679B0
61CE5
7F014
A0A77
4BF9B
4BE7A
4192D
65902
8DAF1
96A51
57EAF
490D5
4CC39
62FD9
658E3
67BF5
4B8BA
67C14
3812E
45F3D
4C0D0

