19027
1AB38
350F7
15B38
11622
10D6E
3A2C7
13D7E
31B1F
29B7C
1AF46
115EE
0C086
1855F
287A6
41D82
1939E
120B7
405D3
101DB
3B897
122E5
48638
18871
237B3
24FCD
1E22C
19342
3113A
1AD66
3CFD2
50FB6
1761C
1CC16
2AAB5
1B58B
3F9EA
50C46
1F324
13FBC
3DF0E
1D458
1C99A
2CDAE
31944
1BD7D
53B9D
16579
1E047
1363C
16AE8
14523
36710
22794
165E7
1D35A
174F1
4716E
12912
4798C
1FFA0
3B8CB
4BE9A
51BA5
3A4F7
2E254
1A94B
11C5C
47BE0
0A6BB
14D08
32C26
1271F
3D72F
17B7A
1C29F
11C09
2C46B
10C1A
4A3AA
2D5EA
36FCF
26E9E
29E08
1CA70
15695
19A14
3A1D4
2A203
16334
33144
4211D
180D9
17DF2
1BF51
31E97
3A1E6
18BD2
4C747
0F606
1FD88
33EAB
3DEA2
1B760
14A88
145AA
29F75
1B0B2
13CC0
11BCD
2F269
1BF23
134B5
4FA2F
23B97
64C78
202F7
18991
56080
3B33A
47A79
50578
1B5C2
46C3B
19ABE
28CA2
41573
0CFC6
19753
39639
116FD
15BFE
28E09
159DC
41B31
17252
16CE9
1893B
28409
24082
11CF7
18FAB
4B5BF
1AF01
14E41
522F3
34CDE
49E2D
2D4FA
3306A
2E36F
4A780
115E9
1487E
4510C
280DF
19897
1B3C4
16C89
1895D
4E254
2EAAB
49C7F
0FF9A
1C746
17DD4
23D4F
1E9B1
0C337
1FA46
27189
12C25
208EC
476E7
3CCB0
17796
1C6EA
3921E
12813
342F8
311B4
41B3D
50512
138E2
269EF
14EBA
337D8
45F3F
4B1E5
2CB6A
18240
19021
330CF
19F1C
1FB5A
140E1
1E0B6
13D8A
15084
15BF3

