43C73
38E20
52947
374A9
2F5FE
29584
5F467
2D567
4BA0D
429E1
2B90D
28230
21BB5
3CA21
402EB
69D21
2AF5E
2EAA1
639DC
24D52
5D596
291F5
74FC2
36692
3963E
3B00C
37550
3D244
4E439
2E253
62B11
80C6B
3507B
315D3
4328E
2B9E7
638BB
804DF
49634
2F501
634E4
42525
3D39F
457F0
4F14B
40316
8568E
2C88C
32A20
30CD6
39B6A
3085B
566F5
53A8A
3274D
3DC0E
3727E
70F7B
2D06B
7273F
53F4E
5CDA4
769C7
7D64C
5AA09
49FC0
35223
291F6
71D88
18DAE
2F0C6
52E6B
28906
64345
3AABF
433AE
30E9B
4482A
29D80
75B22
48762
57536
3EA5B
42D21
332AC
34B51
2EEF9
5E500
423D8
37A09
50880
675BA
37FD3
3B998
45F70
4E154
5E60B
33C8E
76CB6
241F6
4ABF9
50483
6555A
46587
30D95
31AB3
4152D
2EECB
27460
2B547
4ABE2
2F1C8
326A9
808C9
39512
9B297
3497B
37125
8914A
5E98F
7239E
7CC1E
4380C
712AF
42907
42452
6604D
1D6DF
3F349
588FE
2543A
2CBAA
40D8F
3AE37
64D98
463BA
3FFFD
301F8
401F7
45E2C
3352E
3B722
7984A
42286
30520
83B66
54E06
72195
47602
5358C
49FE2
77654
31853
32A0C
6E470
3FCD2
3F978
301D1
3CC27
404F5
7B69D
48885
7730B
2B5A0
3DACC
422C7
39012
35EA0
20EA5
323DF
5263C
33BE4
4B64E
7275E
60DF7
38D12
470BC
5D412
2F364
52CD5
4E1A6
66340
8026C
35261
3CD20
2F81F
514DF
70A9C
7816A
46702
35437
37D31
4F985
46F6F
4A9A3
35185
49EEE
296AB
32290
3614A

