080E0
0FD38
2A361
084C4
05ECA
07C46
2C730
0AC87
28549
2051F
15ED1
08C90
0366F
0ABDE
215DB
332D6
13667
06F0B
336EB
07F65
2F9A3
097F4
38278
0D5D6
19800
1D2E2
14B37
0B627
26969
1856F
2F45F
3F6B2
0D7A8
1439A
221ED
1579F
3474E
406C9
0EEA6
0954C
30643
0F06B
104DA
236E3
276CC
0DE96
3FA3B
0E067
1601D
08A27
090D0
09821
2A7D4
10119
0BE38
0FE4A
0AF31
381B5
087F2
38265
0BAEA
2D5A9
3C36C
41483
2F15B
22D77
12A8D
08F3D
37BAA
046A7
0AAED
26329
0A41D
2F82E
0A2F9
0CFA9
052FE
23287
071CC
3A184
213C2
2B98F
1CF87
1E270
0FDA6
0947D
11A9A
2CF11
215E2
09389
28CE3
344EF
0BF11
0A3A8
0B980
2819A
2CB29
0EA74
3D75C
07A45
0F9D2
2A216
2F6AB
0AC32
09B90
093A6
224DF
13439
0C265
085ED
263CE
14919
07236
3E01E
1C0FF
51374
16D08
0C10F
43D07
2E784
38625
3FEDD
0BC63
37C8B
09E1B
1FB9F
34234
06B3F
0ACF8
2E555
09E30
0CF23
199F8
071E7
349BB
04B8A
06736
0E9D8
1E291
17528
04E43
0BA59
3A86F
0B703
0AA30
40C10
28767
3A587
25000
2706E
232B9
3A445
050BE
08DE0
35530
1F803
0B235
13A96
085AB
09707
3E565
27086
3997B
0596E
0FD16
07A4F
1CB2E
18F08
04DA7
1A29B
16569
062C0
1050F
37F9B
2F36D
0AA6A
0BE95
2B9B3
07552
2945A
25F8A
35428
3EFC7
06961
1F980
0AFE2
289F1
36597
3AD9C
22919
0D40B
0D4D0
28F4E
08909
0EF09
07550
0D2F0
0B736
0A2B9
09B81

