4B65C
43BAD
58A7E
3C786
36899
2DEEB
66BD5
3462B
51543
4740F
30F53
2DBBC
256D2
45260
48B0A
722F3
31F41
33F91
6AC67
29369
65BB0
2D916
7EA4A
3CF76
39F4D
4020B
3D1CB
45341
5523D
3AEAF
6ACD9
8A820
41C89
339AD
496EB
2F722
6FE72
8C9AF
51AE0
3477E
6B4E6
49A9F
44D5E
49FD5
57246
47484
8B926
3121E
364F2
38D7B
40407
361D5
5CD0F
5F862
38A68
41A97
3B5EF
7A9A8
32996
7BF2B
5DCD6
5F91F
7F371
85875
62E66
4DBE8
3370D
2E803
794A6
1AC1F
33499
57F55
2DBCE
6D2F6
411A3
4A797
352F4
48E23
2F110
7EDF8
498B8
5F2DF
4117B
4267D
34577
3A587
32F86
66413
479BC
3E218
57CD9
6EB1A
3EC01
42C84
4D9B8
551A0
65D8C
3DD6A
81009
28E2E
53CE0
57BC9
6DE4A
4E855
366D5
38275
47B25
325C8
2A25C
31FD1
536FD
3260D
37E08
8BAA8
3E804
A7203
35BBF
38F05
9538C
6696C
7C00E
8553C
4B062
7BA2C
4A716
48486
6E29C
219C4
4657F
5FF5E
2A0F6
310F7
38269
4237E
6B9FF
4EDED
46C8B
37679
42490
4DACC
39F02
41C8E
83532
48D8D
361F5
901CB
5A2B5
789BB
4F27B
59CA8
4E097
81765
39380
3860A
75791
456B8
480AB
34E80
44B4B
48BED
865CC
51D2F
81E74
3199D
448E0
4B309
3E94C
380D3
2CC3D
3852A
59BF5
3AD9A
54C82
7C544
6791B
3FA24
4F3DC
64781
34E02
5A1EC
5320A
6FF43
8AE16
3B7FD
43851
34435
57C14
79D6D
82386
4A6F4
39D16
3E45D
56B65
50E27
51617
3C159
52AAC
2DB67
39357
3E1FB

