65C60
50DF8
6A0B4
51FDB
4736B
3CD2C
7CC42
419A4
603DE
5668D
38C4F
3A3B9
32FAC
597C1
53063
8998B
390EA
4569D
7FA32
354CB
7839D
3B5B9
986EF
4E2A0
4ACE0
4C809
4B5C2
59B53
6576D
3D7E2
80A92
A6C42
4C98B
41BED
56A07
388DB
801A2
A6173
6AECB
45095
81019
5FC59
57290
59152
6687E
5D162
ACE6E
3E2C9
4304F
482E7
558F2
46F05
6FDD9
7AC12
48C83
579F1
50785
92415
420ED
9484A
7D462
77530
988D1
A01A3
7450B
601CE
4A3D6
3BAED
93500
24541
43E6A
6C733
3A255
8302A
5674B
62484
49AE7
57C60
3DC90
983F2
5DFF0
7107C
51833
56A5B
45103
4D955
3FDF1
7B15D
55688
52328
67F11
84FF4
515FC
57FFA
675B0
6479C
7B32E
49486
9872E
349CF
6CD9A
66D42
84AB1
686EF
4741C
48F86
53E3C
3EBA3
36C13
3FAC2
60ACB
3E587
4B279
A76DB
4A7B0
C6639
44D04
4F4B4
B1A87
7ABB8
94109
A00FE
63696
92DF7
63119
56862
832C6
2A800
5D35C
71573
35064
3EFEB
53E6A
5883E
80CA2
6BA96
60BDE
42D6D
5318D
60CB9
4DF67
56D7B
9E357
61553
461F8
AB14C
6E5EA
92102
5C17F
6D099
6012B
9B1B4
4B138
4A8D3
8F092
52AD5
5DD73
40B58
5AF22
5FE2D
9F654
5D17A
9B48E
411CC
5814A
63CDE
49D58
48710
31616
4106D
74CD7
4DF63
6D718
94A9B
7D8D5
5351F
68EB2
79F77
4607E
6B236
6526E
83377
A62C7
4FDA0
4E776
44A42
6900D
929CB
9BD57
5AE2D
4C699
5051E
6648B
6AC00
6CB25
4F5BA
6CD1A
3A901
49503
4FC81

