16681
1AE34
341BF
136AA
1048D
0FE69
38DF3
13A62
31115
289E1
1BAFE
10A8D
0AA74
17306
29BF2
409AE
19E96
10899
3F3A1
0F0C7
3B234
112F3
472D3
17827
206AC
24A0C
1D502
17B4E
30825
1FB57
3BF5C
4F6BD
18A02
1AE9A
2A7F9
1B02C
41202
50A8D
1D24E
12864
3CF27
1B85D
1B7FA
2BA5E
31982
1A236
4FD26
1581D
1CE42
12E88
14D0A
1303B
3536F
21007
156D9
1A7FE
1544D
46473
11782
46994
1D2EE
380E4
4A7E2
4FD39
3A20A
2BFC2
19A54
10F46
45B38
092D6
13562
30CD6
11D19
3CA7A
15E3B
1A159
0F6A8
2B32B
0FA09
48C0A
29D35
36972
24AB2
25E0E
17A12
13BCB
18C2D
3927F
29847
147F3
32D24
40C05
16C50
1647F
19A99
31B0D
38E08
18B59
4BDAB
0EBA1
1E257
33D98
3CBB3
1933E
133FF
133A8
2A45F
19E42
128AE
113D6
2FDED
1AEBE
11867
4E8EB
2366D
63864
1D676
15A11
5529D
3A6E0
46CB7
4EB80
1940E
463E8
17A3F
285EA
4080F
0C6FF
177F7
38E8E
10BE5
14A48
20210
13B6C
40554
14860
14293
174EE
25DBF
22E7D
10325
172F3
4A0A9
18868
13E77
51AA9
330E5
479D6
2DFBE
31D87
2C4E4
49708
102A4
12FE1
42FED
2794F
181E1
1ABF2
15375
16EE4
4DAFD
3026F
4900C
0EF80
1B0E9
160A1
23EB7
1F91F
0D5BE
20972
24B43
1165F
1EE84
468AE
3B396
15F14
1A42A
37B98
1109D
33AEA
2F984
41C4B
4F290
11DCE
27400
13C9C
32AA8
44BB8
4A0F8
2B109
16C01
17BCD
32B53
17FA2
1D196
12930
1BFDD
12C09
1431E
14E32

