5817E
4D83C
61697
464E5
3FB3C
3520A
71BA8
3C3A8
590EE
4E97F
360DD
34B2F
2BD73
5028D
501A8
7E101
37B6B
3C767
75357
2F7B5
6FEF5
345E3
8BEE9
45F0B
40134
46B75
44BB1
501A8
5DEA8
416FC
76069
98AA0
4BA4F
39854
50D7F
34578
7B1C2
9AF7A
5E443
3C99C
7669B
54B7E
4EBD3
51424
60235
52191
99E31
37C04
3C662
41EE5
4AA88
3E862
664DD
6E80D
4116D
4B0B7
447FE
8723D
3A895
88BAC
6D48B
69098
8BD8B
92651
6CAB1
55D52
399EE
35945
85A69
1EF83
3AF14
6156E
346D5
78CFF
4B749
56116
3E3BC
4FFEF
36994
8BD6F
5124F
68E77
47E71
493D8
3B387
43987
393FE
710F4
4ED16
481B0
60A9C
79B38
48543
4D71B
5A0D7
5D95E
709EE
46BBE
8DBC5
2F276
60A91
6055A
79ABE
5B4B8
3EDAE
41000
4EBEF
38395
2FCD8
39D5A
5BF54
37FF8
4110C
9A4E7
44FE6
B7526
3B903
4165F
A491B
712B3
88C05
92691
56F2B
886D6
569D4
4FEDB
791A3
26AEE
51912
69510
30202
37DE6
3DE7E
4D5C2
75FF3
5CD96
52E99
3F182
49187
57EBE
43F04
4BFDC
910C8
546C9
3E521
9F12C
638A4
8458B
571A3
635C8
561E5
8EE26
430DF
41559
81911
4C919
53860
3B2C8
50157
54AE2
93F0D
59E43
8F892
39E5F
4E7F4
57EC8
44F80
3DEAC
344A0
3E024
6674A
44C80
61B07
89373
72318
499F6
5BEF4
6F307
3D762
63545
5BA40
7B04E
99303
45799
4A4AF
3C0B2
60A40
86901
8FACD
51F34
42383
47815
5F56A
5E84C
5DE80
46078
5FC43
342C0
4213A
4800E

