285CC
25892
3FA83
21C26
1C264
19A2E
477E0
1CFEC
3B012
32A7F
20EAE
198B0
13D27
255D9
30FCC
5031D
1F97A
1C519
4D04D
178D8
47ACB
1A6A9
5865C
23414
2B589
2CE3F
272E3
261AC
3B8DE
21C4C
4A85F
62239
22066
24274
3375F
21301
4C842
61D4F
2E578
1DCB4
4B5AA
2A925
284FE
35B35
3C2B6
28E44
658FA
1E4F0
256AF
1DF2B
2341D
1E71D
41ED2
34213
20739
28E45
22BDB
561F6
1C10A
56FB2
32A2E
47812
5B3D8
61672
45E94
38239
241CD
1A279
56DB3
0F9A3
1E3B5
3E4C2
1A62A
4B5C7
2443D
2A300
1CF02
34F9C
19C32
59D52
37185
4298B
2F6EF
32D4C
24BC1
20A55
21473
471BC
32C84
22331
3DA6D
4F748
23847
24B27
2B097
3C065
47228
22729
5BA76
16D2E
2F3F2
3E196
4C10B
2ADB0
1EC73
1EE09
3259D
222E2
1AC9D
1AECB
390E3
22D37
1E776
6131E
2B79C
784D2
2782D
23898
685B5
47E87
56EFD
60493
29C52
55FC7
2859D
31EFC
4E81D
12E38
27021
44944
188DE
1DFFA
317B6
22FF0
4E514
280C6
25981
21078
30D24
302F4
1DD73
255A1
5BEDD
29044
1EBCC
63F6B
40513
58525
36AAE
3EA0D
382FB
5A98B
1CE92
1F55B
53DC0
30944
27329
22BAE
246A7
26D86
5E654
37F3B
5A14F
19CD7
28613
270D6
2B6EA
26F91
13A31
2651B
36A32
1E997
2FEF5
56E0B
49BEA
23718
2BBAC
46197
1CCF5
3F2D1
3B83F
4ECE2
617D0
1F9D4
2E970
1E76F
3E316
5548E
5B42F
35F2A
22985
24120
3D4C1
2A1B0
2F1B6
1FEA6
2DCCA
1B96E
1F7D1
215A9

