091BC
0F7AE
2A15D
09367
063B9
07BA8
2C612
0A5D6
280DA
2075D
14C75
08E81
03F71
0AD73
1FAA4
32FB3
12A1F
07677
3341F
0869E
2EF72
09A6C
37CED
0D6AC
1B55F
1CCD6
14C49
0BD79
2639A
13A8A
2EF8A
3F366
0C5BE
1517E
21905
154BE
32433
3F17D
0F827
09D28
300C8
0F7F1
10784
23B19
269C5
0E540
4140F
0E176
165A5
08744
09A83
09D60
2A8BE
102FD
0BED2
111C3
0B77E
3784F
08BAC
37A9C
0CA6A
2F2AF
3C099
417E4
2E4B8
23CB9
10B56
09174
3816A
050DD
0B0F9
26CF2
0A38B
2F0A3
0AB8B
0DA3B
062AB
23441
076DD
3A118
234C1
2AF70
1E16E
209A7
14481
09C6A
11B56
2CA7F
21290
09C5B
28211
3434C
0C2DF
0A969
0C56C
27702
2CA35
0EAEE
3CB6A
07A9D
0FE51
295EE
2F422
0B844
0A2D6
09748
21483
13A6E
0C8E3
08390
24E47
14D20
07B92
3D737
1BB24
508F7
18992
0D44A
430D3
2E0AB
37D3B
3FD41
0C6F5
36FFC
0A77B
1F50E
33B42
06DF5
0B6C6
2DCC8
0A10A
0D34B
1FF71
07C23
34A17
05A35
077DF
0FD29
1F609
1771F
0559A
0C2A2
3A329
0C5B2
0AB15
3FC51
28E14
3AEF6
239ED
27026
23E30
39C3F
056A7
09573
35BE4
1F39C
0B636
13791
08AA0
09D0D
3D50B
250CD
38E5F
05CBF
101A7
08225
1BF5C
15F09
047FE
18BA1
16FFF
067EE
10A1A
376F0
2F60E
0B13E
0C96B
2BB3D
07D4D
28CD7
26536
3421B
3E884
0710B
1E5E0
0B091
2867C
3612E
3A662
23262
0D502
0D8CF
28701
0934C
0FC32
07C55
0DBA2
0BD38
0A33E
09B9B

