55E2B
4BD02
5FE3A
44987
3E1BC
33E04
6FD14
3ADD5
57B6C
4D513
352AF
337CD
2AB9A
4E3EA
4ED07
7BFF4
36B63
3AFC7
7364F
2E643
6E290
332F7
899EF
44613
3F02D
45920
4367E
4E353
5C63C
404D8
7412F
9633C
49EDF
387DE
4F8E0
337D8
79293
98783
5C13D
3B2FB
747B3
52CBC
4D044
4FFEA
5E92D
50379
9765C
36999
3B570
4059B
48D93
3D0FC
64A76
6BE5F
3F9F2
4969B
42E97
84F5A
3927F
8681B
6A977
67640
89A65
90284
6AF83
546D0
388BC
34593
83804
1E3CB
399C7
5FB53
33438
76CA4
49A7A
540D3
3CA8E
4EC25
3549E
8995A
4FD2A
67368
46B7E
480D3
3A063
41FCA
38285
6F2E3
4D906
465EF
5F1F4
77C97
46A9C
4B970
57E36
5C1C2
6EBF3
452FD
8B856
2E105
5E6CB
5ED6E
779F7
5912C
3D63A
3F762
4D851
37345
2ED1B
38785
5A79E
37055
3F77B
97C2A
43DD5
B4815
3A8CB
3FED5
A1E66
6F543
8688C
90229
54DFD
8633E
547F5
4E994
77332
25CD0
4F9D7
67B07
2F121
36AF4
3CE7B
4B6C2
74317
5A6B0
50CD9
3DC1D
47E94
5623B
42330
4A375
8EA97
52692
3CE51
9C78A
61E91
824E1
55B86
61B27
54B68
8C8CD
41581
3FC6D
7F76A
4B535
5186D
3A157
4E1AE
529AC
91945
587D0
8D2A3
38748
4CC49
55B59
43DB9
3CE5A
32FB0
3D052
643EE
430DE
5F71C
86F97
70587
47E2A
59BA2
6D532
3BF7E
61BA5
5A28F
79184
96B33
43BD7
491D6
3AB0B
5F187
84599
8D55D
50A4A
40C22
45E65
5DD69
5C25C
5BBA5
444CC
5D7D0
330C7
4088D
46490

