2CBFB
28A19
42AF5
25345
1F39B
1C264
4B4C2
1F9C2
3DAA0
3535C
229F0
1BE0D
160C3
2916A
336B2
544B8
21695
1F410
50A26
19AD7
4B248
1CC4F
5CF8B
2651E
2D97D
2F260
29C3C
29CA6
3E8C4
23BFB
4E63E
670A7
2510D
26446
35F90
22DB5
50337
66B52
32AB5
2098D
4F2FB
2E5F2
2BA88
383A5
3F320
2C9EB
6AA82
2095A
27884
20F6F
26D9A
21565
45353
392CA
23551
2C3AD
2601E
5A6AF
1EC76
5B606
37F7B
4AEB9
5F9EA
65E1A
4939D
3AFE8
26D60
1C8CA
5B2CB
11152
20EC2
41981
1CA76
4F561
27D9A
2E31C
20225
37761
1C55D
5E4A7
39DFA
45E9C
31DE2
3563B
270B3
23DB1
2376A
4AD23
35417
25A0C
40AC2
53479
26CAF
285C8
2F586
3EEA0
4ADA8
2538B
5FFF0
18F3A
33A5A
41022
501BC
2F410
21AB6
21E25
34BF2
24382
1CC93
1D8CA
3BE2B
24CAA
21A88
66362
2DB0B
7DE10
299AA
26A9A
6D97B
4B89D
5B4D9
64D76
2DE33
5A55C
2C8B8
348CC
5244D
14934
2AE13
47C6C
1A968
205B0
33F0C
26D1A
51EC3
2CE0B
29D1A
2371C
33450
33A82
21473
28E31
60A9D
2D0A1
218CF
690B2
439B5
5C722
39574
41F17
3B090
5F345
20355
226BF
58162
3303C
2B19C
24DF1
284F9
2AEB7
6309E
3A9AD
5EBD4
1C9C4
2BC97
2B644
2D9A9
295D1
15C2F
283A1
3B13E
21FB8
34540
5B4A8
4D71F
26DCF
3019A
49CDD
1FC11
4250F
3E7D5
528C8
6664F
230F5
30DDF
21310
41403
59AA5
5FDFB
38961
2594F
273B2
40399
2EB91
33819
234DE
324D0
1DCD4
2279E
24AB9

