21FF9
23D26
3C1A9
1C65A
18A70
16786
42E7C
1ACF6
381FF
2F51B
20570
1704F
10828
213E2
3083F
4B736
1F2BB
1849F
48C0D
14C5A
44747
1764A
534F5
1FB40
2600F
2AA4C
2444E
21A8B
3885A
25A92
4634F
5C58B
21A0F
20506
3143E
1F7B2
4B5BB
5DC5D
28A2E
19F31
47168
259DB
248A8
32490
39CED
24037
5CE46
1B8CD
22739
1B34D
1E511
1AB15
3DE0A
2EADB
1D220
2310F
1D9A8
51B97
18B77
5244D
2B519
40B31
56069
5B92E
430BE
335EA
1F49C
176AF
50FC8
0D05E
1A536
395E2
17ED1
47455
1F579
24AB7
17AD9
31B11
16812
54976
30C3A
3F782
2AE2E
2C1E7
1DE90
1C2EC
1E7E8
43057
30198
1D9AB
3AE93
4ACD1
1F83F
20040
25068
396FD
42B6D
20D4D
577AF
14730
29E25
3BB33
477C4
24DDB
1AF1E
1B4E5
30B5B
1F3E7
17B4C
18675
37A69
200D7
19EA2
5BECC
29546
724FF
22B9E
1D5A6
632D2
4416E
526F2
5AAA1
24241
51EC7
22C0E
2F59C
4A7DE
1111A
21BED
4173B
16481
1ADBE
25623
1DE30
49CDA
21497
1F3C1
1E544
2C13D
2C42E
1953D
2080D
56927
23188
1B63B
5F539
3B9CA
52550
353D8
3A957
33AF3
55B1D
19254
1B2BA
4E099
2E1BE
2299D
20781
1F9AC
21D3E
5A15A
37849
55733
168B6
24227
21AA8
29C07
24ECE
143AA
25C82
304EA
1A774
2AB13
524EF
44ECB
1F100
25D99
41833
18E0B
3C173
375E1
4BDF1
5C396
1AF88
2D6F2
1AE45
3AC78
50598
56587
31ED4
1E6BD
202AC
3A957
246CF
28892
1BA79
27F3A
18A66
1C4AA
1DE86

