7149C
58FFC
71FDD
5B08D
4F49C
436BC
86C15
48776
67394
5D1D0
3D3DD
405CB
38D25
6341C
5967F
945C0
3DD4F
4D1E6
8920D
3AE09
81544
4188C
A470A
5635A
50B41
526DF
5224B
63622
6D528
42B0F
8ACFC
B3A24
54942
474B3
5D386
3CEF4
89C64
B2E3A
7648B
4C64F
8B10D
69BF3
5FF1B
5FB77
6E793
66DF7
BA473
44261
4891D
5019B
5EFDA
4E880
787AB
87FF2
50581
60622
590B5
9D87B
492E7
A00E7
8B44C
804A5
A40C0
ABDBC
7D041
679BA
51638
41F83
9EA5E
2836F
4AF6C
751A8
4019D
8D71C
5FDDE
6CCCD
52122
5E4C5
448A2
A3F30
654A4
79BC9
57E70
5D5CE
4B1FF
56025
459B9
84D4B
5BE69
5B327
6FDF0
8F095
59F8E
619E2
72AA5
6C0F6
84F5F
50907
A3D91
3A32E
7866A
6E773
8F480
73FAA
4ED8B
50DCD
5A2DA
44147
3BFFA
46900
681A6
43816
53889
B498E
504B3
D507C
4A4ED
577F9
BF66F
84431
9F86C
AC052
6E383
9E4A0
6E141
5D625
8D0C5
2EED5
675F7
79BBB
3A5CD
452E8
5A5AC
628CD
8A40C
7856E
6BD4F
492DB
59861
69E8E
56FC4
601F4
AAA2D
6BE46
4D821
B86A7
77012
9CE3C
631C6
75BD3
678D4
A733C
53BB7
52A7A
9A219
59120
68161
46547
652B9
6A94C
AB954
640E6
A782A
487BA
61064
6F31F
4F88D
4EB78
36F51
4608C
80756
56D79
78F9F
A03F6
87441
5C4C0
74643
83B11
4DC27
73619
6CF56
8D0B3
B30D5
58E56
54717
4BCCA
7107B
9E1C6
A7F0E
61CFD
5440C
589DD
6DF81
76DEF
783EA
5840D
78A29
405ED
5127D
587CA

