4EB5A
46484
5AF0A
3F094
38EDA
2FCF3
699B3
366E8
53586
492B2
32499
2F8CF
27198
48055
4A9FC
75488
3374C
36300
6D7F4
2AD93
68647
2F578
821C1
3F4EB
3B8D7
41D8B
3F198
480C0
576DE
3C9E4
6DBB0
8E336
445B2
3525E
4B5DA
30B91
72D39
905A1
54F69
36970
6E342
4C8C3
476B4
4BE2C
597D3
4A1A9
8F4E7
32DBE
37E5D
3B36A
42F76
384EF
5F4A8
636E8
3ADA1
441C1
3DC09
7DDFB
34AB7
7F484
61D75
620A2
82829
88E29
6572B
4FDAB
350D8
3058F
7C83D
1BDB3
3548C
5A67D
2F7BA
7037E
43CD9
4D7FB
378B9
4ABD3
31080
82417
4B870
61B76
42DE8
44304
3622D
3CC23
349BC
6912D
497D4
40BBA
5A1D4
7190C
413FC
45905
50DAA
57509
68A84
4028B
8452F
2A857
57289
59FAC
70F73
51DA6
38A02
3A761
49891
33E40
2B9F6
34091
55A8E
33D82
3A462
8F7C3
4031E
AB59D
37413
3B254
9939B
69595
7F543
88BD8
4E227
7EF90
4D9E3
4A46F
71044
22EF0
49457
6266B
2BA47
32D62
39A6F
451FF
6E54A
52845
49F2A
39692
440FD
50591
3C8C0
44728
86E7A
4BDE0
3842D
9403D
5C9D2
7BABA
513A7
5C49B
50252
84F6B
3BC8E
3AB6C
78A0C
4748E
4B097
368A9
47AC9
4BDBE
89E79
53EDB
8575A
33C3F
47260
4E830
403F5
3994F
2EBA5
39CE6
5D100
3D70E
58262
7FB0D
6A573
423D5
528D7
67440
371D8
5C85C
55593
72D72
8E9CE
3E1A0
45496
364AE
5A12B
7D289
85BAF
4C652
3C027
40AE6
58F67
54710
54A5F
3EADC
56159
2F65D
3B85B
40B38

