65E4A
58269
6AEDE
50FF4
49A9F
3CF2B
7DAC6
44C0F
6175A
56926
3B97E
3C454
32D01
5C20D
58296
8AF96
3DF97
45B0D
808CA
364BA
7B06D
3BC27
9A605
4FB1D
46B9E
4DE0A
4D030
5BF3A
67749
4885B
82397
A80D2
565CD
3FF36
58E63
39A9D
874AA
AA940
6BF29
4570B
827C5
60BBF
59810
59290
69EA9
5DDAB
A9727
3EF1F
4304A
4BCF4
55F85
47AA2
709DE
7EC90
4A42F
553E4
4E6C0
94C42
432A0
969F7
7E1CA
7353C
99938
A0614
77494
5E9FC
40569
3D461
9315D
238C4
43435
6B894
3BB29
85735
56B57
62AB6
4811B
57BA0
3EC93
99EF0
59679
73796
4F4E0
50AB5
42B2A
4DA65
40133
7CCDE
56A77
52F2A
6A4B3
85AA5
52BD9
59087
67947
66CEA
7C54E
50672
9B938
35F75
6EA25
69AE2
86795
692E0
48040
4A9DB
56688
3E98B
35F32
425CE
65385
3E1B5
4B0D9
AA386
4C0D0
C8ED2
41E63
4A97F
B5404
7CAB3
969B9
A0A1A
63E8B
9654D
63D81
583D4
84FE2
2C326
5DC43
737C6
36B7E
3F44E
44295
59787
81455
6C0B3
60187
4773F
507F8
630F3
4ECF0
5715C
9FF76
61020
473B4
AF55D
6DB9D
911AE
5FBDA
6DC39
5EE71
9D793
4DBEE
4B11E
8EB64
5456C
60010
41FC8
5C737
61A72
A2B33
62A8F
9E5A7
42EAC
594DC
65C3D
4BE96
444AE
3C77C
44307
7444E
4F937
6FB81
9738F
7DBDD
547AC
69BB5
7AD76
46CB5
6D56D
64E4D
870BF
A8BD8
50515
51A79
44802
6A4CA
94648
9E4CD
5A1E9
4B5A0
518A6
68B6F
6D56A
6B857
50D6E
6E014
3B315
4BB74
52BE0

