69C1D
5B20F
6D981
53FDA
4C740
3F235
81049
47241
63CFE
58CE4
3D24F
3E63F
34C3E
5F7AB
5A6B0
8E96E
3FBA4
48464
83B99
38340
7E21E
3DD44
9E6BB
526D1
4896A
4FE1F
4F549
5F44E
6A206
4A819
85A3E
AC5C1
595D1
41C04
5B27A
3B274
8AB3D
AEF30
6FC74
47EA5
85DDB
64194
5C84A
5B5F6
6CA77
61256
ADCDC
40F59
44DF2
4E935
59232
4A395
73812
83581
4CD47
58195
51334
9894E
45946
9A834
82D2E
76356
9D6BA
A44BB
7A425
6115E
42381
3F6DA
96D8E
24D46
4597B
6E643
3DBBC
88FD3
59DC1
6632A
4AD2B
59E42
41141
9DE14
5BB7B
766F1
51609
52BFD
44CA9
50771
41FC6
8017B
58D92
55FBD
6CFD8
8903F
55A7E
5C472
6B5E2
6963A
7F9C5
531C3
9F73A
37DFA
728BF
6C4C0
8A0F0
6D115
4A94A
4D4EF
588DB
40617
37ABC
44C03
67D04
3FD12
4DD97
AEAD1
4E06D
CDDB0
43AC6
4D2B0
B9EC0
7FE38
9A7CD
A49D0
6789C
9A398
678C6
5A90F
88527
2DBDA
612EA
76555
38908
41576
45E9C
5CDC8
846D7
704C5
63C96
49CB1
52922
662D9
51DA3
5A30F
A424B
64880
49BA0
B3E37
7093F
94AD7
6228D
70AD3
615CB
A18EF
50BD3
4DCBC
92648
5683C
637F9
43E4D
5FE9E
65490
A6D52
651D8
A280A
45713
5C546
69A40
4DDB1
4613E
3EC20
45EB7
78230
52994
73A5C
9B24F
80F99
57850
6D985
7E1AA
49684
70245
677C2
8A6A1
AD185
535A9
53B74
46DE5
6D00F
9843D
A2652
5C682
4DE8A
5459B
6B570
717CE
6F556
53DDB
71FDE
3D289
4E6A3
55BFC

