72144
7F3A7
1A30B
77203
76156
7A888
1866D
7CA31
1A16D
130D8
0BD59
7CA5D
7847F
774BC
12E6B
1D74A
09155
77FE6
20469
7D423
1CC24
7D4C6
1FCB6
7D538
0F89E
10F2A
07336
787DB
16824
09432
1AAB7
257A3
7C650
09FF1
14606
0C88C
1EEAF
257F0
78CA8
7B1B4
1BEDF
7B8BD
7EE6D
166CE
16B9A
7AC15
26804
02244
0B409
789DE
76CB4
7AA69
1951C
75B3E
7CCD6
7F962
7A51F
20F83
7A7B7
20962
70A96
1D3C3
250BC
29FB1
1CE4C
14CE1
02692
7C849
216AE
7D482
7CEF6
15808
7E4FB
1A2BE
77E65
789A9
75635
16377
79EBA
22A9C
14B59
198D6
114F5
132C1
08288
78EC9
063C7
192A3
142CF
77C5E
18453
2020B
7AFBB
7759A
75B83
1844D
191D2
001EB
25EA5
7C7E0
78CB2
1A18D
1A084
746CD
7AFF6
79AB9
14B48
08F25
02117
7A713
16090
0A802
76F71
231D0
1011C
33470
0D9C1
7CDC0
27904
1AFB9
20E76
27E99
76D1B
202AA
7472C
11988
1FF43
7E04A
77190
1D037
7F638
00D50
130ED
73B06
21B42
6C486
714FC
0324D
12862
05375
734DF
799B1
2157B
773CC
7BEC5
2519D
179C3
25483
1595F
159B2
14EDE
2192F
741A9
79226
1F8D5
12706
76E5A
083B1
74372
746CE
24F0B
171F5
20727
770E4
7E373
715A2
108F3
09639
79588
0EB62
7FB01
74BC1
7990C
2043A
1BF36
791FB
75A48
18409
785F9
18512
16B64
207A3
24C68
74F9E
1269E
7CB82
185A0
1F137
222F3
154C1
7DA1A
7CF50
19115
70F6E
78AA8
75FAD
76183
00361
7A84B
7850A

