49CF3
3D23A
56BE2
3C074
339AA
2CCCF
6481E
30EEE
4F491
46210
2DE88
2B58E
24CAB
41C07
43867
6F755
2D763
32B35
68968
27C11
621E2
2C5B9
7B463
3AA00
3C7AD
3E1B9
3AE2A
4235B
52615
30DE5
68024
87843
39361
34454
469D1
2DE9F
689CB
87023
4F568
332AC
68934
478BF
41D3D
48F89
533DC
4551B
8C6A9
2FA9F
358A4
34F34
3EA76
347FE
5AF26
5A985
366AD
4257C
3BA5A
76DF9
30C1F
787F3
5B498
618C9
7CA20
838D3
5F2F5
4DE91
38E0E
2C6A6
77C88
1AE40
32BF8
576F2
2BAEF
69AB8
3F99E
48BD4
354EA
47ED9
2D61C
7BD37
4C484
5BE2E
41FE9
46569
36579
391EE
31F0C
636AD
45A42
3C576
54AF4
6C9DD
3C7E2
40A35
4BE39
520E5
637DB
37995
7CC3F
270C6
50CC7
54484
6AE4C
4C64B
34D31
35CD8
449E1
31BA7
2A052
2EF06
4EA24
31D07
36CE3
87727
3C5CB
A2D4C
37787
3B5E7
9047A
6396D
783AD
83056
492A1
7725C
4854C
45DD1
6B310
1FBF9
44876
5CF54
280F7
2FF84
443A6
40251
69CE8
4CDFA
45CEF
33719
437D4
4AA8F
380CC
404E8
80072
47B05
34304
8AB28
59664
77C52
4B0D2
57E79
4DE90
7DBB3
360DF
36DF6
7416E
43267
44F56
330ED
421D8
45E98
81CC2
4C2E2
7D981
2F366
425C1
4823F
3BFD8
39338
23D62
34DD7
587EC
38651
516F6
78875
65F61
3D84E
4D0E4
62593
3342B
571EA
52314
6B59D
86E5B
39E2F
3FF38
3341D
55825
76AFB
7E6E3
4A10E
395ED
3C2BA
539ED
4D505
50A6C
39C13
501F6
2C757
3644A
3AA3F

