4D197
3F75F
59037
3E9CB
35E93
2EAF8
675C8
32E4E
5147C
480B5
2F2FA
2D193
26760
448B4
45594
72888
2ED36
34E6F
6B4CB
29590
64B7F
2E1F5
7EB46
3CEC7
3E2A4
3FCD1
3CD2D
44F97
54A02
325A8
6AE8B
8B315
3B7DE
35DB1
487F6
2F2A6
6B602
8AAA5
52955
3544F
6B731
4A658
44565
4ADDD
5582B
481D8
903CF
315EF
37204
37367
41593
36AB3
5D686
5E60E
3893F
44D8A
3E18C
7A184
32CB0
7BCB2
5F492
641C6
7FEAD
86E92
61ABB
500D4
3AEBC
2E363
7B05A
1C004
34C41
59E81
2D628
6CA6B
424A3
4BBE8
37B44
49CAD
2F4FC
7F2B6
4E5DC
5E5FB
43D1F
4841C
3812F
3B873
33945
6633A
477F0
3EE9A
56F34
6F7C2
3EF31
4362E
4F1ED
54391
6647C
39ADE
8005B
28A4F
54194
5676D
6DED1
4FB13
36FE3
380ED
466A1
3341F
2B84B
30E86
50C19
3349E
39331
8B35A
3E05E
A703B
390A5
3DB69
9434E
664FD
7B812
86701
4C409
7A68D
4B7A0
47D2D
6E034
21036
476EB
5F5B2
2995E
31BCC
46126
43031
6C82B
507EE
48FA2
35414
45535
4D43A
3AA0C
42F53
83941
4AB4B
364C6
8E81D
5BDDD
7ADD0
4D0E6
5A641
500C0
812FF
38871
39301
77427
44FA2
47E2C
34A9F
45095
48F7C
85479
4E2B8
81165
31517
44EA4
4B652
3D9E7
3AFE8
256E0
364BC
5BD35
3AEEA
54BAF
7BD6A
68BC9
40158
50556
65208
35780
59799
546C4
6E289
8A93A
3C787
41A8A
354D6
57CD7
79F8C
81E3C
4C0B7
3B9C5
3E8A8
55D0F
50C6E
53F36
3C4BD
537FA
2E1E4
38824
3D20A

