3CA66
33DA4
4DA8F
31B16
2A604
2542B
59177
2916B
474E5
3E77B
28CC1
2457A
1E1D8
36956
3C3B4
63286
28014
29E50
5DBDB
21614
57B6C
254C8
6D8D6
316E2
35BD1
37556
3321F
3726F
49664
2AED7
5C687
78CF7
3016B
2DEDE
3F13F
28E82
5D8ED
7861B
425B1
2AC20
5D141
3C258
37C9E
4163A
4A29F
3A227
7D210
28D5E
2F327
2BE67
33DFF
2BD27
511A4
4B761
2DC66
38545
31D91
69FCE
289DC
6B4F7
4B4B1
574D5
6F7EA
761DB
553DB
45583
30B55
253B1
6AD41
16730
2AAD1
4D8B5
24E0A
5DBEC
34D89
3CB81
2BB82
4078B
25A9A
6E739
43F24
51EFB
3AB11
3EA9D
2F6A2
2F7DC
2B628
58478
3E38A
320E5
4B9F6
6124A
32AA9
35A51
3EF6B
49635
5855A
2F46F
6FBCE
20AA4
43990
4B8DF
5EC3B
3F32B
2C268
2CC87
3D6E4
2B9C6
24070
27108
4624E
2BEAD
2D3AB
7865A
35B7E
92192
31310
31FE1
80928
58B2C
6B218
755AD
3CD00
6A19B
3BBFA
3E060
5FE7E
1AB05
38EA0
535DD
21F5A
28E63
3CDA4
34AD3
5EFDC
3E628
39224
2C32D
3C250
403E5
2DBCF
35B39
71D33
3B9F0
2BBFB
7B753
4F87F
6B659
43081
4DF5B
455CF
6FE86
2C297
2D9CA
6768A
3BD7F
393FD
2CA24
366E2
39B06
73DE7
4438B
6F9F4
26C9F
38235
3B1F4
3579C
32078
1D768
2F246
4B2C9
2E3EF
44413
6B49F
5ADC1
33428
3FF19
573BF
2A6D7
4DB30
49453
601EA
782DD
2F8CC
391EE
2B139
4C55E
698B7
7097F
42269
3068E
32B04
4AD66
3F762
43741
2F96A
429E5
25D26
2D4E4
30B11

