46850
3AD14
5478D
3971C
314C0
2AEA6
61A75
2EF8D
4D4A6
4436B
2CA16
29989
231F6
3EF5B
41B3A
6C621
2C18F
307FC
65E04
26292
5F844
2A97C
77D80
38538
3ACB6
3C6A0
38F27
3F720
50229
2F621
651BD
83D70
36EE3
32AF6
44BAD
2CA98
65D94
835A1
4C17A
31109
65B37
44B25
3F515
47135
50F8D
4285E
88983
2DF4F
33F45
32B01
3BF58
32548
587C6
56CFC
3441B
3FD6E
39328
73A6E
2EB8E
75334
5749E
5EFCC
79592
80315
5CB2E
4BC4E
36D5F
2A9E9
748B6
19C7C
30BAE
54F63
29FB6
66B05
3CE99
45BBF
32E90
46106
2B73B
787B7
4A32C
59661
402B3
446B6
349C4
36B6A
304D3
60A20
43C94
39C52
526B5
69BF8
3A094
3DE3C
48A86
4FE39
60B3B
3584B
79823
2573E
4D7F9
5219B
67DC8
49183
32A7F
338C4
42D22
3032F
28859
2CF87
4C82E
30571
34695
83AF4
3AB38
9EA5E
35E69
39066
8C5A5
60DDD
74F47
7F9AC
46138
73E2C
452F8
43E75
685EB
1E7BC
41A01
5A8F7
26890
2E33C
42625
3D472
671A5
49405
42A3C
31A1E
41A73
480E5
3578D
3DA7C
7C7A2
44AC0
32142
86E33
56EEB
74AD4
490BE
556B2
4BC60
7A468
3394D
348EB
70EB5
4152D
42080
3173A
3F31A
42DB3
7E50B
4A30C
7A19E
2D1B4
3FCDE
44E2C
3A5C9
37688
223E3
336F3
552A3
35DB9
4E23D
7537F
632F9
3AF45
49C71
5F91E
310D6
54C3C
4FF64
688B0
8337B
374D6
3E3E5
31364
53374
7366A
7AF8A
48165
37215
39CCD
516CB
49D9C
4D5A1
37369
4CBF2
2ACCB
34070
38273

