4C806
4494A
596AD
3D535
37559
2E8ED
67B1F
35115
52004
47E45
3166B
2E56D
25FBF
461B2
4955B
7337A
32745
34B61
6BAEB
29C21
669E2
2E28C
7FCC7
3DBF2
3A7D1
40B35
3DC65
4626B
55E73
3B7C0
6BC76
8BBD2
42A41
341E8
4A13A
2FDF2
70E0A
8DDAA
52C63
352CF
6C45A
4AA00
45B25
4A9F2
57ECA
48390
8CD11
31B53
36D6B
39A20
41281
36D88
5DA42
60D39
39626
427A5
3C2A3
7BB19
334A1
7D0F3
5F260
6064B
80504
86A5C
63BFD
4E729
33FA6
2F1DC
7A5D8
1B1FB
33F3F
58C62
2E51D
6E324
4200A
4B7B8
35F8B
49809
2FB8A
80003
4A34B
60067
41AF5
43000
34F09
3B266
33842
6731C
483C4
3EFF8
5892C
6FA6B
3F955
43B5A
4EB08
55D6E
66C89
3E9CA
821C0
296E7
54EC3
587C0
6EEAD
4FA1B
3728F
38EC4
484F4
32DF0
2AA3A
32ABC
542D8
32DDF
38AD1
8CF06
3F10D
A888B
363DB
39ACA
968E7
67825
7D1CA
86770
4C0F9
7CBF8
4B805
48F29
6F1D4
220D3
4751C
60C62
2A966
31A70
38A6B
432FE
6C86E
5015F
47D6B
3812C
42E09
4E90D
3ACEC
42AC2
8484A
49DA9
36D5D
9169C
5AFBF
79A10
4FD8A
5A9F9
4EBD5
82A11
3A12F
39280
76865
460AA
490A4
35739
45B20
49C88
878B0
52869
8316B
32528
456B6
4C4C1
3F22F
388FC
2D6B5
38D14
5ADA3
3BB6B
55E77
7D732
687E3
4080A
50585
6566C
359F4
5AEBC
53DE2
70EA8
8C1FE
3C5DE
441BD
34F08
58871
7AF21
8363E
4B169
3A8C6
3F136
57766
5211F
52784
3CF2F
53CE6
2E463
39FAE
3EFBA

