089B5
10407
2A978
08B9C
0652A
08148
2CED5
0B1FC
28AAA
20A3A
1625D
09168
03AE6
0B387
21B04
33B1A
13A69
074F3
33E2E
083C2
300BC
09CAF
38BB7
0DC15
19C42
1D777
15084
0BDBC
26F84
189F8
2FC2E
4008B
0DE84
147B8
22715
15B07
34F1A
410C7
0F768
09AF5
30DFD
0F81C
10BBD
23BF2
27D0F
0E61C
40430
0E502
1645A
09079
0980D
09DFB
2AE6E
10B85
0C417
104D1
0B58B
38A6D
08D78
38B49
0C5AF
2DC3F
3CC35
41D77
2F827
23318
12ED9
0942A
38443
04995
0B040
269B0
0A8C4
30044
0AA2D
0D7B9
0594A
2377A
07709
3AA89
2190B
2C053
1D443
1E731
1026F
09AEC
11EF8
2D695
21AE5
09A79
2930D
34C97
0C5BA
0AB13
0C229
28781
2D2A8
0F0A5
3E038
07EA1
102C3
2A811
2FEDC
0B515
0A16D
099CD
229C7
1384D
0C654
08B62
269BC
14D02
0789A
3EA4D
1C584
51EB8
17116
0C6F1
447B4
2EEE0
38F03
407F7
0C4AE
38571
0A692
200F1
349D0
06EC7
0B4C7
2EBD7
0A268
0D3E0
19DF9
079A8
350F2
05543
06FA5
0EF32
1E74E
17C49
05538
0C172
3B1FB
0BF11
0AFE4
41678
28DEC
3ADB2
25588
27717
23858
3AD9B
05796
0941B
35D9A
1FCFC
0BA32
13EF2
08D95
09F54
3EED7
27623
3A2F7
05F33
10401
0832B
1CFA0
1931D
052E3
1A68F
16E40
069A8
10E09
38892
2FAD1
0B15D
0C769
2C128
07B4B
29AC2
26576
35BDB
3F9BB
07052
1FE36
0B54C
2901F
36E71
3B6F8
22E53
0D9E3
0DB3C
2954F
09285
0F7BF
07C3B
0DC0D
0BBB4
0A8E4
0A260

