5208C
42F17
5C6B6
427CE
395F2
31836
6BA47
35D5F
5445C
4AEAD
311A4
2FB9B
28F6F
48BB6
48157
77256
30DF4
38345
6F5DF
2BBCF
689EC
30C4F
83D9B
405F3
40B17
42576
3FBB1
491F0
57FE4
3494D
6F426
90B52
3EE9A
383BD
4B52C
310B0
6F856
90267
5773A
386C3
6FC2C
4EABF
481A1
4DB5B
58EA2
4C4F4
95F88
33EE7
39813
3A9B4
45640
39EC4
61197
640DC
3BD19
4899F
41C58
7EED4
35D89
80BD0
65488
67F42
84D81
8BF2F
65665
5343A
3DFC1
30E7F
7FE15
1DAAA
37CB0
5D9D8
2FEFE
711F8
4652B
50408
3B4CB
4C96A
3234D
842F5
517E0
621AE
468F0
4B229
3AAC0
3F23A
3609B
6A60E
4A474
42C50
5A593
73C98
42A26
47824
53F7A
57793
6A76C
3CCCD
84E85
2B09C
590C9
59BCB
72797
54A3F
3A3EE
3B70B
491C0
358D3
2DC40
33DC5
53F0A
35800
3CCA6
90DA7
4083B
AD4A1
3B651
413AB
9A18D
6A656
806AA
8B900
50E25
7F4D5
5031F
4AC38
723EB
22E92
4BC9C
62F3F
2BDF9
34639
48D67
47500
70910
55EDC
4DBAE
37F8C
48147
512BA
3E7EB
46EF5
88E79
4F3B3
3976A
9438D
5F913
7F80D
50105
5E1EC
53409
865F0
3C3CC
3CA91
7C03C
47B79
4C46E
3712A
496B1
4D8D3
8A80B
51278
8653A
347A2
48BF8
5046E
400FE
3DAF0
27D1E
38712
60D22
3EBCF
59AC4
80CDA
6CE65
43EE6
55402
694B8
38C7F
5D01F
57C4D
725EC
90189
4058C
44386
385EC
5B3E2
7EE65
87141
4F035
3EF89
4218C
591C1
55F8B
58E66
401BC
58901
309B6
3BDEA
40DBC

