6EA9D
7C419
18B30
74A05
73984
79608
1678A
7B18C
18DF3
11A3F
0BBBE
7ADA9
7692D
74B83
128A0
1B6BB
07E15
75F5F
1E90D
7B6CD
1B317
7BE59
1D93A
7B6AB
0D433
1000D
0576C
75959
15092
0B4D5
18D3E
231B3
79C1C
0864C
134C3
0BAF4
1E0AE
23B34
75BE0
79110
1A2D7
78EAC
7C7EF
14E45
156EE
7847B
23025
00C9C
09D3E
76753
743CC
78B07
17838
721C3
7B02E
7D20B
78B13
1F08C
789F4
1E962
6CB80
1A6B7
22F38
278CC
1B8C5
12AA5
064C9
7ACB8
1F025
7BFDF
7B5F8
136F7
7CE11
1841D
757AD
75CAB
7316F
14EF0
780C3
20297
12093
18260
0F59C
107BB
02186
76C7D
051AA
1754F
12F2F
75457
1715C
1E4B4
78C8C
74E7B
72B41
1721E
17265
7CDCC
23FE4
7B1B6
75E70
18EF4
17DC3
7136D
78DDF
7788E
1434B
0789E
00D6D
78ADA
15321
09543
74C2E
20B9E
0F13C
30D2D
0B280
7B25A
251EA
194F6
1EE36
25C33
73ED0
1E335
7189F
106F5
1E426
7C8EC
745D2
1B9F1
7DC18
7F545
0E1CD
70D5F
1FDD4
68C37
6E31A
7F3C6
108A3
02D42
70E3F
773BE
1F143
7448C
7A3D9
22D4F
15B88
22DE9
151B1
13E2F
1301D
1F6C3
715FF
76F42
1D231
11340
742CA
07207
71994
7191D
232E2
16E5F
1E53F
74FEA
7BEEF
6E2D3
0FEC7
0D357
75CE0
0ECA8
7CEBE
724F3
76805
1E33E
19F73
76AC8
72865
162A8
76291
16DA9
14F1F
1F212
225ED
72A2A
120C4
7B6E9
16D98
1CE71
1FF0E
13898
7C731
7AD60
17B46
6D4BF
75E36
73711
72FC2
7E884
786F3
75F5B

