2E246
2D2E7
447AA
25CE2
216B3
1D5A3
4D6AB
224FF
3F84A
36570
2536F
1DAEA
16A53
2BC67
379B5
56D00
24AE3
2068D
52BBA
1AC4A
4E373
1DE5D
60056
28497
2BDB4
30F21
2B8E7
2C15D
40EAA
2BE56
50F11
69E31
2B0F9
25F90
385AA
242A0
5613F
6B82A
34ACF
21BA7
51B64
3030A
2E039
393D1
4269A
2E5BE
6A95B
21E18
2846C
23E65
28456
22BC8
46F3F
3D01B
25346
2C0A8
2655E
5DB73
204F0
5E7EA
3A209
49C13
621BA
67E17
4C63D
3B1B3
25331
1E305
5CCF1
110D4
21A5D
42574
1E530
52647
293EC
2FC25
20555
387EA
1DB59
60FE7
38088
48C56
31667
32A80
247D7
2507C
24802
4D5B4
36FEE
27253
4362D
55546
28AD8
2A36C
30EDF
418D4
4D050
29570
63A90
1A71B
362E4
43EC9
52C07
3115B
2301A
23C49
3773D
24DA1
1D1D9
1FE89
3FCD2
256DA
22B42
69EDD
2F8A4
81CDE
284D4
2571E
71DB3
4E359
5EA0B
672DC
2F8BE
5E28C
2E655
36A9F
54F49
15EBD
2C7B1
4A66B
1C154
215F1
2AE38
288B4
53B96
2EA87
2AD5F
25AF4
32977
36100
22E4A
2A440
63B31
2E2B6
233B2
6DA30
44935
5D8F5
3CD78
43BCE
3B6A1
62887
228DC
23BCE
599AE
34F26
2D956
2676C
2A7CD
2D3E5
6712A
3F3C0
627D5
1E7B2
2DA50
2DD8A
2FDC9
2A892
1B6D2
2B387
3C768
23F72
3709E
5EA27
4F164
289DE
31FDD
4BC43
21172
44E63
3F82B
5674A
69E8F
24833
33E9A
22558
43476
5C851
63372
391DA
26752
28FF8
42D5B
31779
34845
252AD
347B5
1ED41
24C62
275B9

