60ECE
54526
6780C
4D25F
4613E
3A21F
795F8
41AF4
5E6F6
53B31
39996
398B7
304D8
57D1C
5542C
86537
3BB87
425E6
7C778
33D7A
7708A
39194
952D2
4C2EE
4454F
4B4CA
4A07D
57AFB
64057
45F8A
7DD53
A2830
52810
3DA2C
55FFD
37BF6
82E80
A4F55
6705B
42421
7E23B
5C689
55A0E
5650D
66656
599F4
A3D87
3C5AF
40A2A
4840D
51E5D
445FC
6CE77
78EC7
46F5A
51926
4AD99
8FDC5
400EE
919F0
780DC
6F9F7
94A22
9B586
7376B
5B758
3DEB8
3A810
8E3FB
21E65
40447
67DD8
39148
80E69
52A85
5E220
44873
54F19
3BD6B
94DC1
566E5
6FAB4
4CA3D
4DFEA
40018
4A07C
3D9E2
78938
53D54
4F0B7
66D3A
815BB
4EFE1
54DC7
62B5C
637CC
781DA
4CEC0
9697F
33838
699A8
6650D
81DD7
642E6
44B7C
47278
53A65
3C4D6
33BCA
3F4AF
61E2C
3BE85
47752
A47DC
4982A
C296B
3F9E4
47488
AF3ED
78876
919E9
9B830
5F3E3
91537
5F14D
553F5
80B65
2A364
595FE
6FD33
34585
3C9AE
41E8D
551C5
7D365
6692E
5B597
4471A
4DD54
5F0CB
4AE54
53175
9A989
5C7A4
44060
A97B1
6A0F2
8C831
5CA18
6A04E
5BBD8
9838A
49E59
4790B
89FAC
518AA
5B82D
3F88A
57FFB
5CFB9
9D630
5F80D
9904E
3FAB9
5569D
60C84
49698
41FF5
39860
41F6D
6F4BD
4BB0A
6AAB1
922E1
79958
50923
64C3D
76A58
436F3
69BC5
61901
82B77
A3244
4C6A1
4F011
4174B
66D28
8F69F
9908F
572DB
48106
4DED8
6556D
6800D
669EB
4CF2A
68E10
38AA5
483EE
4EE05

