6BCE1
55212
6E34F
56BA6
4B717
40477
81FFA
4532A
63E62
59EBC
3B1CA
3D718
360A2
5E9A8
565DF
8F3BF
3B8EE
49731
849BD
3838A
7CFE8
3E97D
9EB8F
5260D
4DE50
4F9B6
4EE9C
5EC6A
69949
40373
85FA5
AD81A
50C71
44A6D
5A149
3AD92
852B2
ACCB6
70DFF
48E3F
86468
64FF2
5BC2E
5C8EB
6AB0F
62367
B3E89
414DC
45ED4
4C545
5A7FE
4AEA7
7460A
81B0E
4CBE4
5C360
54F61
98294
45CA1
9A8FE
849AC
7C055
9E92A
A642A
78DF6
6409F
4DFC1
3EF9D
99400
265D3
4799B
70FB9
3D43E
8879C
5B62A
67CAA
4E137
5B30F
4152C
9E606
61D11
75973
54DC1
5A2A3
483D0
51FF3
42E04
8030B
58CF1
56E95
6C186
8A418
55E0B
5D098
6D47A
6872D
804FF
4D18D
9E6B7
3789F
72E68
6AD43
8A3A3
6E7B2
4B3B8
4D1AB
572F0
4187F
39806
43481
6490D
410C6
4F8B2
AE539
4D868
CE0EF
47B10
53977
B8DB7
7FB96
9A118
A6536
6912B
98DA5
68D5F
5A1E1
88588
2CD1A
62889
75BCA
37D21
423C5
57480
5DC58
85BF2
724D6
668D0
4628E
5676A
6591D
52B05
5BB40
A4B7E
66DD2
49FDD
B210E
72E48
97BBF
5FC4F
71987
63FD8
A1713
4F9C4
4ECBD
94D8F
5606A
63351
43A74
604D3
657CF
A5C79
60BD8
A1B04
44F92
5CC3F
69C56
4CD1E
4BBA8
344D3
43A65
7AE87
529D0
737C0
9ABB2
82A3E
5805B
6EEDA
7F0F9
4A144
6F74B
693DB
885D4
ACEB6
5496D
5198D
48640
6D353
98A2A
A22CF
5E838
5084F
54AA7
6A4F4
71196
72BEE
54047
73022
3D9AD
4D6BD
54576

