4F42F
46B53
5B522
3F76C
3953A
301F4
6A158
36C5C
53AE7
497CD
32824
2FDA7
2760E
487FE
4AF24
75CCB
33B4E
368E8
6DF36
2B1EF
68D61
2FA33
82B00
3FB29
3BD19
42220
3F6E5
48855
57CF9
3CE6D
6E37F
8ED0F
44C8E
3567B
4BB02
30EF9
73505
90F9F
5582B
36F18
6EAFC
4D073
47D98
4C33B
59E15
4A92F
8FEDC
33259
3829A
3B9BC
436B4
38AC8
5FB42
64153
3B380
44848
3E263
7E6B4
3503D
7FD69
6283A
62738
830F3
8971C
65DF7
5034B
35525
30A7B
7D0D6
1C0A2
359E0
5AD03
2FC61
70B95
4440D
4E00B
37F05
4B0C6
315BE
82D1C
4BDB9
6223A
432A4
447C5
366F6
3D292
34E1A
698B1
49CD8
412AA
5A7FE
720B4
41AA6
4606F
51652
57AF0
69203
408BB
84E0B
2ACB3
57B7A
5A5A8
717A5
52689
38FDF
3AD89
49D79
34254
2BDE6
34606
5607C
3416B
3AAC7
901F3
407A2
AC0E1
37821
3B836
99E48
69CF1
7FE21
894F2
4EA72
7F876
4E25B
4A9C1
717E1
23278
49C26
62CED
2BE7F
3321E
39E6F
459BF
6EC81
531FF
4A79A
39BEB
445BA
50CB1
3CFB5
44E42
87806
4C5ED
389E1
94AA6
5D057
7C2E4
5192E
5CB43
507F1
858C1
3C365
3B1A7
79275
47987
4B894
36D05
482B3
4C60B
8A7EB
54478
860D6
34205
4794B
4F10C
40867
39D63
2F0E1
3A0DB
5D9D7
3DDF6
58B5D
80404
6ACD7
42AC8
531AC
67BB5
377D2
5CEC4
55B7F
73525
8F3C2
3E891
4594C
36A18
5A759
7DB63
8650B
4CB8D
3C5FF
41153
59567
5508C
55315
3F1C7
56A76
2FADB
3BE86
41217

