48A34
419A4
56C0A
3A550
348B9
2C5E4
6459C
32AE3
4FA61
45A87
2FD9A
2C382
24082
42C13
47141
6F9A2
30B39
32209
6881D
27D9B
63831
2C16F
7BC11
3B03F
38A05
3EB20
3B74C
42D57
533B6
39802
685CF
876E3
3FA3D
32519
47D23
2E61B
6D777
897BB
4EF18
32B35
68E44
4742B
42AEB
4868C
552FC
44EE5
8875C
2FB19
34FC4
36DDE
3DFD4
34495
5AC0E
5C448
36D0E
3F9F5
3962F
77E0D
30DFA
792B6
5A6FD
5D831
7C781
82BB5
60C6C
4BFC6
3218E
2CF64
769A8
19D78
319F9
55EB3
2C48A
6AA85
3EDA0
47F44
3337B
47567
2D6DD
7C0DF
47E49
5D10C
3F9CB
40EB7
32D8A
3855B
319AF
63E7E
460A9
3BF66
55E07
6C4D1
3CAB0
4076F
4AE6E
5341E
63812
3BE79
7E3BF
27862
51029
55DE1
6B552
4BBE6
34985
363AF
462A0
31164
28EB0
30487
5195A
31281
35E12
887BB
3D16F
A39AD
34778
37198
91E2A
644A0
793B7
827BA
486E8
78DAD
47CC0
469ED
6BC8F
2081F
43E75
5DED3
28BDD
2F948
36E64
3FCBD
695EC
4BD4D
4425B
35BBA
40CDF
4B728
37C39
3F90E
80575
46549
34571
8CDC2
5821D
760E7
4D6D7
57B5F
4C47B
7E8B5
3714A
366E2
72D81
43DDA
458BB
338B4
423B8
4626A
83691
50120
7EF09
2FCC1
4264C
486BE
3D314
36C6D
2B211
37163
56FC1
38B0F
51F9D
79872
65426
3D766
4C7B6
62238
33025
581E4
5146E
6D8C6
87C51
3954B
420C2
32925
55D2C
7712C
7F4B9
48CCF
37FDC
3C440
54D65
4DEBB
4EA85
39EC2
4FD1C
2C4EF
3747F
3BF9E

