198ED
1B169
35706
1621C
11C49
11275
3AA63
142B9
32071
2A098
1B2AE
11A9A
0C4F9
18CD1
28C83
425B5
19742
12696
40D0F
1061B
3BF86
1279A
48F5E
18E92
23C32
25451
1E757
19AA1
31737
1B15C
3D78E
51984
17C31
1D051
2AFBB
1B8E1
40149
51607
1FBCB
14557
3E6B8
1DBF1
1D04B
2D2BC
31F51
1C4F1
545CE
16A07
1E482
13C45
17218
14AEC
36DA0
231AB
16BAA
1DA07
17B79
47A05
12E7F
48257
20A4A
3BFA0
4C75C
5249A
3AB98
2E80A
1AEBD
12126
48483
0A9B1
1526A
332BE
12BA9
3DF22
182A5
1CAA3
1226D
2C963
1113F
4AC95
2DB79
37671
2737C
2A326
1CF0E
15D00
19E73
3A941
2A6F6
16A0F
3374F
428C3
18766
18547
1C7EE
3245E
3A956
1915E
4CFF7
0FA48
20655
3447C
3E6B8
1C02C
15051
14BAE
2A440
1B4C6
140BE
1210D
2F812
1C311
13B17
50437
24005
657A0
20727
18FD2
56AF9
3BA7D
48335
50E94
1BDFE
474ED
1A321
291DC
41CF9
0D326
19F11
39C9E
11B0E
160B4
292F4
16181
42266
17BFA
1755C
18E0F
288EF
24774
123D7
196BD
4BF37
1B70C
153E1
52D1C
35372
4A66D
2DA53
3370B
2E921
4B0B8
11C81
14EAA
45980
285BE
1A065
1B80C
17453
19183
4EB9E
2EFF9
4A5D0
10538
1CE16
18682
241A7
1EE79
0C777
1FE17
27A6B
132E9
211B5
47FBB
3D416
17E6D
1CFA8
39987
12DF6
34940
317A7
422BA
50EE2
13FC6
26E7D
1542E
33DF5
46802
4BB1F
2D0B0
18839
19673
336AA
1A858
20426
147A8
1E9B7
141F6
1567E
16295

