6F184
57738
707A4
594FD
4DC01
422A0
84DA3
4728B
65E4D
5BD62
3C63C
3F31D
37B57
61654
5830C
924F3
3CEC2
4BA6A
87521
39D09
7F986
405B9
A2273
54AD5
4F947
514CF
50D9F
618A5
6BD35
41B37
88E0C
B12ED
530EE
463CA
5BF6E
3C19A
87EEA
B0738
741EC
4AFE2
89265
67D8C
5E456
5E73F
6CF5E
65024
B7BAF
4302C
47833
4E978
5D31B
4D15D
76D6A
85797
4EE75
5EB6E
57693
9B61F
47D32
9DDBD
889A6
7E952
A1DB7
A99E8
7B5BD
662E2
5006F
40C5A
9C7D2
27797
499E5
73748
3EF77
8B74F
5E130
6ACBF
50791
5D0E3
4340C
A1B85
63E69
78140
56AF7
5C157
49F86
54678
4483D
82F98
5AA9F
597B9
6E5C6
8D1FC
5855A
5FC91
7082D
6A9D9
8319F
4F2D6
A1AD4
39228
76336
6D02D
8D428
71C7A
4D66A
4F5BF
58FAF
430F7
3AFFE
45401
66B03
4285D
51F00
B216C
4F2FC
D23DD
4942E
55EF8
BCC8C
82726
9D57E
A9BE0
6C293
9C1D5
6BFB3
5C13D
8B2AD
2E157
656FE
78228
39588
4400D
59201
60A38
88735
75ECB
69B83
47F89
584CB
682C7
55445
5E5AC
A844E
69E17
4C19F
B5E03
755C2
9AD3D
61C63
7414E
66209
A4E5F
52156
511C8
98048
57DA4
66228
45426
63390
688B4
A9430
62BAD
A52E8
47144
5F522
6D068
4E72D
4D858
35E52
45149
7E3D0
55268
76C79
9E0A8
856A6
5A965
7234C
81D6E
4C499
71CFA
6B78C
8B2C0
B0995
572C5
534E0
4A6F9
6F805
9BEBB
A5A28
607E2
52C27
57094
6C816
748FF
760B8
568F1
76627
3F43A
4FA96
56D42

