10C8E
14E5A
2F623
0F3DE
0B9DA
0C208
3309E
0EF0C
2CB53
24EDF
17C2A
0CFE2
07DC2
115B0
23EB6
3A281
15D0D
0C8A8
3995C
0C21D
3508D
0DC4E
3FCFF
12C7E
1F44A
20C0F
194A5
124AE
2B76C
171FD
35BD0
47CA8
11AE3
18CAD
25F5A
18379
38B5F
47A02
17152
0EBA4
36C16
16258
16536
281DD
2BE7E
14DA4
4A2BD
12131
1A0D9
0DBBC
0FF1E
0EE5D
3049F
1903D
10F7B
16F38
112F3
3F092
0D7A8
3F5AF
15FB0
35252
43B39
4954A
34187
28CAB
15797
0D483
3FA54
07A51
0FC50
2C940
0E310
35FEF
10FEC
14A6B
0BC28
279DA
0BEE9
41DEC
2828E
30C4F
22597
25149
1852A
0F64A
15885
33273
257D1
0FC59
2D6A5
3AE61
11E96
11004
13E0F
2C7E9
33255
1389A
44501
0B631
17986
2E764
36557
1336C
0F3CB
0EB77
25797
17386
100D2
0CD0F
29D84
1842A
0D4F2
463AE
1F926
5A524
1C42D
12BCE
4C36D
34652
3F77C
47CCE
13A3D
3E9C2
11CEB
23E3B
3A497
09D2E
1232D
3364E
0D9FB
11549
24448
0E72D
3AF09
0E16F
0EE2B
140C8
23A96
1D858
0B5D8
1259E
427B8
13654
0F9DB
48A8E
2EA2F
42272
284C7
2CCF8
28DF6
41D44
0B2FC
0EBE2
3D23E
237CE
1237F
17386
0F7AF
10F22
4570B
29B15
410C7
0AB5E
1610E
0FBA5
1FC29
1A1F9
0837B
1C10B
1EC53
0C6A7
1851E
3F281
35DAC
110FF
143CC
322F9
0CFBE
2E4C4
2B87B
3AAEE
471E3
0D184
225A1
0FCEB
2DC1B
3DBD5
42787
27C42
128A4
1314F
2D8FA
11496
17760
0DB37
159AC
0FB2A
0F6E4
0F876

