34F93
2E6F7
485C9
2BA9F
24FE3
20DCB
526EB
24834
42A6C
39FF9
25D0D
20419
1A387
30119
37FA2
5BFB9
24D26
24C1F
5769E
1DA95
51A51
212E5
658C3
2C110
31CE6
3361D
2E9C3
30B3A
44292
27764
55A40
703B6
2AC46
2A3AF
3AAEB
25FC7
571C1
6FD97
3AC87
25DA4
565F3
357F2
31EEC
3CF76
44DE6
339C3
74362
24DA3
2B7F3
269EF
2D964
26C2A
4B5C4
42A21
28BBD
327D0
2C21C
6278A
23DE0
639E4
41F6B
51531
67D4B
6E475
4F70D
40591
2BF13
210A3
63458
13DBC
25F7A
47C67
20E85
56CA0
2E927
35B50
26206
3C1F2
2128E
66A65
3F156
4C21C
366E8
3A2FB
2B5FA
29DFC
278F9
51C84
39E4A
2C0E6
46561
5A735
2CEF3
2F3B7
376C7
4454E
51D39
2A6C3
68237
1CF10
3BE5C
46769
57B06
37804
27173
27857
393D0
280AE
20881
22789
41311
287A3
27A4B
6F9E2
31D7B
88565
2D875
2C85E
7768E
52585
637D6
6D620
359B7
627D5
3468B
39733
59529
17BCC
32239
4DC57
1E66A
24C64
388CD
2DFC9
58AEA
35EEE
31BD8
27F8F
37DC2
3A2AC
27B91
2F83E
698A4
3494E
26D35
72917
49C64
642DE
3E5A7
4828A
40609
67D81
26642
2835B
60030
3794D
326B4
28E2F
2F9D3
328F2
6BBE7
3F943
6778C
21E00
322CE
33873
31ACF
2DD88
19BEB
2BCDC
43674
28536
3C90E
6390D
54623
2D467
384B8
50C02
25465
48344
4410D
59918
6F97E
29853
3522D
264DF
46FBF
61E0F
6885A
3D888
2B2EB
2D284
45B6D
37618
3BC14
29A87
3ABDB
21F33
2813D
2AE36

