1A1B3
1B79A
35D14
16900
12270
1177C
3B200
147F4
325C2
2A5B3
1B617
11F45
0C96D
19443
29160
42DE8
19AE5
12C75
4144A
10A5B
3C676
12C4E
49883
194B3
240B0
258D5
1EC82
1A201
31D34
1B552
3DF4A
52352
18246
1D48B
2B4C1
1BC38
408A7
51FC7
20473
14AF2
3EE62
1E38B
1D6FC
2D7CA
3255E
1CC66
54FFF
16E94
1E8BD
1424D
17947
150B5
37430
23BC1
1716D
1E0B4
18202
4829C
133ED
48B21
214F4
3C674
4D01E
52D8F
3B239
2EDC0
1B42F
125F0
48D26
0ACA7
157CB
33956
13032
3E715
189D1
1D2A6
128D1
2CE5C
11665
4B57F
2E108
37D13
2785B
2A844
1D3AD
1636C
1A2D2
3B0AE
2ABE8
170EA
33D59
43069
18DF4
18C9B
1D08C
32A26
3B0C6
196EA
4D8A6
0FE89
20F22
34A4E
3EECE
1C8F8
15619
151B1
2A90B
1B8DA
144BD
1264D
2FDBB
1C700
1417A
50E40
24472
662C8
20B57
19612
57571
3C1C0
48BF0
517B1
1C63A
47DA0
1AB84
29716
4247F
0D685
1A6CF
3A303
11F1F
1656B
297DE
16927
4299C
185A3
17DD0
192E4
28DD4
24E66
12AB6
19DCF
4C8AF
1BF18
15982
53744
35A06
4AEAD
2DFAB
33DAD
2EED4
4B9EF
12319
154D7
461F4
28A9D
1A834
1BC54
17C1D
199A9
4F4E7
2F547
4AF20
10AD5
1D4E6
18F30
245FF
1F341
0CBB7
201E8
2834C
139AD
21A7F
4888E
3DB7D
18544
1D866
3A0F0
133DA
34F88
31D99
42A37
518B2
146AA
2730B
159A2
34413
470C5
4C458
2D5F7
18E33
19CC5
33C85
1B194
20CF3
14E6F
1F2B8
14663
15C77
16937

