6D9EF
5E1B5
70425
56FBF
4F3E1
4153E
845CC
49872
662A1
5B0A2
3EB20
4082B
36B7A
62D4A
5CACA
92345
417B0
4ADBC
86E67
3A1C7
813CF
3FE62
A2771
55284
4A735
51E35
51A62
62962
6CCC2
4C7D7
890E4
B0AB0
5C5D6
438D3
5D691
3CA4B
8E1D0
B3520
739BE
4A63F
893F1
67769
5F884
5D95C
6F645
64701
B2292
42F94
46B99
51577
5C4DF
4CC89
76645
87E72
4F65F
5AF45
53FA8
9C65A
47FED
9E672
87891
79170
A143C
A8362
7D3B6
638C1
44199
41952
9A9BE
261C9
47EC2
713F1
3FC4E
8C871
5D02B
69B9F
4D93B
5C0E4
435EF
A1D38
5E07C
7964B
53732
54D45
46E28
5347C
43E5A
83619
5B0AE
5904F
6FAFD
8C5D8
58923
5F85D
6F27C
6BF8A
82E3C
55D14
A353B
39C7F
76759
6EE9E
8DA4B
70F49
4D255
50004
5AB2F
422A4
39646
47238
6A683
41870
50A56
B321C
5000B
D2C8E
45728
4FBE2
BE97C
831BD
9E5E0
A8985
6B2AD
9E1E2
6B40B
5CE4A
8BA6B
2F48E
64991
792E5
3A691
4369D
47AA2
60409
87959
748D7
677A5
4C223
54A4C
694BE
54E56
5D4C3
A851F
680E0
4C38C
B8711
736E1
98400
64940
7396E
63D25
A5A4B
53BB8
5085A
9612C
58B0C
66FE2
45CD2
63606
68EAE
AAF71
67921
A6A6C
47F7B
5F5B0
6D842
4FCCC
47DCD
410C4
47A67
7C012
559F0
77936
9F10F
84355
5A8F4
71754
815DE
4C054
72F1E
6A136
8DC83
B1731
5663C
55C6F
493C8
6FB54
9C232
A67D7
5EB1B
50773
57290
6DF71
75A32
73254
56E49
75FA7
3F1FE
511D1
58C18

