6671F
58938
6B4F5
516CC
4A0FF
3D42D
7E26B
45184
61CBB
56E41
3BD0A
3C92C
33178
5C9B6
587BE
8B7D9
3E399
460F5
8100D
36916
7B787
3C0E2
9AF44
5015C
46FE0
4E29F
4D57D
5C6CF
67D64
48CE3
82B66
A8AAB
56CA9
40353
5938B
39E05
87C76
AB33E
6C7EB
45CB4
82F7F
61370
59EF3
5979F
6A4EB
5E531
AA11C
3F3B9
43487
4C346
566C2
4807C
71078
7F6FB
4AA0E
55A6B
4ED1A
954FB
43825
972DB
7EC8F
73BD2
9A201
A0F07
77B5F
5EF9C
409B6
3D94E
939F7
23BB2
43988
6BF1B
3BFD0
85F4B
5728A
632C6
48766
58093
3F1D1
9A7F5
59BC2
73E5A
4F99C
50F76
42FF3
4E0D5
40591
7D462
56F7B
5361A
6AADD
8624E
53283
597F2
681F0
672D0
7CCCD
50CA2
9C214
363D1
6F316
6A0DD
86FC6
69BC3
4861D
4B002
56B6F
3ED9F
36321
42B44
65973
3E59D
4B73D
AADB5
4C554
C9A16
42271
4AF61
B5EB1
7D20F
97297
A1334
646D7
96E33
645F8
58925
8577E
2C6AE
5E412
73E48
36FB7
3F90B
44696
59F47
81B8C
6CA6C
609F6
47C98
50CB5
63814
4F3E5
57876
A0902
6182E
47968
AFFC5
6E222
919D9
60161
6E2E1
5F410
9E0E9
4E2C5
4B75A
8F3CD
54A65
6080C
42424
5CF21
622BF
A34A5
6302C
9EF23
43471
59BC7
66519
4C308
448C2
3CCB8
446FB
74D25
50020
7047C
97C86
7E341
54E9F
6A48A
7B4EB
472AE
6DBD5
65439
87871
A95CC
50C06
51F2F
44D6B
6AAF8
94F22
9EE29
5A724
4BB78
51F12
6916F
6DEE6
6C10E
51459
6E931
3B794
4C19F
532BF

