75EAE
01EFE
1CD6E
7A23E
78C67
7CBB8
1BBB3
7EECC
1C6AA
15499
0D533
7EB0E
7A3A7
7A8DB
15074
210B1
0AACC
7A8FE
23707
7F1E2
1FCB1
7F5B7
23CBF
00021
11814
12EC7
09764
7BB75
1920D
0AFEB
1E0DA
29C43
7F0E3
0BD88
16931
0DFEA
22245
29C32
7C93D
7D8F2
1F486
7EDF1
01D46
18A30
195F6
7E047
2AF5B
04222
0D1A3
7B41A
79F01
7D2E8
1C30C
7A1DE
7F52A
0281D
7D2D9
24BA5
7CDB5
246EC
75539
20395
28E0C
2DE65
1FCB3
174DA
04CB3
7E9D0
25322
7E93C
7F4A1
1862F
004BE
1DA64
7B096
7C1C2
782F3
18644
7C2BF
26906
17240
1C745
13709
15692
0A2DD
7BBB9
0825E
1C69D
1656F
7AC5D
1AE9D
23796
7DD97
7A8E8
797D4
1ACC1
1C5E3
028C1
29B70
7E5AA
7CA4D
1CA48
1D91F
78461
7D871
7C4D1
16CD2
0ABB1
03D0E
7CBD2
1882E
0C387
79C21
2780C
1201E
38286
0F70F
7F981
2C251
1E28C
24B97
2BE5F
7A6BF
23F8D
781E4
13E1E
233EE
7F7E6
7A7C4
1FCFA
012B0
02E4F
15359
7708B
24DBB
70823
75022
0541C
14AA8
08412
764FE
7CB2E
257C3
7AC1D
7E628
298BB
1A7D1
28E41
17ECC
1881A
176C1
259B2
76FD3
7BD5E
23402
1491F
7A4FF
0A1AC
779F9
77FD9
2900B
19719
2485B
79833
01326
75262
12759
0B7B1
7B347
10617
0392B
77B1E
7D68E
24203
1F305
7C1DC
79779
1B7E7
7AF32
1B108
19507
23C0D
29117
77FDB
1467F
7F1AF
1B06F
22E8B
26386
179B1
003EC
7FB90
1BA12
75013
7C83F
78F1E
7A088
0225A
7D21E
7B378

