72A0A
7F9D8
1A919
778E7
7677D
7AD8F
18E09
7CF6C
1A6BF
135F4
0C0C1
7CF09
788F2
77C2E
13348
1DF7D
094F9
785C5
20BA4
7D863
1D313
7D97B
205DC
7DB59
0FD1D
113AE
07861
78F3A
16E21
09828
1B273
26171
7CC65
0A42B
14B0C
0CBE3
1F60E
261B0
79550
7B74F
1C689
7C057
7F51F
16BDC
171A7
7B38A
27235
026D2
0B843
78FE6
773E3
7B032
19BAC
76554
7D299
0000F
7ABA7
2181A
7AD24
2122D
71540
1DA98
2597E
2A8A6
1D4ED
15297
02C05
7CD13
21F51
7D778
7D457
15EA0
7E984
1AAB1
78591
791AD
75C99
16870
7A3DF
23386
150E8
19F78
119D3
137DF
08727
79535
06825
19A10
147C1
78339
18A5E
209B1
7B648
77CEF
76421
18A15
19942
00778
26754
7CC22
7957F
1A75F
1A89A
74F99
7B5BF
7A0BD
15012
09339
02516
7AC53
16639
0ABF1
775D3
23BD9
1058A
33F98
0DDF1
7D400
2837C
1B6FC
21731
287B5
77557
20B5D
74F90
11EC2
206C9
7E3A9
7794E
1D69C
7FA49
01207
135D8
742AB
22278
6CE2F
71D6F
03722
12D47
05A67
73BBF
7A0C3
21EF3
77BD8
7C465
25BC6
18058
25CC3
15EB8
16053
15491
22267
74841
79853
20149
12BE5
77629
087FA
74B3C
74EF4
25855
17743
21078
77681
7EA43
71E4F
10D4A
09B01
799C8
0EF33
003E2
75286
7A1D6
20D0D
1C69D
798D2
76306
18B72
78BDD
18B5A
17157
20F20
25638
75683
12B2C
7D0F6
18BBD
1F9FA
22C2D
15A08
7E014
7D5A2
196F0
718AA
79374
76674
76A84
007CE
7AE45
78BAC

