5FBDF
4C9DE
65E18
4D410
42FBF
395E1
7788B
3E01D
5C95A
52E5E
366D4
3705B
2FEB6
545DA
4FAE6
83F57
368E6
41609
7AAA7
3260C
73751
381F5
9224E
49F32
47B71
4965C
47CE7
54A3C
61592
3AC51
7B57F
A006A
486A5
3ED6C
532C4
36423
7B092
9F62F
64F97
412EA
7BBC9
5A8BF
528F1
559B8
625EC
57F5D
A5E52
3B0B6
401CB
44089
509E6
42F63
6B5A9
73D17
44D23
53083
4BFA9
8C597
3E539
8E797
75F19
72A0B
92879
99F1C
6FC1F
5C2FD
467EC
3863D
8D5FF
224AF
40338
67EAC
3706C
7D8B7
5186C
5CC5E
45498
545B2
3A3F4
921DD
5A2CE
6C784
4E2A6
53213
41E36
492B8
3CDDE
75FB0
5201E
4D7BC
63C9D
7FBD1
4CDEC
52F5C
616E7
6080B
7615E
4577F
927A5
31B00
66CCC
62D41
7F1BE
6262B
43480
44D60
50988
3BEC7
34021
3C103
5CC89
3BA48
46C3F
A087D
476F7
BEB84
41EF8
4AFF1
AA757
75BDA
8E0FA
99CC6
5DC02
8CE49
5D4D4
52EE3
7E003
282E5
57E30
6CF1C
323A7
3BC11
50854
53424
7BD52
65056
5AEEC
3F84C
4FBB1
5C056
493C8
51FB5
97B2F
5BCD4
42414
A418B
69D8C
8C645
586AF
687AB
5C27D
94C54
468AC
464EA
89394
4F540
58795
3DC3B
55971
5A48A
99030
5971D
94E18
3D406
53654
5DD66
46D92
45278
2E758
3E675
6EB27
494F5
67670
8E984
7876B
4E9E3
62E8B
74DF6
41FB7
66D20
61100
7E11B
9F6D7
4B1D3
4B55E
40E44
64CC7
8C96B
957DE
57421
484E2
4BF95
62423
6466B
66A5C
4AB2C
66A13
37855
4534A
4B38C

