1F0A8
1EF52
39393
1A703
159CE
144B9
3F67E
17705
355A3
2D3AB
1D4C1
1494D
0F17C
1D746
2BD23
477B6
1BBA2
1614B
4555F
1309A
404E2
156A9
4EAD8
1CBDE
26923
2817A
21B06
1E45A
35316
1D8F7
424E5
57B8E
1B902
1FA97
2E1F8
1DA43
44AFA
5778A
25257
17D66
4335E
227F1
21338
30548
35BD5
20F82
5ABB8
1978C
20ECC
1789A
1B9F4
184C5
3AF41
2968F
1A547
21CC9
1BCCD
4CFEC
164C6
4DA40
274EA
403F0
51EF2
57E2D
3EDE3
32125
1E535
1510C
4DAE1
0C74D
1883A
374AD
15908
42EA1
1CA59
21AC5
16258
2FB19
144B6
505BE
3130C
3B8C6
2A42B
2D651
1FD3E
19D33
1CA27
3F382
2D86D
1AEA0
373B9
47540
1C8E9
1CE90
21E1A
35E28
3F3B7
1C8D9
526D0
124D6
25E56
37EAC
43794
21824
18A24
187D0
2D42A
1DD8E
168B2
1558C
330AC
1EA62
17AEE
5688D
26C4F
6C72E
23103
1CE54
5D3B0
40318
4DA88
569B0
21056
4CBE9
1F703
2C621
46835
0F4E1
1EC7F
3DC90
143BA
18FD7
2C41F
1ADF6
46A81
1DC91
1C9DC
1BE5C
2B9E6
28CE6
16895
1DD70
51DE6
20780
18C25
592B4
3953C
4F8EA
30FCA
37958
3221C
50CE0
15E74
18C67
4AE0A
2B675
1EE75
1E2E0
1C239
1E2FF
54879
32508
502F6
13D60
2123B
1DD4C
26D15
21E49
0F1F5
2243E
2D339
17692
26994
4D7FE
41E19
1C2D2
22712
3E3A0
168D9
3880E
35322
46D99
57101
184AF
29C07
18AB8
37B1E
4BF9E
5175E
30575
1C3F7
1D5AA
37137
204B2
25C23
18B6E
243BE
16E36
1923E
1A4E9

