32C7C
2CE33
46D90
29F10
23747
1F9B0
50879
23349
41524
38B8B
24F6C
1F16B
191B9
2E350
36C2E
59EEB
23E99
234A4
559B1
1C996
4FE93
20013
6342C
2A88B
30AEC
3240D
2D517
2EDBD
42AA0
2678C
53B51
6DC7F
293F3
292C6
396D2
2526D
55447
6D695
389E9
24738
5474A
3398B
30427
3BB3F
435B1
31BF0
71A9D
23B6E
2A708
251CD
2BCA6
25507
49B83
401C6
274B1
30D1C
2A7FB
6052D
2282A
616BA
3F4C4
4F9DE
65A42
6C0A1
4DC88
3EEB9
2A94A
1FD7A
611CC
131E4
249F4
46208
1FC5F
54CD3
2CC79
33B42
24874
3AE10
1FDF8
646BB
3DB1C
4A794
3536F
38E83
2A381
2844E
2677D
4FED1
38A80
2A579
44D37
5889C
2B4BF
2D666
35450
42E30
4FF79
29092
65F79
1BE0A
39B28
45023
55AAE
354D4
25A52
2604A
380A6
2705E
1F886
2128A
3FC6D
277E9
260C2
6D1C0
30BC4
858C6
2C7B6
2AF5D
74CAB
5087B
614E8
6B1AE
338C7
6050A
324FD
3824B
57710
16E4E
30340
4C2C3
1D625
23989
37522
2C134
56E13
3384B
2FA0C
26C3D
36A2C
386E5
26011
2DBF6
672C4
32920
256B3
70074
48213
621DF
3D044
46805
3EF3E
658A4
24BE1
26AA9
5DE5F
365D1
3077A
27D0D
2DAAA
30859
696C2
3E40A
6524A
2078A
3078C
315BC
3096F
2CA68
18AEC
2AD99
412EE
26A25
3A5E8
615BF
52889
2B90C
361C1
4EE5F
23CD7
46A25
42943
57B25
6D23E
27CC2
33FF6
24F0E
45749
5FB04
66374
3C36D
29B06
2B93B
44401
35127
398E2
27F6B
387D8
20D80
26957
293AE

