0D7EB
12935
2D1CE
0CA86
094F0
0A3DE
302F4
0CFAC
2AB68
2303A
167B8
0B3DD
0630D
0E904
2218A
3714D
14739
0A56F
36DF8
0A89D
326EF
0C012
3C61C
107B6
1D953
1F0F7
175A2
0F873
2937F
15A3A
32D69
441D5
0F665
17350
24136
16F72
35F28
43F80
13D64
0CA01
33E19
134BE
13D0E
26389
29A2F
120E7
46597
105E1
18779
0B789
0D400
0CBA8
2DD3F
153B4
0ECE9
1472A
0EBC1
3BD08
0B717
3C0F0
11FB7
32955
406AB
45F8C
319C1
26A68
136E9
0B7C6
3C682
0688D
0DC06
2A1B1
0C7D7
3303C
0E4E7
11A57
095CE
25C06
0A008
3E86C
26136
2E482
20861
23296
16974
0CFC5
13E4C
305E6
23A23
0D335
2B265
3807D
0F748
0E40B
10A5C
2A53D
305B5
11750
410E5
09CA8
144B9
2C47A
334D3
0FEA4
0D119
0C763
23AD8
15B0E
0E8DA
0AD8F
27B8E
16C94
0AEA5
4277B
1DE93
56235
1AB0F
1064C
48498
31AC1
3C317
44624
108D5
3B592
0EA96
21EDF
37773
088F1
0F4B8
30FF0
0C194
0F900
226C7
0B94D
383C6
0A77A
0BB78
123CD
21D35
1AEAD
08C99
0FB32
3EEE8
1060E
0D819
44D98
2C2B6
3F0F4
264B3
2A530
26BC6
3E5F9
08B6A
0C6D7
39F85
21A94
0F4A9
159D4
0C8F2
0DE3D
41F55
27B3F
3D8E4
089AC
1382B
0C793
1E21A
18549
069FC
1AA27
1B70A
09E0E
15065
3BD8C
33144
0E7F5
10F59
2F684
0AC69
2BF15
294CB
37E01
43704
0A82B
20A4E
0DC32
2B769
3A744
3F02E
25C99
104CC
10B61
2B5D9
0DD2D
14295
0B28D
123A7
0E09E
0D30B
0D0AB

