2254B
21478
3B7E8
1D05B
17EB7
162E2
42428
19665
3758E
2F250
1E933
16552
10C31
203F2
2DA4F
4A8E9
1D176
18485
480C2
14A19
42E80
172E5
521BC
1F0A6
2841A
29C92
23A09
21095
37702
1F0BB
4534C
5B661
1DD80
213F4
3001C
1EE4A
47732
5B20C
28645
19F09
4615A
2558B
23B60
3239B
38025
23C3F
5E8DF
1B2DC
2282B
19CCD
1E512
1A77B
3D6A1
2D318
1C7D9
244D7
1E3FF
50377
18556
50EFF
2B4E4
42CED
55380
5B3EB
415A9
34368
205E3
16DC9
50EB3
0D911
1A884
39C3C
17441
45E54
1F55E
24ADA
188B2
318ED
16396
53B3E
33464
3E093
2C161
2F504
218F3
1C3B7
1E460
4200F
2F61B
1D7C5
397F9
4A325
1F037
1FA89
251CD
380D4
42057
1EA22
55AED
13E5F
29324
3A195
46819
24CEC
1ACD7
1ABE4
2F0E9
1F606
180AB
1750C
352A1
201F8
1A13C
5A4C0
286E3
70A1C
24A21
1F3D6
61285
42EA9
50EEE
5A05B
241BE
50019
22957
2E57D
4955A
1091E
21AF5
402ED
15C21
1AC20
2E1A0
1DBD6
495C4
21686
1FC8E
1DB57
2D747
2B690
191D5
207DC
556B6
237C5
1ADE8
5CFA9
3BCB5
52A68
32FDE
3A11F
3444D
5442B
18606
1B172
4E0C3
2D3AF
21D4B
1FC92
1F0F7
213E4
58030
344DE
53AD9
15F12
23B1E
2115F
28724
23AF9
10B73
23B23
30882
19F2A
29E4D
50CF4
44A81
1EBDC
25B84
41015
18C2E
3ADBC
376D2
49A86
5ABE1
1AE07
2B759
1AB71
39FD0
4F42F
54EB7
3251F
1E7CE
1FB97
39459
23C1B
290ED
1B418
279C2
188C2
1B617
1CCB4

