6AF38
7A32B
15453
71870
7115C
7672F
1237D
78635
15C46
0EE72
0910D
78DA8
74AA2
713F2
0EF35
16CB0
0620B
73394
1A667
79CE4
171F9
79799
185CA
78588
0BE32
0D475
03005
72805
11A4F
060B5
1462C
1D82F
77741
068FC
104B7
09D28
18EE2
1D92C
71C26
768D3
15B3B
755F1
7976C
12519
11CEE
74B26
1E386
7E716
07D0F
73B6F
70F49
75F35
13FCB
6D815
781F0
7A29A
75032
19FD6
76128
1971A
67FF9
17AF5
1DEDF
22B40
1781E
102A4
7DFC4
78A04
1A667
7AE04
78901
10252
7A9FF
13B65
7212F
7217C
7031D
122D7
75BD3
1B6B2
1031A
1429A
0D5AB
0F03D
0467F
73B55
02AF6
1321C
10281
7233A
135C9
19E9C
75A92
71654
6EB7E
1392E
13122
7B9CC
1EDBD
7908D
71A4A
155E9
13766
6D471
764CA
74C8D
10CFE
05A21
7ED27
762D4
116FC
074E7
71C73
1AF61
0C788
2A36B
0A356
77C7C
1F0E2
15155
19CF0
20828
7020F
19196
6DA20
0D595
19D74
7B470
70CE7
17D16
7C159
7D009
0F102
6D7A1
1BD86
646F5
6A723
7F383
0E8BA
7F92E
6DB80
73DC8
19A64
70B36
775A0
1CD8A
1243D
1E947
113DE
10381
104CB
1A162
6EBEC
741E4
18AEF
0E7B2
708DF
04C04
6DE2C
6DCE0
1D655
12CFB
18E10
727E3
78ADD
6A4CE
0D07D
05811
75E4C
0B9C8
7878E
6F3CC
726D1
1917B
15F00
73911
6E8A5
123B6
7396C
1336D
11E11
1A64D
1CCD9
6F609
0EB6B
7849B
1361E
17F52
1AB08
11028
78C71
77D22
144F7
69760
71847
70792
6EC7A
7C9DB
75A9F
72ED1

