74D22
0129C
1C152
79477
78019
7C1AB
1AC7B
7E457
1BC06
14A62
0CE63
7E1B7
79AC0
799F7
146BB
2004A
0A386
79D40
22891
7E962
1EED2
7EC4E
22A74
7F3DE
10F17
125BF
08D0D
7ACB7
18614
0A800
1D162
288A8
7E4B9
0B514
15F25
0D93D
21388
288B1
7B7EE
7CDBC
1E532
7DEBE
00FE4
18014
189DC
7D15D
29AF9
03907
0C92E
7A808
790A2
7C756
1B5EC
78DB0
7E9A5
01AC3
7C5C8
23A76
7C2DA
23557
73FE6
1F5EC
27C87
2CC7B
1EF71
1696E
041CE
7E03C
241DC
7E350
7E9DE
178FF
7FBAB
1CA7E
7A23F
7B1BB
7762B
17C52
7B875
25731
16722
1BA01
12D4C
14C57
099A0
7AEE3
079A1
1B7C3
15B8A
79EA7
1A288
2284A
7D07C
79A3F
78698
1A132
1B703
01DA9
28A11
7DD27
7B8B3
1BEA5
1C8F3
772C9
7CCE0
7B8CA
1633C
0A389
03511
7C153
17CDC
0BBAA
78F5C
263FB
11742
36C37
0EEB0
7ED01
2AD5F
1D406
23A20
2AC27
79647
22E27
7711D
133AA
224E1
7F127
79847
1F030
00A8E
024E2
14983
76140
23F4F
6F4D2
73F3C
04A73
140DD
0762E
7573E
7BD0B
244D3
79C06
7DAE7
28469
19AA9
27DC2
1741B
17AD8
16B5B
24744
762A2
7B105
2231A
13F61
79562
0991B
76A65
76F8D
27D79
18C7C
235BA
78CF8
00585
74106
11EAA
0AE21
7AAC7
0FE76
02768
76D96
7C4FB
2305B
1E438
7B42E
785FD
1A915
7A36B
1A479
18922
22D13
27D77
77213
13D63
7E6C6
1A434
21D05
25113
16F24
7F7F9
7EEEB
1AE5C
73D9B
7B6A6
78190
78E87
01981
7C62B
7A634

