72EEE
5A28E
73207
5C538
50711
445D0
882EA
49726
6838A
5E122
3DE16
413CD
39A80
64A72
5A515
95E5A
3E839
4E383
8A7BF
3BAC8
82A13
426AA
A627C
575BD
518BC
5346B
531CD
64C40
6E71E
436F0
8C42F
B578D
55B81
48162
5E298
3D8F7
8B280
B4B7B
77E81
4D720
8C80C
6B2BF
6132F
60AA1
6F9BB
68456
BC306
4500A
495CD
513B4
60568
4F9DB
79B5B
89E37
516CA
61A29
5A44E
9F241
4A330
A1B46
8D449
81924
A5B07
AD89B
7E424
68ADC
5268F
42DE2
A0447
28C51
4BF90
7656F
40F3A
8EEF6
61361
6E4D7
5344F
5F3AF
45812
A59EF
66550
7AFAF
58D0B
5E527
4BFDA
57368
466D5
86392
5CD40
5C7B9
71010
90787
5B335
62FDE
7447F
6D24C
865B0
519AC
A579F
3AFF2
7A0D0
6F8E7
90CC2
75A0E
4FEE4
51FD7
5B139
44D83
3CBF6
478C0
692A1
443E2
54BB0
B67A8
511FD
D71F4
4B17C
58ABA
C15D9
859FA
A129E
ADBA7
6FC37
9FEB8
6FA6B
5E5D4
8E757
2F8F4
68D32
7AEEA
3B201
4610C
5B46C
63FBD
8B9AE
7A268
6D6A9
4A158
5A712
6B363
58464
6172A
AC695
6D668
4E902
BA521
783CF
9E6FB
641D0
76FB7
689EC
A8EE1
54F80
53CFF
9BB75
59FBD
698CC
47220
66A18
6C1BE
AD530
650D1
A941C
49893
624D6
70D29
50594
4F9D0
37C10
46BFE
821FB
581C5
7A9FB
A1E71
88A75
5D945
7607D
8514C
4EDD2
748F0
6E12E
8E729
B4E45
5A302
554C0
4CD26
722D4
9FC0E
A9ABB
62CD2
555F8
59CD4
6F112
789A4
79E4F
59862
7A52C
41333
52469
59BAF

