0C65F
11CD3
2C5B2
0BCBF
088A2
099D1
2F3BC
0C536
2A0C5
22602
160E7
0AA86
05A26
0DA20
217D0
360E7
13FF3
099B1
35F82
0A01E
31910
0B6A8
3B3D0
0FB74
1D056
1E7EF
16B4C
0E9B5
28786
1524E
31DF1
42E39
0EA3C
16ADB
2372A
168C5
3506B
42BFF
12C15
0BECB
32EC5
1258B
12FAC
2596D
28E14
111FD
45135
0FCC6
17F04
0AB78
0C5A1
0C016
2D01F
13F86
0E163
139D0
0DEB0
3ABD9
0AC3C
3AF5B
10A63
31BAC
3F527
44DA2
30C7F
25EFC
12C04
0AE31
3B53C
062A1
0D143
29481
0BEC4
32056
0D690
10A50
08905
25215
095BD
3D697
25619
2D73D
1FEA4
2285A
16037
0C2EE
1358F
2F70D
2303E
0C57F
2A650
37131
0EA2D
0D562
0F920
299AE
2F6D5
10C38
3FF86
09425
1331F
2B8D7
324A7
0ED0C
0C588
0BB5C
23143
152E6
0E0DC
0A30F
2703C
164B7
0A1E0
4136A
1D5B7
54BE5
1A2B0
0F9CC
46FA7
30C3C
3B1A0
433EB
0F85D
3A42C
0D9CF
2146A
36867
08232
0E53B
30326
0B971
0EF93
21CF1
0AA03
3755A
09429
0AA92
11A24
2136A
1A0CA
07ED9
0ED0E
3DBF8
0F5F7
0CCD8
43947
2B58D
3E074
25A02
297EE
26060
3D38A
07E39
0BA7E
38E9D
210D6
0E50C
15143
0B95D
0CDF1
40CC2
270A2
3C642
07E71
12A8A
0B637
1D96B
17BB9
0617D
1A285
1A547
09086
13ED2
3ABE5
32276
0DA47
0FDDD
2E7B3
0A0A2
2B286
288E6
36F08
42364
09A63
20133
0D14A
2AB2E
395BE
3DDBB
2520B
0F8DA
0FEBD
2AA23
0CAB5
130FC
0A4FF
111A6
0D7C5
0C718
0C367

