6D24F
7BBEF
16C8C
73400
729F8
77B4B
141EE
79B20
1718D
102E0
09EAE
7A056
75C70
731BA
102A8
18D7D
07098
74B10
1C354
7ADE4
18DB7
7AA6C
1AA61
79E0D
0D02C
0E686
044B2
74582
13242
0708D
1651C
1FF67
78F94
079E5
118D0
0AA82
1AC5C
2002D
73EC4
77F40
179E4
77457
7B232
13951
13523
768FA
20C4A
7F94C
08DFA
75391
72C07
77659
15A0B
70070
798FB
7BD4D
76A53
1C232
776DE
1BA44
6AA9F
19648
201E8
24F14
192A3
1197C
7F58D
79D2D
1C8F3
7B9DC
79E87
11CB1
7BC25
15B31
73DDD
7418A
71CAE
136BA
77069
1DA5D
11955
15D23
0E924
104B5
058F8
75503
03C71
14FCF
1164A
73EA8
14DF4
1BD34
774C6
733A5
70DF5
1504B
14EE2
7CFFD
2107A
7A193
73D7E
16D30
157BE
6F7A1
77BEB
7649B
12029
06A71
7FD22
777D4
12D9F
084A0
735FC
1D783
0D93F
2D00A
0B415
7957D
21AC5
16E60
1BFDE
22C99
722FF
1B461
6FBAE
0EA7D
1BB8C
7C1EE
72BE0
196AA
7D19D
7E2E4
104AD
6F636
1DA5E
66D98
6C8F0
006D5
0FC50
014F5
6F700
75A0F
1C044
72B64
78C21
1F62D
13E8E
20A46
12941
11E06
11B95
1C63E
7064E
75A96
1ACC0
0FB2E
72819
05D26
6FD55
6FD78
1FB79
14234
1B352
73E59
7A61E
6C786
0E1DC
06B31
76F4B
0C90B
7AB13
70EDD
749F7
1B4C9
17C9A
7546D
70B9C
14159
750FA
14C8C
135DC
1C441
1F418
71199
0FDA2
79A6C
14E95
1A25E
1CFEE
12543
7A457
7966B
15C63
6BC51
73B78
722AE
7107D
7DB8E
77285
74959

