33A98
316F9
48493
2A14E
25674
207B1
5231D
25B8E
42E0F
39880
276E2
20B5F
196F2
30900
3AD47
5BFA2
272F5
2419D
5744F
1D7E5
52A70
20DAB
65CC7
2C305
2E845
33CF6
2EDE7
30D31
44BB7
2EBAF
55D23
700AC
2F592
288B7
3B939
264AF
5AF35
71C13
3A25F
2543A
568A8
34FF1
3251E
3C662
4652E
330FC
70CF1
24C23
2AEC9
27D9E
2CCBB
26648
4B13F
4384F
28DFB
301ED
2A4DE
632A8
23C28
640D4
40DBC
4DDEF
67999
6D798
50A32
3E9F7
27E2F
21443
622ED
12E21
24F9D
466B7
213B8
57729
2DBF1
34CCB
24448
3B964
20FBF
66A1B
3B565
4CFFC
345C7
35A0C
277B2
290D5
273B1
520DE
3A215
2B7B7
473D0
5A1D9
2CD7A
2ED97
36572
453D9
51B43
2D352
69324
1D2B4
3BC53
47A99
57DF6
36A38
26ABB
279D4
3A847
27669
1F931
2351E
43819
27DF2
26B2D
704B6
325CE
88D89
2AD61
291F7
78877
52CF3
642BA
6CDE0
34BB2
63B88
33B00
39FD0
59B62
18207
315C5
4E781
1EB86
2454E
2D641
2D636
583BE
34BC6
301BF
29073
358D8
3A849
273DC
2EB41
69AAA
3333F
26CBA
74244
48A65
62A9C
404C1
47E62
3EED9
685E6
26D48
27A1D
5EDCF
380E1
32936
29306
2F6F3
326EC
6CF9F
42BDF
686AB
2216B
31F7A
33620
32A39
2D160
1EB29
2DB15
41FD0
28488
3CA68
643CC
53B4D
2CF5A
3782A
506D6
24D2D
48E73
43363
5B444
70217
28D98
36DB7
25B78
47247
620D4
6910C
3C622
2A1C4
2D032
4695D
37651
39F68
297DC
3A2D5
21A30
28A13
2BA74

