30964
2B570
45558
28380
21EAB
1E594
4EA08
21E5E
3FFDD
3771D
241CB
1DEBD
17FEB
2C588
358BB
57E1E
2300C
21D28
53CC5
1B896
4E2D5
1ED40
60F94
29006
2F8F2
311FD
2C06A
2D040
412AD
257B4
51C61
6B548
27B9F
281DE
382BA
24513
536CD
6AF94
3674A
230CB
528A2
31B25
2E961
3A707
41D7C
2FE1D
6F1D9
22938
2961E
239AB
29FE7
23DE3
48143
3D96A
25DA6
2F268
28DD9
5E2D1
21274
5F390
3CA1E
4DE8B
6373A
69CCD
4C204
3D7E2
29381
1EA51
5EF40
1260C
2346D
447A8
1EA39
52D07
2AFCB
31B34
22EE3
39A2D
1E963
62311
3C4E1
48D0B
33FF6
37A0C
29107
26AA1
25602
4E11D
376B7
28A0C
4350C
56A04
29A8A
2B916
331D8
41713
4E1B9
27A61
63CBC
1AD04
377F4
438DD
53A56
331A4
24330
2483C
36D7B
2600E
1E88B
1FD8A
3E5C9
2682F
24738
6A99E
2FA0C
82C27
2B6F8
2965C
722C8
4EB70
5F1FA
68D3D
317D7
5E23F
30370
36D62
558F8
160D0
2E447
4A92F
1C5E0
226AF
36177
2A29F
5513C
311A9
2D83F
258EB
35696
36B1E
24492
2BFAE
64CE4
308F2
24032
6D7D0
467C2
600E0
3BAE1
44D80
3D873
633C7
2317F
251F7
5BC8F
35255
2E841
26BEC
2BB81
2E7C1
6719E
3CED1
62D08
1F114
2EC4A
2F305
2F810
2B748
179ED
29E56
3EF69
24F15
382C3
5F271
50AEE
29DB0
33ECA
4D0BC
22549
45106
41178
55D32
6AAFE
26132
32DBF
2393D
43ED2
5D7F9
63E8E
3AE51
28321
29FF2
42C95
32C36
375B0
2644F
363D5
1FBCD
25171
27926

