73B96
0063A
1B536
786AF
773CB
7B79D
19D42
7D9E1
1B163
1402B
0C792
7D860
791D9
78B13
13D01
1EFE4
09C3F
79182
21A1A
7E0E3
1E0F3
7E2E4
21828
7E79C
1061A
11CB7
082B7
79DF8
17A1A
0A014
1C1EA
2750C
7D88F
0ACA0
15518
0D290
204CB
27531
7A69F
7C285
1D5DD
7CF8A
00281
175F8
17DC2
7C274
28697
02FEC
0C0B9
79BF7
78243
7BBC4
1A8CC
77982
7DE1F
00D69
7B8B8
22948
7B7FF
223C2
72A93
1E842
26B03
2BA91
1E22F
15E02
036E9
7D6A7
23097
7DD64
7DF1B
16BD0
7F297
1BA97
793E8
7A1B4
76962
17261
7AE2A
2455B
15C05
1ACBD
12390
1421B
09063
7A20C
070E3
1A8EA
151A6
790F0
19673
218FE
7C362
78B97
7755D
195A3
1A822
01290
278B3
7D4A4
7A719
1B302
1B8C6
76131
7C150
7ACC4
159A7
09B61
02D13
7B6D3
1718A
0B3CD
78298
24FEA
10E66
355E7
0E650
7E080
2986E
1C581
228A8
299EE
785CF
21CC2
76056
12936
215D5
7EA68
788CB
1E366
0026C
01B74
13FAE
751F5
230E4
6E181
72E55
040CB
13712
0684B
7497F
7AEE7
231E3
78BEF
7CFA6
27018
18D80
26D42
16969
16D95
15FF6
234D5
75572
7A4AC
21232
135A3
785C5
0908A
75AD0
75F41
26AE7
181E0
22319
781BC
7F7E4
72FAB
115FA
0A491
7A248
0F6D4
015A5
7600E
7B369
21EB4
1D56A
7A680
77482
19A44
797A4
197E9
17D3C
21E1A
269D7
7644B
13448
7DBDE
197F9
20B7F
23EA0
16496
7EC06
7E247
1A2A6
72B22
7A50D
77402
77C86
010A7
7BA38
798F0

