016E5
0AB89
25A49
032A8
01249
04036
26B74
06B0E
244C3
1C7DA
13447
0526A
000E4
04FF3
1D7F8
2CFAE
10652
0282C
2DFD3
04B11
2A473
05F30
3138A
08AED
164EC
19BE2
10B9E
05B29
22026
14F04
296B0
38086
08557
11238
1E40E
12EC0
2E9C0
38EE5
08594
05169
2A98B
09423
0B22D
1FA34
22BB4
0844C
382BB
0A927
12D47
03E48
039F1
051EE
258A0
0840E
077C6
0AFF7
062FD
3190E
045B0
317B2
039AD
286A2
359FA
3A91C
29FD0
1E9F3
0F6F6
05425
3147C
0237E
06B06
214D9
06C46
2971E
04C8C
06EE1
00775
1F728
032EB
33546
1D452
26861
196AE
1A962
0C439
04745
0E62F
274DF
1D9B3
04044
242EC
2E90C
06F1B
04AA8
0519D
23AC8
27139
0A032
36D10
045F3
08E81
25A50
29458
0418F
05535
049CC
1EA06
10348
0932F
0446E
21CAC
11A2F
02582
365E6
18ACC
48C40
13C5F
07A70
3BCE9
28F33
31BBA
391A6
058D8
311C3
03880
1BBCC
2E6E3
040E7
04F47
2973B
06B8E
0964E
169ED
014E5
2F326
FD6D8
001F7
0A9A7
1A9B7
11F9E
FFAC8
06525
335DE
0565E
065C0
38F2B
2392D
3438B
20DA9
2208A
1EF42
33439
FFEA3
0431B
2F03B
1BC55
0525C
10644
026B0
03366
3740B
22D2E
327AE
0142A
0AA17
01002
195DC
15E12
00ED7
17324
0FB52
00FD8
0994F
31408
29ABD
05708
0549F
26036
02DA5
24779
21879
2F7C9
37856
0161B
1C0F6
06EEF
23FC3
2FB61
33D4A
1EA5B
08DE8
087BE
2474C
01738
08679
0224B
06596
0814A
058B2
04908

