6819E
59DA3
6C73B
52B53
4B420
3E331
7F95A
461E2
62CDC
57D92
3C7AC
3D7B6
33EDB
5E0B0
59737
8D0A3
3EF9F
472AD
825D3
3762B
7CCD2
3CF13
9CB00
51416
47CA5
4F05F
4E563
5DD8F
68FB5
49A7E
842D2
AA836
5813D
40FAC
5A303
3A83C
893D9
AD137
6E22F
46DAC
846AD
62A82
5B39E
5A6CB
6B7B1
5FBC4
ABEFC
40189
4413C
4D63E
57C7A
49209
72445
8163E
4BBAB
56E00
50027
96F24
448B6
98D87
80CDE
74F94
9BC5E
A29E1
78FC2
6007D
4169B
3E814
953C2
2447C
44982
6D2AF
3CDC6
8778F
58826
64AF8
49A48
58F6A
40189
9C304
5AB9F
752A5
507D3
51DB9
43E4E
4F423
412AC
7EAEF
57E87
54AEC
6BD5A
87946
54681
5AE32
69BE9
68485
7E349
51F33
9DCA7
370E6
70DEB
6B2CF
8885B
6B66C
497B4
4C279
57A25
3F9DB
36EEF
43BA3
66B3B
3F158
4CA6A
ACC43
4D2E1
CBBE3
42E9B
4C109
B7EB8
7E823
98D32
A2E82
65FB9
988E5
65F5F
5991A
86E52
2D144
5FB7E
751CF
37C5F
40740
45299
5B688
83132
6E799
62346
48CA4
51AEB
64D76
508C4
58DC3
A25A6
63057
48A84
B1EFE
6F5B1
93258
611F7
6F6DA
604ED
9FCEC
4F74C
4CA0B
90D0A
55951
62003
43138
5E6E0
63BA7
A50FC
64102
A0B96
445C2
5B087
67FAC
4D05D
45500
3DC6C
452D9
767AB
514DA
71F6C
9976B
7F96D
56378
6BF07
7CB4B
48499
6EF0D
665FE
88F89
AB3A8
520D7
52D52
45DA8
6BD84
969AF
A0A3D
5B6D3
4CD01
53256
6A36F
6FB5A
6DB32
5291A
70487
3C50F
4D421
5475D

