6420E
4FB66
68E89
50B2F
460F6
3BE18
7B56D
409F3
5F3E8
5573B
38216
395B7
32252
5816B
521CC
880F2
38600
44500
7E481
3480C
76ECE
3A79B
96B7D
4D03C
49F65
4BA7D
4A640
58535
64577
3CC01
7F35E
A4ED9
4B74C
40F3E
55AF4
37ED7
7EB86
A4432
694D4
43FC3
7F91A
5E58C
55E7C
58228
65656
5BB03
AAFDB
3D521
423A0
470CE
54363
45DAA
6EA29
78DCE
47B3B
565EB
4F3EC
90A50
410A5
92DEB
7B466
760B1
96E8B
9E6C4
73127
5F0AC
4937F
3AC8F
91B17
23C5F
42E45
6B36B
394B8
81850
551C9
60C7A
487BA
56D77
3CD20
96932
5CF44
6FC95
50998
55B02
44328
4C613
3F0D5
79B16
547B1
50E96
66CF1
83902
50255
569FE
65BD6
63646
79CDE
483E1
96D20
33D0B
6B333
65BCE
8326F
66C8B
462C3
47D7B
52FDC
3DF67
36017
3EB02
5F9D0
3D9BC
49F52
A58C1
49A66
C44C2
44075
4E1F3
AFB1D
795F0
926D7
9E5A9
61DE2
913DF
617EF
558B4
81C33
29DE1
5BC21
70244
34430
3E1C7
52FAA
5714E
7F700
69D9C
5F284
41EEF
522DD
5F7E4
4CAC7
55845
9C6EF
5FD30
45117
A92D2
6D22D
90843
5B175
6BCB5
5F012
9960E
49D6F
4964E
8D735
51C38
5C608
3FE7E
597C3
5E5BB
9DA79
5C190
9989C
400F3
56CD8
622D5
49050
478B8
30956
404FB
73233
4CB16
6BCBC
93020
7C2A1
5209A
67479
7893D
44ED3
69F5F
64096
81D01
A4557
4E8F3
4D9CC
439E6
67DB4
90F82
9A1AA
59E58
4B4AD
4F227
652FB
6904C
6B0C0
4E165
6B218
39BBB
48316
4E89B

