732D0
00009
1AF27
77FCB
76DA4
7B296
195A6
7D4A6
1AC11
13B0F
0C42A
7D3B4
78D66
783A1
13824
1E7B1
0989C
78BA4
212DF
7DCA3
1DA03
7DE30
20F02
7E17B
1019B
11833
07D8C
79699
1741E
09C1E
1BA2F
26B3E
7D27A
0A865
15012
0CF3A
1FD6D
26B70
79DF7
7BCEA
1CE33
7C7F1
7FBD0
170EA
177B4
7BAFF
27C66
02B5F
0BC7E
795EF
77B13
7B5FB
1A23C
76F6B
7D85C
006BC
7B22F
220B1
7B292
21AF7
71FE9
1E16D
26240
2B19C
1DB8E
1584D
03177
7D1DD
227F4
7DA6E
7D9B9
16538
7EE0E
1B2A4
78CBC
799B0
762FE
16D68
7A904
23C71
15676
1A61A
11EB1
13CFD
08BC5
79BA0
06C84
1A17D
14CB3
78A15
19068
21157
7BCD5
78443
76CBF
18FDC
1A0B2
00D04
27003
7D063
79E4C
1AD31
1B0B0
75865
7BB87
7A6C0
154DD
0974D
02915
7B193
16BE2
0AFDF
77C36
245E1
109F8
34AC0
0E221
7DA40
28DF5
1BE3E
21FED
290D2
77D93
2140F
757F3
123FC
20E4F
7E709
7810C
1DD01
7FE5A
016BE
13AC3
74A50
229AE
6D7D8
725E2
03BF6
1322D
06159
7429F
7A7D5
2286B
783E4
7CA06
265EF
186EC
26503
16410
166F4
15A43
22B9E
74ED9
79E7F
209BE
130C4
77DF7
08C42
75306
7571B
2619E
17C91
219C9
77C1F
7F114
726FD
111A2
09FC9
79E08
0F303
00CC4
7594A
7AA9F
215E1
1CE04
79FA9
76BC4
192DB
791C0
191A1
1774A
2169D
26008
75D67
12FBA
7D66A
191DB
202BD
23566
15F4F
7E60D
7DBF4
19CCB
721E6
79C41
76D3B
77385
00C3A
7B43E
7924E

