6A4F2
5B8DE
6DF99
546B1
4CDA0
3F736
817EE
477B5
6425E
591FF
3D5DB
3EB18
350B4
5FF54
5ABD8
8F1B1
3FFA6
48A4C
842DB
3879C
7E938
3E1FF
9EFFA
52D0F
48DAB
502B5
4FA96
5FBE3
6A820
4ACA2
8620C
ACF9A
59CAE
42022
5B7A2
3B5DC
8B309
AF92D
70535
4844D
86595
64945
5CF2D
5BB05
6D0B9
619DC
AE6D2
413F4
4522E
4EF88
5996F
4A96F
73EAC
83FEC
4D326
5881B
5198E
99207
45ECC
9B118
837F3
769EC
9DF83
A4DAE
7AAF1
616FF
427CE
3FBC6
97627
25034
45ECF
6ECC9
3E063
897EA
5A4F4
66B3B
4B376
5A335
4167E
9E719
5C0C4
76DB5
51AC6
530BE
45172
50DE0
42425
808FF
59296
566AD
6D602
897E7
56128
5CBDD
6BE8A
69C20
80144
537F3
A0015
38256
731B0
6CABB
8A921
6D9F7
4AF27
4DB17
58DC3
40A2B
37EAB
45179
682F1
400FB
4E3FB
AF500
4E4F2
CE8F4
43ED4
4D893
BA96D
80594
9B0AB
A52E9
680E7
9AC7E
6813D
5AE60
88CC3
2DF62
61AB9
76BD7
38D40
41A32
4629D
5D588
84E0E
70E7F
64506
4A20A
52DDF
669F9
52498
5AA29
A4BD7
6508E
4A154
B489F
70FC4
95301
62814
7117C
61B6A
A2245
512AB
4E2F7
92EB1
56D35
63FF6
442A9
60689
65CDD
A76C4
65775
A3185
45CD9
5CC31
6A31B
4E223
46552
3F15C
462AB
78B07
5307C
74356
9BB46
816FD
57F43
6E259
7E91F
49C7D
708AD
67DAE
8AE53
ADB78
53C99
5402A
4734E
6D63D
98D17
A2FAE
5CBBD
4E462
54C07
6BB70
7214A
6FE0C
544C6
728FA
3D708
4ECCE
562DB

