72097
6182A
734DF
5A67C
526E2
43D49
882F4
4C418
68DA5
5D97B
4077D
42EEE
38F2C
66A91
5F40C
96560
437BF
4DCFB
8A878
3C4A9
84C9A
4243A
A7166
58475
4C943
542DF
544C8
6660C
6FD99
4EC1F
8CF59
B5979
5FCB7
459BF
5FFD0
3E58B
9202E
B850D
77FCB
4D381
8D1C1
6B4EF
62FA1
601D1
72856
68332
B723C
4546A
48D7D
5480B
5FEC9
4FB55
79B13
8D1CF
52556
5E37C
57275
A0C1E
4AC19
A2D94
8CEBA
7C61F
A5A88
ACAFC
80A13
665C4
463FE
440B7
9EE87
2793A
4A95C
74826
42188
90926
609C9
6DC24
50B97
5E879
45FDA
A6561
60AC7
7CC6A
55D18
5734E
49471
567F6
4614C
8723A
5D8CD
5C7D2
72C4C
9031A
5BE72
633B3
737BE
6EEC1
86A32
58E96
A7C19
3BF60
7AEE4
71E78
91BD7
75660
5013C
5313F
5D26A
44344
3B5BF
49DE2
6D5EF
437B7
53D78
B8396
5242D
D86B1
47799
52AF7
C3EE5
86C9E
A2CD2
AD255
6F509
A2912
6F7C7
5F8D7
8F74D
310C9
68807
7C6F6
3C852
45C81
49AAA
6420B
8B312
796A3
6BB25
4ECEE
57032
6CDC5
585FE
60D90
AD180
6C14E
4F12C
BDA54
76B08
9C553
6757B
76EB1
66A1F
AA4FE
57275
53A33
9A479
5B2D4
6AFC9
47FB3
67558
6D119
AFB03
6A606
AB64A
4ADA8
62D05
71F20
52059
49E72
43AA3
49A0B
806CC
59135
7C10C
A38C7
87E76
5E08B
75DF9
85187
4F01C
7625E
6D097
91A17
B66D1
59DC0
58221
4BF15
72CC8
A0901
AB2B8
614EF
53635
5A5F1
70F73
7A613
7780A
5A5A2
7A88E
415F0
5432B
5C313

