7187E
7ED76
19CFD
76B1F
75B2F
7A382
17ED1
7C4F6
19C1C
12BBC
0B9F1
7C5B2
7800B
76D4A
1298E
1CF17
08DB2
77A07
1FD2E
7CFE3
1C534
7D011
1F390
7CF17
0F420
10AA6
06E0B
7807B
16227
0903C
1A2FB
24DD5
7C03B
09BB7
14100
0C536
1E751
24E2F
78401
7AC19
1B735
7B124
7E7BC
161C0
1658D
7A4A0
25DD2
01DB7
0AFCE
783D5
76584
7A4A0
18E8C
75127
7C713
7F2B5
79E96
206EB
7A249
20098
6FFEC
1CCEF
247FA
296BC
1C7AB
1472B
02120
7C37E
20E0B
7D18C
7C994
15170
7E071
19ACB
7773A
781A6
74FD1
15E7F
79994
221B1
145CA
19234
11016
12DA3
07DEA
7885E
05F68
18B36
13DDD
77583
17E48
1FA65
7A92E
76E46
752E5
17E86
18A62
7FC5F
255F5
7C39F
783E6
19BBC
1986E
73E01
7AA2E
794B6
1467D
08B11
01D18
7A1D3
15AE7
0A414
7690F
227C7
0FCAE
32948
0D592
7C77F
26E8B
1A876
205BA
2757C
764DF
1F9F7
73EC9
1144E
1F7BD
7DCEA
769D2
1C9D2
7F227
00899
12C03
73360
2140C
6BADE
70C89
02D79
1237C
04C84
72DFF
7929F
20C03
76BC1
7B924
24774
1732F
24C44
15406
15310
1492B
20FF8
73B10
78BFA
1F061
12227
7668C
07F69
73BA7
73EA8
245C2
16CA6
1FDD7
76B46
7DCA2
70CF4
1049B
09171
79149
0E791
7F21F
744FD
79043
1FB66
1B7D0
78B24
7518B
17CA0
78016
17ECA
16571
20027
24298
748BA
12211
7C60D
17F82
1E874
219BA
14F7A
7D421
7C8FE
18B3A
70632
781DC
758E6
75883
7FEF4
7A252
77E69

