78A8B
03DF2
1EBB5
7C4B2
7AB29
7E4DA
1E1C1
008F2
1E143
16E23
0E63D
00267
7B9E9
7CE15
168C4
239B1
0BCFD
7C659
25B2F
00722
21F5F
00D3F
26A7D
01EC7
12E8C
1455B
0B13B
7E051
1AFFD
0C3B9
20785
2CD48
00F4B
0D2AC
1824F
0F09B
2471E
2CCF3
7F483
7F4FA
21AD8
013F1
03EBD
1A376
1B438
0058F
2E250
058E5
0E6C8
7D244
7C2EF
7EFD4
1E3DD
7D450
011F9
0497E
7F383
27698
7E8D8
272E0
78A89
225BD
2B9D7
30B2E
21DD9
19168
067EF
001C3
27E51
7F80A
00F89
1A726
01B6D
20224
7D470
7E9D3
7A2E9
19F1F
7DC7B
2959B
18E09
1E870
14F61
17027
0B9F4
7DBD3
09839
1EBBD
17E2B
7CEA6
1CCD2
25DD5
7FE58
7CD8C
7C2EA
1C9A5
1EB13
0447F
2C6DD
7FAF1
7F64E
1E760
2018D
7B05D
7F55B
7E2E2
184C6
0C015
05108
7E612
1A47B
0D72F
7BC0D
2AA37
13643
3BA4D
10BFD
018C3
2F6AC
206DA
27740
2EBED
7CFEC
26B0A
7ABD5
15840
2598C
008C4
7CE7B
21CF3
02706
045E1
16BEE
796C5
271C8
7386F
77A61
06C43
16324
0A6CA
7875E
7EE88
2871A
7D457
0024A
2CB87
1C8B6
2B780
19988
1A941
1933E
287C6
790CD
7DC3C
25E47
1617A
7CC07
0B716
7A0EC
7A897
2BE79
1B1A0
276EE
7B447
03539
77DC7
13D11
0CF99
7C886
1192B
06592
79CF3
0027E
26E24
21806
7E40E
7C32E
1DCF3
7CCA4
1D06F
1B2C5
2617C
2C227
7A250
15D43
00CF4
1CF03
25A59
291A5
19414
021CA
01B2B
1D759
77E40
7F43D
7B102
7CD8C
0387A
7EFFE
7D4A2

