31AF0
2C1D1
46174
29148
22AF9
1EFA2
4F941
228D3
40A81
38154
2489B
1E814
188D2
2D46C
36275
58E85
23752
228E6
54B3B
1C116
4F0B4
1F6A9
621E0
29C49
301EF
31B05
2CAC1
2DEFE
41EA6
25FA0
52BD9
6C8E3
287C9
28A52
38CC6
24BC0
5458A
6C315
37899
23C01
537F6
32A58
2F6C4
3B123
42997
30D06
7063B
23253
29E93
245BC
2AE47
24975
48E63
3ED98
2692C
2FFC2
29AEA
5F3FF
21D4F
60525
3DF71
4EC34
648BE
6AEB7
4CF46
3E34D
29E65
1F3E6
60086
12BF8
23F31
454D8
1F34C
53CED
2BE22
32B3B
23BAC
3A41E
1F3AE
634E6
3CFFE
49A50
349B3
38448
29A44
27777
25EC0
4EFF7
3809C
297C2
44122
57950
2A7A4
2C7BE
34314
422A2
4F099
28579
64E1B
1B587
3898E
44480
54A82
3433C
24EC1
25443
37711
26836
1F088
2080A
3F11B
2700C
253FD
6BDAF
302E8
84276
2BF57
2A2DC
737B9
4F9F5
60371
69F75
3284F
5F3A5
31436
377D7
56804
1678F
2F3C4
4B5F9
1CE03
2301C
36B4D
2B1E9
55FA7
324FA
2E926
26294
36061
37902
25252
2CDD2
65FD4
31909
24B73
6EC22
474EB
6115F
3C592
45AC2
3E3D9
64636
23EB0
25E50
5CD77
35C13
2F7DE
2747C
2CB15
2F80D
68430
3D96E
63FA9
1FC4F
2F9EB
30461
300C0
2C0D8
1826D
2A5F7
4012B
25C9D
39456
60418
519BB
2AB5E
35046
4DF8D
23110
45D95
41D5D
56C2B
6BE9E
26EFA
336DA
24426
44B0D
5E97E
65101
3B8DF
28F13
2AC97
4384B
33EAF
38749
271DD
375D6
204A7
25D64
2866A

