016E9
0A101
24C97
032F0
00D98
03548
25B86
05C9F
23660
1BFDB
11CC1
04D1F
00120
04536
1B691
2BCE5
0F731
02447
2CEE2
04B20
28E58
0588A
2FCDB
080DB
17674
18D9D
103ED
05644
20FC8
10318
28343
36A25
0709A
1164F
1D2B0
12603
2BD07
368F9
07EFD
04EAC
2957B
08D8A
0A9D2
1F455
2150C
07CDD
38560
0A1BA
12A71
032CD
035E9
04C63
24CDE
075BD
06E28
0B44D
05C09
3000B
03FAF
2FF88
03523
2930B
345FA
39A7E
287EA
1ECC6
0BF15
04E66
30881
02769
065A3
210A4
06406
28157
04729
06A0A
0092E
1EEA8
02ED1
32444
1E6F4
25292
19D46
1C205
103D9
04289
0DE26
2628B
1CD50
03C5C
22D7C
2D836
06729
042CF
04CC9
2261B
26214
09D43
351D3
03F08
0831C
24479
282EE
03D1D
051E1
04318
1D16F
10156
090F5
03A11
1FF0A
11616
02232
34ABF
17D21
46CCA
14EF7
07CC7
39E38
27B05
302F9
37DB4
053AC
2F636
0320B
1ABE1
2D1ED
03EBC
04A5F
28342
06819
0914C
1BA9A
01119
2E526
FD2FB
00193
0B98A
1B17C
115E7
FF55C
05FA7
31E99
05510
05C50
36E15
231F9
33B7B
1EF13
21355
1EE6A
31B3A
FFA52
03F04
2E58A
1AF6A
048ED
0FB9C
01D90
02AF8
3530B
20685
30BF7
00E21
0A241
008A4
1828E
11C19
00C82
15637
0F3AA
00934
08F15
2FB5E
28E71
0517D
04F0A
25381
02ADC
234EB
211F0
2D949
35F25
01091
1A620
06436
230DD
2E686
3253D
1E882
0815F
0804F
23508
01202
08104
01D72
05D98
07F46
04F98
03EC0

