32019
3028D
4724D
28CC7
24354
1F8AD
50C2E
24B30
41DED
3892E
26C40
1FCD5
1898F
2F205
39DCF
5A6D8
266EF
22FE5
55E88
1CAD0
51524
1FF7A
6410C
2B04B
2DB80
32F36
2DE00
2F672
43967
2DE14
545B7
6E321
2E0FE
27C5E
3A9C1
25A77
597D2
6FE1A
3881A
24341
5517A
338DF
31073
3B737
45268
31A69
6EF11
23E53
2A213
26AA6
2B703
254BB
49D72
4190C
27C5E
2EE58
291D1
6187F
22B97
62628
3ED6C
4CA2D
65F3C
6BCBE
4F5CF
3D916
2714A
2057D
60921
12556
23FA4
45323
205C2
55EE6
2C656
33499
23165
3AA8C
20007
64F0B
3A589
4BBB0
33790
34BC8
26956
27D87
26696
50A51
39309
2A2E6
46152
58AE0
2B97C
2D757
34B79
44224
504C7
2C0C2
67891
1C5A0
3A17E
468A7
56562
34F8F
25924
2675D
39991
26A2D
1ED63
224BE
42650
27237
25800
6E628
31841
86BBC
2A137
28050
7686F
516DE
6281F
6B292
332CF
620D6
3219A
38FDB
5848E
17771
2FE59
4D3FA
1DEDE
23718
2CA3E
2BEF5
56E18
32E99
2E86F
28066
34AA1
392E6
25EFD
2D5F4
67E06
31B16
25B9E
7230B
476D7
6121D
3F42B
46A69
3DDFC
669E3
258C1
2676B
5D492
371F6
31140
285F1
2DF35
30E03
6B349
41B09
66A38
2101A
30ABA
31B8D
31CE4
2C522
1DB75
2CF37
4054B
26FCE
3AF78
628E7
52521
2BA82
35DAC
4F077
23B42
47B3B
4219F
59D2C
6E43B
278C7
35F95
24B3B
45FBB
60647
674F7
3B673
2903C
2BCED
4575D
359DD
38544
2831B
3877E
20CB5
27791
2A5D5

