37B71
305EB
4A40F
2DD13
26EA5
226ED
54CF8
2625A
44505
3B983
26E16
21B73
1B9C8
32653
397F1
5E8B9
25F56
2697A
59AC6
1EFD5
53CFF
22A6D
68681
2DFB7
3335F
34CB2
3039B
33016
46082
28B31
580EC
734BB
2CAAF
2B8D2
3C409
27078
5969A
72E58
3D7CD
279AC
58C46
37DF2
34062
3E8BC
46C28
35F0B
77657
26466
2CD17
2881A
2FD52
28917
4D694
45C93
2A88C
34930
2E2C6
6527E
25903
665D8
454BB
5375A
6A916
7113E
51832
4221E
2DA4F
22896
65F86
14C8A
27A62
49D5E
22535
59460
30D01
38361
281FB
3DACD
22C49
696FA
40D20
4E347
37F40
3BC90
2CD11
2BE15
28ED3
541A5
3B705
2E32F
48396
5CD73
2EFB4
3185C
3A1DD
46233
5426A
2C280
6ADA4
1E457
3EA5C
48481
5A375
3A400
28E5D
29668
3ABC5
29512
21C7B
241C9
42F5D
29B4B
29A37
72C0D
333A1
8BD2C
2ED63
2E79F
7AAE9
549D3
66380
703AE
382E3
65353
3707C
3B155
5BAC7
18CAA
348F0
4FC50
1FAC0
263F6
3A163
30603
5AEF7
38F3A
34618
297B5
3963E
3C565
29DF0
31B98
6C7FC
37188
28957
75BE3
4BD49
66C1C
40062
4A3B0
42287
6AB95
2873C
2A239
62A75
391A8
34DBC
2A398
320C6
351B0
6EA54
413CB
6A61F
23A14
344E1
363D8
33086
2F570
1B12A
2CFEF
462DC
2A70A
3F4FE
6652F
56B25
2F69A
3B06D
5310F
271D7
4A2AA
45ECB
5BE88
72A8D
2BAC7
368F2
28024
48E53
649DD
6B679
3F2EB
2D0CA
2F21F
478B4
3A444
3E812
2BC6B
3D8DE
23553
29F1D
2CF5F

