6D01E
7AFAD
178EA
7357E
72664
78704
1509B
7A12E
17DD2
10AED
0B11B
79F20
75BCA
73489
11927
19DF1
0720F
74DA7
1D346
7A9B8
19DCC
7B027
1BD7E
7A3F1
0C76E
0F24D
04786
74299
13E41
0A73A
175D2
21427
78788
079F4
1254C
0B0BC
1C94B
21D3B
7419C
78017
18BA9
7779A
7B344
13F19
14428
76DE9
21245
7FECC
09089
7545B
72E15
7797A
1646B
70280
79E91
7BE76
77806
1D662
77963
1CEB5
6AB31
192F5
214DB
25DF2
1A462
119C4
057E4
79DF2
1D659
7B714
7A5FE
12363
7C01B
16BD9
74212
74479
71E8D
14018
7710B
1E787
110B7
16E14
0E765
0F978
0132A
7592F
0448F
15EC3
12023
73F86
15EDF
1CDBC
7788E
7383B
71149
1606A
15BE9
7BB3C
22551
7A4A2
7439C
17D02
1652E
6F8C4
77C48
76618
13495
06C62
0019F
77A7B
14158
08989
73901
1ED10
0E3B0
2EB60
0A656
7A0B2
231E3
17EE2
1D39C
240E5
725ED
1C883
6FF38
0F700
1CD52
7BE56
72E65
1A66B
7CF70
7E710
0D5CA
6F61E
1E82F
66F0A
6C9CA
7E3B9
0FA6C
017E0
6F960
75E71
1D49E
72C63
792BD
20E16
147FA
2156A
1411B
12A35
11F40
1DAC0
70179
75C90
1B8F4
10455
72AD4
064F2
701D6
70035
2168B
15D89
1C8CB
73E99
7AA30
6C83F
0F172
0C719
74D2C
0E0CA
7B439
7103A
74D15
1C859
18947
755F0
70DE8
14C49
750A6
15A71
13D5B
1DAFA
20810
71559
112A2
7A6AC
15B0C
1B3E3
1E2F9
128E9
7B5A8
79A1C
16945
6B84B
74412
72250
7146B
7DB09
77471
74ABD

