2D971
2CC19
44193
2560A
21053
1D0A2
4CF06
21F8A
3F2EA
36055
24FE3
1D611
165DD
2B4BE
3748C
564BD
246E1
200A6
52478
1A7EE
4DC5A
1D9A2
5F717
27E59
2B972
30A8C
2B39A
2B9C8
4088F
2B9CD
50742
69458
2AA1D
25B72
38083
23F38
55973
6AE2C
3420E
215FF
513AA
2FB5A
2D956
38EC2
42058
2DE38
69F66
2197D
2802F
23812
27D18
225EE
468A5
3C5AF
24D68
2BA21
25F04
5D2BA
1FF6B
5DF06
39744
4957E
618F1
67523
4BF72
3AC13
24EE5
1DE18
5C458
10DE6
2150A
41EED
1E088
51E30
28CB8
2F414
1FF0A
382F8
1D61C
606E2
37B3E
48592
311AA
325BF
2430E
24A0D
243A4
4CE30
36AEA
26B63
43003
54D9E
2842E
29C01
30636
412ED
4C8D2
28F40
631B4
1A2BF
359F3
438CE
523D5
30878
22A3D
23621
37256
2498D
1CDEA
1F914
3F6E4
252F1
224DD
694AE
2F41F
81199
280C6
2513B
71306
4DBFD
5E12D
669C2
2F073
5D9A6
2DDDD
3654E
547AD
15B35
2BFE3
49FE9
1BD1C
21135
2AA37
280F4
5345F
2E0CD
2A4F0
2559B
324BA
359E0
22755
29D27
631A5
2DAA8
22DFE
6CFC8
442B0
5D0CA
3C7F1
43526
3B102
61F31
22204
23593
59145
34A2D
2D159
26310
29FE3
2CB98
667B7
3EE23
61E5A
1E1ED
2D365
2D4AF
2F958
2A47E
1B196
2AF93
3BE91
23889
367A3
5E130
4EA00
282EB
31708
4B4CE
20B79
447FB
3F23F
55F98
6949B
24143
339E4
21FEF
42E48
5BF77
62A16
38C9F
2617A
2898C
4275B
30DFD
33F8E
24BC2
33E98
1E8C2
24637
26EDA

