2EB1B
2D9B6
44DC1
263BA
21D13
1DAA5
4DE50
22A74
3FDAA
36A8B
256FA
1DFC2
16ECA
2C40F
37EDD
57543
24EE4
20C75
532FC
1B0A6
4EA8D
1E318
60994
28AD6
2C1F6
313B6
2BE34
2C8F3
414C5
2C2DF
516E0
6A80A
2B7D5
263AD
38AD2
24607
5690B
6C227
35391
22150
5231E
30ABB
2E71D
398DF
42CDC
2ED44
6B351
222B3
288A8
244B7
28B93
231A1
475D8
3DA86
25925
2C72F
26BB7
5E42B
20A76
5F0CE
3ACCE
4A2A9
62A84
6870A
4CD09
3B753
2577E
1E7F2
5D58A
113C2
21FB0
42BFB
1E9D7
52E5E
29B20
30436
20BA1
38CDD
1E096
618EC
385D1
49319
31B24
32F41
24CA0
256EC
24C60
4DD38
374F2
27944
43C57
55CEF
29181
2AAD7
31787
41EBB
4D7CF
29BA1
6436B
1AB77
36BD6
444C4
53438
31A3E
235F6
24270
37C25
251B5
1D5C8
203FF
402BF
25AC2
231A6
6A90C
2FD28
82822
288E2
25D01
72860
4EAB5
5F2EA
67BF6
3010A
5EB72
2EECC
36FF1
556E5
16244
2CF80
4ACED
1C58D
21AAE
2B239
29074
542CD
2F440
2B5CF
2604E
32E34
36821
2353F
2AB5A
644BD
2EAC4
23966
6E499
44FB9
5E11F
3D300
44277
3BC41
631DD
22FB4
24209
5A218
3541F
2E153
26BC8
2AFB7
2DC33
67A9C
3F95D
63151
1ED78
2E13A
2E666
3023B
2ACA7
1BC0E
2B77C
3D03F
2465A
37998
5F31D
4F8C8
290D1
328B1
4C3B8
2176B
454CB
3FE17
56EFD
6A883
24F24
34350
22AC2
43AA4
5D12B
63CCE
39714
26D2A
29664
4335C
320F5
350FC
25998
350D1
1F1BF
2528D
27C99

