323B6
2C802
46782
2982C
23120
1F4A9
500DD
22E0E
40FD3
3866F
24C03
1ECC0
18D46
2DBDE
36752
596B8
23AF5
22EC5
55276
1C556
4F7A4
1FB5E
62B06
2A26A
3066E
31F89
2CFEC
2E65E
424A3
26396
53395
6D2B1
28DDE
28E8C
391CC
24F17
54CE8
6CCD5
38141
2419C
53FA0
331F2
2FD75
3B631
42FA4
3147B
7106C
236E0
2A2CE
24BC5
2B576
24F3E
494F3
3F7AF
26EEE
3066F
2A172
5FC96
222BC
60DEF
3EA1B
4F309
65180
6B7AC
4D5E7
3E903
2A3D8
1F8B0
60929
12EEE
24492
45B70
1F7D5
544E0
2C54D
3333F
24210
3A917
1F8D3
63DD0
3D58D
4A0F2
34E91
38965
29EE2
27DE3
2631E
4F764
3858E
29E9E
4472C
580F6
2AE31
2CF12
34BB2
42869
4F809
28B06
656CA
1B9C8
3925B
44A52
55298
34C08
25489
25A46
37BDB
26C4A
1F487
20D4A
3F6C4
273FB
25A5F
6C7B8
30756
84D9E
2C387
2A91D
74232
50138
60C2C
6A892
3308B
5FC58
31C9A
37D11
56F8A
16AEF
2FB82
4BC5E
1D214
234D3
37037
2B98E
566DD
32EA3
2F199
26768
36547
37FF3
25931
2D4E4
6694C
32115
25113
6F64B
47B7F
6199F
3CAEB
46164
3E98B
64F6D
24548
2647C
5D5EB
360F2
2FFAC
278C5
2D2DF
30033
68D79
3DEBC
648F9
201EC
300BC
30D0E
30517
2C5A0
186AC
2A9C8
40A0D
26361
39D1F
60CEB
52122
2B235
35904
4E6F6
236F4
463DD
42350
573A8
6C86E
275DE
33B68
2499A
4512B
5F241
65A3A
3BE26
2950D
2B2E9
43E26
347EB
39015
278A4
37ED7
20914
2635E
28D0C

