2784B
28138
3FE92
20AC7
1CA31
19993
47AEE
1E386
3B7C4
3282B
228E4
1A0C4
134C7
2607B
33BD2
509D7
21ACD
1BFAF
4D4A1
177F6
48E44
1A599
59167
239AE
28AA0
2D821
2794E
2665F
3C567
287EB
4B161
62805
25EA8
22E2D
347CC
219C1
503B1
64045
2E1BD
1D7C4
4BEAC
2A6C2
28D8D
35722
3DB81
28B74
631DB
1E6D8
25196
1F287
22D76
1E595
4200B
3530F
20CD5
27255
21929
572CC
1C2AE
57D37
320CC
44D0C
5B848
612AF
474B2
36E2E
21F9A
1A7ED
565C3
0EDAB
1DA76
3D724
1AD59
4C538
23D7F
29B5D
1B9CC
34C8B
19C78
5A3A9
34117
43B28
2DD8E
2F172
20E6A
20345
21397
47B81
333BF
21F0F
3EC36
4F964
23AE1
24A6B
2A6FB
3D202
47660
24B2E
5D044
172C9
2F793
3F703
4C9B4
2A6B8
1E9BF
1F26F
33C64
21CB0
1A2A4
1BD0A
3B5B0
227F0
1DE8E
624A5
2C271
795AA
2542B
2107F
69D95
48B08
57FA1
605A5
29534
577C3
280BA
32ACC
4F3F7
13464
26A00
45851
18EB2
1DD1B
27E2D
22BB2
4E501
275D5
24821
21AC3
2F09D
30B77
1DACF
24F0D
5C8A0
28211
1EF43
65D4C
3FAFB
576F8
38B21
3EBEA
3732B
5B87C
1D6C0
1F109
534BA
31379
2797D
2331A
248D2
27044
5FFD0
3B068
5B608
1A26F
28751
2733D
2C877
2779C
17802
28410
35D52
1EC8A
304DE
57E94
498B4
2367C
2B5E7
462C6
1C9C6
40183
3B11A
50AEB
6271E
1F4ED
30610
1E465
3EA49
55E1B
5C320
3531C
2212F
242E6
3E559
2A5A8
2DFB5
1FFA8
2DA5B
1B755
2025B
22340

