1CD90
1D68F
37B5A
18B74
14132
1309E
3D80D
1621A
3405C
2BF3D
1C720
1369F
0DFAE
1B97E
2A9AF
456E9
1AD15
149D0
43872
11F9A
3E924
143D6
4C641
1B359
25729
26F69
2065A
1C6DD
33B23
1C91F
405F6
55457
1A0AF
1E9AE
2CDE0
1CCE9
42D80
55089
22FB9
166FA
414B5
2098B
1F873
2F110
343A1
1F1AE
582F4
18557
1FDE1
16078
19D35
16DA2
39501
26E34
18E3C
20215
1A2AC
4AD90
14F10
4B716
24A44
3E89D
4FBE9
55A58
3D35E
30A4D
1CF6B
13DE3
4B855
0BB75
172B3
35A4D
146E2
40ED5
1ADAB
1FAB8
148C7
2E737
13020
4E214
2FCD1
39E3E
290B2
2C1D9
1EAC4
18385
1B8AC
3D5CE
2C4A4
19333
35B8E
456A8
1AEB5
1B140
1FBA2
3470A
3D5F7
1B2A8
50413
113D0
23B23
36766
4173C
1F4F4
17303
16FC2
2C0FF
1CD3E
158B7
1408D
31A08
1DAA8
16165
5406A
25A98
69A8F
22045
1B553
5A9CD
3E60E
4B79A
5453F
1EF66
4A91E
1D575
2B138
44A1D
0E763
1CD87
3C2FC
13375
17CFD
2B074
18F61
44DA9
1B5EF
1A80F
1AB0A
2A650
2711F
14D16
1C128
4F807
1E752
175A4
56A11
37AEB
4D7EB
2FA67
35ED3
30B52
4E803
14413
173B5
48C39
2A2F9
1CF3B
1D1BE
1A310
1C267
52354
30FCF
4DDB3
126E9
1F6F9
1BA95
25BB6
20B29
0E0F6
214FB
2AFB4
15B81
2466E
4B4B0
4007E
1A777
2041B
3C5FC
1514B
36EEF
33B57
44FA6
549C1
1691E
289D0
174E7
362A7
49C93
4F278
2F05A
1AC11
1BC61
359CB
1DFC1
238F1
17052
21FBB
15C83
17A57
18A61

