466E0
3FE69
553AD
389F2
32F38
2B1DF
62707
31510
4E4DF
4461B
2EF6B
2B020
22EA9
40D70
45CA0
6D895
2FB31
30A6A
66B15
26C29
61BCC
2AE82
79717
39746
378FE
3D8CB
3A219
40F02
51B4B
385DE
66695
84F7F
3DECD
314A3
46884
2D87B
6B848
86FC4
4CC12
31494
66F5C
45568
40F5C
47252
539F4
430CD
85F86
2E8AE
33ED2
35494
3C2DF
32D2F
591A8
59A9A
35593
3DFD9
37CC8
75B2B
2F7E4
76F25
57BE8
5BDD9
7A45B
807E8
5F13D
4A945
3105B
2BBB1
74744
191C0
304AC
54499
2B1ED
68A2B
3D0D1
45F01
31A4D
4619C
2C1E7
79CCA
46924
5B5FD
3E6D8
3FBB3
31A65
36B9D
30836
6206D
44C99
3A3A4
54560
6A630
3B009
3E9C4
48BCD
51C82
61A18
3A5B8
7C050
266F1
4EC63
545F5
6948C
4985B
33211
34B11
44F02
30113
27EF3
2EEB2
501A4
302DE
34481
85EFE
3BF5E
A0C9C
33740
35A0E
8F376
6272F
7703E
80352
465BA
76A15
45AE2
454A7
69E1E
1FA02
41F3A
5C4CB
27AFC
2E656
35E61
3DDBC
6790F
49667
4209C
34654
3F9EC
49AA4
36065
3DCA8
7DF45
44512
32EA1
8A420
56809
7403E
4C0BA
560BD
4ADFE
7C35C
355EB
34DF6
70BDA
429F6
438C8
32743
4040F
44134
810C8
4EAAD
7C91A
2E5AB
40AA1
4634F
3C14E
35C1A
29D21
36191
54C64
36F6D
4FBB2
77496
63696
3BB9B
4A464
60464
31841
56844
4FCBE
6B9FC
85481
37989
40DE9
3137E
54472
74DC4
7CF49
477E6
3687C
3AA90
53564
4B8CB
4C7AB
38315
4D8A9
2B2F6
35BD2
3A420

