55556
4B633
5F822
442AF
3DB5B
33903
6F56F
3A861
5760C
4CFF7
34F23
332F5
2A724
4DC41
4E7DF
7B7B0
36762
3A9DF
72F0D
2E1E7
6DB77
32E3C
890B0
43FD5
3EBEB
4548B
43131
4DBBE
5C021
4004F
73960
95963
49803
383C0
4F3B8
33470
78AC7
97D85
5B87C
3AD53
73FF9
5250B
4C960
4FADB
5E2EB
4FBF3
96C67
364FE
3B133
3FF48
48656
3CB22
643DC
6B3F3
3F413
49014
4283E
846A2
38CFA
85F37
69EB2
66FAA
8919B
8F991
6A8B7
54130
3846F
340A6
82F6B
1E0DD
39473
5F4CC
32F90
7648E
49346
538C3
3C443
4E732
34F61
89055
4F7E0
66CA4
466C1
47C12
39B9A
4195A
37E27
6EB5F
4D402
45EFE
5EBCA
774EE
463F2
4B205
5758E
5BBDB
6E475
44CCD
8AF7B
2DCA9
5DDDA
5E773
771C6
58849
3D05D
3F13B
4D36A
36F31
2E92C
38210
5A1B0
36C6C
3F116
971FB
43951
B3CD0
3A4BC
3F8F2
A13B9
6EDE7
85FAE
8F90F
545B1
85A58
53F7E
4E443
76B96
25949
4F208
67485
2ECE9
36638
3CA7A
4AF01
73BE0
59CF7
50469
3D6C3
479D7
55B1A
41C3B
49C5B
8E10B
51E84
3C89D
9BD22
6180C
81CB7
555FF
6147F
545C9
8BF76
40EA9
3F632
7EF00
4B03B
51071
39CFB
4D9C4
5215F
90FD3
58233
8C927
38183
4C55F
5527D
43948
3CA45
32A74
3CC5D
63B16
429F5
5EE22
866A0
6FE23
47737
592CE
6CDBD
3B985
6153D
59CA3
789D1
9613F
434E6
48D20
3A5A2
5EB58
83CBF
8CC00
50510
4064A
457F8
5D769
5B8E0
5B2EF
43DE1
5CEB3
32C48
40262
45DB1

