06F37
0EF9B
29732
07715
0520A
07243
2B7E6
0A19D
27A88
1FAE9
157BA
082DF
02D83
09C8C
20B8B
32250
12E64
0633C
32867
076AD
2EB70
08E7E
36FFB
0C95A
18F7D
1C9B7
1409D
0A6FD
25D33
17C5D
2E4C2
3E300
0C9F0
13B5F
2179D
150CF
337B7
3F2CE
0DD23
089FC
2F6CF
0E10A
0F712
22CC6
26A48
0CF8A
3E650
0D732
157A4
07D82
08256
08C6E
29AA1
0EC42
0B27A
0F13C
0A27E
37044
07CE7
3709D
0A560
2C87D
3B1D9
4029D
2E3C4
22237
121F3
08564
36A77
040CB
0A047
2561C
09ACF
2E800
09492
0BF87
04667
228A2
06751
38F7A
2092F
2AC07
1C60D
1D8EE
0F414
0879E
111DD
2C009
20BDA
085A8
2808F
3359E
0B1BD
094D3
0A830
275CC
2BC2C
0DE14
3C5A5
0718D
0E7EF
2961F
2E648
09A6C
08FD6
08757
21B10
12C11
0BA87
07B03
257F3
14147
0656D
3CBBF
1B7F7
4FCEB
164EC
0B54A
427AD
2D8CC
37469
3ECA9
0ABCB
36ABF
08D2C
1F0FC
332FC
06431
09D5A
2D851
095C0
0C5AB
191F6
06267
33B4D
03817
05656
0DF25
1D918
166E6
04059
0AC25
39557
0A6E8
09EC8
3F73F
27A5D
39533
244F2
2631E
2277A
39198
0430F
0816A
3445D
1EE10
0A23C
131DD
075D7
0866C
3D281
2654D
38683
04DE2
0EF41
06898
1C24B
186DF
0432F
19AB2
153BA
054EE
0F31A
36DAD
2E4A5
09C85
0ACEC
2AAC9
0695F
2878A
253B2
344C3
3DBDF
05B80
1F014
0A50F
27D94
353E3
39AE4
21EA4
0C85A
0C7F8
2834E
07611
0DD9B
06779
0C0B6
0AE39
09663
08DC2

