71D62
5962C
725EB
5B771
4FAC3
43BC3
873B1
48CB1
678E6
5D6EB
3D745
40A76
39199
63B8E
59B5C
94DF3
3E0F2
4D7C5
89949
3B249
81C34
41D41
A5030
5697B
50FBF
52B63
52777
63D81
6DB25
42F04
8B4B7
B43F2
54F57
478ED
5D88C
3D24A
8A3C3
B37FA
76D32
4CBEA
8B8B7
6A38C
605CC
60085
6EDA0
6756C
BAEA4
446EF
48D58
507A3
5F709
4EE49
78E3B
88A09
50B44
60CCF
5973D
9E113
49855
A09B1
8BEF6
80B7A
A4982
AC6B1
7D6E2
67F70
51BAB
4244D
9F301
28665
4B4CD
75840
40626
8DF0F
6050A
6D4D1
52787
5E9BE
44DC7
A481A
65A32
7A26B
5834F
5DAEC
4B69E
56691
45E17
854B8
5C35B
5BA02
703FB
8F83B
5A61B
62136
73343
6C6BE
856D0
50E94
A4640
3A76F
78F36
6ED44
8FC96
74876
4F354
513D0
5A7A4
4455B
3C3F8
46E40
6874F
43C05
53EEC
B5397
50921
D5BA4
4A91C
57E3A
C00E8
84B74
A0127
AC96E
6EBBF
9ED53
6E9A4
5DB5F
8D84B
2F235
67DB5
7A220
3A9DE
4579F
5AA97
63072
8AB42
78F16
6C5C2
497AF
59D47
6A580
576A4
60906
AB3A5
6C651
4DDC1
B90D0
776A7
9D67B
6371E
76275
67E86
A7C73
5424F
530A6
9AA8D
595FF
6892F
46990
65A83
6B172
AC29D
64635
A817A
48D58
61735
6FBCD
4FCE4
4F040
37390
4645D
81038
5743D
79868
A0CCA
87BA7
5CB97
74F01
8427A
4E20B
73C60
6D549
8D830
B3AA5
5953A
54BA4
4C23E
71699
9EA89
A8848
62244
54A06
59030
6E55C
7772C
78CB6
58AD4
7932A
40A59
51876
58E6C

