2FCC5
2E753
459F0
27169
229D3
1E4A7
4ED9A
2355D
4086B
374C2
25E11
1E973
177B6
2D361
3892E
585CA
256E8
21845
54180
1B95F
4F8BF
1EC8E
61C11
29752
2CA79
31CE1
2C8CD
2D81D
420FB
2CBF1
5267D
6BBBC
2C58D
26BE8
39522
24CD7
578A2
6D623
36514
22CA0
53292
31A1C
2F4E5
3A2FC
43960
2FC51
6C73B
22BE8
29121
2515C
29A0E
23D55
4830C
3EF5E
264E3
2D43D
2786B
5F59C
21581
60297
3C258
4AFD5
63C16
698F1
4DAA0
3C294
26017
1F1CB
5E6BD
1199E
22A57
43908
1F325
53E8B
2A987
31457
21837
396C2
1EB11
62AF7
39064
4A0A1
3249D
338C3
25632
263CA
2551D
4EC41
37EFA
28724
448AA
56C3F
29ED5
2B9AC
328D8
42A89
4E6CC
2A801
65523
1B42F
37DB9
450BB
5449B
32C03
241B0
24EBF
385F3
259DD
1DDA7
20EE9
40E9A
26294
23E6F
6BD6B
30630
83EAB
290FE
268C6
73DBA
4F96E
604A6
68E2A
311A1
5FD3E
2FFBB
37A94
5661D
16953
2DF1E
4B9F2
1CDFD
22427
2BA3B
29FF5
5513C
307B3
2C6AF
26B01
337AE
37663
24329
2B98D
657D5
2FADF
244CE
6F969
45CC3
5F174
3DE0E
44FC7
3C77F
6448A
23D63
24E7F
5B2EC
35E11
2F14D
27481
2BF8C
2ECCE
68D80
40496
64449
1F903
2EF10
2F81E
30B1E
2B4D0
1C686
2BF65
3E1EE
2542C
38B8E
6050B
50790
29EB7
33A5A
4D2A2
2235D
4619B
409EF
57E62
6BC6B
25D05
34CBC
23595
44701
5E2DF
64F87
3A189
278DB
2A33D
43F5C
333ED
36269
2676E
3630B
1FABB
25EE4
28A58

