742EE
0082B
1C819
78E71
77946
7C816
1B3FC
7E81C
1C3B8
14D4E
0DF31
7DE1E
795CC
7981D
15C32
2095D
0A627
79A6E
231A1
7E269
1FA14
7EDA7
235AC
7F519
0FEC4
12DE2
08C6B
7A52C
18D9F
0E22E
1DB50
2942D
7E0B5
0AF73
16852
0DD03
22EA4
29F1D
7B370
7C9A2
1F01B
7DB92
00CD4
180D7
19583
7CFB9
293BB
03AA7
0C79B
7A68C
78C31
7C587
1BA38
789F7
7EAE2
01350
7CA94
247C1
7C12B
2424D
73733
1E893
28716
2D24D
1FCB9
162E9
08FC7
7DDF6
24620
7DD2B
7EB38
1783A
7FC99
1D4FF
79FB2
7AD51
77062
1806A
7B529
25CCA
15571
1C606
124FB
13747
05160
7ACD6
07D58
1C079
16155
799BB
1AEFF
23147
7CF2E
798A6
781D5
1AD23
1BD58
00BAE
29879
7DD50
7B7DE
1CAC3
1CFB2
76C4A
7C880
7B619
17455
0A167
034C4
7C16F
18E68
0BC5B
78C19
27177
11E67
37DD8
0DB0D
7ED33
2BCAE
1DE8F
246E5
2B737
791C3
23C32
76D4A
13C25
23040
7EC36
793E5
1FB07
0064A
024A2
109D6
75AE1
245FB
6ED75
73779
02944
13803
0748B
753D0
7BABE
250BC
79515
7DCE1
29563
19CB9
27F91
188FA
180C2
16855
25422
75A6C
7AD91
22652
144FB
792AA
09DA0
768BB
76C23
29157
1A67E
24414
789A3
00419
73B68
12B36
0FC25
79137
11436
02726
76A0A
7C1CF
23CE3
1E95C
7B044
780B2
1AD3B
79E4C
1ADB9
18A58
23F0B
28975
76F8F
14FE2
7ED09
1AB68
226F3
25CA7
16CE1
001A3
7ED9A
1B748
73397
7B559
77C40
78AE2
01573
7C4A4
7A415

