FEABC
08980
23BD4
01072
FF268
0272F
2453B
04FC6
229E1
1AE52
1228D
03A30
FEA94
029A6
1BE2F
2A65D
0F249
00AA5
2BB88
03543
280F5
04788
2E551
06BB6
14FA4
184F7
0F11E
0353F
2019F
13857
26FA6
34F49
0630A
0FDA4
1CA47
11DB9
2C2C5
35CF1
059CC
03520
282E9
06DAF
08FBB
1E0EB
20C6A
05EAD
350F0
09222
11819
01EAC
015BE
034AE
237A0
04FF4
05A6C
08F54
0433C
2ED73
02A14
2EB3D
003D4
265B4
32E0B
37C5B
27DD6
1CDD1
0E177
03B86
2E97E
014D7
05066
1F438
05502
26EAD
0288A
0468E
FE7FC
1DE6B
018B8
3082C
1B9E3
2468E
17EFE
1919D
0AC4C
02719
0D057
24F4A
1C09F
01D92
2241B
2C2C3
04DC9
02592
02653
21D45
24BBF
08141
340C6
03026
061C9
23C68
26B60
01521
037E5
02B07
1D181
0EEE4
07F84
02924
1FF09
106A3
0058C
332F9
17437
453EA
12818
05D03
38788
26A66
2EF63
36424
02F5F
2E545
00E2A
1A134
2C0D6
02F42
0283D
276B0
05675
07E9F
155E8
FEE24
2CF12
FA639
FD7C7
08EE8
19207
0FBFA
FD7FF
041A5
30621
02E1A
0493C
35B22
21895
31AB7
1F204
1FF41
1D326
3058A
FDC6C
023F3
2C62B
1A378
02A6C
0F077
FFF1D
009E2
344D0
2111F
2F843
FF74E
08782
FE3B8
17FA4
149AB
FF4AB
15F5D
0CF1E
FED4D
06C6A
2E736
275C8
0344A
02878
23AEC
00FC8
22771
1FADD
2D14C
34692
FF369
1A967
053DF
220DB
2CF1F
30E7E
1D037
070AF
067A1
2294B
FE7CC
05AE7
FFFB3
03806
06AD2
039DA
026AB

