346CE
2E0C6
47FBB
2B3BB
249BC
208C4
51F4E
242F9
4251A
39ADE
259A5
1FF6E
19F13
2F9A7
37AC5
5B785
24983
24640
56F63
1D655
51362
20E31
64F9E
2BAEF
31868
33199
2E498
303DA
43C96
2736E
55285
6F9E8
2A632
29F75
3A5E4
25C71
56A63
6F3D6
3A3DF
25809
55E49
35058
3183B
3CA68
447D9
3324E
73931
24916
2B3B8
263E7
2D235
26662
4AF34
4200A
285FA
32123
2BB94
61EF3
23872
63119
414C1
50E5D
67489
6DB80
4F06C
3FFDB
2B9A1
20BD9
62BB5
13AC6
25A19
475CF
209FC
564AD
2E1FB
3534D
25BA1
3BCF9
20D69
6617A
3EBC8
4BB7A
3620A
39DDD
2B15B
29791
2749A
51517
39957
2BA0B
45F57
59F8F
2C866
2EC63
36E2A
43F86
515C9
2A137
67988
1CACE
3B58F
46198
572F0
36F38
26BAB
27254
38F05
27C9A
20482
22249
40D68
283B4
273E9
6EFDA
3190D
87A3D
2D445
2C21E
76C15
51E43
62F1B
6CD03
3517B
61F22
33E27
391F9
58DA2
1786D
31A7B
4D5F2
1E259
247AE
383E2
2D824
583B4
35546
31365
27ABA
378DD
39BBB
274B1
2F12C
68F2C
34143
26795
71EEE
495D0
63A9E
3E04E
47BE9
40056
6744A
25FAA
27D2E
5F7BC
3746E
31EE6
289E6
2F208
320CB
6B29E
3F3F5
66E3B
21863
31BFE
32FC5
31677
2D8C0
197AB
2B90B
42D93
27E72
3C045
6303A
53EBD
2CD90
37BFB
5049A
24E82
47CFC
43B1B
5919B
6EFAE
2916F
34D9F
25F6B
469A2
6154D
67F20
3D342
2ACF2
2CC32
45592
36CDB
3B347
293C0
3A2DA
21AC7
27B44
2A794

