5D9D0
51C4E
65380
4A952
43AFD
38417
7681A
3FA38
5C6B3
51C8F
38451
37BA4
2EA13
54F27
5353A
833A3
3A37D
40276
79BEB
32350
745F2
37532
91B5B
49D79
42BC5
4994A
480B0
54D7C
61BB5
44455
7AE7C
9ED1A
4FEE8
3C17B
5410E
36786
7FFB9
A1363
63BD2
4022F
7B3DF
59865
530B8
546B6
640CA
56CCF
A01C7
3AA0E
3F0BF
45E1E
4F2ED
422E2
6A6DD
75041
44C21
4F1FC
4877F
8C972
3DFCD
8E497
7403E
6D273
91569
97FD2
70EA5
59596
3C4EC
38A84
8B064
20CD0
3E454
656B0
3755D
7DDE1
4FF4E
5B1BC
422AF
53169
39DFA
917A2
5472D
6D21D
4ADD0
4C363
3E362
479E0
3BFAD
75C1E
51F3D
4C714
6483F
7E7CA
4C7E6
52146
5F76B
61463
754E1
4A99F
9345A
31E0F
663FF
6412A
7ECAD
60D95
4284F
44D8B
51CF9
3AC5E
3242F
3D3EF
5FA9B
3A710
450F7
A0AC0
47D10
BE5D1
3E190
45138
AB3DE
75C4D
8E4B3
98194
5C21E
8DFD3
5BE7F
5340B
7DDBC
28E38
56726
6D626
32C34
3AD43
40688
52344
7A81A
62ED5
582F8
42701
4C0E7
5C607
48496
506DC
97041
59752
41E28
A593F
679D5
89732
5A8EC
6785C
59A1D
94B85
4754B
453A8
86D32
4FAD4
58840
3DE61
5507D
59DE8
99D83
5D661
95767
3D817
52D1E
5D75D
47BEF
40779
378F8
407B2
6BFB2
49196
674D1
8ED18
76D00
4DF72
61741
73D9A
4131D
67555
5F578
7FD48
9F68B
49CFE
4D3CC
3F6D2
64811
8C184
95867
5537C
45DF5
4B84F
6316C
64725
635A3
4A5A7
65763
36FAF
45EEB
4C4C8

