14C02
199C8
32F79
12223
0F16D
0EF65
37704
12A04
300F4
27A90
1B05B
0FC03
09D11
15C0C
28C79
3F0E4
19290
0F6E1
3DDDB
0E3B2
39CE8
104C2
45717
1656C
1F9E7
23C4C
1C51C
1648F
2F5D4
1EDBC
3A7F0
4D932
1756E
1A241
29881
1A5F4
3FA9F
4EC94
1B809
1176B
3B7F9
1A14B
1A34F
2AB32
306BC
18BA3
4DF46
14A4D
1C18D
11B91
13752
11EAE
33FA2
1F0C4
1453D
19469
14140
44A49
106F2
44EE7
1B29F
36D22
48D86
4E25F
38DA7
2AEE1
18D6E
10080
4416C
08A0B
12568
2F942
10F23
3B236
148A0
18927
0E3C6
2A453
0EA50
470FA
28D59
35526
23C7C
24FCB
16BB6
1287D
17F12
37BF2
2893B
13321
31AA6
3F50C
15853
14E3F
180A0
30958
3778C
178C8
4A318
0DE8C
1C783
32BA7
3B31F
17895
12268
12131
295A9
19206
11CE1
10377
2EC25
1A304
1053A
4CA5D
228E1
61697
1CA4C
14869
53296
390CB
4521D
4D032
17B2C
44936
160D9
275F5
3F13B
0BC69
1608B
37B07
0FF3C
13C13
1F60D
1242C
3EFAF
12B34
12944
164E2
24F89
2191B
0EE46
15DA6
48405
1703F
12D5B
4FB70
31D56
46156
2CF28
3098E
2B406
47B05
0EE1D
11D2F
416AF
26A64
169EB
19EDD
13BB6
155FC
4BEA6
2F199
47399
0DE2F
19C29
1460E
23162
1ECE1
0C60A
1FD94
230BE
101A6
1D394
44DC9
39D6A
14A3C
189AD
36538
0FEB2
327B2
2E7C0
40533
4D4B4
108FC
265DE
12C5F
3181D
4312B
484E4
2A159
15A78
16888
31953
1632E
1B772
1146F
1A487
11E8F
1309C
13994

