29B9E
29C72
416EF
22625
1E3B2
1AD98
49982
1F959
3CD46
33C97
23712
1B426
146A1
27F1F
35073
52AE5
22AD4
1D74E
4F1A9
18967
4AAA9
1B885
5B661
252A6
29BA7
2EA76
28E81
284B4
3DDD3
29A0F
4D09C
64F69
27A18
23EA3
35C6C
22760
522E0
6683C
304C3
1EE65
4DD94
2C585
2A91C
36B5C
3F489
2A98D
659B1
1F943
26288
20BD1
24A6B
1FCFB
43A71
37CBE
22450
28C71
23290
595AE
1D8C4
5A0C8
34BE0
46764
5DB6E
6367C
48FE0
384B0
230CD
1BBA0
58828
0F963
1EFC3
3F13F
1BFF6
4E592
25A4E
2BBA0
1D2F9
36055
1B16E
5C7BE
3563D
45637
2F081
30477
2218F
21D02
22510
49992
347CF
23AD0
404DE
51805
25589
26816
2C99C
3E99D
4945B
263EF
5F3B3
1843A
31B59
40EF0
4EA7A
2CA43
20132
20B0D
35002
22D00
1B260
1D2DF
3CD66
23793
1F81F
64D63
2D482
7C2BB
26463
2280A
6C84A
4A878
5A319
62A0D
2B662
59B5B
2A298
34012
51268
14282
2893B
4725A
19F93
1F00D
28E30
24AB3
501DD
29CBB
269E0
23029
30390
327FA
1F6A3
26B73
5EED0
2A248
20612
686EE
4150E
597A1
3A13E
4068B
389A8
5DDD5
1F21F
209F5
55661
3275D
29970
2448B
2687B
2917A
62598
3C6DB
5DBF7
1B985
2A2FB
296AC
2DA3D
287EE
18CF2
293E3
380AF
2082D
328C8
5A26F
4B644
25247
2D939
4809A
1E1AA
41B23
3C8CA
529B5
64EEE
210AF
318E8
1FA0B
40302
58182
5E891
36806
23890
25C97
3FD5A
2CB98
30290
21B54
2FECE
1C94E
21B08
23EBE

