6B7FE
7A95C
15A61
71F54
71783
76C36
12B19
78B6F
16197
0F38D
09476
79253
74F15
71B64
0F412
174E3
065AE
73973
1ADA3
7A124
178E9
79C4D
18EF0
78BA9
0C2B1
0D8F9
03530
72F64
1204C
064AB
14DE8
1E1FD
77D55
06D36
109BD
0A07E
19641
1E2EC
724CD
76E6E
162E5
75D8A
79E1E
12A27
122FB
7529B
1EDB7
7EBA4
0814A
74177
71678
764FE
1465B
6E22B
787B3
7A946
756BA
1A86D
76695
19FE4
68AA3
181C9
1E7A1
23435
17EBF
1085A
7E536
78ECE
1AF0A
7B0FA
78E62
108EA
7AE89
14358
7285B
72980
70981
127D0
760F9
1BF9D
108A9
1493C
0DA89
0F55B
04B1D
741C0
02F55
13989
10773
72A16
13BD4
1A642
7611F
71DA8
6F41B
13EF5
13892
7BF58
1F66C
794CF
72317
15BBB
13F7C
6DD3D
76A92
75291
111C9
05E35
7F126
76814
11CA5
078D5
722D5
1B969
0CBF6
2AE93
0A786
782BD
1FB5B
15898
1A5AB
21144
70A4B
19A49
6E283
0DACF
1A4FA
7B7D0
714A5
1837B
7C56A
7D4BF
0F5EC
6DF46
1C4BC
6509E
6AF97
7F857
0ED9F
00020
6E260
744DA
1A3DC
71342
77B40
1D7B3
12AD1
1F187
11936
10A23
10A7D
1AA99
6F285
74810
19363
0EC91
710AE
0504D
6E5F7
6E506
1DF9E
13249
19761
72D80
791AD
6AD7C
0D4D5
05CD9
7628B
0BD99
7906F
6FA90
72F9B
19A4F
16666
73FE8
6F163
12B1F
73F4F
139B5
12404
1ADCA
1D6A9
6FCED
0EFF9
78A10
13C3C
18815
1B441
1156F
7926B
78375
14AD2
6A09C
72113
70E59
6F57B
7CE48
76098
73573

