5BE76
49E88
633B5
4A3D5
404AE
372B1
74345
3BB81
5A41D
50A9D
34EFA
34FAA
2DF8E
511BC
4D8DD
805F1
34F6F
3ECF1
77809
3084D
706C4
36104
8E245
47449
45BFB
476C0
458B9
516A1
5EBA9
39098
77F5C
9BBCA
45C13
3CFD5
50F99
34CC6
77CFC
9B1ED
61302
3EBAC
78622
5738C
4FA18
53656
5FB90
54B2B
A16FB
390D8
3E431
4164E
4D799
406E4
687B8
6F677
424CE
501C8
491EE
88975
3BF3B
8AA0D
71475
6FA39
8EB29
96069
6CDB8
59B04
441CC
364B6
8998A
20FF5
3DD8D
65085
350A9
7A111
4E63B
59446
427D9
522E5
37FEF
8E373
57BE8
69915
4C092
50E42
3FDE1
465C8
3AF46
72BB5
4FD7E
4A7BC
61252
7C647
4A011
4FC0F
5DA95
5DF98
72D4D
430A9
8EADA
2FD36
62F31
60487
7B924
5E897
40C05
42348
4E7FE
3A23B
3242A
39C44
5A4EA
39EC3
43F8F
9C241
457F6
B9D6D
401AB
48430
A5E0A
72907
8A3DA
95CFF
5A25E
89166
59A1C
50A4D
7AB58
26B49
547FC
6A259
3072F
39B12
4E5E9
4FE9F
78AD9
60CB9
573C6
3D67C
4D96A
58FB9
463A9
4EE38
938E8
58483
3FCB1
9FA6D
66F7E
88C88
56142
65943
59A9A
90BD2
43A82
439B2
85867
4D327
550F0
3BE41
522EA
56B80
94F30
571F9
90CE4
3ACB7
506A1
5A0A6
44F2B
43100
2C99A
3CBC0
6ACFD
46599
638EE
8ABBB
7539D
4BA03
5F15A
71A18
3F67F
6412A
5E75D
7ACB2
9B228
48196
4957E
3E817
621F7
88C18
9174C
54F31
45B11
49355
5FB26
605C6
62CC6
47BBB
62B0E
3595C
42976
4851F

