175D5
198A5
33ECD
1468D
103AD
0FE5A
38BF2
12DCE
30B29
28C29
1A50D
107EC
0B32B
16F09
27910
404E8
188B5
10F1B
3F022
0F51B
3A3C8
114C7
46AC6
1760D
22A38
24240
1D2AA
17D25
2FF44
1A184
3B89F
4F24D
163DE
1BF68
29BA3
1AB87
3E3CE
4EF05
1D92D
12EEA
3C810
1BD8B
1B586
2BE84
3071C
1A71E
51D0A
157D1
1D398
12422
15559
133C8
35360
2094F
1549E
1BF54
16158
457A8
118C9
45F2D
1DFA4
3A44C
4A453
500C6
39114
2D132
198F4
10DFD
461F7
09DD9
13CE3
3185F
11983
3BF55
165F7
1AA95
108DC
2B581
0FCAA
488EA
2C53E
35BE8
26003
28EAF
1BC95
14353
18CF7
38B8E
2932C
14EA2
31F24
40A2B
16D32
167F6
1A577
30D41
38B96
17B2D
4AD39
0E942
1E321
32D36
3C660
19CFC
1392F
133A0
29116
1A476
130C3
10C0E
2E16F
1B358
1218E
4DC15
22E4D
62B01
1F669
176D1
54116
39D72
46047
4EA23
19D0D
45223
18193
27CF4
3FEE0
0C5A8
18018
3830A
10AC9
14DD9
27F49
142EC
4058F
15557
15390
17ABD
27559
22BAD
10857
17A75
49957
196DE
13D60
50478
33921
4856E
2C4F0
31C86
2D256
48BDB
10220
135F8
437B0
27242
1812C
1A6EA
1552A
170EA
4C679
2DAC0
4808E
0EEC1
1B2D4
163CB
23047
1DB59
0B678
1EED4
256E5
117D8
1EE8F
45C6C
3B67C
16312
1ACB1
37BE4
11668
33021
2FFDC
404C7
4E7A2
12435
25C46
13E5D
3257F
444F7
49639
2BB95
17054
17D2A
31F3E
18368
1E0F5
12C8C
1C5B4
13043
13E98
1480E

