7BF2E
06318
2100A
7EE09
7D013
00304
20F6B
02853
2012E
18CC8
0FAAE
01E6C
7D49D
7FAC2
185F1
26AE5
0D2D0
7E992
28692
020A1
248FC
0297B
2A160
0438E
14983
16074
0D03E
00C8C
1D3E9
0DB7C
235ED
3081B
033C9
0EC09
1A074
104A2
27356
30775
02871
0169D
248D5
0418A
066E5
1C1CA
1D888
0324C
31F76
07435
10027
7F677
7EE0D
0128A
20B3D
010D9
0348B
0718B
01AB5
2AA23
00969
2A79F
7CA83
24EBA
2EE64
340EC
2459F
1B3AB
0889D
01E80
2B223
009CE
02FD3
1CEB6
036A6
231D7
7FF75
019E8
7C943
1BCF2
7FB5B
2CB1A
1AF61
2103D
16C97
18EDB
0D5AA
00257
0B272
2184B
19BD9
7F7CA
1F112
28BB9
025A6
7F985
7F69E
1EC52
217B3
065C8
2FAF9
0147A
02B1B
20A49
23211
7E525
0180D
006F6
1A186
0D88D
06901
00592
1C670
0EEC6
7E25B
2E66A
150D6
3FD3C
1251B
03E44
33581
2326A
2ABA6
32298
00154
29F3B
7DE29
1779D
286B0
01D01
7FCF0
24350
03F6E
06229
1896F
7C4A5
29D0B
77263
7AD14
0893E
18085
0D075
7B09D
018F4
2BFEA
0049C
0240C
3087D
1F02F
2E8FE
1B99C
1D108
1B56F
2BF12
7B85F
00147
29100
17EB4
7FADD
0D0C8
7CFAA
7D97B
2F630
1D176
2AED2
7D5F9
05E1C
7B1DA
15720
0EC49
7E204
1300F
09ADB
7C58B
03736
2A31A
2446E
00D18
7F7A0
20969
7EFF9
1F61D
1D675
28E69
2FD06
7CBA8
17896
02DAD
1F3B5
28EEA
2C8FE
1B3BD
045A2
04119
1FA7A
7B5A9
02908
7D9AC
00390
05306
013D8
7FC6D

