FBE94
06777
21D5F
FEE3C
FD287
00E28
21F02
0347E
20EFF
194CA
110D3
021F5
FD444
0035A
1A466
27D0C
0DE40
FED1D
2973E
01F76
25D76
02FE1
2B718
04C7F
13A5B
16E0D
0D69E
00F55
1E318
121AB
2489D
31E0B
040BE
0E911
1B080
10CB1
29BCA
32AFC
02E05
018D6
25C47
0473C
06D48
1C7A3
1ED1F
0390F
31F25
07B1C
102EA
FFF0F
FF18C
0176E
2169F
01BDA
03D12
06EB1
0237C
2C1D9
00E79
2BEC8
FCDFA
244C6
3021B
34F9B
25BDC
1B1AF
0CBF8
022E7
2BE80
00631
035C6
1D397
03DBE
2463C
00487
01E3A
FC882
1C5AE
FFE85
2DB13
19F74
224BB
1674E
179D7
0945F
006EC
0BA80
229B4
1A78C
FFAE0
20549
29C7A
02C78
0007C
FFB09
1FFC3
22646
06251
3147C
01A5A
03512
21E80
24268
FE8B2
01A94
00C41
1B8FD
0DA7F
06BD8
00DD9
1E165
0F317
FE596
3000D
15DA2
41B95
113D2
03F97
35226
24599
2C30C
336A2
005E5
2B8C6
FE3D4
1869C
29AC9
01D9D
00134
25626
0415C
066F1
141E3
FC763
2AAFF
F759A
FAD98
07428
17A57
0D856
FB536
01E25
2D665
005D5
02CB8
32718
1F7FC
2F1E3
1D660
1DDF7
1B70A
2D6DA
FBA36
004CC
29C1A
18A9B
0027C
0DAAA
FD78A
FE05F
31596
1F50F
2C8D9
FDA72
064ED
FB76D
1696C
13544
FDA7F
14B96
0A2EB
FCAC2
03F85
2BA63
250D4
0118C
FFC52
215A3
FF1EA
20769
1DD41
2AACF
314CE
FD0B6
191D8
038CF
201F3
2A2DE
2DFB1
1B613
05376
04784
20B4A
FB860
02F56
FDD1C
00A76
0545B
01B01
0044D

