6DB15
7C220
1729A
73AE4
7301F
78052
1498A
7A05A
176DF
107FC
0A217
7A501
760E3
7392C
10785
195B0
0743B
750EF
1CA8F
7B224
194A7
7AF20
1B387
7A42E
0D4AA
0EB0A
049DD
74CE1
1383E
07483
16CD8
20934
795A9
07E1F
11DD6
0ADD8
1B3BB
209ED
7476B
784DB
1818E
77BF1
7B8E3
13E5F
13B30
7706E
2167B
7FDD9
09234
75999
73337
77C22
1609B
70A87
79EBE
7C3FA
770DC
1CAC9
77C4B
1C30E
6B549
19D1D
20AAA
25809
19944
11F31
7FAFF
7A1F7
1D196
7BCD2
7A3E9
12349
7C0AF
16325
74509
7498E
72312
13BB2
7758E
1E347
11EE4
163C5
0EE02
109D3
05D96
75B6E
040D0
1573C
11B3C
74583
153FE
1C4DA
77B53
73AF9
71693
15612
15652
7D589
2192A
7A5D5
7464B
17301
15FD4
7006D
781B4
76A9E
124F3
06E85
00121
77D14
13348
0888F
73C5E
1E18C
0DDAD
2DB32
0B844
79BBE
2253E
175A3
1C89A
235B6
72B3B
1BD14
70411
0EFB7
1C312
7C54E
7339E
19D0F
7D5AF
7E79A
10997
6FDDB
1E193
67741
6D163
00BA9
10136
01BE7
6FDE0
76121
1C9BC
73370
791C2
20056
14522
21286
12E99
124A8
12148
1CF76
70CE6
760C2
1B534
1000D
72FE7
0616E
70520
7059E
204C2
14783
1BCA3
743F7
7ACEF
6D033
0E634
06FF9
7738A
0CCDC
7B3F5
715A1
752C0
1BD9D
18401
75B44
7145A
148C2
756DD
152D4
13BCF
1CBBD
1FDE8
7187E
10230
79FE0
154B3
1AB20
1D927
12A8A
7AA50
79CBE
1623E
6C58D
74445
72975
7197E
7DFFB
7787F
74FFB

