7286F
7F3BF
1B5D3
779EB
76625
7B912
19D0D
7D7BD
1B396
13DFD
0D48E
7CF95
78869
78122
14CBA
1F092
09A21
788B7
21BDB
7D554
1E4C8
7DF76
219F0
7E25E
0F1FF
12022
07C85
78E6D
17B4F
0D493
1C3E4
276A2
7CC21
0A31B
158DA
0D2CB
21741
28124
7992B
7B8AA
1D8ED
7C480
7F829
171AB
182BD
7B926
275DB
02CD7
0BAE6
79394
7767A
7B3FA
1A66B
76AB4
7D946
7FFBB
7B787
22D97
7B09A
227A0
716E4
1D4D1
26CBA
2B773
1E856
15208
082E2
7CF30
22C55
7D461
7DB3F
164A6
7EEA3
1BCBB
78A17
7951F
75D7F
17192
7A571
241BB
14595
1B1BA
116C5
12903
04305
79988
0703E
1A9ED
1524A
784EA
19C81
21A4E
7BB31
78266
767DC
19B6E
1A6DC
7F91E
27DE6
7D03B
79D0A
1B8D2
1B71E
751A1
7B6E9
7A3A2
1659F
0952A
028F7
7B10F
17C9F
0B0A1
778EC
252E9
110DA
35C0B
0CEE2
7DB8C
29CA6
1C87B
22C4A
29BE9
778E1
22180
753E4
12C30
2196B
7E1A0
77C79
1E781
7F9A1
0166D
0FDD4
743A0
23056
6D049
71E29
01938
129CD
05F28
73EF1
7A571
23417
77CEC
7CBC5
2762A
1892A
26712
17864
16CC9
15778
2381F
745E5
79ADF
20D15
13610
77AB3
0908C
750FC
7533B
27501
195A8
227A1
77852
7EF59
720D5
11DE2
0EFE7
78183
10858
00CA0
75550
7A6DF
221FE
1D32F
79B6C
76635
196DC
78C60
19A81
17893
227F4
26B99
75ABE
141BF
7DCCC
198DD
20C66
24093
15D31
7F01A
7DA55
1A547
71723
79B34
7677F
76F8C
007F8
7B222
78F77

