1F96E
1F583
399A1
1ADE7
15FF5
149C0
3FE1B
17C40
35AF5
2D8C7
1D829
14DF8
0F5EF
1DEB8
2C1FF
47FE9
1BF46
1672A
45C9A
134DA
40BD2
15B5E
4F3FE
1D200
26DA1
285FE
22031
1EBB9
35913
1DCED
42CA1
5855C
1BF17
1FED1
2E6FE
1DD99
45259
5814A
25AFF
18301
43B08
22F8B
219E9
30A56
361E3
216F7
5B5E9
19C1A
21306
17EA2
1C123
18A8E
3B5D1
2A0A6
1AB0A
22376
1C356
4D883
16A33
4E30A
27F94
40AC5
527B5
58722
3F484
326DB
1EAA7
155D6
4E384
0CA43
18D9B
37B45
15D92
43695
1D184
222C9
168BD
30012
149DB
50EA9
3189A
3BF69
2A90A
2DB6F
201DC
1A39E
1CE86
3FAEF
2DD5F
1B57C
379C3
47CE6
1CF76
1D5E4
226B8
363EF
3FB27
1CE65
52F80
12917
26723
3847D
43FAA
220F0
18FED
18DD3
2D8F4
1E1A2
16CB1
15ACC
33655
1EE50
18151
57295
270BD
6D256
23533
1D494
5DE29
40A5B
4E344
572CD
21892
4D49B
1FF66
2CB5B
46FBB
0F840
1F43E
3E2F5
147CB
1948E
2C90A
1B59B
471B7
1E63A
1D24F
1C330
2BECB
293D8
16F75
1E482
5275E
20F8C
191C6
59CDD
39BD0
5012A
31523
37FF9
327CF
51617
1650D
19294
4B67E
2BB54
1F643
1E728
1CA03
1EB25
551C2
32A56
50C46
142FD
2190B
1E5FA
2716D
22311
0F634
2280F
2DC1B
17D56
2725D
4E0D2
42580
1C9A9
22FCF
3EB09
16EBD
38E55
35914
47516
57AD1
18B93
2A094
1902C
3813B
4C861
52097
30ABC
1C9F0
1DBFC
37712
20DEE
264EF
19235
24CBF
172A2
19837
1AB8A

