4EBE9
409F2
5A261
3FE77
37108
2FA0D
68C9D
33DFF
52471
49008
2FD33
2DF96
274BA
45F0A
4642A
74122
2F820
3600B
6CA7C
2A250
6604E
2F013
806B8
3E12B
3F020
40A5D
3DCAE
465B4
55BF8
3318A
6C5BF
8D07F
3CA1D
36A5F
49708
2FCA9
6CC1E
8C7E5
5434C
36520
6CE2F
4BD25
45979
4BD07
56A53
49837
92262
32397
37EB3
38581
42B22
37C0E
5EA37
60453
39A88
46191
3F525
7BB49
33CF8
7D711
6148F
65645
818F4
88971
62E9E
511F6
3BF13
2F1C2
7CA43
1C8E6
35C66
5B249
2E3C5
6E245
43A26
4D3F3
38E71
4AB97
3046D
80D76
4F688
5F9E1
44BBA
49376
38F0A
3CBB5
34662
67981
486C7
4032C
58154
70EB4
402D8
44C2B
50BC7
554E7
67ACC
3AB83
81A69
29713
55BFB
578E2
6F713
51577
3813C
392F7
47500
3405B
2C447
31E45
51D14
34069
3A658
8D174
3EDA8
A91B2
39D34
3EE2A
962B8
67AC6
7D245
88256
4DCBD
7C0A5
4D0CA
48CDC
6F6C6
21A55
48E26
608E1
2A592
329F0
46FE7
44721
6DDCD
524E8
4A8FB
36291
463E6
4E90F
3BEAB
44489
855A9
4C36D
375A8
90698
5D19A
7C68F
4E0F0
5BA25
511D8
82EA4
39C3A
3A586
78D83
45E3F
49597
35778
467F4
4A7EE
87054
4F2A3
82D56
325F0
46315
4D05B
3E6EF
3BE40
263A0
3702E
5D7D9
3C336
5660B
7D7E5
6A1FD
415DC
51F90
66843
3692A
5AA70
5589C
6F8FF
8C6AA
3DC33
42834
36533
58F30
7B9D4
839E8
4D08C
3CBB1
3FB9F
56EA0
52822
5599B
3D912
552FC
2EF2A
39A10
3E5F0

