53218
43B79
5D2D3
43596
3A240
32243
6C980
367D5
54F00
4B8E4
31875
304F2
29856
49A9A
48B10
782BC
3153A
38F03
70456
2C44F
697CB
315B9
84FE7
41235
41413
42E7E
40607
4A0AE
58BDD
35139
7039E
91EED
3FAC4
38C31
4BF38
3175D
70713
915E8
58889
391F9
70B80
4F9F2
48F03
4E577
59ABD
4D3DD
973EA
34802
3A088
3B5C5
4649F
3AA55
61EB7
6550A
3C89F
496F9
42968
80003
36864
81D65
669DC
68CEB
85F06
8D119
663A7
53FA5
3EAA6
31813
80F5B
1E096
38773
5E707
30811
721DE
47382
5140F
3C194
4D35C
32D98
854CA
522FD
62EF3
472AC
4BC64
3B3FD
3FF11
36959
6B4E8
4AE59
43A07
5B1A9
74BE5
43740
486CC
550B6
58322
6B64C
3D7E5
85FE4
2B91F
5A262
5A76E
737C3
55BD7
3AF7F
3C312
49B55
360FB
2E43D
34845
54A5C
35FDD
3D96A
921B8
41117
AEAF1
3BEB1
4202C
9B67E
6B4DB
81821
8CB39
51E9D
8063B
513E6
4B6AC
732F7
23551
4CC18
63C09
2C61B
34FA6
4973D
4844B
7177B
5722E
4EC94
38935
48B12
5209D
3F5AA
47D19
8A169
503CA
3A2AB
957DF
6063B
8088D
50BB6
5EF2F
53F6E
8785E
3D0FC
3D6EA
7D124
48537
4D40A
379BB
4A646
4E91F
8BA9D
51D15
877DB
352DD
49999
515C9
409AE
3E480
2859E
38EB4
61EE5
3F957
5AC57
81E82
6DD32
44C94
5657E
6A38A
39846
5DCAE
58832
734E5
91529
41354
44CA2
390D4
5C01D
7FFEB
883B4
4FAC3
3FB7C
42E31
59D77
57203
59FFF
40F4A
59B02
31290
3C9DD
41B00

