6ACCA
79473
1608C
71A20
70CE4
772FF
13206
78B5B
16850
0F681
0A2ED
78BBE
749F1
715E5
10486
17CE3
06208
73608
1B63E
79847
18166
79D3B
19884
78AF8
0B667
0DFF8
03253
72444
125D6
09516
15697
1ECC3
76C18
0697E
110AD
0A31C
1AA1B
1F544
71E96
76976
16CC1
758D7
797B5
12ADF
12B20
74FD0
1EA70
7EC61
07F97
73B11
7111F
76214
14A04
6D8D2
78716
7A45A
75EA0
1B380
7634D
1AB24
6801D
1789E
1F1B5
23A25
18933
10342
046B1
78A3F
1B3F5
7AB5C
790B1
10949
7AD7E
14B7E
72543
72436
7055F
12C4E
75C15
1C373
0FB92
15305
0D472
0E673
00006
73F72
03316
140B2
10C13
723C4
14637
1AF1B
75DE7
71A90
6EEA7
148CE
13DEE
7A27B
201E3
79331
71FD6
16515
14468
6D538
764D4
74D7A
120F7
05C12
7F1E3
764A6
129A2
079E5
71F6F
1C453
0D19F
2BE4F
0961D
78928
2072E
16171
1B023
21C7D
704BF
1A4EB
6DD5A
0E1B9
1AEE1
7B038
70F2A
18C62
7BE8F
7D41E
0C5C7
6D71E
1CB52
64824
6A80A
7CE54
0E779
7FB5D
6DD8C
7420B
1AE6E
70C2C
77BED
1E475
12DE7
1F4C0
12AFD
10F94
108C3
1B567
6E61A
743A4
1974D
0F071
70AE1
05382
6E22D
6DEFF
1F0C3
14717
1A2DD
72783
78E85
6A4D0
0DFAC
0B6C7
7383C
0D0F8
790DC
6F497
7292A
1A47D
16BB7
73A24
6EA95
12E75
738C2
140D0
125AB
1BC2F
1E040
6F997
0FFC9
79105
14253
1907B
1BD89
113FF
79E47
7806B
15144
6925A
72137
706A4
6EFF8
7C90F
75BC4
72F3F

