2BA6F
27DB7
41ED8
2457D
1E74D
1B857
4A589
1EF4D
3CFFD
34925
22320
1B4B6
157DC
28286
32CF8
53451
20F4E
1E852
4FBB0
19257
4A468
1C2E5
5BD40
258DB
2D080
2E958
291E6
28DE7
3DCCA
2340F
4D6C6
65D0C
244E3
25BD2
35583
22708
4F479
657D1
31966
1FE57
4E3A7
2D6BE
2AD26
37989
3E705
2BB01
69620
20040
2700F
2035E
25F3B
209D3
44632
37E9D
229CB
2B653
2530E
59580
1E19B
5A471
36A27
4A10F
5E866
64C30
4865B
3A47C
2627B
1BF36
5A185
10B66
203FF
40C51
1C163
4E57A
26F43
2D315
1F55C
36D70
1BB12
5D2D1
392DD
45158
31425
34BFF
26777
230DA
22EAC
49E4A
34A32
24C55
3FEAD
5252D
25F95
27720
2E44A
3E311
49EC8
24873
5EE92
186B7
328C0
4047F
4F190
2E278
20F25
2121E
3425C
23B5A
1C496
1CE4B
3B2D9
244CD
20DC4
64F51
2D22F
7C7C1
2914B
25E1A
6C489
4AA17
5A362
63B3D
2CDBB
593F7
2B7F1
33E58
51541
14275
29E97
46FA2
1A145
1FC42
33536
25DCF
51057
2BABA
28C33
22D73
32A85
32C9E
206B3
2800D
5F7AD
2C08A
20D8E
67C60
42C8D
5B6A3
38AC2
411D5
3A52B
5E0D6
1F624
21A66
57079
3267E
2A200
24560
27565
29E6B
61E0B
39F10
5D932
1BE89
2AEF6
2A4E9
2D0F9
28C41
153AF
27BFF
39F7B
21230
333AD
5A300
4C852
26022
2F01E
48E0C
1F04A
41880
3DBF0
519CF
652AF
2232D
304C3
20828
407C7
5891F
5EB88
37ED3
24D5D
2670E
3F7E3
2D919
32680
22750
312CF
1D3FB
21BAA
23D75

