2BEF2
2B7AD
42F4D
24184
1FD32
1C19E
4B817
20F2C
3E2C8
35104
24541
1C788
1587A
29DC3
36514
54BF2
23ADB
1EEEE
50EB2
19AD8
4C70E
1CB71
5DB5B
26B9F
2ACAD
2FCCC
2A3B4
2A309
3F63E
2AC32
4EFD6
676CD
29589
24F1A
3710B
23500
54210
69033
327C9
20506
4FC7C
2E448
2C4AB
37F96
40D92
2C7A6
68186
20BAD
2737A
2251B
26761
21461
454D8
3A66C
23BCB
2A68C
24BF7
5B891
1EEDA
5C459
376F4
481BC
5FE94
65A49
4AB0F
39B31
241FF
1CF52
5AA8C
1051B
20510
40B59
1D293
505ED
2771D
2DBE2
1EC27
37420
1C663
5EBD3
36B62
47146
30374
3177B
234B3
236BF
23689
4B7A3
35BDF
25692
41D85
536A5
27030
285C1
2EC3D
40138
4B255
27CB0
61721
195AA
33F1F
426DC
50B40
2EDCF
218A6
223AB
363A0
23D51
1C21D
1E8B4
3E51C
24736
211B0
67620
2E693
7EFCC
2749C
23F94
6F2FE
4C5E9
5C692
64E74
2D790
5BEF3
2C476
35559
530D8
1509F
2A876
48C62
1B074
202FF
29E34
269B3
51EBA
2C3A1
28BA0
2458E
31684
3447D
21276
287DA
61501
2C27F
21CE2
6B08F
42F21
5B84B
3B75B
4212D
3A025
6032E
20D7D
222E1
57807
33B42
2B963
255FC
28824
2B2B0
64B61
3DD4D
601E6
1D09C
2BEA6
2BA1B
2EC03
29840
1A1E2
2A3B5
3A40C
223CF
34CB3
5C64B
4D3D4
26E13
2FC8B
49E6F
1F98E
434C3
3E07A
54880
676BE
22C71
32BC1
20FB2
41BBC
5A4EA
60E02
37CF0
24FF1
27647
4155B
2F188
3256A
23701
32341
1DB47
233B5
25A3C

