39E89
31EAF
4BC48
2F8A2
28741
23B09
56B69
27745
45A4C
3CDF1
27BB7
22E21
1CB96
3441B
3AB65
60986
26DE3
280F5
5B7B3
200D4
558BE
23D40
6AB18
2F83C
34559
35EC2
31847
34D93
47875
29B09
59FDB
75BF2
2E303
2C9BB
3D821
27DD2
5B414
75559
3FA6B
29019
5AAEE
39C58
35B28
3FCF4
4845D
37CDF
79F1B
2769B
2DE02
2A03C
31A11
2A03B
4F0D4
484EF
2BF98
363E4
2FCE7
674DA
26EB9
68902
47F61
552AD
6CC1F
73512
532B6
438F6
2F019
23BBF
68212
15862
28FE9
4B7BE
2375B
5B42C
329AF
3A36F
29B8D
3EEAF
240DF
6BAA4
4235A
4FDD0
392B9
3D107
2DF8A
2D7C3
2A04E
55F58
3CACE
2FE9D
49BC1
5EC0C
309E8
335AD
3C455
47950
5602A
2D8B1
6D061
1F55C
40D90
49BC7
5C3CD
3C72F
2A57E
2AE76
3BEEF
2A562
22C76
256C8
44601
2AB05
2B3C0
7542F
34558
8E9CB
2FE21
300A0
7D4CC
566DE
6866E
7281F
3A3D4
6761E
39209
3C63D
5D8DF
19A28
367E9
515E4
20B04
276D1
3B50E
32498
5CBCF
3B5DD
367E4
2AB07
3A9D4
3E12C
2B970
337DF
6EDDB
391B6
29FD9
78487
4D79A
68D1B
415C5
4BE35
43951
6D072
2A19D
2BAEB
64C45
3A524
36CF5
2B4BA
33FEF
37248
70F79
42904
6CB61
2508B
36023
3868F
341E5
30890
1C229
2DF32
48662
2C21B
41823
6887D
588BF
311F6
3D364
54EB2
28965
4BBC9
47696
5DC7B
751CD
2D658
37B29
295F4
4A6CA
66CE9
6DB5F
40806
2E8AF
30B69
4901F
3C935
40B43
2D787
3FCE1
24706
2B704
2E9E7

