41095
36F2B
50B00
35235
2D73B
27C62
5CE59
2BB41
49F74
41057
2A803
26AD6
20573
3A4E6
3EA9B
67420
29D2E
2CD47
615B4
23813
5B2E8
27A6D
72205
347EC
37FC5
39977
35B78
3AD68
4C64A
2CE86
60466
7DB66
33212
300B0
41970
2A936
613E2
7D41E
46AEE
2D8F9
60E92
3FF25
3B228
43EAA
4D309
3DDCE
82398
2B1C9
314FB
2EEAB
3777C
2EB6F
54625
50818
30A7E
3BAAD
351D4
6E487
2B548
6FB4B
509FE
5AB7C
73DFC
7A983
588E4
48333
336E8
27A03
6F259
17EE0
2D5DE
50D74
27257
61B86
386E5
40B9C
2EEA5
42F4F
283C5
72E8E
46B99
5540C
3D204
4138B
31B94
32B37
2D91F
5BFDF
40B1D
357C0
4EA4B
64F7B
35F12
394F3
4345A
4C470
5C0DA
320D1
74149
22CAF
47FF8
4E76B
62CEB
4398B
2F0AB
2FCA2
3FD38
2DA67
26066
29B07
48F95
2DE20
306BE
7D69E
37EED
97AD0
3348D
351E3
85CEE
5C541
6F7F4
79E90
40EE0
6E731
3FF16
40A30
63AAE
1C601
3CC92
56905
23FE4
2B418
3F4FA
387FD
6298B
4336E
3D5BD
2E9D1
3E97C
43B73
312CE
393C9
768F3
3FA4D
2E8FE
8089A
52D21
6F857
45B46
51465
48365
74840
2F759
30B2E
6BA2B
3E477
3D270
2EC67
3A534
3DC37
78830
46DFD
74478
2998C
3B8B9
3F762
37A5B
346B8
1F966
310CC
4F9D5
31A10
48A5E
6FB3C
5E8F6
36ADF
44507
5AF05
2D5F3
50D6E
4C3E9
63DD0
7D15C
32FED
3B65C
2DCDB
4F64B
6DECD
7534B
44CA0
33658
35D96
4DC3E
44143
47DA5
32FA2
471EA
2808C
304B0
34020

