7B669
05CE7
209FC
7E726
7C9EC
7FDFD
207CE
02318
1FBDC
187AC
0F746
019C1
7D02A
7F350
18114
262B2
0CF2D
7E3B3
27F57
01C61
2420D
024C6
2983A
03D6D
14505
15BF0
0CB13
0052D
1CDEC
0D787
22E31
2FE4D
02DB4
0E7CF
19B6D
1014B
26BF7
2FDB5
01FC9
01101
2412B
039F1
06033
1BCBC
1D27B
02AD7
31545
06FA7
0FBED
7F06F
7E6DD
00CC1
204AD
006C2
02EC8
06ADE
0142D
2A18C
003FB
29ED5
7BFD9
247E6
2E5A2
337F7
23EFE
1ADF5
0832B
019B6
2A980
006D8
02A71
1C81E
0321D
229E4
7F84A
011E4
7C2DF
1B7FA
7F636
2C22F
1A9D2
2099B
167B8
189BD
0D10C
7FBEC
0AE13
210DE
196E6
7F0EF
1EB07
28413
01F19
7F231
7EE00
1E68A
21043
0603C
2F24A
01039
0224E
20478
229FB
7DC59
01245
000F3
19CBB
0D479
06502
00052
1C0C7
0EAD8
7DBF8
2DC61
14C68
3F214
120EB
03804
32B08
22B27
2A2EA
3197B
7F918
29688
7D5C6
17263
27F2A
019A1
7F532
23CEB
03B5C
05D72
18484
7BCFF
295D5
768BB
7A4A1
08469
17B9F
0C983
7A9BD
011E2
2B672
7FC91
01E6C
2FE54
1E99B
2E0BE
1B443
1CA67
1AFBC
2B5DA
7B1C6
7FB1B
2888C
179D5
7F30F
0CC7F
7C7E0
7D155
2ECE7
1CC28
2A581
7D05B
0574B
7A92C
152C8
0E781
7DDC4
12C3E
091FA
7BEC7
02E6D
29A46
23D08
00641
7EEE2
20200
7EA15
1EFD6
1D082
286EC
2F336
7C4C4
17408
02839
1ED98
28627
2BFC5
1AE76
03FA9
03AC6
1F49F
7AC6C
0203B
7D2E5
7FA90
04E9A
00DDE
7F5CB

