51783
4868D
5CD7F
412CA
3AEBB
315FA
6BFEC
3822F
55069
4AC39
33653
31109
287E8
4A6A2
4C3C5
77DD9
34B55
38088
6FC3E
2C361
6A9C6
30D1F
84FFA
41422
3CE20
43475
40C18
4A6AA
59565
3E091
702BA
91473
467FE
366F1
4CFA1
31C99
75434
93796
57B31
385B9
709E3
4EF36
49927
4D775
5B71D
4C748
926B1
344C4
3938C
3D306
453A9
3A22F
615A9
66B02
3CAFB
46264
3FBCA
80996
36653
820F9
6534E
64190
85419
8BAEA
67926
519CD
36657
31E2E
7F33B
1CC5A
36F2D
5C71E
30EFE
72BEF
460DC
5004E
39832
4C490
32AB3
85131
4D2DF
63D49
44597
45ACA
37A1B
3EC4F
35F93
6B6C2
4B0E7
42E6C
5C0A5
73F55
4354D
47E1A
538F3
5928B
6AFFE
4217C
87179
2BE24
59F40
5BD94
7386B
54A15
3A753
3C627
4B116
352A5
2CDA2
35BDB
57832
3510E
3C458
92AB0
419B3
AEDF2
3885A
3CFC1
9C8FD
6BA62
8219A
8B959
50BA0
81C0E
50439
4BF07
73651
24095
4BB61
646F6
2CF60
34510
3AE73
478C0
7095E
558E5
4C95A
3B151
458AD
52935
3EB88
46AA8
89E37
4E624
3A0B1
97447
5EA6A
7E38E
52F4C
5E5E4
51E6E
87E1A
3DEC4
3CA94
7B41C
48D6C
4D887
37E76
4A25C
4E741
8CDB3
55AEB
886C5
3591B
494F5
5147B
41A2D
3ADB5
305D0
3B0AD
5FD34
3F999
5AF47
827E0
6CA67
44694
554FE
6998A
38FB6
5E864
5732F
753EF
91B92
40453
46C25
37FBE
5C013
7FECA
88A7B
4E077
3DD60
42B03
5AD68
5767C
575F0
40D73
58EE9
30CD4
3D733
42D95

